n g
n </w>
t h
e </w>
t </w>
ng </w>
i </w>
s </w>
, </w>
y </w>
. </w>
n h
o </w>
a </w>
c h
d </w>
c </w>
u </w>
à </w>
e r
a n
m </w>
t r
th e</w>
ó </w>
nh </w>
t i
k h
o r
an d</w>
a l
a r
o u
a t</w>
f </w>
t o</w>
ô i</w>
i s</w>
v à</w>
i n
t ôi</w>
i ng</w>
e n
o f</w>
p h
o n</w>
l à</w>
r e
o n
g i
ô ng</w>
p </w>
ộ t</w>
i n</w>
e d</w>
m ột</w>
c ó</w>
a n</w>
er </w>
th at</w>
th e
ú ng</w>
l i
c á
I </w>
ch úng</w>
ê n</w>
i t</w>
l </w>
e s</w>
w h
h a
ể </w>
ch </w>
ờ i</w>
ữ ng</w>
q u
nh ững</w>
o w
" </w>
o u</w>
ớ i</w>
y ou</w>
i ệ
c ủ
củ a</w>
ấ t</w>
l y</w>
w e</w>
o m
v e</w>
ạ n</w>
s t
a y</w>
kh ông</w>
t a</w>
n à
s e</w>
o ng</w>
- </w>
s i
k </w>
ề u</w>
r o
' s</w>
ư ợ
b ạn</w>
l e</w>
đ ó</w>
a c
ì </w>
a s</w>
e n</w>
nh ư
or </w>
l o
a t
d i
ư ời</w>
e c
s t</w>
i ều</w>
ng ười</w>
i ế
er e</w>
ự </w>
tr ong</w>
th is</w>
ã </w>
ạ i</w>
ng h
ow </w>
ở </w>
e l
ế </w>
th ể</w>
s o</w>
? </w>
cá c</w>
h ọ
ượ c</w>
t u
b u
đ ã</w>
nà y</w>
s a
ề </w>
w i
đ ược</w>
a b
â y</w>
al </w>
l e
g h
r </w>
r i
m a
ì nh</w>
v ới</w>
th </w>
n ó</w>
ấ y</w>
l d</w>
ch o</w>
s ự</w>
l à
s h
r a</w>
ả </w>
ẽ </w>
ou t</w>
là m</w>
ầ n</w>
v er
ả i</w>
h o
b e
the y</w>
m e</w>
ti on</w>
ar e</w>
d e
t o
v i
s u
r e</w>
k e</w>
đ iều</w>
n e
đ ể</w>
w as</w>
ằ ng</w>
c u
u y
en t</w>
như </w>
m à</w>
f or</w>
ự c</w>
v ề</w>
m u
s ẽ</w>
á c</w>
s e
0 </w>
n o
t s</w>
ế n</w>
o p
al ly</w>
th ế</w>
ị </w>
ố ng</w>
v à
â n</w>
ơ n</w>
kh i</w>
ha ve</w>
họ </w>
ậ t</w>
i ể
: </w>
ou r</w>
g o
a ng</w>
on e</w>
ầ u</w>
wh at</w>
c e</w>
bu t</w>
m i
n ow</w>
r a
ó i</w>
c an</w>
ư ớ
l a
iế t</w>
wi th</w>
al l</w>
t ừ
a nh</w>
p e
d o</w>
w or
á </w>
ế t</w>
à nh</w>
f i
o l
n ói</w>
c om
đ ây</w>
p ro
ố </w>
e s
b e</w>
t y</w>
n ă
như ng</w>
- -</w>
ứ c</w>
' t</w>
đ ến</w>
v iệ
ph ải</w>
a u
c i
e x
í nh</w>
ab out</w>
m o
và o</w>
à n</w>
ư ờ
th ere</w>
ứ </w>
ướ c</w>
v ì</w>
u n
ỉ </w>
từ </w>
việ c</w>
r ằng</w>
g ì</w>
đ ang</w>
ố i</w>
iệ n</w>
r ất</w>
ườ ng</w>
a s
ou ld</w>
gh t</w>
ả n</w>
ĩ </w>
a g
th ấy</w>
l ại</w>
s om
e ar
no t</w>
ý </w>
ậ n</w>
đ ộ
cá ch</w>
m y</w>
g e
t er
th er</w>
c on
ou n
nh iều</w>
th ực</w>
h ơn</w>
ô </w>
â u</w>
í </w>
ù ng</w>
m e
d s</w>
p er
ư ơ
đ ầu</w>
ệ </w>
l l</w>
c a
t a
ti ng</w>
à i</w>
c on</w>
p o
f or
ậ y</w>
c ả</w>
ờ </w>
ố n</w>
ươ ng</w>
ver y</w>
op le</w>
cá i</w>
pe ople</w>
b o
k i
b ec
' re</w>
th ing</w>
tr ên</w>
họ c</w>
li ke</w>
c ông</w>
ọ i</w>
ch ỉ</w>
kh ác</w>
s p
i ên</w>
ế u</w>
ạ o</w>
ổ i</w>
f ro
v ậy</w>
ề n</w>
t e
nà o</w>
j u
d o
ụ </w>
b iết</w>
fro m</w>
i f</w>
ử </w>
d u
m p
ch uy
e m</w>
h e</w>
nă m</w>
w </w>
th ứ</w>
à ng</w>
ti on
l u
t ed</w>
ũ ng</w>
m or
ngh ĩ</w>
k ing</w>
á t</w>
ơ i</w>
v er</w>
ẻ </w>
đ i</w>
n ếu</w>
th ành</w>
an t</w>
ả m</w>
the se</w>
c ũng</w>
ju st</w>
ắ t</w>
1 </w>
n i
b i
ộ c</w>
d e</w>
t er</w>
au se</w>
wh en</w>
at e</w>
iế n</w>
á ng</w>
nh à</w>
í ch</w>
s ố</w>
el l</w>
bec ause</w>
kh o
er s</w>
mu ốn</w>
n ên</w>
b ị</w>
qu an</w>
i c
th in
wh i
ậ p</w>
ă n</w>
i r</w>
h ow</w>
ở i</w>
p p
b y</w>
s tr
ú c</w>
ồ i</w>
ữ </w>
ơ </w>
p u
ộ </w>
a i</w>
i l
nh ất</w>
ch ính</w>
gi ờ</w>
m ình</w>
á i</w>
u ng</w>
mor e</w>
f u
ữ a</w>
t ại</w>
y ear
t ạo</w>
ar </w>
độ ng</w>
the m</w>
ư ở
ặ t</w>
a d
ố t</w>
ưở ng</w>
á n</w>
u p</w>
th u
gi ới</w>
ệ n</w>
lo o
c o
ấ n</w>
go ing</w>
h iện</w>
p l
u s</w>
m ọi</w>
p ar
w ay</w>
k now</w>
ỏ </w>
à y</w>
t e</w>
ò n</w>
b ởi</w>
ng s</w>
t ất</w>
d ụ
l ớ
h ình</w>
ti ế
som e
e a
ố c</w>
ắ c</w>
ha d</w>
0 0</w>
y our</w>
ư a</w>
f f
ỏ i</w>
ê u</w>
in d</w>
s s</w>
thin k</w>
th o
se e</w>
h i
ha y</w>
ge t</w>
ả nh</w>
b a
wh o</w>
s ống</w>
nh ận</w>
h ere</w>
c ảm</w>
o ther</w>
ì n</w>
ượ ng</w>
sa u</w>
w ere</w>
c ần</w>
ủ </w>
â m</w>
the ir</w>
whi ch</w>
cu ộc</w>
t w
re ally</w>
th ì</w>
ứ ng</w>
w ould</w>
th ật</w>
h u
m an
p re
c òn</w>
iể u</w>
o d</w>
th i
oun d</w>
C h
ặ c</w>
e e
ow n</w>
the o</w>
đ ị
đ ề</w>
ô n</w>
t ự</w>
gh </w>
v e
en ce</w>
ti n</w>
the n</w>
b ắt</w>
in e</w>
ou r
c âu</w>
ộ i</w>
nh ìn</w>
đ ồ
ọ ng</w>
t ới</w>
e v
ò ng</w>
a m</w>
tion s</w>
b ằng</w>
c re
s o
ac tu
ti me</w>
ẫ n</w>
c ùng</w>
iể m</w>
i d</w>
' m</w>
lớ n</w>
' ve</w>
a m
k s</w>
d on</w>
a u</w>
ng ày</w>
som e</w>
th ời</w>
t ế</w>
b ản</w>
wh ere</w>
iể n</w>
dụ ng</w>
al i
sa o</w>
ả ng</w>
l ên</w>
ổ </w>
tr ước</w>
m ent</w>
c ơ</w>
tr ở</w>
á o</w>
b ộ</w>
chuy ện</w>
wor ld</w>
actu ally</w>
d ay</w>
ư </w>
a tion</w>
nh ân</w>
qu a</w>
qu y
si nh</w>
iệ u</w>
ha s</w>
s ti
ab le</w>
ph ần</w>
ngh iệ
ỗ i</w>
á nh</w>
a ng
n ước</w>
nă ng</w>
y s</w>
ụ c</w>
g e</w>
ạ t</w>
v ấn</w>
th ay</w>
ì m</w>
in to</w>
d er
to àn</w>
ac k</w>
ph át</w>
đ ổi</w>
á ch</w>
á y</w>
t t
f a
ả o</w>
r ou
year s</w>
th ông</w>
n ơi</w>
gi a</w>
ac e</w>
g o</w>
s el
thi ngs</w>
t ìm</w>
al l
li ệ
d y</w>
wi ll</w>
đị nh</w>
i es</w>
m ới</w>
x u
tr ường</w>
nh au</w>
ch i
nh iên</w>
st ar
m b
w ant</w>
k ết</w>
t ính</w>
s ử</w>
d ing</w>
t ốt</w>
h ã
h ệ</w>
5 </w>
t ưởng</w>
c ould</w>
r u
tr ình</w>
2 </w>
ha pp
p a
n o</w>
m ạ
ă ng</w>
h àng</w>
g </w>
l ý</w>
ấ u</w>
v ật</w>
v es</w>
ả y</w>
ấ p</w>
ú </w>
h ỏi</w>
ma ke</w>
c ô</w>
en ts</w>
fi r
m áy</w>
m s</w>
ri ght</w>
iệ t</w>
st or
liệ u</w>
r ồi</w>
sh e</w>
ff er
ợ p</w>
be en</w>
tiế p</w>
g re
m ặt</w>
f e</w>
s ed</w>
mo st</w>
sa id</w>
com p
ag e</w>
ú t</w>
y ing</w>
th an</w>
g u
w ell</w>
h ợp</w>
ạ c</w>
o o
w a
ỹ </w>
k ed</w>
es s</w>
t al
h ành</w>
ắ n</w>
ch iế
an i
ha i</w>
en ti
gi an</w>
á p</w>
fir st</w>
th iết</w>
in ter
some thing</w>
ki nh</w>
ho á</w>
c al</w>
x em</w>
n u
tw o</w>
; </w>
v ing</w>
at ed</w>
th ích</w>
tu y
tu re</w>
n ữa</w>
th ức</w>
ó ng</w>
wor k</w>
hã y</w>
h ội</w>
mu ch</w>
s si
tr ọng</w>
v ị</w>
f e
ti ve</w>
di ffer
tho se</w>
và i</w>
à o</w>
gi ải</w>
g ra
ồ n</w>
ễ n</w>
đồ ng</w>
g r
st u
đ ối</w>
tr ẻ</w>
al so</w>
s y
ng u
l ượng</w>
m an</w>
pro b
ệ nh</w>
ec t</w>
ol l
b ất</w>
th ou
đ ều</w>
gi ống</w>
th ường</w>
l ần</w>
tt le</w>
loo k</w>
en d</w>
tr a
b ack</w>
ắ ng</w>
ou s</w>
ti ên</w>
d a
s c
lo ại</w>
ar d</w>
s ay</w>
l es</w>
d er</w>
ĩ a</w>
e t</w>
qu á</w>
ba o</w>
ể n</w>
h is</w>
on s</w>
x </w>
p i
ne w</w>
n ay</w>
ch ang
s áng</w>
li fe</w>
ac t</w>
o b
m on
go t</w>
g y</w>
li ttle</w>
h iểu</w>
ệ t</w>
tu r
ng o
t âm</w>
sh </w>
ứ u</w>
ộ ng</w>
ị ch</w>
o ver</w>
d ed</w>
T ôi</w>
đ iểm</w>
b ệnh</w>
g en
el l
c ứu</w>
ev en</w>
ù </w>
th ống</w>
man y</w>
ngh ệ</w>
d n</w>
0 00</w>
ê m</w>
o f
s ing</w>
ngh ĩa</w>
on ly</w>
g ọi</w>
vi ên</w>
ne ed</w>
t ương</w>
ho àn</w>
b le</w>
e ver
i mp
nh ỏ</w>
re a
đ o
bo dy</w>
ta ke</w>
m in
d re
cu l
fu l</w>
lo t</w>
c e
l úc</w>
m ỗi</w>
ever y
ho ặc</w>
đ ưa</w>
di d</w>
độ </w>
s on</w>
c oun
h e
t ác</w>
đ ường</w>
v ẫn</w>
ạ </w>
b ây</w>
qu ả</w>
3 </w>
an s</w>
chiế c</w>
nghiệ m</w>
1 9
re e</w>
m ar
l li
en t
b ên</w>
ợ </w>
com e</w>
x ảy</w>
a f
wh y</w>
d ùng</w>
le t</w>
si g
m er
go od</w>
ec on
an y</w>
ỷ </w>
đ ại</w>
à u</w>
i de
kho ảng</w>
i m
an d
thu ật</w>
n ing</w>
từ ng</w>
ẳ ng</w>
ar ound</w>
1 0</w>
b iệt</w>
ọ n</w>
th rou
tr i
an k</w>
k ind</w>
u r
di ễn</w>
chuy ển</w>
d ân</w>
differ ent</w>
ngh e</w>
ẩ n</w>
ã o</w>
uy ền</w>
quy ết</w>
at er</w>
tuy ệt</w>
ỳ </w>
ec i
á m</w>
tr iển</w>
ừ ng</w>
om e</w>
uy ên</w>
d ạ
é </w>
c ar
ch ất</w>
a p
ca o</w>
d ự
ò </w>
h er</w>
tr y</w>
e very</w>
un der
ph ụ</w>
ỗ </w>
tr ị</w>
s es</w>
g a
k ế</w>
đ úng</w>
i .</w>
c ầu</w>
' </w>
c es</w>
ú p</w>
T r
s er
gi áo</w>
ũ </w>
ử a</w>
l ời</w>
2 0
su r
f ri
d own</w>
tr ung</w>
c ố</w>
p e</w>
k e
l ực</w>
đ ất</w>
I n
c ent</w>
ă m</w>
si de</w>
an ce</w>
s ci
throu gh</w>
le a
p ri
al s</w>
v ed</w>
st s</w>
b ra
ch ưa</w>
f in
T h
prob le
ng ay</w>
gi á</w>
ứ a</w>
ắ p</w>
b ảo</w>
i r
be ing</w>
ầ m</w>
é p</w>
h </w>
ẩ m</w>
h ết</w>
ti ến</w>
sa me</w>
ợ i</w>
4 </w>
c all
ngh iên</w>
happ en
' ll</w>
o k</w>
ph òng</w>
xu ất</w>
mp le</w>
li ên</w>
i s
le ar
đ ơn</w>
u se</w>
t ình</w>
gi úp</w>
l l
x e</w>
n ữ</w>
ph ân</w>
ti es</w>
e ver</w>
n a
ó c</w>
ướ ng</w>
or t</w>
i ma
ư ới</w>
si on</w>
ph ương</w>
ph i
n ão</w>
an y
sel f</w>
pu t</w>
or t
D </w>
m at
đ iện</w>
ar y</w>
qu i
t ập</w>
ma ng</w>
stor y</w>
tiế ng</w>
đ ặt</w>
b ình</w>
tr uyền</w>
w e
cu ối</w>
an s
tu ổi</w>
tr anh</w>
t ượng</w>
tr u
p s</w>
s ol
do ing</w>
ti ền</w>
so ci
t ay</w>
s ản</w>
ậ u</w>
h ear
b ài</w>
ti c</w>
b iến</w>
í t</w>
g ần</w>
gi ữa</w>
tr ả</w>
wa ys</w>
l ấy</w>
é t</w>
sh i
kho a</w>
sy st
kh ả</w>
th ú</w>
du c
s en
t ting</w>
y êu</w>
ạ nh</w>
t ter</w>
re c
or i
call ed</w>
ag a
th ree</w>
mb er</w>
ex per
ch u
ặ p</w>
ẹ </w>
e st</w>
c k</w>
ho ạt</w>
te ch
i l</w>
f o
c ứ</w>
cá </w>
to day</w>
z e</w>
ọ c</w>
đ áng</w>
n ed</w>
P h
th ank</w>
b ỏ</w>
ti m
ch iến</w>
qu es
ấ m</w>
per cent</w>
s ách</w>
tr e
d ự</w>
or s</w>
kh ó</w>
ê </w>
w om
x ã</w>
! </w>
ph ẩm</w>
ma de</w>
d ụ</w>
e w</w>
' d</w>
r on
h iệu</w>
b ức</w>
k ể</w>
i ts</w>
lo gy</w>
iệ m</w>
ch ủ</w>
tion al</w>
at es</w>
f ee
s ức</w>
th ân</w>
. .</w>
t ell</w>
m ất</w>
ph áp</w>
ch ơi</w>
, 000</w>
ti c
A </w>
p ic
lo ài</w>
af ter</w>
ẫ u</w>
chang e</w>
đồ </w>
for e</w>
đ ời</w>
t ên</w>
ex p
i t
ngo ài</w>
b a</w>
year </w>
m ay</w>
b à</w>
ó m</w>
imp ort
h el
mi nh</w>
lu ôn</w>
8 </w>
tal k</w>
n .</w>
a o</w>
2 0</w>
t ly</w>
b é</w>
M ỹ</w>
N h
t ài</w>
k ỳ</w>
ừ a</w>
đ ấy</w>
k es</w>
s ch
di dn</w>
ch í</w>
th ử</w>
nghiệ p</w>
ti nh</w>
bu il
l ập</w>
under st
ar i
p r
x ây</w>
ậ m</w>
mạ nh</w>
d ẫn</w>
ễ </w>
lli on</w>
5 0</w>
f act</w>
m ô</w>
ti êu</w>
s in
f ind</w>
v o
6 </w>
v í</w>
in t</w>
tr í</w>
c ol
d i</w>
v i</w>
str u
dự ng</w>
ch ứng</w>
c ou
T E
v ăn</w>
c our
ng uyên</w>
sh ould</w>
V à</w>
t ử</w>
re d</w>
ima g
p ow
h ướng</w>
v ô</w>
th u</w>
f t</w>
c ộng</w>
Q u
gre at</w>
star ted</w>
wi th
la st</w>
uy ết</w>
ide a</w>
bra in</w>
gi ả</w>
ô m</w>
v iết</w>
t en
tech no
ng .</w>
in s</w>
de sig
õ </w>
be li
w ent</w>
nh ạc</w>
e y</w>
w an
hu man</w>
par t</w>
be fore</w>
ph ố</w>
ch ọn</w>
đ ặc</w>
pl an
k iến</w>
di s
ne x
r ing</w>
đ ứa</w>
ầ y</w>
b ào</w>
ạ m</w>
v en</w>
qu ốc</w>
m ẹ</w>
le ss</w>
ớ </w>
tr iệu</w>
gi ản</w>
bi g</w>
nh i
n ền</w>
đ âu</w>
thou ght</w>
ủ ng</w>
ch ế</w>
r y</w>
gi ve</w>
ch ức</w>
re s</w>
t ăng</w>
í a</w>
quy ền</w>
ỡ </w>
v ời</w>
t ư</w>
c or
su y</w>
an other</w>
m àu</w>
import ant</w>
kh í</w>
7 </w>
cour se</w>
tr o
iế m</w>
c ấp</w>
c en
o m</w>
l ẽ</w>
ea ch</w>
ạ p</w>
ow s</w>
tim es</w>
ch ết</w>
mạ ng</w>
đ ạo</w>
ex a
s m
ter s</w>
ag o</w>
proble m</w>
ne ver</w>
ạ ch</w>
sh ow</w>
kh á</w>
mi ght</w>
un i
th áng</w>
b it</w>
th ần</w>
sti ll</w>
ph á</w>
. ..</w>
đ ánh</w>
lo gi
kh ỏi</w>
d ưới</w>
c an
ẹ p</w>
be tter</w>
d ù</w>
of f</w>
ar s</w>
th ị</w>
me di
nex t</w>
g ặp</w>
kh u</w>
ề m</w>
z ed</w>
o ld</w>
v u
exper i
ch ắc</w>
r õ</w>
t es</w>
th êm</w>
h ôm</w>
do es</w>
s ĩ</w>
pl ace</w>
ch ẳng</w>
ch út</w>
mu ni
e en</w>
st a
n at
k n
v ụ</w>
xu ống</w>
syst em</w>
li ty</w>
d d
aga in</w>
g ắng</w>
ve lo
c ess</w>
po li
y .</w>
ắ m</w>
e i
x ác</w>
comp le
x in</w>
d ữ</w>
ca me</w>
ch il
kh iến</w>
% </w>
qu anh</w>
ea d</w>
b ay</w>
nh óm</w>
to ge
qu ay</w>
th am</w>
toge ther</w>
3 0</w>
star t</w>
ph ép</w>
m ức</w>
s econ
d ịch</w>
an ds</w>
m ở</w>
f ound</w>
v ực</w>
su re</w>
â ng</w>
tr ò</w>
ma tion</w>
es s
er i
b l
đ àn</w>
d eci
chi a</w>
c er
hi m</w>
dạ ng</w>
c a</w>
ồ ng</w>
beli e
nh anh</w>
re ali
re ad
fe w</w>
th uyết</w>
c ực</w>
oo l</w>
t ổ</w>
com muni
c ụ</w>
ổ ng</w>
p er</w>
be tw
ồ </w>
betw een</w>
v ùng</w>
v en
ngu ồn</w>
c àng</w>
g ây</w>
w ater</w>
c ảnh</w>
de velo
wh o
đ ôi</w>
gi ác</w>
g g
d ễ</w>
b áo</w>
u sed</w>
ques tion</w>
ph ía</w>
ma y
in st
v ọng</w>
p la
c ally</w>
t ục</w>
v ũ</w>
th ậm</w>
in for
ch o
lo ve</w>
A mer
đo ạn</w>
tr ang</w>
s át</w>
x a</w>
l ong</w>
e l</w>
in e
f l
me an</w>
wom en</w>
nh ớ</w>
b iểu</w>
to o</w>
da ta</w>
20 0
đ ủ</w>
vi de
c ây</w>
ê ng</w>
đ ẹp</w>
po ssi
i c</w>
ne t</w>
tr ái</w>
li ght</w>
ư u</w>
ca tion</w>
ư ng</w>
e ng
á u</w>
s pe
ow ing</w>
pro duc
phi m</w>
exa mple</w>
p or
l ar
or g
may be</w>
c lo
d one</w>
f un
du y</w>
in cre
es n</w>
k iểm</w>
9 </w>
do esn</w>
S t
dre n</w>
c r
techno logy</w>
N ew</w>
st er</w>
ỉ nh</w>
h ưởng</w>
m ents</w>
ự a</w>
li ve</w>
stru c
a ch
wan ted</w>
d ài</w>
t y
f ac
ell s</w>
Qu ốc</w>
ng ữ</w>
gen er
chil dren</w>
fa mi
loo king</w>
v òng</w>
po int</w>
j ect</w>
th ương</w>
ph ản</w>
n s</w>
com pu
m en</w>
n ec
ạ y</w>
underst and</w>
b </w>
al ways</w>
k ì</w>
b rea
re as
l a</w>
gi ảm</w>
ch ú</w>
se e
sch ool</w>
i ce</w>
u re</w>
a d</w>
c all</w>
a ting</w>
A nh</w>
ne ss</w>
b ri
ab ly</w>
u l
f our</w>
e st
v ừa</w>
re al</w>
sel ves</w>
econ om
belie ve</w>
w ri
lu ận</w>
b li
d a</w>
b ước</w>
wor king</w>
at e
ằ m</w>
ch ân</w>
k iếm</w>
dụ c</w>
s ha
se ar
th er
ki a</w>
ec ts</w>
o k
l ợi</w>
t ích</w>
per son</w>
mon ey</w>
Tr ung</w>
c ậu</w>
vide o</w>
ou gh</w>
l ine</w>
TE D</w>
re sp
s ort</w>
h ầu</w>
c k
thu ốc</w>
m ục</w>
tr ăm</w>
gi ao</w>
a way</w>
ro om</w>
đ ầy</w>
ki ds</w>
J o
p ing</w>
ce p
bo ok</w>
to án</w>
đ ình</w>
z ing</w>
m ôi</w>
ou s
In ter
ư ỡ
1 00</w>
d iện</w>
te ly</w>
he al
v ol
infor mation</w>
th ư</w>
as k</w>
st o
iế u</w>
e p</w>
h ạn</w>
who le</w>
t ồn</w>
d oll
tr ải</w>
la tion</w>
la i</w>
f fi
ab i
tr ying</w>
si ng
s âu</w>
v al
fee l</w>
m en
cre ate</w>
m om
ụ p</w>
sa i</w>
p as
every thing</w>
m y
tr ời</w>
par ti
gi ữ</w>
es ting</w>
ci ty</w>
u sing</w>
c ri
é o</w>
or y</w>
b or
w ee
tr a</w>
l òng</w>
l dn</w>
l and</w>
ar e
ne e
el ec
dạ y</w>
d ành</w>
đị a</w>
ti cal</w>
h al
en er
đ ô</w>
th í</w>
f ace</w>
V </w>
ch i</w>
thu ộc</w>
Ch úng</w>
ri êng</w>
w al
th anh</w>
d ri
hel p</w>
coun try</w>
đ ứng</w>
si c</w>
n ối</w>
l in
for m</w>
đo án</w>
t ạp</w>
mi llion</w>
c li
secon d</w>
pu bli
sol u
ph ục</w>
c ăn</w>
al e</w>
v ẻ</w>
r ộng</w>
w at
v a
ph o
lu ật</w>
th ôi</w>
ro bo
v ệ</w>
ph ủ</w>
l ịch</w>
l ã
tr ông</w>
k ỹ</w>
fi ve</w>
t ối</w>
pow er</w>
ou t
m ẫu</w>
c la
b an</w>
fo od</w>
el s</w>
b ố</w>
me ans</w>
pre s
ma king</w>
x ung</w>
tr ans
cu r
đ ọc</w>
t or</w>
s ợ</w>
đ ạt</w>
s ec
b àn</w>
r an
d ge</w>
com es</w>
qui te</w>
c .</w>
w ar
m ắt</w>
th úc</w>
n ổi</w>
sp ec
a pp
y es</w>
thin king</w>
h ome</w>
el e
t .</w>
l ệ</w>
tr ụ</w>
to ok</w>
ch ạy</w>
qu y</w>
p ed</w>
lớ p</w>
bec ome</w>
sp ace</w>
nu mber</w>
f f</w>
cu ốn</w>
ch ương</w>
gra ph
ã i</w>
Inter net</w>
c le
ng ồi</w>
ặ ng</w>
k ỷ</w>
ọ </w>
ó n</w>
y ếu</w>
i ty</w>
h ar
K h
n er</w>
ti ết</w>
S </w>
lo b
ạ ng</w>
kh ắp</w>
be g
U ni
w s</w>
ng ôn</w>
di c
su ốt</w>
re e
be st</w>
uni ver
pre t
c y</w>
A r
tr ies</w>
ans w
ch ắn</w>
uy ện</w>
th s</w>
k ee
ro ss</w>
fu ture</w>
stu d
b er
ph út</w>
desig n</w>
k iểu</w>
soci al</w>
on es</w>
A fri
sci ence</w>
mu a</w>
kh u
s ẻ</w>
m ối</w>
v âng</w>
ge tting</w>
vu i</w>
Y or
sm all</w>
rea d</w>
g ái</w>
[ </w>
su b
org ani
kho ẻ</w>
k iện</w>
t al</w>
] </w>
t en</w>
en ough</w>
bu ổi</w>
ener gy</w>
b iển</w>
tr ợ</w>
min u
g rou
ượ t</w>
H o
ch ung</w>
y si
whi le</w>
shi p</w>
read y</w>
prob ably</w>
ve l</w>
happen ed</w>
cá nh</w>
a se</w>
tu ần</w>
tr úc</w>
li ves</w>
c ửa</w>
ta in</w>
en ds</w>
1 5</w>
M i
n or
c lu
t ỉ</w>
p le</w>
th ers</w>
possi ble</w>
po si
go ver
y ou
le ft</w>
v ận</w>
sa ys</w>
di vi
ani m
s li
h ồi</w>
a tions</w>
pret ty</w>
x ét</w>
s ư</w>
resp on
l ing</w>
en vi
d ec
ali ty</w>
b án</w>
to p</w>
se t</w>
s ắc</w>
with out</w>
j ob
do anh</w>
Ph i</w>
wh e
sp i
sen se</w>
s our
ok ay</w>
kh ám</w>
u m</w>
s ở</w>
doll ars</w>
coun tries</w>
x úc</w>
s on
s k
c ấu</w>
bu sin
c oll
to ld</w>
r àng</w>
ng ạc</w>
l âu</w>
w on
d ra
al le
ph ysi
in a</w>
è o</w>
p op
imag ine</w>
M a
tal king</w>
m ed</w>
b as
in f
ent ly</w>
su l
hi gh
ch ụp</w>
ca se</w>
nh iệm</w>
ac ti
j o
pi ec
ma kes</w>
th iên</w>
ou se</w>
n ằm</w>
c ra
gover n
K </w>
ph ức</w>
i ld</w>
be au
abi lity</w>
la ngu
M ar
ous ly</w>
a w
tho ại</w>
sci enti
h iểm</w>
ng er</w>
k en</w>
c ells</w>
b ăng</w>
bi o
nh ập</w>
bu ild</w>
qu ý</w>
m ặc</w>
inter esting</w>
đ a</w>
y et</w>
su ch</w>
envi ron
ng ôi</w>
k ích</w>
i g
en e
ổ n</w>
m a</w>
lear n</w>
si mple</w>
re sear
ĩ nh</w>
hal f</w>
b óng</w>
sa w</w>
experi ence</w>
ị u</w>
chuy ên</w>
sh o
as ked</w>
ng ành</w>
happ en</w>
mom ent</w>
si ty</w>
e t
c ạnh</w>
ưỡ ng</w>
ssi on</w>
te ach
ar t</w>
ỏ ng</w>
d es</w>
d in
ac k
a ma
Yor k</w>
ế p</w>
stu ff</w>
g lob
ữ u</w>
t on</w>
on ce</w>
buil ding</w>
a ch</w>
wor ks</w>
th ái</w>
ph í</w>
li ving</w>
h ạnh</w>
0 ,000</w>
g en</w>
ch ỗ</w>
b ác</w>
độ c</w>
cu ng</w>
c are</w>
ac ross</w>
k ẻ</w>
ta tion</w>
su c
h ữu</w>
h and</w>
gi r
ho à</w>
com ing</w>
n y</w>
ch ứ</w>
spe a
h ard</w>
in side</w>
ent al</w>
re me
any thing</w>
wor ds</w>
việ n</w>
s m</w>
ó .</w>
t ấm</w>
mo ve</w>
el se</w>
w r
kh ủng</w>
go es</w>
re la
gh i</w>
ec ted</w>
th ập</w>
li c
happen s</w>
di a</w>
ac es</w>
v ẽ</w>
soci e
c ro
thou gh</w>
in ed</w>
sp eci
s s
4 0</w>
ú a</w>
ow ed</w>
l ater</w>
k in
ear </w>
u ro
l ed</w>
du ng</w>
ol s</w>
h un
fi gu
str i
fami ly</w>
m ind</w>
l ab
ù a</w>
reas on</w>
pro cess</w>
chu ẩn</w>
ha ving</w>
h ề</w>
ch ịu</w>
tr ưởng</w>
con nec
ch a
ẵ n</w>
h y</w>
da ys</w>
N g
se en</w>
g s</w>
t ức</w>
ba si
L e
o l</w>
đ u
ẩ y</w>
nhi êu</w>
t able</w>
e du
at t
í n</w>
val u
t ệ</w>
parti cul
h ead</w>
Amer ic
ử i</w>
wr ong</w>
sh ar
h ơi</w>
tur n</w>
thou s
th iếu</w>
s ắp</w>
ph ạm</w>
bu r
1 2</w>
vi ty</w>
s ẵn</w>
kh ăn</w>
th ất</w>
l ắng</w>
ch âu</w>
b r
with in</w>
ph úc</w>
busin ess</w>
basi cally</w>
ma ch
m ong</w>
U .
mu sic</w>
m ing</w>
i d
ho ạ</w>
wor d</w>
su pp
no thing</w>
đ au</w>
x anh</w>
ộ n</w>
t ái</w>
en ces</w>
e ff
đ óng</w>
ba d</w>
b ánh</w>
ch a</w>
c ed</w>
ú i</w>
tu res</w>
hu man
sing le</w>
hi gh</w>
t ổng</w>
pl ay</w>
l ạc</w>
gh ts</w>
proble ms</w>
f ron
loo ked</w>
D N
n iệm</w>
i a</w>
l o</w>
fu l
con tro
ch ống</w>
some one</w>
n e</w>
en d
iệ p</w>
dự a</w>
pro ject</w>
our s</w>
my self</w>
you ng</w>
sh ed</w>
l ựa</w>
l ạ</w>
every body</w>
bo th</w>
ki ll
heal th</w>
R o
pic ture</w>
langu age</w>
compu ter</w>
of ten</w>
o ver
ch ar
ac y</w>
t ỷ</w>
c ải</w>
tr ai</w>
or e</w>
ide as</w>
di es</w>
đ ột</w>
h ạt</w>
c er</w>
z </w>
w ard</w>
whe ther</w>
tr ực</w>
n ội</w>
ga me</w>
bi llion</w>
al most</w>
vi r
op er
c s</w>
b ro
A n
to à</w>
pho to
x ử</w>
sa ying</w>
độ i</w>
f ar</w>
ev ol
answ er</w>
ca p
B i
chi ld</w>
b lo
I s
mat eri
e mp
ar ti
C </w>
pa ti
or der</w>
tru e</w>
g ửi</w>
ti m</w>
T he</w>
z ation</w>
robo t</w>
k er</w>
con t
publi c</w>
kh ắc</w>
ic al</w>
v ượt</w>
ge ts</w>
E ar
reme mber</w>
nh .</w>
le ad
N ó</w>
t ầm</w>
mat ter</w>
ch e
Afri ca</w>
A l
m ật</w>
c ar</w>
sti c</w>
st er
l ưu</w>
kee p</w>
h y
de p
ch ăm</w>
m .</w>
6 0</w>
tic s</w>
ngu y</w>
Ấ n</w>
dis co
d anh</w>
di se
h ậu</w>
x ấu</w>
w as
h ộ</w>
d ầu</w>
ch ed</w>
G oo
sa ng</w>
p at
loo ks</w>
si x</w>
is su
incre di
ch iều</w>
in divi
fi l
di rec
tr ạng</w>
nh iệt</w>
thi r
st an</w>
indivi du
am es</w>
è </w>
si ons</w>
si mp
ng e</w>
con ti
ru n</w>
g ni
do m</w>
ng ược</w>
gu y</w>
glob al</w>
communi ty</w>
ni ềm</w>
ngo ại</w>
some times</w>
sc ri
mu l
d ần</w>
un ti
th iện</w>
d ấu</w>
buil t</w>
ac e
contro l</w>
al ready</w>
nhi ễ
h ứng</w>
C o
beau ti
t ors</w>
st ed</w>
job </w>
ho pe</w>
k ính</w>
hear d</w>
ama zing</w>
won der
m er</w>
fin i
deci ded</w>
t ội</w>
piec e</w>
per son
stor ies</w>
an ding</w>
8 0</w>
hi story</w>
a me</w>
R i
ve ly</w>
mo ther</w>
ch ing</w>
M o
lã nh</w>
x o
cou ple</w>
Goo g
ci al</w>
ch alle
Ear th</w>
hun dre
f oll
f er
S i
n ạn</w>
unti l</w>
k éo</w>
ch ữ</w>
ta king</w>
au di
was n</w>
pro gra
đ ấu</w>
si on
edu cation</w>
Uni ted</w>
tr an
ni ght</w>
mar k
D a
vi ce</w>
n ỗi</w>
in t
dd le</w>
đ ẩy</w>
đ en</w>
th ách</w>
sin ce</w>
b ring</w>
un der</w>
re sul
inst ead</w>
in es</w>
2 5</w>
syst e
ngh èo</w>
kh ách</w>
nu ôi</w>
mon ths</w>
grou p</w>
c ận</w>
th ủ</w>
ex ac
si ve</w>
t ố</w>
t ắc</w>
resear ch</w>
as es</w>
u p
minu tes</w>
i can</w>
beauti ful</w>
T </w>
Ch âu</w>
wom an</w>
n ửa</w>
c ổ</w>
op en</w>
in ing</w>
vi ew</w>
univer se</w>
de mo
G i
ge st</w>
c y
t ec
is n</w>
govern ment</w>
ful ly</w>
ap pro
v ation</w>
sh are</w>
fri ends</w>
every one</w>
ac tion</w>
nat ure</w>
fi c</w>
en s</w>
bi r
ồ m</w>
gi ấy</w>
du ce</w>
ac c
tu y</w>
exac tly</w>
n er
l í</w>
d ro
comple tely</w>
ch ữa</w>
bec ame</w>
ic k
a th</w>
Goog le</w>
0 s</w>
the m
st ate</w>
some body</w>
s is</w>
nh ờ</w>
l s</w>
B u
j ects</w>
ea h</w>
T ây</w>
Ch ina</w>
Đ ộ</w>
lear ned</w>
de l</w>
be ha
ừ </w>
t ốc</w>
l ow
kh ối</w>
e mo
in no
i m</w>
ti ện</w>
fo cu
b ại</w>
S u
ẩ u</w>
l ĩnh</w>
Nh ưng</w>
hu ge</w>
d r
ộ p</w>
nhiễ m</w>
kh iển</w>
i se</w>
P </w>
hear t</w>
gr ound</w>
St ates</w>
Jo h
ra di
r an</w>
pro f
o c
si te</w>
ph i</w>
stu dy</w>
s or
qu ản</w>
ngh i
ng ủ</w>
m ắc</w>
so át</w>
them selves</w>
qu ân</w>
pop u
d ây</w>
cre ated</w>
beha vi
b on</w>
our selves</w>
ne t
ho a</w>
d ương</w>
d ru
w in
li st
fron t</w>
pow er
e y
c ắt</w>
nat ur
l ỗi</w>
cul ture</w>
b ốn</w>
socie ty</w>
ngh i</w>
19 9
t ả</w>
e ly</w>
chiế u</w>
o x
ho ạch</w>
h ours</w>
b ly</w>
u .</w>
kin ds</w>
B ạn</w>
đ ức</w>
qu en</w>
plan et</w>
g ồm</w>
cle ar</w>
Amer ican</w>
i ght</w>
happen ing</w>
can cer</w>
th ẳng</w>
sto p</w>
l ái</w>
k new</w>
in du
f -
d ly</w>
pl aces</w>
ke y</w>
g ấp</w>
đ ích</w>
õ i</w>
ques tions</w>
ph óng</w>
o s</w>
na me</w>
d òng</w>
d en</w>
d en
in st</w>
gi ết</w>
c ử</w>
đ ông</w>
th ấp</w>
le vel</w>
h ại</w>
b ab
& </w>
th i</w>
s óc</w>
h át</w>
1 1</w>
x ếp</w>
u tion</w>
stud ents</w>
oun ds</w>
li es</w>
tur ns</w>
el ing</w>
ch ị</w>
R e
tu ni
mi c</w>
bo o
hear </w>
environ ment</w>
ee t</w>
b ầu</w>
a .</w>
N or
m ơ</w>
lo ts</w>
ic s</w>
E ng
w ar</w>
pro vi
it self</w>
wor ked</w>
ra ther</w>
enti al</w>
c al
t àu</w>
ou ldn</w>
op por
o thers</w>
o od</w>
fa ther</w>
d àng</w>
aga inst</w>
oppor tuni
mo del</w>
h ouse</w>
O h</w>
C ar
ch ấp</w>
TE D
đ êm</w>
com m
r ow</w>
ph ong</w>
ng ắn</w>
differ ence</w>
conti nu
c au
đ á</w>
c ười</w>
an ti
cou ldn</w>
M </w>
ã y</w>
ver ed</w>
kh ai</w>
ffi cul
di fficul
ou th</w>
mb ers</w>
l ưới</w>
l ow</w>
f oo
as y</w>
ta in
p es</w>
ex ci
cre a
comp any</w>
at s</w>
s ound</w>
li ter
kh án</w>
ga ve</w>
du ring</w>
c ks</w>
r un
n iên</w>
el t</w>
H I
thous ands</w>
th y</w>
ne ws</w>
gi ây</w>
v ai</w>
thir d</w>
n ông</w>
c op
N a
syste ms</w>
p t</w>
k ỉ</w>
y ed</w>
di sa
d -
con si
c ư</w>
N e
— </w>
ặ n</w>
s àng</w>
re co
r ối</w>
of fi
g ốc</w>
ag es</w>
B o
chuy ến</w>
b ày</w>
đ ổ</w>
tr ách</w>
te st</w>
M u
t ận</w>
s ân</w>
ng àn</w>
cá o</w>
đ ừng</w>
fin ally</w>
chang ed</w>
c ân</w>
me a
t ôn</w>
pa st</w>
fi el
chi m</w>
st e
n am</w>
ar ds</w>
lear ning</w>
happ y</w>
h ồ</w>
g ắn</w>
c ell</w>
b í</w>
In dia</w>
đ em</w>
w on</w>
sti tu
enti re</w>
S .</w>
DN A</w>
par t
exp la
am oun
è n</w>
tur y</w>
ph ẫu</w>
nh ảy</w>
m ê</w>
ic k</w>
en ing</w>
e -
cep t</w>
an t
Americ a</w>
x uyên</w>
ng ờ</w>
d ừng</w>
at or</w>
na tional</w>
er ing</w>
s po
particul ar</w>
h er
ci r
đ ợi</w>
đ ỡ</w>
we b</w>
k ĩ</w>
gi ai</w>
ri s
out side</w>
ob vi
l ar</w>
i gh
1 0
mu st</w>
a ir</w>
O K</w>
E uro
ầ ng</w>
si êu</w>
pr in
cen tury</w>
si ble</w>
h i</w>
ear ly</w>
d ers</w>
per ha
perha ps</w>
m ol
id enti
G od</w>
/ </w>
sp end</w>
re gi
bas ed</w>
b ạo</w>
ô i.</w>
tur ned</w>
o .</w>
lar ge</w>
G </w>
7 0</w>
k ý</w>
h ài</w>
h or
A f
popu lation</w>
t ow
m ental</w>
l ate</w>
S te
uy s</w>
j our
H a
a st</w>
str y</w>
l ắm</w>
ec tive</w>
bec om
th ụ</w>
t ầng</w>
sur pri
struc ture</w>
s er</w>
ph one</w>
f ree</w>
eng ine
ell ing</w>
ta kes</w>
sh ows</w>
r en
m àn</w>
kn ow
figu re</w>
HI V</w>
nà y.</w>
mach ine</w>
g uys</w>
dise ase</w>
2 00</w>
ị t</w>
ó t</w>
t om
ngh ị</w>
anim als</w>
natur al</w>
J u
ne y</w>
m ã</w>
U. S.</w>
gi ven</w>
photo graph
e asy</w>
al ong</w>
đ o</w>
Đ ó</w>
é m</w>
spec ies</w>
m al</w>
lea st</w>
y our
y eah</w>
pro te
v ari
t ải</w>
p sy
m p</w>
kh ởi</w>
el li
Af gh
s le
re li
qu e</w>
f ra
cá m</w>
ca mer
D e
s ph
o il</w>
n on
h ind</w>
ec u
d ar
audi ence</w>
đ ảm</w>
sh ing</w>
po t
ph ổ</w>
nee ded</w>
m ấy</w>
lli ons</w>
reali zed</w>
la o</w>
h ộp</w>
ex i
B </w>
g óc</w>
ch áu</w>
ẳ n</w>
ve ment</w>
ch ỉnh</w>
at ten
Kh ông</w>
your self</w>
per f
nh ắc</w>
difficul t</w>
x i
wh at
vi sion</w>
ver age</w>
simp ly</w>
li sh</w>
si ze</w>
logi cal</w>
khu ôn</w>
iế p</w>
es ti
c l
G e
vi ol
power ful</w>
kn own</w>
h ấp</w>
h út</w>
be hind</w>
b ed</w>
ù i</w>
z z
ma j
m ón</w>
know le
ó p</w>
pu r
nghi êm</w>
ima ge</w>
do c
an ts</w>
wal k</w>
sel f-
ng ân</w>
m ùa</w>
ã n</w>
t -
s sed</w>
kh ái</w>
ng ăn</w>
k ers</w>
h ẳn</w>
di ed</w>
mi cro
me mor
m ate</w>
in vol
fri end</w>
comp an
chu ột</w>
L i
nee ds</w>
g er</w>
par ents</w>
g es</w>
fee t</w>
co i</w>
th ải</w>
econom ic</w>
compan ies</w>
ce i
1 8</w>
Â u</w>
se ven</w>
r ừng</w>
m ôn</w>
gr ow</w>
d ĩ</w>
at ure</w>
re si
in ning</w>
con ver
clo se</w>
ar gu
B ri
er y</w>
P ar
đ ó.</w>
p ment</w>
medi a</w>
lea ve</w>
f elt</w>
d ent</w>
cer tain</w>
H ar
5 00</w>
1 8
t ù</w>
l á</w>
gr ow
gi à</w>
col le
bl ack</w>
ar chi
đ ám</w>
pat ter
tr ừ</w>
rela tion
po sed</w>
l uyện</w>
hu ỷ</w>
c tion</w>
year -
t ín</w>
pa per</w>
mo ving</w>
m es
gi àu</w>
e qu
c ập</w>
vi d</w>
str o
ị p</w>
ta i</w>
d ence</w>
bi lity</w>
à m</w>
te am</w>
lo cal</w>
f ar
b lu
a ir
ph ận</w>
ab solu
or din
fa v
ch ứa</w>
W h
tuy ến</w>
ta ken</w>
are a</w>
9 0</w>
tt en</w>
see ing</w>
ex tre
che mi
N am</w>
h ands</w>
e vi
e at</w>
con di
O </w>
ò i</w>
y -
th ơ</w>
y a</w>
t ấn</w>
sc ale</w>
quy ển</w>
liệ t</w>
fu ll</w>
đ iển</w>
s qu
n a</w>
in i
in clu
con tr
valu e</w>
mi ddle</w>
gi ọng</w>
ch es</w>
can not</w>
su m
st age</w>
rec or
qu ang</w>
om e
T V</w>
đ ỏ</w>
t an</w>
re st</w>
me t</w>
ate ly</w>
ar ly</w>
W or
wonder ful</w>
n ặng</w>
e yes</w>
B ra
qu ick
poli tical</w>
e p
ci ties</w>
boo ks</w>
Y ou</w>
ty pe</w>
tr ùng</w>
par ts</w>
l an</w>
B ắc</w>
đ ảo</w>
vo ice</w>
sp ent</w>
lo nger</w>
gir l</w>
car e
b al
spea k</w>
s wi
c le</w>
Ho a</w>
v ân</w>
re sour
n óng</w>
mạ ch</w>
g ar
ex t</w>
ei ght</w>
al y
ụ t</w>
tra o</w>
o ff
for d</w>
al a
R </w>
Da vid</w>
wee k</w>
th ắng</w>
m áu</w>
bu ộc</w>
beg inning</w>
w ea
ph ù</w>
u ống</w>
quick ly</w>
gr and
amoun t</w>
W ell</w>
sur vi
m ềm</w>
ch ờ</w>
ch óng</w>
L a
K en
s sing</w>
h ạ</w>
fiel d</w>
st ep</w>
per i
ch ủng</w>
s it</w>
r ời</w>
pres ent</w>
m al
d ậy</w>
co st</w>
bor n</w>
b an
. 000</w>
$ </w>
w ouldn</w>
su dd
s óng</w>
on d</w>
in vi
de li
ani stan</w>
tic ally</w>
bu ồn</w>
W i
G re
đ iên</w>
we b
str a
im pro
grow th</w>
elec tr
di gi
de ath</w>
beg an</w>
th iệu</w>
ter ms</w>
mi ễn</w>
knowle dge</w>
ho ld</w>
c ũ</w>
mul ti
m ắn</w>
f ree
behavi or</w>
S a
đ ương</w>
th ảo</w>
au th
Ch úa</w>
A u
ọ t</w>
t ảng</w>
t ou
pp ed</w>
le y</w>
est ed</w>
de scri
comple x</w>
đ áp</w>
Đ ây</w>
te mp
s ơ</w>
h on
d ưỡng</w>
b loo
what ever</w>
tu al</w>
ni a</w>
li ke
l ầm</w>
P a
D i
Ch ar
wat ch</w>
ver sity</w>
tri ed</w>
tra di
s cre
rou ght</w>
ng ing</w>
an a</w>
ti vely</w>
t ồi</w>
kho ản</w>
ec tion</w>
car bon</w>
Afgh anistan</w>
sa ge</w>
m ẽ</w>
lo st</w>
li nh</w>
ch àng</w>
ap pe
pre dic
l er</w>
gi ving</w>
ci vi
a verage</w>
tr ánh</w>
suc c
ori g
gre en</w>
d õi</w>
b ảng</w>
J e
C ol
đ èn</w>
t ường</w>
st e</w>
s ong</w>
lea se</w>
comm on</w>
c ơn</w>
K i
wri te</w>
th ưởng</w>
p ay</w>
o ce
m ái</w>
lo ạn</w>
gi n</w>
d u</w>
d am
Joh n</w>
po in
p ol
hã i</w>
g óp</w>
camer a</w>
a ff
ỵ </w>
imag es</w>
ei ther</w>
bu n
K ỳ</w>
ấ c</w>
u su
t ờ</w>
po se</w>
n ers</w>
ll ing</w>
f ly</w>
atten tion</w>
x u</w>
v ững</w>
o -
es p
c ing</w>
ac ter
s mar
kh ổng</w>
for tu
f la
L u
ul ar</w>
on line</w>
chang es</w>
bo x</w>
đ ói</w>
wee ks</w>
si tu
reali ty</w>
pa in
mo der
m ảnh</w>
l ộ</w>
inter ested</w>
est er
b ang</w>
si tting</w>
s ửa</w>
reco gni
opportuni ty</w>
l ồ</w>
l ạnh</w>
en ding</w>
di e</w>
con f
vi l
t ổn</w>
t ốn</w>
scienti sts</w>
for ward</w>
bu y</w>
b ack
ể u</w>
w in</w>
solu tion</w>
ch an
đ ỉnh</w>
mor ning</w>
ki m</w>
h iển</w>
ex pl
de al</w>
su per
r út</w>
đ ào</w>
t or
pre sen
per for
le v
gr owing</w>
f ear</w>
b rought</w>
any one</w>
Eng lish</w>
tr ận</w>
o d
si l
qu ảng</w>
physi cal</w>
nh u</w>
n al</w>
mark et</w>
in ve
econom y</w>
d ường</w>
R u
tr ồng</w>
su sta
qu ên</w>
g one</w>
ớ m</w>
tr ắng</w>
fu r
f ine</w>
cu t</w>
anim al</w>
w ro
tran sp
tr ac
in de
g ed</w>
fe eling</w>
c at
Tr ái</w>
year- old</w>
ti ểu</w>
t elling</w>
l ẫn</w>
l an
gg er</w>
fil m</w>
c in
an tly</w>
bo ard</w>
Đ ông</w>
y er</w>
wri ting</w>
ph ỏng</w>
n úi</w>
ma il</w>
h ea
develo ped</w>
Is ra
ti vity</w>
t ộc</w>
su g
om s</w>
m ale</w>
cer tain
P o
vi e
to m</w>
r ơi</w>
m ời</w>
for ce</w>
fa st</w>
po or</w>
person al</w>
ngh ìn</w>
mol ecu
gi ỏi</w>
er ed</w>
see ms</w>
l t</w>
in v
ch ấm</w>
al one</w>
tu ally</w>
ssi ve</w>
se qu
ri ed</w>
on y</w>
man ag
in ten
h ảo</w>
d iệu</w>
C an
tur al</w>
r is</w>
lab </w>
issu e</w>
chang ing</w>
ch ạm</w>
sch o
la p
ine se</w>
com b
run ning</w>
r ate</w>
nu mbers</w>
ì a</w>
st ers</w>
si mi
s ses</w>
materi al</w>
khu ẩn</w>
c ầm</w>
b ữa</w>
b ề</w>
P e
l ương</w>
en ded</w>
C ó</w>
t ect</w>
sol ve</w>
s ánh</w>
ar en</w>
N o
x ương</w>
vi ces</w>
v ợ</w>
si a</w>
s al
reali ze</w>
incredi ble</w>
human s</w>
cur r
ci p
1 4</w>
se x</w>
pla ying</w>
mp les</w>
cre ating</w>
c ỡ</w>
at ors</w>
m ãi</w>
L </w>
H i
Ch inese</w>
B er
vi su
tr ì</w>
th ịt</w>
qu ần</w>
ph ấn</w>
individu al</w>
b ật</w>
as king</w>
ti ềm</w>
th re
t ách</w>
st and</w>
ser i
ni ce</w>
ma gi
ho ảng</w>
H ọ</w>
ter ri
t ar
sh ort</w>
pro duce</w>
fu n</w>
ch ồng</w>
bo t
M ột</w>
1 6</w>
và ng</w>
sa ve</w>
qu ality</w>
ngh ỉ</w>
liter ally</w>
kho á</w>
develo ping</w>
ad v
H u
wro te</w>
in ess</w>
h ôn</w>
b ar
v ốn</w>
to ols</w>
star ting</w>
ne ur
di ngs</w>
ab </w>
mi llions</w>
m ine</w>
gener ation</w>
focu s</w>
fi ed</w>
chiế m</w>
Wh at</w>
W a
ng ừng</w>
il ed</w>
f y</w>
b iên</w>
M e
t ô</w>
reli gi
produc t</w>
he ad
fi sh</w>
cli mate</w>
challe nge</w>
b ền</w>
ac cess</w>
ab o
C ali
ori ty</w>
me an
iế ng</w>
gir ls</w>
e mer
n ổ</w>
n ắm</w>
kh ẩu</w>
il li
con sci
ặ m</w>
v acc
gi ó</w>
ca tions</w>
absolu tely</w>
I ra
v ĩ</w>
str ang
sph ere</w>
se em</w>
pp ing</w>
là ng</w>
like ly</w>
l ửa</w>
in ven
hundre ds</w>
f lo
e mb
blu e</w>
gh ế</w>
g ames</w>
b ene
at u
Ồ </w>
đ ằng</w>
the ory</w>
te ach</w>
min i
mar ke
inno vation</w>
h ỗ</w>
demo cr
co ol</w>
1 3</w>
re vol
all ow</w>
ti s
s ót</w>
r ac
ordin ary</w>
experi ment</w>
eri a</w>
F ace
techno logi
t ôi.</w>
progra m</w>
posi tion</w>
ph ối</w>
nh u
mo ved</w>
kn ows</w>
kh uy
k ịch</w>
e qui
disco vered</w>
H ồi</w>
đ iệu</w>
z y</w>
h ào</w>
ey e</w>
S e
I D
v ỡ</w>
tech ni
s ớm</w>
ris k</w>
resul t</w>
r .</w>
psy cho
kh ích</w>
chu ỗi</w>
ch ảy</w>
Cali for
gen e
esp eci
especi ally</w>
conf lic
con su
a va
Nh ững</w>
I ran</w>
vir us</w>
no body</w>
ngh ề</w>
ne igh
j a
fa i
en cy</w>
ea si
are as</w>
19 8
ơ n.</w>
su p
sh owed</w>
re ly</w>
ox y
mo vement</w>
ic es</w>
f re
com pe
Face book</w>
C a
underst anding</w>
pati ent</w>
nor mal</w>
d ang
ch oo
whi te</w>
th an
prote in</w>
obvi ously</w>
bot tom</w>
S outh</w>
su ất</w>
mo vi
k o</w>
gi ves</w>
d y
ch ậm</w>
Wor ld</w>
Ira q
F ran
u ri
t àn</w>
t ally</w>
ng ly</w>
l ated</w>
Califor nia</w>
ự ng</w>
tho át</w>
st and
ra i
op en
l ối</w>
kh ổ</w>
incredi bly</w>
in spi
h ou
h and
for ms</w>
f it</w>
er e
ci ent</w>
t ắt</w>
t on
sa tion</w>
me et</w>
inde ed</w>
ho od</w>
d ou
b ọn</w>
X </w>
ứ t</w>
tr ại</w>
so on</w>
re qui
pic tures</w>
pati ents</w>
h om
car s</w>
bab y</w>
đ â
vil la
v ate</w>
lo ạt</w>
ki ll</w>
exper im
de ad</w>
bloo d</w>
Bra z
read ing</w>
r ace</w>
ph ê</w>
moder n</w>
le g
invol ved</w>
il s</w>
gi ấc</w>
de ta
T u
M on
ẹ n</w>
Đ ại</w>
wa i
par a
p lu
materi als</w>
ma in</w>
ki d</w>
in tro
ic o</w>
g ợi</w>
elec tri
bu l
T i
3 00</w>
ver s</w>
tr ữ</w>
st ance</w>
so f
pr om
net work</w>
li fe
teach ers</w>
supp ort</w>
k iệm</w>
expla in</w>
enti ally</w>
an ces</w>
am s</w>
a chi
L on
Ch ris</w>
suc cess</w>
sour ce</w>
mi les</w>
la w</w>
connec ted</w>
b è</w>
Th ế</w>
web site</w>
t ele
s áu</w>
ru p
oun d
il l
evol ution</w>
d on
ar ra
1 .
sti cs</w>
qu ỹ</w>
l y
g la
cen ter</w>
đ ăng</w>
sha pe</w>
scho ols</w>
rec ently</w>
l ỗ</w>
kh ứ</w>
imp act</w>
fun dam
fav ori
e m
as ed</w>
A ID
tr ưng</w>
ti ny</w>
relation ship</w>
pot ential</w>
k ê</w>
indu stry</w>
col or</w>
b es</w>
M ex
t án</w>
ph iên</w>
ou ght</w>
no ti
ll ed</w>
g ing</w>
en ly</w>
b all</w>
T a
Lon don</w>
H </w>
tal ked</w>
se ver
s ounds</w>
in ation</w>
grou ps</w>
R ob
M c
Euro pe</w>
D P</w>
A d
ụ ng</w>
vi ễn</w>
sur face</w>
oce an</w>
lo se</w>
int elli
d ặm</w>
cla ss</w>
ch ó</w>
c ru
ava il
an e
am ed</w>
sli de</w>
ha ven</w>
desig ned</w>
comp as
b i</w>
an aly
V i
ươ i</w>
v ết</w>
t úi</w>
s ạch</w>
on to</w>
li t
gu ess</w>
ch ào</w>
ch e</w>
c ờ</w>
P ro
Iraq </w>
ủ i</w>
succ ess
st ay</w>
resour ces</w>
per s</w>
nh ật</w>
ea ting</w>
be gin</w>
P al
đ i
y ond</w>
s a</w>
ru les</w>
ng uyện</w>
nec ess
mo d
li mi
il lu
de ep</w>
bi a</w>
be yond</w>
ar ed</w>
ag u
C am
ti ci
th ước</w>
technologi es</w>
st -
s end</w>
ng ại</w>
ng ton</w>
f er</w>
d om
cou ra
cho ice</w>
ab or
tru th</w>
sle ep</w>
situ ation</w>
s ông</w>
re cei
pro c
nh ắn</w>
li ties</w>
hu r
di men
E </w>
Ch ri
perf ect</w>
offi ce</w>
kho ảnh</w>
kh áng</w>
ha m</w>
h our</w>
develo pment</w>
ca pi
c à</w>
b ơi</w>
đu ổi</w>
v a</w>
me ly</w>
maj or</w>
democr acy</w>
ch ance</w>
ca mp
ad a</w>
P au
1 7</w>
w ing</w>
th ảm</w>
th ăm</w>
str ess</w>
re p
pre ss</w>
minu te</w>
l ặp</w>
issu es</w>
fer ence</w>
a du
ũ i</w>
wor th</w>
wi sh</w>
tr al</w>
mes sage</w>
ho l
exp en
ev en
es ses</w>
do or</w>
AID S</w>
wa it</w>
tho ả</w>
str eet</w>
sec re
s ỹ</w>
ro ad</w>
r om
n âng</w>
li ved</w>
h it</w>
a h</w>
Braz il</w>
z er
sudd enly</w>
s ốt</w>
mon th</w>
ma p</w>
jour ney</w>
dep end
de gre
cir cu
and a</w>
S o
H ãy</w>
su s</w>
s trong</w>
la u
l ọc</w>
k ém</w>
hundre d</w>
happ iness</w>
every where</w>
becom es</w>
wal king</w>
v </w>
m ent
g ri
avail able</w>
ưỡ i</w>
ô ng.</w>
tri bu
sp it
dar k</w>
certain ly</w>
bo y</w>
ồ i.</w>
vo i</w>
teach er</w>
ssi ons</w>
simi lar</w>
n ỗ</w>
memor y</w>
list en</w>
digi tal</w>
ac tive</w>
ac coun
W est</w>
st op
nh é</w>
mi t
intelli g
in stitu
f am
any body</w>
S ha
J ap
2 4</w>
Đ iều</w>
r ay</w>
lo ng
gh ép</w>
compu ters</w>
c lear
Isra el</w>
Ge or
tre at
re gu
me e
individu als</w>
de vice</w>
b acter
appro ach</w>
W </w>
B a
- year-old</w>
ê nh</w>
trans for
n ó.</w>
m ùi</w>
l ặng</w>
gh ter</w>
con struc
F or
ị nh</w>
t àng</w>
susta in
ou d</w>
noti ce</w>
mor al</w>
li st</w>
l and
e mail</w>
de fini
Ng ười</w>
E ast</w>
viol ence</w>
th ở</w>
t au
pro jects</w>
pro gre
fi ght</w>
dri ve</w>
bi gger</w>
bi g
B ar
w ood</w>
v ỏ</w>
nh ẹ</w>
f ol
evi dence</w>
crea tive</w>
c ause</w>
Nh ật</w>
tr òn</w>
ti ves</w>
speci al</w>
reas ons</w>
ex tra
co de</w>
b ò</w>
Bi ll</w>
resul ts</w>
on i
fi c
brea k</w>
C on
đ iệp</w>
v an</w>
tr ống</w>
tow ards</w>
ser ve</w>
pu tting</w>
pl an</w>
ng ẫu</w>
lo y
ho ang</w>
exa mples</w>
eff ect</w>
con cer
bo dies</w>
b s</w>
al o
C ác</w>
đ ựng</w>
ty pes</w>
ti z
t ch</w>
s mo
pr acti
p .</w>
mean ing</w>
mea sure</w>
f all</w>
cra zy</w>
ba sic</w>
b el
all owed</w>
ad d</w>
smar t</w>
lin es</w>
h ùng</w>
favori te</w>
com for
c ked</w>
b ờ</w>
C O
v in
tau ght</w>
sp read</w>
s ent</w>
r ẻ</w>
kill ed</w>
di an</w>
de ter
ali zed</w>
3 D</w>
to tally</w>
th ừa</w>
in come</w>
beli ev
b er</w>
L o
2 1</w>
y l
sy n
star ts</w>
sever al</w>
mi ssion</w>
l ục</w>
in k</w>
họ p</w>
thu ận</w>
the ma
stor e</w>
se a</w>
m oun
as su
T hu
ri ch</w>
p lease</w>
kill s</w>
fi re</w>
en ter
ac i
ớ t</w>
xo ay</w>
su n
stud ent</w>
se xu
pa in</w>
p pe
medi cal</w>
lead ers</w>
h ổ</w>
gra du
big gest</w>
wor se</w>
tw are</w>
tr ích</w>
ter m</w>
t ory</w>
t ells</w>
spit al</w>
sion al</w>
sh owing</w>
scienti fic</w>
p oll
n ine</w>
19 7
Ô ng</w>
ty pic
thu ỷ</w>
str ea
r ác</w>
pre ssion</w>
i ngs</w>
fur ther</w>
e o</w>
di sp
choo se</w>
app li
đ am</w>
wor l
win d
sof tware</w>
r ồi.</w>
m ù</w>
l ính</w>
d au
ch ặt</w>
ch ec
Mex ico</w>
Ken ya</w>
G er
th ác</w>
sa fe</w>
posi tive</w>
pe ace</w>
particul arly</w>
ne uro
là nh</w>
ell ow</w>
develo p</w>
com par
an o</w>
all s</w>
th ang</w>
th ai</w>
t end</w>
respon se</w>
pro per
gener al</w>
foll ow</w>
f ant
e f
c king</w>
T wi
S A</w>
wa ste</w>
sig ni
regi on</w>
radi o</w>
o h</w>
nh ựa</w>
nat ely</w>
m iếng</w>
im medi
h ắn</w>
f lu
do ạ</w>
c ấy</w>
đ ạp</w>
wat ching</w>
w ell
ng ang</w>
man u
li e</w>
in al</w>
G DP</w>
ườ n</w>
tr i</w>
sm all
rea ch</w>
p an
n c
m ừng</w>
lã ng</w>
even tually</w>
di ag
cont ent</w>
Can ada</w>
1 ,
đo àn</w>
đ ẳng</w>
un ch</w>
to ol</w>
non -
li ar</w>
lar gest</w>
inter est</w>
gre at
fortu nately</w>
ear s</w>
N i
4 00</w>
v al</w>
e in</w>
đ òi</w>
w ind</w>
tru st</w>
t le</w>
sur g
lea d</w>
l ược</w>
fa ster</w>
char ac
c ãi</w>
bri dge</w>
as se
archi tec
acti vity</w>
Đ ức</w>
st ly</w>
s ợi</w>
ro o
per spec
on e-
l ắp</w>
l ay</w>
gi ảng</w>
gi ám</w>
en ter</w>
deci sions</w>
ca m</w>
bi le</w>
N ếu</w>
te m
po ver
ngo ái</w>
man i
ma tic</w>
m ét</w>
jo y</w>
gre w</w>
dru g</w>
compas sion</w>
communi ties</w>
buil dings</w>
ag ing</w>
Nor th</w>
2 000</w>
z ations</w>
wi fe</w>
wan ts</w>
ver sion</w>
usu ally</w>
st ant</w>
re ci
ra ise</w>
nh ịp</w>
min ds</w>
me tho
me ant</w>
m it</w>
lo ved</w>
dru gs</w>
dre am</w>
d ance</w>
cul tural</w>
ac tions</w>
đ ống</w>
Đ ất</w>
y ers</w>
th ầy</w>
shi ps</w>
sh own</w>
m ực</w>
ic ally</w>
hu ống</w>
fi ts</w>
f as
ee ts</w>
e e</w>
ci tiz
bra ins</w>
b om
S ch
đ e</w>
secon ds</w>
s ổ</w>
ow er</w>
high -
extre mely</w>
e pi
ch ép</w>
as tic</w>
G u
y ên</w>
str ate
se par
r or</w>
phi c</w>
ma ss</w>
ma in
m ập</w>
job s</w>
i ly</w>
h ow
ec ting</w>
coll abor
ch ặn</w>
E inst
v ậ
th ận</w>
th ao</w>
t wi
nhu ận</w>
ma th</w>
m ại</w>
le ss
l ễ</w>
ec o
e ffi
blo g</w>
Wa shi
S an</w>
v ú</w>
scre en</w>
p age</w>
movi e</w>
m es</w>
li ghts</w>
kh ung</w>
inf lu
how ever</w>
h ương</w>
exp ect</w>
c lin
b and</w>
Einst ein</w>
ì nh.</w>
villa ge</w>
tuy ên</w>
t ật</w>
sta ti
spe e
sol ar</w>
sk y</w>
sk in</w>
s ca
re mark
poin ts</w>
pic k</w>
n amed</w>
m ây</w>
m or</w>
in s
fin ding</w>
e sts</w>
cont ext</w>
condi tions</w>
atu res</w>
am ong</w>
T al
w all</w>
tre es</w>
tem per
ta tions</w>
st anding</w>
robo ts</w>
ho spital</w>
g as</w>
b ắn</w>
é n</w>
tra ining</w>
pover ty</w>
mu si
low er</w>
gh tly</w>
fin an
er t</w>
c ặp</w>
J a
Americ ans</w>
A ng
wi se</w>
v ong</w>
ther e
sh u
produc ts</w>
peri od</w>
list ening</w>
continu e</w>
conflic t</w>
bo m</w>
b ối</w>
b at
Washi ngton</w>
đ ùa</w>
throu gh
stri bu
s per
pre ci
m ers</w>
li er</w>
h iếm</w>
expen sive</w>
exci ted</w>
di stribu
cri sis</w>
c ứng</w>
c ản</w>
c ôn</w>
V ì</w>
Twi tter</w>
x y</w>
vi c
v el
tradi tional</w>
th ù</w>
speci fic</w>
s úng</w>
r on</w>
plan e</w>
pl ant</w>
ph iếu</w>
ob jects</w>
n ect</w>
kh ấu</w>
in si
fas cin
dis cu
cá t</w>
arti st</w>
any more</w>
all ows</w>
W e
Geor ge</w>
D u
D ar
đu a</w>
ri se</w>
n ấm</w>
li ền</w>
l ừa</w>
inclu ding</w>
h à</w>
f le
d iệt</w>
con nect</w>
ad es</w>
ab les</w>
Ph áp</w>
N ig
Char les</w>
revol ution</w>
plan ts</w>
oun ded</w>
ma thema
g l
e ment</w>
ck y</w>
ch án</w>
am p</w>
J </w>
CO 2</w>
magi c</w>
lic ated</w>
g ỗ</w>
f ru
exci ting</w>
ari ly</w>
a tive</w>
Y ou
W ester
4 5</w>
tru ly</w>
sor ts</w>
s ou
parti cip
la tions</w>
l ũ</w>
kh ía</w>
ke pt</w>
ef for
b ậ
a de</w>
well -
solu tions</w>
prof es
produc tion</w>
ne w
ho t</w>
c ases</w>
b ảy</w>
b éo</w>
an e</w>
Uni versity</w>
D o</w>
200 8</w>
đ ập</w>
y le</w>
wi de</w>
ti ngs</w>
tho ải</w>
t á</w>
success ful</w>
patter n</w>
mach ines</w>
m óc</w>
ho le</w>
h ối</w>
go al</w>
foo t</w>
engine ering</w>
c ục</w>
any way</w>
ali ve</w>
a th
ỗ n</w>
è m</w>
tr ào</w>
ti êm</w>
sp ir
sear ch</w>
sc en
p in</w>
nh ằm</w>
ng ọn</w>
mb </w>
k í</w>
im possible</w>
i al</w>
conver sation</w>
colle ge</w>
b on
ver se</w>
tw o-
stu dies</w>
ser vice</w>
s kills</w>
s al</w>
n ữ
m ous</w>
ho àng</w>
h è</w>
fami liar</w>
do cu
b ru
ac ks</w>
P hi
ụ i</w>
ớ n</w>
ế m</w>
war ds</w>
tra vel</w>
tr iết</w>
ti a</w>
th ờ</w>
th ree
se ly</w>
r o</w>
qu o
il ing</w>
expl or
da d</w>
d ối</w>
ch ốt</w>
bậ c</w>
actu al</w>
K .</w>
u ses</w>
tr àn</w>
th ấu</w>
t ỏ</w>
sup posed</w>
some where</w>
so ph
sig n</w>
ser ies</w>
poli tics</w>
piec es</w>
p en
mod els</w>
h ỗn</w>
ess entially</w>
doc tor</w>
d ow
consi der</w>
challe ng
bun ch</w>
N </w>
Ả </w>
ti ệ
t t</w>
t own</w>
su n</w>
ri es</w>
mo m</w>
lar ger</w>
g y
fac es</w>
f our
co o
c ate</w>
aw are</w>
at ory</w>
W e</w>
tr ou
ph a</w>
neur ons</w>
mạ c</w>
ig nor
free dom</w>
e ts</w>
cy cle</w>
c ăng</w>
al ing</w>
T ại</w>
I T</w>
B ro
0 0
ấ y.</w>
đâ y.</w>
ê n.</w>
wri tten</w>
we ight</w>
tim ate</w>
t ter
t ex
r ượ
ol der</w>
high er</w>
dang er
N A
A DN
1 50</w>
ạ i.</w>
part ment</w>
ma ssive</w>
gg s</w>
g an</w>
fant astic</w>
fami lies</w>
extra ordinary</w>
de f
curr ent</w>
ali a</w>
abo ve</w>
visu al</w>
th uyền</w>
teach ing</w>
pro to
perspec tive</w>
ng ón</w>
gh ting</w>
e nh
clear ly</w>
Thu ỵ</w>
ợ t</w>
ớ p</w>
vậ y.</w>
thous and</w>
s y</w>
ob ject</w>
medi c
lo soph
doc tors</w>
becom ing</w>
as soci
ad dre
19 </w>
u m
st om
some how</w>
rượ u</w>
ro le</w>
provi de</w>
ng ưỡng</w>
logi st</w>
leg al</w>
kh ảo</w>
hu ấn</w>
gen e</w>
e li
Pau l</w>
N o</w>
stru gg
spe ed</w>
sec uri
s an</w>
re fl
patter ns</w>
o ds</w>
n út</w>
m ũi</w>
le gs</w>
ha ng</w>
de mic</w>
contr oll
con vin
colle agu
C ity</w>
B r
ADN </w>
through out</w>
t i</w>
nu r
n ation</w>
m ưa</w>
ir s</w>
foo t
fam ous</w>
en ced</w>
d ate</w>
bacter ia</w>
Th ái</w>
up on</w>
socie ties</w>
s ụp</w>
s ting</w>
re presen
r ắc</w>
perfor man
molecu les</w>
mi sta
kh i
di o</w>
cri tical</w>
ci es</w>
be l</w>
ar ri
K or
tra in</w>
tis su
tion ary</w>
there fore</w>
spea king</w>
recogni ze</w>
ng ài</w>
gh ét</w>
connec tion</w>
co sts</w>
ch ea
beau ty</w>
R a
A ri
A l</w>
1 5
tru y</w>
treat ment</w>
phi losoph
incre ase</w>
gen es</w>
ex cept</w>
er a</w>
el a</w>
eff ective</w>
comp licated</w>
ch ối</w>
c ụt</w>
bab ies</w>
ag ed</w>
T o
ti mi
th ọ</w>
ri ghts</w>
fun c
er en</w>
de m
3 5</w>
đ ắt</w>
sho t</w>
s ăn</w>
le -
khuy ến</w>
k y</w>
go l
g n
fe male</w>
der ed</w>
danger ous</w>
crea tivity</w>
con cept</w>
compe ti
cep tion</w>
b ông</w>
Wester n</w>
V ậy</w>
Th om
F i
Co ng
C ảm</w>
t ỉnh</w>
surg ery</w>
securi ty</w>
re lated</w>
pro tec
nữ a.</w>
m ì</w>
le o</w>
k êu</w>
immedi ately</w>
h ic
gre ater</w>
electri city</w>
au ti
Pa ki
Afri can</w>
ú m</w>
tr op
small er</w>
signi fic
re st
pla stic</w>
m ỏ</w>
lit ary</w>
gra phic</w>
g a</w>
d ness</w>
con tribu
ci an</w>
ch áy</w>
c o</w>
b iện</w>
am i</w>
Wi ki
W al
vu l
ther n</w>
st on</w>
remark able</w>
nh ũng</w>
n ấu</w>
n one</w>
mo bile</w>
l ying</w>
ha m
de mon
ch er</w>
bio logy</w>
b ột</w>
any where</w>
ac ci
K a
7 5</w>
í m</w>
x ong</w>
three -
than ks</w>
t úc</w>
pro tect</w>
ph en
m ạo</w>
h ơn.</w>
gi ành</w>
g ọn</w>
e f</w>
d ày</w>
con ven
c enti
b ãi</w>
architec ture</w>
ac ity</w>
G P
2 .
ơ m</w>
su ffer
seri ous</w>
poli ce</w>
organi zation</w>
le s
heal thy</w>
evol ved</w>
doll ar</w>
ari a</w>
ad ap
M IT</w>
xo á</w>
u se
th iểu</w>
recor d</w>
pu ll</w>
progre ss</w>
practi ce</w>
la w
ju sti
hi stor
hi m
fundam ental</w>
fun ny</w>
for th</w>
finan cial</w>
ear lier</w>
dec ades</w>
ch ừng</w>
ch u</w>
c ột</w>
c ỗ</w>
c ỏ</w>
be ings</w>
achi e
20 10</w>
ế .</w>
z es</w>
won der</w>
tr ầm</w>
th ả</w>
ta ins</w>
t áo</w>
sing ly</w>
prin ci
pa th</w>
lev els</w>
g t</w>
dau ghter</w>
d ọc</w>
civi li
a ds</w>
Thom as</w>
O r
N gh
Mi cha
Kh i</w>
C ha
ả .</w>
ạ n.</w>
z a</w>
x es</w>
wai ting</w>
tr ứng</w>
tou ch</w>
t óm</w>
shar ed</w>
sen s
scienti st</w>
no tic
is m</w>
human ity</w>
co ff
b y
S tr
C u
1 0,000</w>
x ứng</w>
thu ê</w>
th ánh</w>
s ell</w>
me ta
go tten</w>
gi ận</w>
foll owing</w>
dra w</w>
di nh</w>
demon str
bi nh</w>
I t</w>
F r
Ad am</w>
z on</w>
vie w
tele vision</w>
t ụ</w>
r ủi</w>
poli cy</w>
physi cs</w>
ph </w>
organi zations</w>
logi sts</w>
fun ction</w>
fai lu
emo tional</w>
e al
cor rec
co ver</w>
c el
au tom
af ter
ac ting</w>
S co
F </w>
se um</w>
pe dia</w>
par ty</w>
om en
la ting</w>
kh iếp</w>
direc tion</w>
ar m</w>
a ig
Nig eria</w>
đ ốt</w>
đ ắn</w>
zer o</w>
v ard</w>
to c
thu ần</w>
the tic</w>
tal ks</w>
sy m
sustain able</w>
neigh bor
kh át</w>
it i</w>
h a</w>
for get</w>
exp lo
diag no
cla ss
GP S</w>
C hi
2 ,000</w>
tu de</w>
tra ffi
tr ack</w>
strang e</w>
ra nge</w>
performan ce</w>
ous ness</w>
ng ũ</w>
m iệ
inven ted</w>
gene tic</w>
ee l</w>
deci sion</w>
de st</w>
da ma
care er</w>
S we
S h
M at
L in
Is la
á c.</w>
wal ked</w>
w eren</w>
v ườn</w>
ur s</w>
tre at</w>
to -
th ạch</w>
sub ject</w>
s ent
qu ar
pri ce</w>
pas s</w>
nu clear</w>
mi litary</w>
m ò</w>
in te
i ng
fin al</w>
exi st</w>
dow n
deci de</w>
ck et</w>
al though</w>
ac ts</w>
S mi
L os</w>
L iên</w>
ã ng</w>
we al
use ful</w>
tr uyện</w>
str ic
sh oo
s ers</w>
ri c</w>
pri vate</w>
phen omen
ph án</w>
obvi ous</w>
nh ỉ</w>
mi ền</w>
l ộn</w>
h uyết</w>
fa shi
en coura
duc ed</w>
cu ri
co ld</w>
c ele
Ri ch
Micha el</w>
A i</w>
vacc ine</w>
ti sh</w>
th iệp</w>
stri al</w>
strea m</w>
sli ghtly</w>
sh es</w>
s at</w>
rup tion</w>
r ăng</w>
ma i</w>
m ộ</w>
m át</w>
l ands</w>
k ẹ
i Ph
ha ck
h iến</w>
fa ir
environ mental</w>
dri ving</w>
de b
d ị</w>
ch ai</w>
att le</w>
a -
B ản</w>
đ ốc</w>
đ ĩa</w>
ý t</w>
ve hic
underst ood</w>
squ are</w>
so ft</w>
pr int</w>
ph ó</w>
p le
ob ser
nh ấn</w>
impro ve</w>
h ồn</w>
g er
focu sed</w>
cre ates</w>
car to
c ốt</w>
b ạc</w>
S y
P i
C ô</w>
A c
ớ i.</w>
x âm</w>
uy ệt</w>
uni que</w>
tre pr
trepr ene
t ặng</w>
miệ ng</w>
j ec
hu s
hel ped</w>
ha bi
g ori
e ty</w>
de si
de fin
comfor table</w>
challeng es</w>
bl ind</w>
bir ds</w>
T im
0 -
ướ t</w>
w el
vul ner
tre e</w>
th a</w>
sur r
sum mer</w>
st em</w>
re por
m ẩu</w>
him self</w>
ess or</w>
cla ssi
cho ices</w>
cha ir</w>
c ụ
c ốc</w>
brea d</w>
bir th</w>
T ur
O ba
ừ u</w>
x ưa</w>
x ity</w>
un fortunately</w>
tu ỳ</w>
t ạm</w>
t ext</w>
sexu al</w>
ser vices</w>
sc o</w>
r ưỡi</w>
op s</w>
n ém</w>
mo ti
mee ting</w>
medic ine</w>
ll s</w>
intellig ence</w>
inst ance</w>
g ương</w>
experim ents</w>
differ ences</w>
comple xity</w>
al ter
a k</w>
M R
đ ài</w>
valu es</w>
tr ộn</w>
temper ature</w>
star s</w>
r ào</w>
ound ation</w>
or ies</w>
me ters</w>
high ly</w>
fl ow</w>
ex </w>
en treprene
direc tly</w>
cr ow
comple te</w>
c ẩn</w>
c ke
b la
Ha iti</w>
6 5</w>
ự u</w>
đ ón</w>
tal s</w>
re fu
pr ac
er ship</w>
ei g
do g</w>
de stro
d ính</w>
d el
G o
Bi g</w>
ỗ ng</w>
th ẩm</w>
th ro
t óc</w>
t ask</w>
sp ending</w>
shar ing</w>
re cent</w>
produc ed</w>
pa id</w>
kh óc</w>
inter national</w>
identi ty</w>
hu y</w>
h iệp</w>
g ay</w>
et c</w>
dy na
coff ee</w>
ber g</w>
J ames</w>
B ởi</w>
re ti
pri son</w>
ph ổi</w>
ng ầm</w>
mi êu</w>
he o</w>
g à</w>
en or
citiz ens</w>
ch ẩn</w>
cap acity</w>
an cy</w>
acti vi
A le
đ ậu</w>
x ạ</w>
wi lling</w>
th ưa</w>
survi ve</w>
st ates</w>
secre t</w>
sa ving</w>
l ão</w>
l at
inspi red</w>
fl ying</w>
emp loy
d ying</w>
be es</w>
Paki stan</w>
P er
Mi ddle</w>
D r.</w>
who se</w>
vi a</w>
tri al</w>
r ô</w>
qu ê</w>
qu ét</w>
op timi
notic ed</w>
net works</w>
n ali
mo stly</w>
li ber
l ỏng</w>
kn owing</w>
inve st
gla ss</w>
ev ent</w>
con fi
com mer
co m</w>
cen tral</w>
c ường</w>
b ạch</w>
a vo
P ri
Ang el
A t
6 00</w>
ố m</w>
vu ông</w>
tur ning</w>
tr ắc</w>
tho ảng</w>
terri ble</w>
te en
spee ch</w>
si bility</w>
s ms</w>
s mi
re ma
pre par
oc cu
cra tic</w>
S p
Rich ard</w>
O k
Na tional</w>
C ông</w>
ẻ o</w>
v y</w>
t ò</w>
sol di
sca pe</w>
ra id</w>
posi te</w>
pe ngu
ne ar</w>
n ơ</w>
l ack</w>
i de</w>
bu b
b one</w>
am bi
Tim es</w>
Rob ert</w>
L an</w>
B e
200 7</w>
wor st</w>
wor k
vari ous</w>
tr ôi</w>
th r
surpri sing</w>
s low</w>
pur pose</w>
pu sh</w>
possi bly</w>
photograph </w>
le ts</w>
hel d</w>
h ẹn</w>
h ạng</w>
gra de</w>
disa ppe
di versity</w>
chemi cal</w>
camp aig
b ắc</w>
ag </w>
ad di
X in</w>
M ĩ</w>
đ ớn</w>
wea p
twi ce</w>
sti ck</w>
stand ard</w>
sp aces</w>
s -
ra tion</w>
qu í</w>
m èo</w>
m ming</w>
gi ày</w>
g ala
cle an</w>
bri ngs</w>
arti sts</w>
a head</w>
Y </w>
W ar</w>
5 ,000</w>
x ed</w>
wi t
to i
te ch</w>
t ây</w>
str eets</w>
publi shed</w>
pop ular</w>
pas sed</w>
orig inal</w>
m ình.</w>
logi c</w>
ki ên</w>
h ằng</w>
great est</w>
f li
ex tra</w>
d an
communi cate</w>
cau ses</w>
b ốt</w>
Oba ma</w>
Har vard</w>
1 /
đ áy</w>
tu ệ</w>
tran si
str eng
ph ones</w>
pas s
ng ựa</w>
ne l</w>
in stru
gg ing</w>
flo or</w>
f ying</w>
experi ences</w>
depend ent</w>
cu stom
cor por
as ing</w>
ari ty</w>
answ ers</w>
NA SA</w>
A pp
v ắc</w>
trou ble</w>
struc tures</w>
sor ry</w>
sho p</w>
shi ft</w>
s la
re -
qu án</w>
qu ái</w>
nh ạy</w>
l in</w>
h ước</w>
fl u</w>
dise ases</w>
dec ade</w>
de vices</w>
d àn</w>
con clu
clo ser</w>
at mo
ar tic
ac ked</w>
Tr ong</w>
1 ,000</w>
tr ạm</w>
tiế c</w>
th ỉnh</w>
t ám</w>
stop ped</w>
spi te</w>
sa fe
ne arly</w>
n ét</w>
mi ssing</w>
me ter</w>
iPh one</w>
ho ại</w>
graph </w>
con sequ
comp on
ch ers</w>
bas is</w>
af raid</w>
đ ếm</w>
ù m</w>
su it</w>
st yle</w>
signific ant</w>
ro ck</w>
ng ã</w>
necess ary</w>
lead ership</w>
la un
l ẻ</w>
k a</w>
jo in</w>
ini ti
expl ore</w>
di sti
de ep
de e
communi cation</w>
ch ăng</w>
b ạn.</w>
adu l
a id</w>
E n
C on</w>
ườ i.</w>
đ eo</w>
Á </w>
tion ed</w>
si des</w>
sc op
re pe
qu ick</w>
pa ir</w>
mp tion</w>
l ây</w>
institu tions</w>
gori th
g ã</w>
e es</w>
dro p</w>
cor ruption</w>
bo ys</w>
bel ow</w>
al gorith
F ren
C E
vo te</w>
tr ần</w>
sig n
ra in</w>
pla yed</w>
ne ga
molecu le</w>
low -
ge o
for ces</w>
e di
e d
de ser
dd en</w>
d án</w>
cụ m</w>
ac cor
a part</w>
a i
MR I</w>
Fran ci
B al
ta il</w>
ta .</w>
t le
s w
s cu
ru le</w>
re mo
m ãn</w>
lo ad</w>
kh ô</w>
in tu
h ứa</w>
gi ường</w>
g ate</w>
eig n</w>
e th
degre es</w>
cor e</w>
con ser
con ference</w>
b ổ</w>
b ought</w>
ag ri
200 9</w>
19 5
vol un
tu red</w>
traffi c</w>
te l</w>
t ori
supp ly</w>
op posite</w>
mom ents</w>
mat es</w>
lu cky</w>
long -
l ưng</w>
k èm</w>
inf ra
gi ơ</w>
g ói</w>
exp ec
chec k</w>
c ong</w>
bri nging</w>
ac cur
Ju li
H ow</w>
tra de</w>
th ói</w>
ro oms</w>
religi on</w>
r ồ</w>
opportuni ties</w>
mo thers</w>
k ênh</w>
gh t
ec tively</w>
du e</w>
dou b
colleagu es</w>
b ụng</w>
b ing</w>
auti sm</w>
Th ật</w>
Sa har
I I</w>
C ực</w>
– </w>
toc in</w>
th ợ</w>
s wee
progra ms</w>
pl ac
oxy tocin</w>
new sp
n ướng</w>
mea su
manu f
manuf actu
maj ority</w>
li ngs</w>
justi ce</w>
i nh
hus band</w>
hear ing</w>
h ỏng</w>
ga z
ere k</w>
enti rely</w>
c ell
c ated</w>
bu s</w>
bro ken</w>
bat ter
Par is</w>
No bel</w>
Mu sli
D erek</w>
D an</w>
C om
Au str
ợ n</w>
đ ực</w>
vi nh</w>
typic al</w>
tuy ết</w>
stra ight</w>
si tes</w>
s and</w>
re turn</w>
re duce</w>
meta ph
m m
i sts</w>
fe ed</w>
ch ấn</w>
a x
Wiki pedia</w>
W hy</w>
Ste ve</w>
In dian</w>
A ma
ờ i.</w>
đ i.</w>
tt on</w>
s se
re le
qu à</w>
pu zz
oxy gen</w>
nor m
men d
li c</w>
le t
kh ác.</w>
gi ấu</w>
gh t-
fe els</w>
f all
effor t</w>
e mi
ch ani
car ry</w>
at ur
ali zation</w>
St an
S ự</w>
Franci sco</w>
Euro pe
pho to</w>
p id</w>
o ther
mal es</w>
l ôi</w>
h ô</w>
fa ir</w>
differ ently</w>
consci ousness</w>
civi l</w>
b ar</w>
app ly</w>
W illi
Ru ssi
Mar tin</w>
J er
E D</w>
Bri tish</w>
19 6
Ý </w>
y o
ur ban</w>
tri c</w>
tiệ c</w>
th row</w>
stud ying</w>
ster n</w>
sh el
respon sible</w>
r in
pre si
me chani
mar k</w>
l ệnh</w>
jour nali
gu n</w>
govern ments</w>
for est</w>
fi cial</w>
er ci
ear ing</w>
da o</w>
chil d
c ú</w>
ag ree</w>
adv ant
H ey</w>
Fren ch</w>
B ộ</w>
ú ng.</w>
usu al</w>
th ôi.</w>
supp or
sug ge
stu dio</w>
st ar</w>
ri d</w>
perf ec
pas sion</w>
or ed</w>
me mbers</w>
m ẻ</w>
lead ing</w>
intu i
h ố</w>
gi án</w>
easi ly</w>
d ã</w>
condi tion</w>
com mit
b le
ar re
addre ss</w>
a st
S ar
G ab
Dar win</w>
C y
wor ry</w>
sur ve
sm ell</w>
re ve
pre v
oper ation</w>
mp s</w>
mat ely</w>
li f
kh uyên</w>
import antly</w>
im er</w>
hy dro
hel ping</w>
c úm</w>
ari an</w>
ad ver
a thy</w>
U. K.</w>
B en
đ ảng</w>
wi s
tr ốn</w>
tr ăng</w>
to tal</w>
tissu e</w>
ti mately</w>
t u</w>
st ation</w>
ri a</w>
pres sure</w>
ng u</w>
ng on</w>
mat ters</w>
ma gaz
ma g
l âm</w>
kho an</w>
inter act</w>
g ỡ</w>
fi x</w>
failu re</w>
es ome</w>
eng ine</w>
e dge</w>
de spite</w>
d ò</w>
ch .</w>
bu d
b ão</w>
W hi
D o
tre mend
t ĩnh</w>
stati stics</w>
s ữa</w>
s k</w>
no te</w>
ni nh</w>
metho d</w>
les son</w>
kh ao</w>
es cop
el escop
dom in
deter min
descri be</w>
d ứt</w>
cri me</w>
bri lli
ar ies</w>
al u
Ma nh
M r.</w>
Ch ic
B ur
2 2</w>
ẫ y</w>
ượ c.</w>
z en</w>
wis dom</w>
t ân</w>
suffer ing</w>
st one</w>
so li
sho es</w>
relation ships</w>
recei ved</w>
pp er</w>
physi ci
phi ền</w>
mor t
kh ông.</w>
ho pe
graph y</w>
fashi on</w>
ex ten
enor mous</w>
emo tions</w>
bene fit</w>
atmo sphere</w>
as ks</w>
S an
Manh att
Bo ston</w>
Ar ab</w>
2 3</w>
- up</w>
w ear</w>
va tive</w>
sy mp
rest au
re lev
o logy</w>
nu tri
n arra
m ờ</w>
la ws</w>
l ặn</w>
imag ination</w>
i st</w>
h àm</w>
gen tle
fini shed</w>
fi cally</w>
de vi
col lap
co gni
c ất</w>
brea st</w>
brea k
belie f</w>
be d
T or
Smi th</w>
M al
4 0
tr ưa</w>
tion ally</w>
thu ế</w>
s qui
s cul
r y
photo s</w>
ow ers</w>
marke ting</w>
m ệnh</w>
lã m</w>
lo ss</w>
ju d
in ju
h ư</w>
for ever</w>
fo ld</w>
eng age</w>
e th</w>
e duc
de a
cor ner</w>
cl oud</w>
bu ôn</w>
argu ment</w>
ani a</w>
and -
achie ve</w>
ac cep
You Tu
R ập</w>
M ars</w>
Jo e</w>
Jap ane
Ama zon</w>
5 0
z z</w>
tr on
th ăng</w>
s àn</w>
respon d</w>
ra nh</w>
qu a
po e
par tic
o es</w>
land scape</w>
inter action</w>
in -
for eign</w>
fac ts</w>
fa iled</w>
f al
ev ents</w>
e u
d ược</w>
cri min
au .</w>
an ced</w>
9 9</w>
ế ch</w>
ẫ m</w>
x i</w>
ve ge
tu ng</w>
to pi
th iệt</w>
pl at
neigh b
lap top</w>
kh ỉ</w>
he at</w>
gra m</w>
ex erci
equ al</w>
ent ally</w>
d áng</w>
cre ation</w>
ch ìm</w>
bi lities</w>
bene fits</w>
att ack</w>
at ch</w>
an cient</w>
YouTu be</w>
R w
Ng a</w>
Manhatt an</w>
M il
Jap an</w>
Angel es</w>
1 7
z he
worl d
wor kers</w>
vo ices</w>
si ght</w>
sh ouldn</w>
s ac
resear chers</w>
ran dom</w>
prof it</w>
pe st</w>
nà ng</w>
nega tive</w>
nc t</w>
na tive</w>
li ều</w>
l õi</w>
kee ping</w>
hy po
fi ghting</w>
eff ects</w>
di stance</w>
defini tion</w>
compar ed</w>
c ả.</w>
be at</w>
an u
am a</w>
We b</w>
T om</w>
C A
Al zhe
xi nh</w>
wind ow</w>
vi sit</w>
tr ục</w>
temp or
stu ck</w>
sion ate</w>
see med</w>
s u</w>
respon sibility</w>
r al</w>
pro t
pres sed</w>
poli tici
perfec tly</w>
pain ting</w>
oc cur
o be
necess arily</w>
mu ỗi</w>
mar ri
là n</w>
l ông</w>
ins ects</w>
hol ding</w>
gol f</w>
fre qu
figu red</w>
extre me</w>
b ận</w>
b ùng</w>
as p
an z
ag en
accor ding</w>
Str eet</w>
P A</w>
Alzhe imer</w>
Đ iển</w>
y ellow</w>
volun te
un k</w>
ther ap
sp or
rai sed</w>
ra .</w>
r ying</w>
nà o.</w>
nh o</w>
ng ọt</w>
ng ười.</w>
mar ried</w>
limi ted</w>
langu ages</w>
l ang</w>
infra structure</w>
in ci
in ch</w>
g õ</w>
en ess</w>
en ed</w>
disco ver</w>
d ư</w>
con duc
col ors</w>
capi tal</w>
cal cul
bi llions</w>
bal ance</w>
b ank</w>
an n
adul ts</w>
H er
C ái</w>
wh ere
th ổi</w>
th ẻ</w>
t ali
strate gy</w>
s ưu</w>
ro ll</w>
n ảy</w>
n ames</w>
mi lli
k ín</w>
indu strial</w>
h ải</w>
fair ly</w>
din ner</w>
cre atures</w>
charac ter</w>
ch ìa</w>
c ấm</w>
b ụi</w>
af ford</w>
Ne w
A sia</w>
200 5</w>
1 6
ộ m</w>
ượ n</w>
đ ược.</w>
we ir
vi si
ver ing</w>
ve ments</w>
va st</w>
ul timately</w>
u sers</w>
t ố
sh ort
rou gh
rep ort</w>
pu l
possi bility</w>
par k</w>
p rou
other wise</w>
nh au.</w>
n ốt</w>
moun tain</w>
m ouse</w>
invi sible</w>
imp re
g ấu</w>
fi cation</w>
emo tion</w>
dre ams</w>
dra wing</w>
dimen sional</w>
consci ous</w>
comp are</w>
class room</w>
b ếp</w>
Pe ter</w>
Europe an</w>
ấ t.</w>
ướ p</w>
tr ượt</w>
th ùng</w>
th ri
t ươi</w>
t í</w>
t ch
resp ect</w>
r ét</w>
ph ạt</w>
p lea
organi c</w>
or row</w>
norm ally</w>
n an
me ani
ki l
invi ted</w>
ha te</w>
fascin ating</w>
equi pment</w>
easi er</w>
desig ner</w>
construc tion</w>
cat ch</w>
cal cu
bi ts</w>
b ó</w>
b en
W ow</w>
P la
Gre at</w>
D on
B ab
. com</w>
wh en
when ever</w>
vi ru
ver sus</w>
tra ined</w>
tr act</w>
th ế.</w>
t ủ</w>
t ắm</w>
st ances</w>
sec tor</w>
sec tion</w>
s en</w>
ra u</w>
p al
oper ate</w>
open ed</w>
ng ắm</w>
me chan
me at</w>
manag ed</w>
m outh</w>
l ăn</w>
int ell
hou ses</w>
gi am</w>
fac i
en joy</w>
deta il</w>
d ry</w>
cu ộn</w>
coll ective</w>
bio logical</w>
back ground</w>
al d</w>
S W</w>
H en
G r
9 5</w>
1 2
ệ ch</w>
ven u
ve -
u r</w>
trans form</w>
th ịnh</w>
stu died</w>
ra tional</w>
qu ãng</w>
pre vi
op ini
off er</w>
no tion</w>
mi cs</w>
marke ts</w>
lo sing</w>
li con</w>
hi dden</w>
fu el</w>
fi ng
far mers</w>
ee p</w>
disco very</w>
deli ver</w>
da ily</w>
con ta
c les</w>
bro ther</w>
at temp
at ta
al -
W at
V âng</w>
T e
Japane se</w>
3 ,000</w>
à .</w>
tremend ous</w>
th ám</w>
tar get</w>
t ị</w>
se y</w>
quo te</w>
proc es
plan ning</w>
nh ắm</w>
mi r
mi l
lea ving</w>
l ướt</w>
l ec
kh ớp</w>
invest ment</w>
incre a
increa singly</w>
gr own</w>
gi ant</w>
gen ome</w>
fi re
fi ll</w>
exper ts</w>
effi cient</w>
degre e</w>
deep ly</w>
con cen
cap able</w>
blo ck</w>
aw esome</w>
M ic
H ội</w>
H ow
App le</w>
wat ched</w>
ti tude</w>
th áp</w>
th áo</w>
sudd en</w>
ster y</w>
ste ps</w>
shi f
sc an
pro found</w>
po p</w>
pl es</w>
ph ì</w>
ph ái</w>
pa int</w>
on ic</w>
nh ẫn</w>
m ũ</w>
la dies</w>
l ại.</w>
l ường</w>
kh ôn</w>
influ ence</w>
ha ir</w>
h ầm</w>
fi f
en se</w>
electr ical</w>
desi re</w>
der ing</w>
de tec
de fine</w>
dama ge</w>
d ãy</w>
argu e</w>
ali ze</w>
aff ect</w>
accoun t</w>
T his</w>
Hi ggs</w>
C .</w>
Đ úng</w>
z o
univer sity</w>
thin ks</w>
t ướng</w>
sha pes</w>
s at
r ãi</w>
pri mar
pol lu
plan ets</w>
orig ami</w>
oper ating</w>
ng ập</w>
m ạn</w>
lea ds</w>
l unch</w>
inter net</w>
illu str
i ci
foll owed</w>
fi lled</w>
d ents</w>
chi p</w>
ch âm</w>
c ate
al es</w>
U S
Tal k</w>
O x
M an
Ki nh</w>
Joh n
F e
B ang</w>
200 6</w>
đ âm</w>
u n</w>
thu a</w>
surpri sed</w>
su sp
su ng</w>
st antly</w>
spo t</w>
si ck</w>
seri ously</w>
separ ate</w>
sc ar
s and
inter ven
inter pre
coun ter
coll ect</w>
ch úa</w>
b ong</w>
appro pri
advant age</w>
D en
Chri sti
Chic ago</w>
10 0,000</w>
Đ ược</w>
Ú c</w>
z on
w er</w>
v es
tuy ển</w>
tr à</w>
t ông</w>
st ate
so ld</w>
sen si
qu es</w>
p ra
nh ãn</w>
men ted</w>
li ked</w>
lead er</w>
in centi
ga in</w>
f oun
f light</w>
every day</w>
d an</w>
cr y
child hood</w>
campaig n</w>
believ ed</w>
associ ated</w>
as tron
app reci
T ất</w>
T ri
K ing</w>
Eng land</w>
E gy
0 .
ườ ng.</w>
đu ôi</w>
đi êu</w>
w earing</w>
transp ar
tr ick</w>
ta ng
survi val</w>
s ơn</w>
s in</w>
qu át</w>
phenomen on</w>
ph ú</w>
nh iếp</w>
ngh ịch</w>
n ở</w>
n ar
lin k</w>
le tter</w>
ki d
inv esti
hor ri
hel ps</w>
descri bed</w>
d le</w>
competi tion</w>
bir th
ba se</w>
an thro
air plane</w>
ad op
Y e
Pal esti
La tin</w>
L àm</w>
G h
Car ol
20 th</w>
2 7</w>
zz a</w>
w n</w>
val ent</w>
v ây</w>
ten s</w>
si ster</w>
s ki
relev ant</w>
predic t</w>
ob se
neighbor hood</w>
m ấu</w>
l át</w>
gi c</w>
gener ate</w>
fee d
fac tory</w>
fac ing</w>
ex pression</w>
d ám</w>
d it</w>
cli ck</w>
char ge</w>
busin esses</w>
brilli ant</w>
brea th</w>
beg ins</w>
b ớt</w>
b ọ</w>
avo id</w>
asse mb
ad ed</w>
Nh à</w>
F ri
Austr alia</w>
A b
5 0,000</w>
ã nh</w>
tu be</w>
tre ated</w>
th -
surpri se</w>
stor s</w>
sa d</w>
s low
r us</w>
pres ents</w>
on ed</w>
n ọ</w>
magaz ine</w>
ly mp
li ver</w>
kh ơi</w>
k o
ho les</w>
har der</w>
f lies</w>
experi enced</w>
ess ential</w>
engine ers</w>
distribu tion</w>
cli p</w>
c ard</w>
at us</w>
ac a
W ol
T es
S er
Ri o</w>
O lymp
M and
E d
200 4</w>
1 4
1 000</w>
Ô i</w>
weap ons</w>
univer sal</w>
th ính</w>
su gg
scul p
sat elli
s ons</w>
pu ts</w>
prou d</w>
ou l
org ans</w>
no ise</w>
nh ở</w>
lea ves</w>
lab or
kill ing</w>
in sul
hope fully</w>
gu e</w>
g ánh</w>
g lu
ele ments</w>
curr ently</w>
con stantly</w>
commer cial</w>
chea p</w>
ch ục</w>
ch ước</w>
c ậy</w>
c ac
are ly</w>
Y es</w>
T ony</w>
J on
F l
Cong o</w>
C D</w>
B on
z e
x óm</w>
wi l
u nex
transp or
tom orrow</w>
t ough</w>
t ons</w>
sug ar</w>
strugg le</w>
spir it</w>
s n</w>
re gre
r ung</w>
plu s</w>
ph er
pengu ins</w>
p ounds</w>
ort ex</w>
o ffer
n ắng</w>
n on</w>
mort ality</w>
mo ves</w>
ja zz</w>
hã ng</w>
hom es</w>
ha sn</w>
gr an
gi ft</w>
g or
er o
direc t</w>
dimen sions</w>
dem and</w>
clo ck</w>
circu m
c ưỡng</w>
b o</w>
an der
T as
Sch ool</w>
Mic ro
Mar k</w>
Gab by</w>
G ra
3 3</w>
2 9</w>
ò m</w>
y an</w>
vu a</w>
viol ent</w>
vie ws</w>
un less</w>
tu s</w>
th âm</w>
st af
soldi ers</w>
po or
pa ying</w>
organi zed</w>
ng ực</w>
n ow
mal aria</w>
lo cation</w>
let ters</w>
le gi
l ạm</w>
l ò</w>
ju mp</w>
hon est</w>
for e
el er
dri ven</w>
di sh</w>
d ắt</w>
chemi stry</w>
ca ting</w>
ber t</w>
acc eler
Y eah</w>
Rw anda</w>
How ard</w>
E ric</w>
C al
ử ng</w>
đ ấy.</w>
y wood</w>
weir d</w>
to ả</w>
t ent</w>
sto od</w>
speci fically</w>
sol ved</w>
simp li
pi ano</w>
pa y
p il
o sa
ng ốc</w>
multi ple</w>
mu seum</w>
mo di
lab or</w>
kh o</w>
i ze</w>
hack er</w>
go s</w>
g lo
fai th</w>
f an</w>
econom ics</w>
duc tion</w>
concer ned</w>
con fu
comp li
charac ters</w>
as on</w>
appe ar</w>
V ir
M or
D ani
D .</w>
B en</w>
B an</w>
B M</w>
đ ế</w>
y o</w>
weal th</w>
tra v
thre at</w>
th ô</w>
sur ge
si x
shar ks</w>
s ứ</w>
re ss</w>
on y
ne u
mu sc
mo on</w>
ma tically</w>
m ỹ</w>
li t</w>
lau gh
l ùi</w>
kh úc</w>
k ịp</w>
k no
in struc
identi fy</w>
ho ả</w>
h òn</w>
gen cy</w>
elec tion</w>
ec ular</w>
ear th</w>
dre w</w>
do ts</w>
cop y</w>
controll ed</w>
con tra
coll ection</w>
ch úc</w>
cau sed</w>
bl in
aw ful</w>
ar ms</w>
ali ties</w>
W il
Th ổ</w>
T he
Nh a</w>
Ho ả</w>
D el
wi ld</w>
wa ke</w>
valu able</w>
v ở</w>
tố t.</w>
tu ý</w>
tion ing</w>
streng th</w>
slow ly</w>
sent ence</w>
radi cal</w>
prof essor</w>
ph ra
per cei
mo squi
mi gr
marri age</w>
lu ng</w>
high est</w>
h ệt</w>
f at</w>
ex ti
employ ees</w>
el ine</w>
el ess</w>
d at
conti n
cl ou
cir cle</w>
c ởi</w>
c ưới</w>
bro ad
br and</w>
b oun
analy sis</w>
Z i
V en
T ali
L ad
I f</w>
G ates</w>
ề u.</w>
ư ơn</w>
world wide</w>
vide os</w>
tr ấn</w>
the ater</w>
teen ag
st y</w>
spo ke</w>
scen e</w>
ru ral</w>
ri ver</w>
rec y
proper ty</w>
mi x</w>
ma d</w>
k ne
inve st</w>
inf ected</w>
hypo the
gh ten
ga p</w>
fri end
for ced</w>
fi ction</w>
f ell</w>
di sci
d ol
cul tures</w>
consi dered</w>
co vered</w>
ch ic
bl ed</w>
b út</w>
artic le</w>
app ar
ac ted</w>
a war
U </w>
Th iên</w>
Hen ry</w>
H à</w>
H oll
D ương</w>
C oun
B ang
An d</w>
200 3</w>
đ ới</w>
wonder ing</w>
where as</w>
w ra
under ne
underne ath</w>
tu m</w>
toi let</w>
t ần</w>
t ac
sig ned</w>
se v
sa tis
n ợ</w>
mon it
metaph or</w>
meani ng
mag ne
ma ster</w>
m m</w>
lo ck</w>
le g</w>
lar ge
kil ome
h ưu</w>
grand mother</w>
ff er</w>
ex hi
e dy</w>
do gs</w>
disci pl
cont act</w>
consu mption</w>
con cep
cogni tive</w>
char acter
bur n</w>
Ok ay</w>
Micro soft</w>
M an</w>
G a
Fr ank</w>
2 8</w>
2 6</w>
2 1
z i
vol u
v ải</w>
so il</w>
sen ding</w>
safe ty</w>
s ốc</w>
religi ous</w>
re ment</w>
r ửa</w>
r ound</w>
r ant</w>
qu est</w>
produc ing</w>
pi zza</w>
organi sms</w>
org an</w>
or al</w>
ngh iện</w>
m ệt</w>
m úa</w>
lu m</w>
l ật</w>
i or</w>
hea ds</w>
gradu ate</w>
gener ations</w>
g am
four th</w>
feed back</w>
en trop
de struc
de pression</w>
d uyệt</w>
coun t</w>
clin ical</w>
call s</w>
c ối</w>
arti ficial</w>
an alo
Stan ford</w>
S o</w>
Cam bridge</w>
B a</w>
A R
8 00</w>
war ming</w>
w o
v ac
u ne
t esting</w>
t elescop
swi m</w>
stitu te</w>
shar es</w>
s can</w>
remo te</w>
re present</w>
photograph s</w>
ph ẳng</w>
p ort</w>
p ages</w>
op ening</w>
oc ca
o sity</w>
mol ecular</w>
ma ker</w>
inter face</w>
intell ec
h ồng</w>
go ti
gg ed</w>
fini sh</w>
fi le</w>
equi valent</w>
entrop y</w>
engine er</w>
desig ning</w>
curi ous</w>
ch ở</w>
ch ín</w>
batter y</w>
am ine</w>
adver ti
U g
Sco t
Phi li
C ập</w>
Bri an</w>
ố ng.</w>
vir tual</w>
va tions</w>
unex p
typic ally</w>
tr ic
sym bo
sur ing</w>
sp ring</w>
r ập</w>
prev ent</w>
politici ans</w>
plea sure</w>
per ception</w>
open -
om y</w>
ob </w>
mu ộn</w>
me tal</w>
m ỏi</w>
ga ther
fru str
fee lings</w>
fa il</w>
en ni
deta ils</w>
d ải</w>
d op
confi dence</w>
ci ous</w>
ch ur
cele br
call ing</w>
c ướp</w>
c als</w>
bub ble</w>
Th ượng</w>
Th at</w>
S hi
Ox ford</w>
K ar
F ree
At lan
20 11</w>
2 50</w>
wh om</w>
w alls</w>
ti e</w>
sol ving</w>
sil ence</w>
r ễ</w>
profes sional</w>
pre gn
poll en</w>
ngo an</w>
man age</w>
laun ched</w>
kho ái</w>
i an</w>
hor se</w>
g ation</w>
f ran
emp ty</w>
emp athy</w>
deb ate</w>
de -
cha in</w>
ca mp</w>
b ran
appro ach
ani c</w>
acci dent</w>
Ari sto
A bra
ằ n</w>
đ ố</w>
wri ter</w>
vehic le</w>
v ỗ</w>
th ằng</w>
spi ri
sel ling</w>
scop e</w>
sa ved</w>
s ạn</w>
s ke
resour ce</w>
psycho logy</w>
prin ting</w>
pic ked</w>
ph ím</w>
person ally</w>
pas sionate</w>
om o</w>
nh ặt</w>
na tions</w>
m as</w>
kh ói</w>
j i
ill ness</w>
i ll</w>
ho spi
h ome
fe wer</w>
dri ver</w>
defini tely</w>
defin ed</w>
cu ồng</w>
cre dit</w>
character i
cau ght</w>
b right</w>
aff ected</w>
adu lt</w>
M y</w>
M ad
L ar
Gh ana</w>
For d</w>
E x
A li
2 ,
ế t.</w>
đ ẻ</w>
w oo
vic ti
tic a</w>
thu ẫn</w>
therap y</w>
th ôn</w>
ri de</w>
ra pi
r áp</w>
prom ise</w>
produc tive</w>
pro ve</w>
presi dent</w>
plac ed</w>
part ner</w>
mu r
mo tion</w>
m ảng</w>
m ười</w>
kh ẳng</w>
kh ôi</w>
kh iếm</w>
k ly</w>
inv ent</w>
inte gr
in ner</w>
ha dn</w>
gr ate
gentle men</w>
exi st
di et</w>
cre te</w>
convin ced</w>
clo sed</w>
cho col
cate g
bu ying</w>
bo tt
blo cks</w>
bir d</w>
b ấy</w>
algorith ms</w>
W all</w>
Tali ban</w>
Su n</w>
S au
K o
199 0</w>
19 60</w>
đo an</w>
đ ồi</w>
đ ạn</w>
í u</w>
ì .</w>
victi ms</w>
v ươn</w>
tri p</w>
tre o</w>
trac king</w>
t ựa</w>
t te</w>
sig nal</w>
shar k</w>
sa ges</w>
requi res</w>
qu id</w>
pla yer</w>
on -
no tes</w>
ner v
ne goti
n ate</w>
ma nh</w>
m ồi</w>
m ày</w>
la yer</w>
kh uyết</w>
k m</w>
intellig ent</w>
in o
i P
hea vy</w>
gen der</w>
fol ks</w>
ear th
dyna mic</w>
di sc
desig ners</w>
dee per</w>
consequ ences</w>
connec tions</w>
cle an
c ắm</w>
ath le
arri ved</w>
ar ts</w>
ap er</w>
ac cept</w>
absolu te</w>
M ẹ</w>
Le e</w>
C op
3 2</w>
ị .</w>
đị ch</w>
đ áo</w>
vi ta
tradi tion</w>
topi c</w>
ter r
staf f</w>
so phi
rele ased</w>
r ắn</w>
r hy
qu i</w>
narra tive</w>
musi cal</w>
mi s
mat ch</w>
life time</w>
le ge</w>
la ser</w>
l ấp</w>
khuy nh</w>
imp li
hospi tals</w>
g ối</w>
fal se</w>
exp ected</w>
exerci se</w>
en jo
ele ph
eff ectively</w>
demo cratic</w>
cu tting</w>
concen tr
ch ee
b ơm</w>
ander th
achi ev
ac cu
a in</w>
a bu
T ex
M y
Kor an</w>
Gi áo</w>
Ar thu
Ale x
wor ried</w>
wea ther</w>
thre at
t ables</w>
sour ces</w>
sha ke</w>
se tting</w>
re di
re action</w>
prom o
princi ple</w>
or ang
mi ss</w>
mani pu
ma kers</w>
m âu</w>
m àng</w>
m el
là m.</w>
li quid</w>
less ons</w>
l ợn</w>
j e
inven tion</w>
intro duced</w>
in dependent</w>
import ance</w>
hur t</w>
h ung</w>
for med</w>
ex act</w>
en a</w>
dol ph
cu s</w>
cer e
c ent
birth day</w>
b in</w>
an .</w>
ac tor</w>
X -
Ug anda</w>
S ci
G ul
Fl ori
8 5</w>
19 4
Ở </w>
ỉ a</w>
đ ền</w>
đ ạc</w>
ty -
tru m</w>
techni cal</w>
st able</w>
si an</w>
sha me</w>
rough ly</w>
ris ks</w>
rela tively</w>
regu lar</w>
re ward</w>
proc esses</w>
prac tical</w>
no se</w>
newsp aper</w>
n ô</w>
mon y</w>
manag ement</w>
li br
l ưỡng</w>
l ant</w>
k i</w>
j a</w>
is ting</w>
intro duce</w>
ing redi
h ell</w>
g li
f s</w>
ester day</w>
er ror</w>
emi ssions</w>
emer ging</w>
e .</w>
du ces</w>
di o
de sti
correc t</w>
civili zation</w>
bu cks</w>
b ắp</w>
amoun ts</w>
abi lities</w>
Tr ường</w>
Ste ph
Ne anderth
M ặt</w>
L a</w>
Ger many</w>
F er
Bu sh</w>
3 1</w>
1 20</w>
ụ n</w>
ướ c.</w>
v ẹn</w>
unexp ected</w>
u ser</w>
tri als</w>
tow ard</w>
thou ghts</w>
swi tch</w>
stu pid</w>
st atus</w>
sh all</w>
s ắt</w>
re lease</w>
r ates</w>
protec tion</w>
poe try</w>
pla yers</w>
p ack
oun ding</w>
or es</w>
or a</w>
ol ly</w>
nh ầm</w>
mu sh
mista kes</w>
mi rac
ma m
li cen
k ins</w>
k et</w>
k es
in sur
happ i
h ẹp</w>
fall ing</w>
f oundation</w>
er -
dou ble</w>
d ẻo</w>
co al</w>
be ar</w>
an xi
addi tion</w>
ad ded</w>
ab str
a c</w>
V iện</w>
Tr ời</w>
Tex as</w>
N .</w>
J im</w>
Gre en
Ch ỉ</w>
Arthu r</w>
ậ t.</w>
á .</w>
vulner able</w>
u tionary</w>
tu ân</w>
transfor mation</w>
tr ân</w>
th ắc</w>
t an
se ts</w>
se es</w>
se at</w>
qua ke</w>
por tra
po st-
plat form</w>
partic les</w>
o li
no vel</w>
nerv ous</w>
men tioned</w>
m i</w>
long- term</w>
le ng
la dy</w>
l ận</w>
họ .</w>
hon or</w>
gra vity</w>
gi es</w>
fiel ds</w>
ex isting</w>
epi demic</w>
eng aged</w>
effi ci
ea st</w>
d ọn</w>
chocol ate</w>
care fully</w>
cac bon</w>
c ạn</w>
bud get</w>
al ed</w>
a nh.</w>
L au
I .
Flori da</w>
B ank</w>
wi ngs</w>
v ĩnh</w>
tain ment</w>
t abo
sugge sts</w>
stro nger</w>
sing ing</w>
resi dent</w>
refu ge
re scu
re main</w>
re g
r i</w>
pro ce
pre -
possi bilities</w>
pol y
po st</w>
ment ary</w>
men tion</w>
mathema tics</w>
im mu
i re</w>
hydro gen</w>
go ods</w>
go ld</w>
fac tor</w>
exi sts</w>
evi l</w>
en cing</w>
e da</w>
dep ends</w>
ci ans</w>
chic ken</w>
chemi cals</w>
ch ả</w>
c ừu</w>
c ers</w>
bur g</w>
bo at</w>
bi ke</w>
at oms</w>
an tic</w>
an der</w>
Swe den</w>
Sahar a</w>
M ọi</w>
Kor e
H y</w>
G ol
E ver
D V
Cy rus</w>
Char lie</w>
Ch à</w>
C enter</w>
3 .
ter ed</w>
str ing</w>
spec trum</w>
sha d
sh y</w>
se ven
se l</w>
restau rant</w>
requi re</w>
prote ins</w>
poli o</w>
p m</w>
ox ide</w>
oo k</w>
nh àng</w>
l ệch</w>
kẹ o</w>
khi êu</w>
im provi
gri d</w>
gi ới.</w>
g in
d ạo</w>
co ng
cho se</w>
c ki
c as
be t</w>
b ỗng</w>
awar eness</w>
au ton
at trac
ari o</w>
appropri ate</w>
anti -
accur ate</w>
S he
P M</w>
Nor den</w>
Jo se
H an
G ar
D is
C or
Aristo tle</w>
A la
20 50</w>
ổ i.</w>
ể .</w>
đ ỗ</w>
í p</w>
we st</w>
w ars</w>
vacc ines</w>
un like</w>
un e</w>
ti li
ta pe</w>
sp on
sle e
sign als</w>
sho ck</w>
sh e
sen ses</w>
s .</w>
roo t</w>
per cent
pat ent</w>
p tion</w>
mu lation</w>
medi um</w>
m ỏng</w>
m ọc</w>
ly n</w>
l ờ</w>
l ũng</w>
l i</w>
ke y
ju mp
j am
is land</w>
in ts</w>
họ c.</w>
hu mor</w>
hou se
h uyền</w>
grand father</w>
g ment</w>
fl ower</w>
est ab
electri c</w>
di r
conven tional</w>
ch est</w>
cen tu
car rying</w>
car ds</w>
ca ve</w>
c ắp</w>
c ents</w>
auth ority</w>
ar do</w>
an ce
alter native</w>
Ye men</w>
V ic
TED x
S un
Li b
E D
D ay</w>
Ar ab
200 1</w>
đ ợt</w>
đ àm</w>
wonder ed</w>
wh el
un it</w>
tu mor</w>
to x
to s</w>
tempor ary</w>
techni ques</w>
t ane
stric t</w>
stor y
sh op
sensi tive</w>
sc ared</w>
sa mple</w>
rapi dly</w>
princi ples</w>
or ing</w>
ol ds</w>
memor ies</w>
m -
li um</w>
in o</w>
in ary</w>
h o</w>
fun ding</w>
fre sh</w>
fra me</w>
fra me
ex press</w>
er al</w>
econom ies</w>
eco system</w>
compon ents</w>
cke ts</w>
ch ợ</w>
ch ăn</w>
c ross</w>
brea king</w>
b les</w>
b attle</w>
auth or</w>
ang le</w>
Willi am</w>
T er
St ar
S ao</w>
Ro s
P en
M er
J or
Holl ywood</w>
B ron
7 00</w>
đ ai</w>
x ám</w>
w ine</w>
v ated</w>
v ang</w>
tt i</w>
transi tion</w>
ti ous</w>
t ary</w>
sun light</w>
sub jects</w>
spor ts</w>
soli d</w>
sequ ence</w>
se tt
sa tions</w>
ri di
rhy th
regi ons</w>
r are</w>
pri vi
ph o</w>
pe ak</w>
particip ate</w>
p -
over whel
ne ar
multi -
mul ate</w>
me mber</w>
m ồ</w>
k iệt</w>
j ected</w>
inter ests</w>
incre ased</w>
ho ping</w>
gi ãn</w>
gala xy</w>
far m</w>
fa ke</w>
encoura ge</w>
en ty</w>
e o
dra matic</w>
de aling</w>
d ốc</w>
cap ture</w>
bo xes</w>
b re
ap s</w>
ani mation</w>
U. N.</w>
St .</w>
Si ng
P rin
Le go</w>
J ac
H y
H ans</w>
G ore</w>
Ch ính</w>
Bri tain</w>
A i
đâ u.</w>
đ à</w>
â n.</w>
z one</w>
y esterday</w>
well- being</w>
war m</w>
wal ks</w>
wa ves</w>
w are</w>
ven ture</w>
tr ú</w>
tho ái</w>
te a</w>
sub -
sta yed</w>
sp a
sophi sti
run s</w>
ra m</w>
pla y
para di
opini on</w>
ner ship</w>
n or</w>
moun tains</w>
min d
mi ser
mes sages</w>
l ượt</w>
kh éo</w>
inter view</w>
h ạch</w>
h ôi</w>
frame work</w>
f ellow</w>
f ab
ex plan
econom ists</w>
dr ink</w>
d âm</w>
coo king</w>
con crete</w>
c ựu</w>
c ương</w>
bu ýt</w>
behavi oral</w>
bar ri
b ọc</w>
ast oni
ann oun
ag gre
Z eal
Th ực</w>
Sing ap
M in
L ED</w>
K ev
E li
CE O</w>
C ộng</w>
A my</w>
A m
ễ u</w>
ẹ o</w>
vari ety</w>
v é</w>
tu n
trav eling</w>
the -
th ẳ
th ép</w>
t our</w>
swi mming</w>
sug gest</w>
s ôi</w>
s kill</w>
reas on
r ẽ</w>
quy ên</w>
pro s
pre ven
pl ans</w>
philosoph y</w>
op tion</w>
ol a</w>
o y
ng -
na vi
mo vements</w>
mi x
m òn</w>
lar ly</w>
l ắc</w>
l ơ</w>
l úa</w>
l oud</w>
kẹ t</w>
jo ined</w>
insul in</w>
ine vi
in sti
i te
g al</w>
fundam entally</w>
ell er</w>
el ed</w>
dr o</w>
din osa
d ội</w>
cu re</w>
cra ft</w>
b ách</w>
ad vice</w>
ac qui
Q </w>
M ur
H ọc</w>
H iệp</w>
Ger man</w>
G and
De tro
D on</w>
Chri st
A .</w>
3 6</w>
war t</w>
view ed</w>
venu e</w>
v ay</w>
tr ật</w>
th care</w>
te eth</w>
ta tive</w>
swee t</w>
smi le</w>
sha ped</w>
sh oul
ser ved</w>
sand wi
s na
re presents</w>
r ani
pe di
p ound</w>
p on
ow er
nhi ều.</w>
ng ừa</w>
ne i
n êu</w>
n én</w>
mu m</w>
mil k</w>
meaning ful</w>
manufactu ring</w>
kilome ters</w>
kes pe
il legal</w>
har d
h ori
h an
ex ter
environ ments</w>
entreprene urs</w>
en z
doub t</w>
devi l</w>
den se</w>
d ở</w>
d am</w>
d able</w>
comb ination</w>
c ry</w>
bo ttle</w>
b á</w>
b al</w>
ar m
ans as</w>
Zeal and</w>
Sha kespe
S om
Russi a</w>
Mi ke</w>
L ong</w>
F in
E a
Abra ham</w>
x ăng</w>
worl ds</w>
wa ve</w>
viru ses</w>
vir tu
un usual</w>
te sted</w>
te e</w>
te ams</w>
t ted</w>
symp tom
stu re</w>
sto ck</w>
sac ri
s outh</w>
s i</w>
ru ồi</w>
resi stance</w>
proces sing</w>
primar y</w>
previ ous</w>
po ses</w>
ph ác</w>
percent age</w>
or d</w>
mo tor</w>
liter ature</w>
l er
ke ys</w>
inten se</w>
intellec tual</w>
instru ment</w>
i zed</w>
gu ar
gener ally</w>
for ests</w>
fil ms</w>
fi ve-
ex change</w>
es ca
emb race</w>
ele ment</w>
el ev
earth quake</w>
do t</w>
dic ated</w>
dang er</w>
cor n</w>
con stant</w>
compu ting</w>
comb ine</w>
clou ds</w>
circum stances</w>
can di
ca tional</w>
ba se
autom a
auth ori
auth enti
appli ed</w>
an ony
agri culture</w>
ad mi
ac king</w>
Th ứ</w>
Singap ore</w>
L ạp</w>
H ải</w>
H àn</w>
Gul f</w>
C en
C H
3 7</w>
20 ,000</w>
. C.</w>
v ời.</w>
v án</w>
tr ừu</w>
tr illi
prepar ed</w>
n ano</w>
mu ối</w>
mir ror</w>
mechani sm</w>
ma ps</w>
j ective</w>
hol ds</w>
ho ài</w>
gre enh
fu sion</w>
fl owers</w>
f ears</w>
disp lay</w>
dan cing</w>
co ck
challe nging</w>
bor der</w>
b ìa</w>
at ar</w>
appli cations</w>
af for
acc es
Yor ker</w>
Sy ria</w>
S k
S S</w>
P u
P ol
P T
M ini
M el
H i</w>
Dani el</w>
B ảo</w>
. D.</w>
y ard</w>
x ôi</w>
x íu</w>
x ies</w>
v ượng</w>
ti an</w>
thi c</w>
th ể.</w>
t at
st eel</w>
st ands</w>
ss -
sacri fi
sa mples</w>
re verse</w>
re min
qu ad</w>
progra m
pres ence</w>
po ster</w>
physi cally</w>
phra se</w>
par ent</w>
of -
oce ans</w>
n ản</w>
n an</w>
mista ke</w>
me -
main ly</w>
m ượn</w>
less ly</w>
k g</w>
jo ke</w>
iế c</w>
insi ght</w>
inno vative</w>
inclu de</w>
immu ne</w>
identi cal</w>
h óc</w>
gr ab</w>
gi ặt</w>
gen i
ell o</w>
e sia</w>
do ors</w>
destruc tion</w>
de man
crow d</w>
con sum
bur gh</w>
bor ders</w>
behavi ors</w>
ax is</w>
at en</w>
ag re
a po
Wat son</w>
W om
W in
St ate</w>
P resident</w>
P ho
N an
Musli m</w>
Mand ela</w>
Isla mic</w>
In don
D emo
Col a</w>
B C</w>
A h
4 ,000</w>
21 st</w>
19 70</w>
19 50</w>
ờ ng</w>
z oo
win ter</w>
vi sible</w>
vi ngs</w>
vel ed</w>
to ler
the s</w>
sustain ability</w>
sup pose</w>
so ạn</w>
sk a</w>
ro ads</w>
re place</w>
proce du
pro of</w>
pre d
phi a</w>
pe ace
nghiệ t</w>
ng dom</w>
min ation</w>
m on</w>
lu s</w>
life style</w>
large ly</w>
l en
i son</w>
hi de</w>
her oes</w>
hel p
h ét</w>
grate ful</w>
go als</w>
g ro
func tional</w>
f r
equ ally</w>
en ted</w>
emb arra
e ggs</w>
deter mine</w>
de partment</w>
d ding</w>
convin ce</w>
contra st</w>
continu ed</w>
clo sely</w>
chu a</w>
ch ợt</w>
c tic</w>
c ortex</w>
c ats</w>
bu sy</w>
bu st</w>
b ướ
b ag</w>
att acks</w>
archi tect</w>
Steph en</w>
S im
S atur
R ay</w>
Po le</w>
I BM</w>
H e
G lob
F oundation</w>
Detro it</w>
D A</w>
Bu t</w>
B ol
ù n</w>
õ ng</w>
y i
v or</w>
ul timate</w>
transfor med</w>
tou ched</w>
te sts</w>
t ím</w>
su rely</w>
stu r
some what</w>
situ ations</w>
sig ns</w>
sev ere</w>
s we
reme mb
rea ching</w>
radi ation</w>
rac ing</w>
puzz le</w>
proto type</w>
pro por
per man
pass words</w>
par king</w>
pain ful</w>
nh ào</w>
natur ally</w>
n át</w>
movi es</w>
mea suring</w>
me tabo
lo yed</w>
leng th</w>
kee ps</w>
incre asing</w>
in di
ic a</w>
i ds</w>
hu nger</w>
horri ble</w>
hi p</w>
heal thcare</w>
gra tion</w>
gener ated</w>
g ì.</w>
g ence</w>
fin ance</w>
fac ial</w>
ex pre
ev alu
es timate</w>
el d</w>
dr in
d ũng</w>
corpor ate</w>
collabor ation</w>
coll ected</w>
chan nel</w>
ch ron
ch art</w>
bal lo
all owing</w>
ag s</w>
adverti sing</w>
ad dic
Th ánh</w>
Mon t
In stitute</w>
I cel
G en
Ch iến</w>
Br own</w>
4 8</w>
độ n</w>
ú c.</w>
ô la</w>
y n</w>
wi de
whi st
wat er
u g
tr ộm</w>
ti ễn</w>
thẳ m</w>
th ầm</w>
t ê</w>
su ici
str et
sta tions</w>
shoo t</w>
sel s</w>
ridi cul
resi li
proper ties</w>
pre fer</w>
pho sph
pass word</w>
par aly
p a</w>
over all</w>
op tions</w>
min ate</w>
mi d
mathema tical</w>
ma gni
m ộng</w>
ll -
li kes</w>
ki tch
ki e</w>
ju dge</w>
journali st</w>
j o</w>
hi ts</w>
h ụt</w>
h uy
gra in</w>
fran kly</w>
for mer</w>
fac ed</w>
electr on</w>
duc ing</w>
discu ssion</w>
disa ster</w>
diagno sed</w>
de va
cy ber
consu mer</w>
con stra
ch op
cen ters</w>
c ống</w>
bur ning</w>
b ê</w>
as si
argu ments</w>
anti bio
an i</w>
ali sm</w>
ad ing</w>
Shakespe are</w>
Pri ze</w>
Ng ài</w>
N ày</w>
K u
Isra el
Glob al</w>
Chi le</w>
B ob</w>
B lu
+ </w>
độ ng.</w>
x ích</w>
wi re
whe el
wh eel</w>
vulner ability</w>
vehic les</w>
ve mber</w>
tr áng</w>
techni que</w>
t ta</w>
symptom s</w>
su m</w>
st eri
sp reading</w>
rea ched</w>
re move</w>
qui et</w>
qu ạ</w>
pu lled</w>
prot ected</w>
pla ys</w>
per form</w>
p y</w>
on ies</w>
obse ssed</w>
nh ện</w>
nei ther</w>
n ề</w>
my stery</w>
mi le</w>
labor atory</w>
l ánh</w>
insur ance</w>
imp le
hou sing</w>
greenh ouse</w>
gala xies</w>
fascin ated</w>
expla ined</w>
exist ence</w>
es the
enter tainment</w>
el son</w>
depend ence</w>
de sk</w>
d ỗ</w>
cul ar</w>
coun ter</w>
contin ent</w>
coll ecting</w>
certain ty</w>
centu ries</w>
camer as</w>
bor ing</w>
b ám</w>
assu me</w>
as pi
ap p</w>
anu ary</w>
ang er</w>
alle y</w>
ad mit</w>
activi ties</w>
Ste wart</w>
S tu
S ou
S am</w>
R evolution</w>
P or
O ne</w>
Ng ân</w>
Jose ph</w>
Jo shu
J anuary</w>
Indon esia</w>
H aw
Carol ina</w>
B ình</w>
B ei
200 2</w>
đ ẽ</w>
x ưởng</w>
wel come</w>
u nh
tr ag
ton ight</w>
te mber</w>
ta ste</w>
sophisti cated</w>
so -
shu t</w>
sh ir
satelli te</w>
s ắm</w>
s úc</w>
r and
qu ặc</w>
pu re</w>
pollu tion</w>
nur ses</w>
neighb ors</w>
n i</w>
l ều</w>
her o</w>
graph ics</w>
glo be</w>
g ũi</w>
g ìn</w>
fur ni
fo ssi
fini te</w>
fing ers</w>
es tion</w>
ep tember</w>
eng ag
el ly</w>
divi de</w>
deser t</w>
de tect</w>
de sper
conver sations</w>
co -
chur ch</w>
ch ôn</w>
ch rom
capi tali
c ài</w>
c at</w>
bro thers</w>
bro ke</w>
be et
b ẩn</w>
b óc</w>
adv anced</w>
a mo
S eptember</w>
Ros ling</w>
Nh ĩ</w>
Joshu a</w>
F re
E m</w>
DV D</w>
Christ mas</w>
C ri
C i
Bo s
3 0
19 th</w>
ự c.</w>
wor ker</w>
transpor tation</w>
tr au
ti t
th ung</w>
su ffer</w>
stru ck</w>
spo ken</w>
sc ra
s áo</w>
s lo
s l
ru ột</w>
recor ded</w>
re late</w>
pregn ant</w>
photograph y</w>
ph ase</w>
pa pers</w>
p ack</w>
on e
obe sity</w>
o th</w>
no where</w>
ne ts</w>
mi ssed</w>
mar ath
kho áng</w>
j ection</w>
inter actions</w>
inspi ration</w>
in put</w>
i on</w>
h ò</w>
gi ọt</w>
gh ters</w>
ge ous</w>
gar den</w>
fee ding</w>
expla ins</w>
er a
effici ency</w>
dro pped</w>
dop amine</w>
disappe ar</w>
contro ver
consi st
com man
cla im</w>
ch ẽ</w>
ch úng.</w>
c ược</w>
a partment</w>
Wom en</w>
Je sus</w>
Is land</w>
I rani
Ge o
G G</w>
Don ald</w>
Cong ress</w>
C ho
B ây</w>
B J</w>
An drew</w>
5 5</w>
19 80</w>
- like</w>
ủ a</w>
ve y</w>
v òi</w>
under water</w>
un known</w>
th ổ</w>
techno logical</w>
t all</w>
sum mar
sou l</w>
so ngs</w>
sens ors</w>
requi red</w>
recor ds</w>
re ver
re fer
r ũ</w>
r ors</w>
pu shing</w>
pol ar</w>
plan es</w>
pl ace
ph e</w>
ol ing</w>
offer ed</w>
metho ds</w>
mechan ical</w>
mb le</w>
lu ỹ</w>
logi cally</w>
kitch en</w>
intui tive</w>
inter active</w>
incenti ves</w>
impli cations</w>
i so
hon est
ho tel</w>
har ve
hand le</w>
gi e</w>
furni ture</w>
fun ded</w>
fac tors</w>
exper t</w>
e g
desig ns</w>
d ated</w>
coura ge</w>
cop y
cla sses</w>
bu tton</w>
b ấm</w>
ar ch
W right</w>
T a</w>
N elson</w>
N G
M S</w>
Le on
L ou
Kev in</w>
J ack</w>
H ouse</w>
Gand hi</w>
Fr ance</w>
E l</w>
Cu ộc</w>
C òn</w>
C ap
Bron x</w>
Ber k
B il
B I</w>
Arab ic</w>
Ar t</w>
An tar
199 9</w>
Đ ừng</w>
z er</w>
z ar
you nger</w>
x ăm</w>
wh ale</w>
volu me</w>
v ạch</w>
v .
tri bes</w>
tri be</w>
trans late</w>
th al
surr ounded</w>
state ment</w>
sa u
religi ons</w>
re stor
rai sing</w>
pro p
pri v
pot entially</w>
poin ted</w>
po sing</w>
pl om
pl ate</w>
ph un</w>
out come</w>
neur on</w>
n ồng</w>
mee tings</w>
m ổ</w>
m ô
m ãnh</w>
limi ts</w>
le st</w>
la unch</w>
l ỡ</w>
l ăng</w>
ide al</w>
hear ts</w>
gran ted</w>
gra ss</w>
gr and</w>
g un
g on
fun d</w>
fri ger
four -
fl at</w>
fa thers</w>
exp an
dic tionary</w>
di str
di plom
di c</w>
custom ers</w>
cu p</w>
collap se</w>
col um
co ast</w>
ch ọc</w>
cau sing</w>
bur ger</w>
bom b</w>
bi li
bi as</w>
as s</w>
ad ly</w>
ab e
a eda</w>
Q aeda</w>
Nh ư</w>
Mu seum</w>
G la
Egy pt</w>
E m
B à</w>
Alex ander</w>
A ir
3 8</w>
- to-
â ng.</w>
wh er
wher ever</w>
wh ales</w>
tor ies</w>
teenag ers</w>
sti cks</w>
st ag
sk y
sel ection</w>
s chi
rom antic</w>
rea ds</w>
re friger
re con
quy ến</w>
qu anti
provi ding</w>
prom i
pro jec
pl enty</w>
organi ze</w>
no on</w>
như ờng</w>
n ụ</w>
n ếp</w>
main tain</w>
m ươi</w>
lau gh</w>
lat est</w>
l ề</w>
l ùng</w>
l ân</w>
ki lo
ja il</w>
inter nal</w>
inh er
in dic
il ls</w>
ignor e</w>
hã m</w>
histor ical</w>
he ight</w>
happi er</w>
h iếp</w>
h all</w>
fro zen</w>
fra m</w>
f at
en ting</w>
en i
dra matically</w>
dea ths</w>
cur ve</w>
cor al</w>
conflic ts</w>
conclu sion</w>
comb ined</w>
ci l</w>
chu ông</w>
b ồi</w>
attemp t</w>
ag en</w>
Wol fram</w>
W K</w>
V alley</w>
Uni on</w>
Si licon</w>
Scot land</w>
Lad en</w>
K e
J H</w>
Icel and</w>
Hi gh</w>
F a
E l
E .
D ec
Col um
Bi ble</w>
year- olds</w>
y pe</w>
xu ân</w>
x ướng</w>
wind ows</w>
wi red</w>
v ứt</w>
tu ne</w>
trilli on</w>
tra veled</w>
tr end</w>
ti vi</w>
three- dimensional</w>
the me</w>
th in</w>
ta x</w>
syn the
success fully</w>
sp ar
sh ell</w>
see ds</w>
se ed</w>
se -
s ét</w>
ru b
ro of</w>
re pair</w>
re ference</w>
ran e</w>
preci sely</w>
popu lations</w>
p in
orig in
or ders</w>
ni k</w>
ng ưng</w>
ne s
mam mo
m ỳ</w>
m ến</w>
m in</w>
lo go</w>
licen se</w>
libr ary</w>
l éo</w>
kin son</w>
illu sion</w>
huy nh</w>
habi t
fortu nate</w>
fif th</w>
fi xed</w>
f loo
exi sted</w>
evol utionary</w>
elec tro
e go</w>
distribu ted</w>
compon ent</w>
classi c</w>
ch ớp</w>
carto on</w>
care ful</w>
c ans</w>
by e</w>
brea the</w>
appli cation</w>
ang ry</w>
am ing</w>
Tas mani
Tal ks</w>
T im</w>
S au</w>
S O
M A</w>
L ook</w>
L .
Ea stern</w>
B A</w>
20 12</w>
2 4
1 3
wan ting</w>
volunte ers</w>
v ờ</w>
v õng</w>
tr án</w>
tr iệt</w>
tion -
th ắt</w>
th ấm</w>
surge on</w>
str ies</w>
st ea
spea kers</w>
smo ke</w>
si mul
sh eep</w>
ser ving</w>
sec ure</w>
sc ore</w>
sa vings</w>
s lu
roo ts</w>
regre t</w>
recy c
re moved</w>
pur su
pre ce
po cket</w>
ph arm
pe t</w>
ow l</w>
out comes</w>
or ch
occur red</w>
nhiễ u</w>
ng ớ</w>
ng ẫm</w>
n els</w>
n ction</w>
m ộ
l ưỡi</w>
l en</w>
k ni
invi te</w>
incre ases</w>
gin ia</w>
g all
figu res</w>
exhi bi
equ ation</w>
engag ement</w>
ene my</w>
edu cational</w>
e ma
e m.</w>
di stur
destro yed</w>
commit ment</w>
clo thes</w>
ci ally</w>
be have</w>
b ốc</w>
b ow</w>
b att
as sa
appar ently</w>
app le</w>
acces sible</w>
Zi mb
Vir ginia</w>
T anz
S ĩ</w>
S her
O E
N I
M T</w>
K in
Isla m</w>
F u
D ou
C ách</w>
B ell</w>
Ar g
Al pha</w>
4 2</w>
ầ u.</w>
đ c</w>
vi bra
v ụn</w>
transpar ency</w>
ti ed</w>
t ects</w>
stati sti
stand ards</w>
si ties</w>
secon dly</w>
sc r
s or</w>
robo tic</w>
rela tions</w>
ra w</w>
pri son
poor est</w>
po em</w>
nor th</w>
mor ality</w>
mi li
m ou
m ess</w>
lin ked</w>
l ates</w>
kne e</w>
k ness</w>
in va
il a</w>
hu ng
h ít</w>
h en</w>
gh ê</w>
g ai</w>
fri ghten
fle xi
fi shing</w>
f ed</w>
f alls</w>
eng aging</w>
dri ves</w>
divi ded</w>
dec line</w>
dat ab
d less</w>
d der</w>
d ates</w>
crimin al</w>
co ok</w>
chrom o
c ow</w>
br ow
be e</w>
ban ks</w>
b y-
as tro
appe ars</w>
antibio tics</w>
an c
ad a
achiev ed</w>
aca demic</w>
abstr act</w>
ab sor
Sim on</w>
S yl
Pro ject</w>
P an
New ton</w>
N C
L ine</w>
In di
I s</w>
H eal
F o
ED I</w>
E thi
Del hi</w>
Bu dd
Bei j
B la
19 00</w>
- making</w>
ú t.</w>
z a
win ning</w>
wi re</w>
vil le</w>
v ịnh</w>
v is</w>
u y</w>
u pper</w>
tu bes</w>
ti ll</w>
t ựu</w>
t z</w>
surve y</w>
surpri singly</w>
suici de</w>
ste in</w>
spea ker</w>
sp lit</w>
sil ent</w>
rema ins</w>
re mind</w>
priv acy</w>
po ol</w>
perfor ming</w>
pas se
particip ants</w>
ow ned</w>
ol dest</w>
nă m.</w>
nh ạt</w>
nh óc</w>
ngu e</w>
n -
m óng</w>
l ên.</w>
khi êm</w>
k ìa</w>
ji had</w>
it ch
imag ined</w>
ho ods</w>
guar an
go od
g ác</w>
fu ll-
explor ation</w>
exp and</w>
ex tent</w>
estab li
er ra</w>
em bed
elec tions</w>
di v
d ges</w>
conven i
connec ting</w>
cli mb
cle ver</w>
classi cal</w>
celebr ate</w>
ca st</w>
b ầy</w>
autom o
ar my</w>
appreci ate</w>
appe ared</w>
ali sts</w>
al bu
after noon</w>
a do
a bun
Tasmani an</w>
T ha
Ph ải</w>
Palesti ne</w>
M ac
Le w
L iệu</w>
H am
G ener
G ala
Ethi op
E S
Cop enh
C lin
B ir
Arg enti
9 9
7 2</w>
20 30</w>
2 5
. m.</w>
ọ ng.</w>
ư ởi</w>
đo ạt</w>
ô -</w>
zoo m</w>
x à</w>
we igh
ven ess</w>
un clear</w>
ti zed</w>
ti tle</w>
ti le</w>
th ượng</w>
t ched</w>
t arian</w>
t ancy</w>
strang ers</w>
st or</w>
sh er</w>
s ọ</w>
ri sing</w>
recei ve</w>
re gar
ra mi
r ỗng</w>
provi ded</w>
presen ted</w>
pow ers</w>
paradi g
pain tings</w>
ou ri
oper a</w>
offi cial</w>
off ers</w>
ng st</w>
neuro science</w>
n ó
min ing</w>
man n</w>
lu i</w>
la m</w>
inju ry</w>
imag ing</w>
ignor ance</w>
gu il
ga ther</w>
g ậy</w>
fe males</w>
exti nct</w>
expec tations</w>
ev ening</w>
dri ll</w>
destro y</w>
den sity</w>
d ịp</w>
contribu te</w>
consu me</w>
comfor t</w>
chea per</w>
ch ằm</w>
ch arity</w>
boun dar
bi cycle</w>
b ree
b ers</w>
astron om
ar ing</w>
an -
amo ngst</w>
all -
agen da</w>
ad mini
a mp
T ự</w>
Syl via</w>
Olymp ic</w>
N A</w>
Musli ms</w>
Mo z
Mat t</w>
M t</w>
Le ban
Ken ne
Ch ủ</w>
C ám</w>
Ar chi
5 8</w>
ỏ .</w>
v ả</w>
thi er</w>
telescop e</w>
te en</w>
t ơ</w>
symbo l</w>
stra igh
si vely</w>
sh eet</w>
sens ory</w>
se t
se ason</w>
sculp ture</w>
sandwi ch</w>
repor ted</w>
re lation</w>
ra ti
r at</w>
qu an
pu t
proper ly</w>
pri ori
phosph or
ph ốt</w>
part ners</w>
p en</w>
optimi stic</w>
open- source</w>
on ics</w>
occu r</w>
nu cle
ng ẩn</w>
musi cian</w>
measu red</w>
m ỡ</w>
lu ồng</w>
lu cin
li ghting</w>
l ồng</w>
inf ec
hy per
hung ry</w>
ho ành</w>
hal lucin
h ận</w>
gra ms</w>
gr ay</w>
ge l</w>
g ạch</w>
g ãy</w>
g ent</w>
func tions</w>
fu r</w>
for mation</w>
foot print</w>
fin ds</w>
f rea
ex trac
er on</w>
effor ts</w>
dr one</w>
direc tor</w>
dep ending</w>
deli vered</w>
curi osity</w>
cr ying</w>
conser vation</w>
cli mb</w>
chuy ền</w>
cho sen</w>
chee se</w>
cap tured</w>
c ổng</w>
c ọ</w>
c anh</w>
brea thing</w>
boundar ies</w>
be ars</w>
b ones</w>
atta ched</w>
asp ects</w>
asp ect</w>
anti cip
ali zing</w>
agre ed</w>
agen cies</w>
adap t</w>
a k
Vic tori
Vi et
Ven ice</w>
T ed</w>
O s</w>
N ăm</w>
Leon ardo</w>
John ny</w>
J ill</w>
I n</w>
Ha wai
H el
H e</w>
D ân</w>
Copenh agen</w>
Cen tral</w>
Bro ok
Ben jam
Bab yl
B l
Ale x</w>
Ac t</w>
8 0s</w>
- and-
ươ ng.</w>
đ ôla</w>
Đ ể</w>
z u
y l</w>
v òm</w>
v able</w>
tu ỷ</w>
transfor ma
thr own</w>
t asks</w>
t ar</w>
succ ee
spiri tual</w>
sp inal</w>
slee ping</w>
shad ow</w>
s úp</w>
rescu e</w>
recogni tion</w>
rand om
qu ỷ</w>
psy chi
pro sper
presen tation</w>
physici st</w>
pher om
ph ô</w>
perman ent</w>
p y
p uni
nh ủ</w>
ng ột</w>
nee dle</w>
mit ted</w>
micro scope</w>
mi ssi
mi es</w>
lo cked</w>
lic ate</w>
ko ta</w>
ki êng</w>
inter esti
interesti ngly</w>
ho an</w>
he mi
gh ted</w>
gh e
friend ly</w>
fab ric</w>
ey e
evol ve</w>
er ies</w>
en able</w>
embed ded</w>
eleph ant</w>
dra wn</w>
dolph ins</w>
docu ment</w>
dinosa urs</w>
di oxide</w>
di abe
demonstr ate</w>
de sh</w>
copy right</w>
con stitu
comp la
com mu
co ho
carto ons</w>
car ried</w>
ber ry</w>
astoni shing</w>
archi tects</w>
ag er</w>
ac compli
a side</w>
Tanz ania</w>
T ổng</w>
T om
S A
Par k</w>
P re
Mont ana</w>
K en</w>
J une</w>
Col om
Co ca</w>
C ơ</w>
B el
B an
3 0,000</w>
ệ m</w>
ẽ n</w>
đ ậm</w>
đ úng.</w>
đ úc</w>
í ch.</w>
é .</w>
y ours</w>
y n
y e</w>
wire less</w>
wat t</w>
villa ges</w>
view er</w>
u sal
usal em</w>
tr úng</w>
to ps</w>
ti ze</w>
thi êng</w>
tal ent</w>
t ant</w>
so- called</w>
sli des</w>
shop ping</w>
shif ting</w>
scri p
sch ol
s now</w>
ru pt</w>
resi stant</w>
rela tive</w>
reco very</w>
re al-
ran ts</w>
profes sion
pro per</w>
pro duces</w>
pe e
oo h</w>
o id</w>
nà n</w>
nor thern</w>
ni e</w>
neighb or</w>
mi cr
ment ally</w>
m ầm</w>
lo vely</w>
le sc
le ep</w>
instru ments</w>
ingredi ents</w>
hal f-
hack ers</w>
gr ows</w>
g ers</w>
fir m</w>
fe atures</w>
fa iling</w>
explor ing</w>
explan ation</w>
ex tract</w>
ex cell
ess ence</w>
es sion</w>
ec k</w>
do zen</w>
dis order</w>
di verse</w>
def ense</w>
de gra
concep ts</w>
comp rom
co ordin
circu it</w>
capi ta</w>
belie fs</w>
be er</w>
be ach</w>
b age</w>
at tribu
all ed</w>
al coho
after wards</w>
Sar ah</w>
R ất</w>
OE CD</w>
Mo ore</w>
Ma h
Lew is</w>
L et</w>
Jer usalem</w>
J ones</w>
J ay</w>
H ea
Geo graphic</w>
G ree
G or
G an
Fran k
Clin ton</w>
Bro ad
B ru
Au gu
3 ,
ứ .</w>
ị a</w>
ả n.</w>
đi ền</w>
ý .</w>
á ng.</w>
zo ph
x é</w>
vita min</w>
v ất</w>
un its</w>
un comfortable</w>
un believ
tu ỵ</w>
tran sc
tang i
ta ting</w>
strugg ling</w>
ster eo
st a</w>
spir ing</w>
sh ine</w>
schi zoph
sc ary</w>
ridicul ous</w>
represen ted</w>
re tro
re son
re form</w>
re act</w>
r ạp</w>
r ene
qu ali
protec ting</w>
poin ting</w>
ph ony</w>
pa tho
ox y</w>
organi sm</w>
or g</w>
nh ánh</w>
ngh ẽn</w>
nan o
n ón</w>
musc les</w>
mini ster</w>
mi e</w>
mi ce</w>
loo p</w>
ll a</w>
life -
li ons</w>
li ed</w>
le f
l ượ
l ou
institu tion</w>
ine quality</w>
impro vement</w>
im a</w>
her self</w>
har m</w>
f ts</w>
emer gency</w>
ell ed</w>
di ve</w>
di gni
der ly</w>
cy cles</w>
consum ers</w>
col ony</w>
col n</w>
ck er</w>
ci als</w>
cha os</w>
ce ment</w>
c ự</w>
bl ing</w>
bi om
bi e</w>
ba th
b ể</w>
b iế
ar t
ar a
affor dable</w>
ac tors</w>
U sha
T ừ</w>
Som alia</w>
Si erra</w>
Sci ence</w>
Sahar an</w>
R ồi</w>
R NA</w>
Qu ỹ</w>
Lin coln</w>
K im</w>
Inter national</w>
CA PT
C C</w>
Brook lyn</w>
7 0s</w>
198 4</w>
- based</w>
đu ối</w>
à ng.</w>
x ỉ</w>
un likely</w>
tw eet</w>
tiệ m</w>
the less</w>
sta ying</w>
st un
si zed</w>
separ ated</w>
sear ching</w>
s ani
ron es</w>
ro bust</w>
ri cher</w>
recogni zed</w>
re turned</w>
ra infor
r ỉ</w>
r arely</w>
preci se</w>
pre mi
practi ces</w>
po st
pic king</w>
pi lot</w>
phi êu</w>
para do
orang e</w>
oper ni
om ic</w>
o tic</w>
o t</w>
nutri tion</w>
now ada
nowada ys</w>
musi cians</w>
mon key</w>
min d-
marath on</w>
la id</w>
l ột</w>
kho ăn</w>
ke ts</w>
iệ n.</w>
in tri
in spiring</w>
hy dro</w>
ho ãn</w>
hi di</w>
harve st</w>
go m</w>
gi ật</w>
fro g</w>
flu id</w>
fle w</w>
fi lling</w>
fa st
expec tancy</w>
ex ecu
enter ed</w>
en ab
dep end</w>
crimin als</w>
cre ature</w>
controll ing</w>
con tains</w>
characteri stics</w>
cha irs</w>
ch ày</w>
cel lu
ce ed</w>
calcul ate</w>
automa tically</w>
ado lesc
T ư</w>
T rea
T iến</w>
Shi r
Sco tt</w>
S put
S in
S al
R ed</w>
Par kinson</w>
O c
N ow</w>
K hoa</w>
J ack
G al
Ethiop ia</w>
Ch er
C operni
3 0s</w>
3 000</w>
ắ m.</w>
ầ n.</w>
đ ụng</w>
đ ốm</w>
đ óm</w>
Đ ảng</w>
z ler</w>
vir tually</w>
v ặt</w>
under ground</w>
tr e</w>
tox ic</w>
ti s</w>
th ick</w>
tex t
tangi ble</w>
tane ously</w>
suc ceed</w>
stro ke</w>
st ages</w>
st ac
sh ment</w>
recor ding</w>
re duced</w>
re cep
ra ft</w>
quan tum</w>
psy chop
produc tivity</w>
prin ted</w>
pla stics</w>
ph thal
person ality</w>
nó i.</w>
ni c</w>
n is</w>
moti vation</w>
me d
me al</w>
ma tri
m at</w>
lớ n.</w>
li a</w>
kill er</w>
invol ves</w>
inv ent
inst antly</w>
imag in
imag ery</w>
identi fied</w>
ho p</w>
h en
h ello</w>
gl aci
g al
fossi l</w>
foo ds</w>
flo ating</w>
fi res</w>
fe ature</w>
enz y
electr onics</w>
electr onic</w>
el ey</w>
ea th</w>
dri vers</w>
discu ss</w>
di stant</w>
determin ed</w>
de pressed</w>
d rones</w>
d or
d oms</w>
cry st
cri tici
continu es</w>
co operation</w>
cl ay</w>
cha mp
ch ap
ca p</w>
ca ke</w>
bi c</w>
ballo on</w>
b ẻ</w>
ani sh</w>
am ent</w>
adv ance</w>
aci fic</w>
a than</w>
a pers</w>
X- ray</w>
Whi te</w>
W ei
W ar
V âng.</w>
V an
Usha hidi</w>
Star bucks</w>
Sput nik</w>
Sp ace</w>
Si b
S qu
S pi
Po int</w>
P ower
P as
I M
H ợp</w>
H ai</w>
F O
CAPT CH
C S
B hu
B ay</w>
Afgh an</w>
6 4</w>
1. 5</w>
whe at</w>
visi ted</w>
ves sels</w>
vege tables</w>
v ương</w>
v enti
v as
ug ly</w>
u ms</w>
ta m</w>
sugg esting</w>
su bur
strate gies</w>
sp ort</w>
sin s</w>
si licon</w>
sh a</w>
s tin</w>
ro cket</w>
reve al</w>
resear cher</w>
re store</w>
re n</w>
re ments</w>
quar ter</w>
provi des</w>
pri ces</w>
predic tions</w>
predic table</w>
pre p
prep are</w>
poli cies</w>
po sse
po et</w>
phosphor us</w>
per si
paradig m</w>
or e
or bit</w>
op ens</w>
on al</w>
od d</w>
ob stac
o sphere</w>
nhi ên.</w>
nh ấp</w>
nh ét</w>
mp tions</w>
mi dd
m ới.</w>
lu cki
lu ck</w>
lo cated</w>
laugh ing</w>
l ô</w>
kho ai</w>
kh en</w>
is ol
intri gu
instruc tions</w>
hi tting</w>
h ổng</w>
h ông</w>
gr ab
gi áp</w>
geni us</w>
g ments</w>
g as
ful ness</w>
far mer</w>
f i</w>
en sure</w>
emp ow
ele g
educ ated</w>
dre ss</w>
domin ant</w>
do z
disa p
deb t</w>
d ệt</w>
cá p</w>
cru cial</w>
cro ps</w>
contr ols</w>
contr act</w>
co smo
ci g
cep tions</w>
cap es</w>
bo om</w>
base ball</w>
b ăn</w>
b arely</w>
at tract</w>
ar a</w>
anxi ety</w>
answ ered</w>
anony mous</w>
ali st</w>
albu m</w>
ad ding</w>
acci dents</w>
ac ies</w>
abu se</w>
Zimb ab
V iệt</w>
V er
Tes zler</w>
T en
T em
S ti
P acific</w>
M G</w>
Le one</w>
Gre en</w>
Gi ờ</w>
E din
Colum bia</w>
Christi an</w>
Cam eron</w>
Berk eley</w>
Benjam in</w>
Bang la
A poll
A K</w>
9 8</w>
4 4</w>
2. 0</w>
199 8</w>
0 .000</w>
- of-
đi nh</w>
x ứ</w>
wri ters</w>
wheel chair</w>
wee k
vi et</w>
v ịt</w>
v an
un certainty</w>
tric ks</w>
trans lation</w>
tr ends</w>
to y</w>
th ốt</w>
th ơm</w>
tele phone</w>
ta ining</w>
t ịch</w>
t ùng</w>
t ôm</w>
t ack
syn thetic</w>
stor es</w>
ster ed</w>
ssi vely</w>
spo ts</w>
spa ghe
spaghe tti</w>
sou p</w>
smar t
shir t</w>
see k</w>
scan ner</w>
sacrifi ce</w>
s ống.</w>
s ướng</w>
ri ght-
re duction</w>
r ìa</w>
psycho logical</w>
prob ability</w>
power ed</w>
pi one
ph a
p ace</w>
orch es
optimi sm</w>
open ness</w>
op ar
ne gie</w>
min es</w>
mi xed</w>
mi ly</w>
mb ling</w>
m all</w>
lucki ly</w>
lin ks</w>
lic op
le tting</w>
knowle d
kh an</w>
impro ved</w>
imp acts</w>
hu ýt</w>
ho o
her o
he licop
gi en</w>
frequ ency</w>
fra gi
fla g</w>
f ted</w>
f are</w>
expla ining</w>
es sed</w>
el derly</w>
disappe ared</w>
direc tions</w>
demonstr ation</w>
d ập</w>
d ough</w>
cur ri
cur ren
cro ssing</w>
cre di
cour t</w>
cor d</w>
con fron
cho áng</w>
ca fe</w>
c tica</w>
c ab
bu g</w>
bru sh</w>
bru ary</w>
b ẩm</w>
b or</w>
ar med</w>
ani zation</w>
agu e</w>
agri cultural</w>
Th ank</w>
T ok
Sun day</w>
So viet</w>
R ach
Phi la
Nh ân</w>
Ngh ệ</w>
Neanderth al</w>
Mo on</w>
Mar co</w>
M ay</w>
Lu ther</w>
I P
Gener al</w>
Fe bruary</w>
F ar
F G</w>
Ever est</w>
Car negie</w>
C N
Argenti na</w>
Ar ctic</w>
Antar ctica</w>
A ll
9 6</w>
4 7</w>
1 30</w>
. org</w>
ờ .</w>
ố .</w>
ệ .</w>
ạ .</w>
ì u</w>
x ách</w>
wit ne
v ội</w>
u ốn</w>
tru cks</w>
tru ck</w>
tr eating</w>
thi ền</w>
t ăm</w>
t ous</w>
t ab
smi ling</w>
sil ly</w>
se ssion</w>
scri pt</w>
schizoph ren
re view</w>
re venue</w>
r ats</w>
quar ters</w>
pur ch
psychi a
pros thetic</w>
pri me</w>
pla in</w>
pi g</w>
photograph er</w>
par alle
pain ted</w>
pa gos</w>
over come</w>
ol u
o th
nh ất.</w>
nh o
ng ed</w>
micro -
m ớ</w>
li mit</w>
li ft</w>
law yers</w>
la yers</w>
l ê</w>
k u
in ches</w>
impro ving</w>
iP ad</w>
hor mon
har dly</w>
h ái</w>
fortu ne</w>
for ming</w>
foot ball</w>
fol ding</w>
fla sh</w>
faci lity</w>
equ ality</w>
drin king</w>
down load</w>
dic t
deta iled</w>
der son</w>
del phia</w>
da tions</w>
d ạ</w>
củ ng</w>
cu te</w>
consci ously</w>
comp ani
colleagu e</w>
cli ents</w>
cig are
ch íp</w>
categ ory</w>
b úa</w>
auton om
assu mptions</w>
arre n</w>
anthro po
an no
ag ency</w>
aff ects</w>
Zimbab we</w>
W arren</w>
Th ời</w>
Tes la</w>
Phila delphia</w>
Ph ật</w>
N ic
N et
N L</w>
Kore a</w>
K er
K am
Juli a</w>
Ja ze
In du
Hawai i</w>
Gala pagos</w>
Fran c
Edin burgh</w>
E ve</w>
Dis ney</w>
De partment</w>
Atlan ta</w>
A s
9 7</w>
4 0,000</w>
ộ .</w>
ệ n.</w>
đ ệm</w>
ù ng.</w>
í nh.</w>
â t</w>
À </w>
x ộn</w>
wor thy</w>
vi an</w>
v o</w>
une mp
transp lant</w>
tra sh</w>
tr ùm</w>
t ẩy</w>
t ability</w>
super -
sugge sted</w>
sta tic</w>
st en</w>
sk u
simpli city</w>
sen ior</w>
sc ores</w>
reti rement</w>
refl ect</w>
r ộn</w>
r ốt</w>
r ows</w>
pu shed</w>
progra mming</w>
pro vo
privi lege</w>
prac tic
pi le</w>
photograph ed</w>
ph ơi</w>
ph iến</w>
per su
part ments</w>
paralle l</w>
pa th
out put</w>
on ing</w>
ng ư</w>
midd le-
mi d-
man ia</w>
m ốc</w>
lo aded</w>
l ọ</w>
ki ngdom</w>
k em</w>
inter acting</w>
inst ant</w>
initi al</w>
inevi table</w>
in su
hypothe sis</w>
h ưng</w>
govern ance</w>
glob alization</w>
gar age</w>
fu ng
fu els</w>
frustr ated</w>
for mu
fil ter</w>
fi sh
ex posed</w>
ex cu
ex clu
esca pe</w>
es tic</w>
digni ty</w>
diabe tes</w>
defin ing</w>
d ồn</w>
cro ss-
consi der
commit ted</w>
comb at</w>
com modi
com edy</w>
col onies</w>
ce iling</w>
c ó.</w>
bra in
bl ow</w>
be gun</w>
b ồ</w>
b iếm</w>
aw k
arri ve</w>
arch y</w>
an esthe
ag ree
addi tional</w>
ad vo
Y ves</w>
W here</w>
Ti me</w>
T ổ</w>
Si nh</w>
S ec
Ro ger</w>
P op
O K.</w>
Ng ày</w>
Nan op
N a</w>
M other</w>
M a</w>
L aw
L O
Kenne dy</w>
Jor dan</w>
Jon athan</w>
Jaze era</w>
Israel i</w>
G M</w>
FO X
Co ke</w>
B ee
Ali ce</w>
5 2</w>
3 4</w>
2. 5</w>
19 0
10 -
ả i.</w>
à i.</w>
xo ắn</w>
wa shing</w>
vic tim</w>
ve ter
v in</w>
u ỷ</w>
tra ins</w>
tr ừng</w>
tr ọn</w>
tr ước.</w>
tr èo</w>
ti red</w>
ti p</w>
tex ting</w>
terr ori
ta p</w>
t ạ
t ches</w>
t ants</w>
t ably</w>
susta in</w>
susp ended</w>
suppor ted</w>
stor m</w>
stop s</w>
soldi er</w>
sion ally</w>
ser ves</w>
sent ences</w>
sens or</w>
secre ts</w>
sau ce</w>
sal es</w>
s ửng</w>
s capes</w>
revol u
rec ru
r he
pu ppe
pu lling</w>
pro fits</w>
pri ze</w>
pret end</w>
po sal</w>
philosoph er</w>
ph il
pengu in</w>
par ties</w>
p el
p ause</w>
p acked</w>
ou ter</w>
origin ally</w>
offi ces</w>
od ds</w>
o logical</w>
nur se</w>
ni an</w>
nh àm</w>
nh a</w>
neur al</w>
neighbor hoods</w>
mô t</w>
musc le</w>
mu n
micro bes</w>
ma s
ma mm
m ưu</w>
m one</w>
lif esp
la u</w>
kh ẩn</w>
kh ùng</w>
key board</w>
kee pers</w>
iệ t.</w>
inst al
in k
hor mone</w>
histor ic</w>
head lines</w>
head ed</w>
ham burger</w>
h il
h h</w>
gu ide</w>
gh é</w>
gg ers</w>
gather ing</w>
for gotten</w>
fil m
fav or</w>
fa bul
f ounded</w>
exter nal</w>
eri c</w>
en counter</w>
en ables</w>
eg g</w>
dro ve</w>
disp la
digi t</w>
difficul ty</w>
di alo
dem o</w>
dar kness</w>
d ịu</w>
curri cu
curren cy</w>
con tain
choo sing</w>
chan ces</w>
ch óc</w>
cal ories</w>
bo ld</w>
bio logists</w>
back wards</w>
b ực</w>
as m</w>
artic les</w>
ar i</w>
ance stors</w>
ambi gu
air port</w>
ac u
Y u
X ô</w>
V an</w>
Tok yo</w>
Tem pest</w>
TED Talk</w>
Squ are</w>
R ome</w>
Q atar</w>
Ph .D.</w>
Ni ke</w>
Ne ws</w>
M oun
M au
Juli an</w>
I van</w>
H ong</w>
D ur
CAPTCH A</w>
C hur
Blu e</w>
B each</w>
Ar my</w>
Apoll o</w>
ứ c.</w>
ố c.</w>
ậ n.</w>
đo m</w>
y a
x í</w>
what so
whatso ever</w>
wa sh</w>
vo ting</w>
vo ted</w>
vi tal</w>
u bi
ubi qui
ty ping</w>
tu als</w>
to es</w>
tissu es</w>
ti les</w>
tho áng</w>
ter ia</w>
ten den
tar gets</w>
t ạng</w>
t less</w>
t ears</w>
su per</w>
ster one</w>
st y
speci alized</w>
spec tac
sou thern</w>
si ts</w>
si sters</w>
shoo ting</w>
sh or
sh eets</w>
se where</w>
s ườn</w>
rou ti
ro lling</w>
rene w
rema ined</w>
re d
r ỗi</w>
qu alities</w>
pu s</w>
profession als</w>
procedu re</w>
pres sing</w>
pre fer
posi tions</w>
plu g</w>
pi tch</w>
pas sing</w>
p al</w>
ow nership</w>
opar dy</w>
op posed</w>
occa sionally</w>
ob li
ob jective</w>
o ton
ni ght
ng ửi</w>
ng ươi</w>
ng o</w>
neu tr
n om
mp anz
mosqui to</w>
miser able</w>
min ated</w>
mi ty</w>
mer ely</w>
men ting</w>
men tation</w>
me mb
magi cal</w>
m ac
lu xu
lec ture</w>
k ẹp</w>
ite ms</w>
integr ated</w>
insti nc
inf ection</w>
immedi ate</w>
i con
hi re</w>
grand parents</w>
glob ally</w>
gi eo</w>
gene tics</w>
g ru
fli p</w>
figu ring</w>
fer tili
exten sion</w>
expre ssions</w>
ess ors</w>
en ey</w>
el sewhere</w>
el and</w>
ei gh
dre ssed</w>
doz ens</w>
di strict</w>
di g</w>
der al</w>
de dicated</w>
dam n</w>
d ê</w>
d ai</w>
curricu lum</w>
con sul
comp elling</w>
chi mpanz
chi gan</w>
cer ti
camp us</w>
c ồn</w>
bướ m</w>
bub bles</w>
brea ks</w>
bla me</w>
bi ll</w>
b anh</w>
b ai</w>
b ags</w>
asse ts</w>
ar ter
an at
alcoho l</w>
acti vate</w>
ac id</w>
V ol
Se attle</w>
San ta</w>
S cr
P at
N ick</w>
Lar ry</w>
La kota</w>
L A</w>
K ì</w>
Ho à</w>
Heal th</w>
G ri
E d</w>
Chri sto
C ru
Bos nia</w>
Ber lin</w>
Bangla desh</w>
Babyl on</w>
A sh
A n</w>
9 0s</w>
6 0s</w>
3 0-
10 .000</w>
1/ 3</w>
1 40</w>
1 1
ỹ .</w>
ố p</w>
ệ t.</w>
ế n.</w>
ạ c.</w>
đ ục</w>
zon a</w>
wo ke</w>
vir út</w>
vi o
v ớ</w>
v ị.</w>
v ạn</w>
under lying</w>
transpar ent</w>
trans fer</w>
tr as
thu s</w>
thir ds</w>
th èm</w>
ten ds</w>
tal y</w>
ta o</w>
t úng</w>
t -</w>
suffer ed</w>
stro ngly</w>
ste al</w>
st le</w>
sp ace
sil ver</w>
shoul der</w>
sho cking</w>
se xy</w>
ru sh</w>
ri ce</w>
ri bat
ribat i</w>
resili ence</w>
represen tation</w>
rememb ered</w>
rema ining</w>
refuge es</w>
re land</w>
ra ys</w>
ra ting</w>
r ỡ</w>
py rami
pro posed</w>
pri or</w>
pre serve</w>
ph ồng</w>
ph áo</w>
percei ve</w>
paraly zed</w>
pan els</w>
pa irs</w>
p lot</w>
or ism</w>
om a</w>
o ngo
no des</w>
ngu i
newsp apers</w>
my ce
mush room</w>
mu el</w>
mp ed</w>
monit or</w>
metabo li
mar ks</w>
magne tic</w>
li der</w>
li an</w>
lef t-
lea p</w>
lan ded</w>
l ắm.</w>
l ens</w>
jud gment</w>
influ enced</w>
in finite</w>
ho li
help ful</w>
ha u
h ân</w>
h àn</w>
gla sses</w>
ge e
focu sing</w>
eng ines</w>
ed ges</w>
e fly</w>
e aten</w>
di ving</w>
der i
den i
dec ep
de my</w>
da y
d ơi</w>
d ele
cá n</w>
construc t</w>
confu sed</w>
confi dent</w>
comple ted</w>
collabor ative</w>
col i</w>
clo se
civi c</w>
circu its</w>
chi êm</w>
ch ướng</w>
bur den</w>
break fast</w>
br own</w>
bl ank</w>
bel ong</w>
b ù</w>
b ound</w>
au n
ar ray</w>
app y</w>
analy ze</w>
activi st</w>
accep ted</w>
a v
Y o
X L</w>
Tr an
TED Talks</w>
Sib eria</w>
Sa muel</w>
S wi
S ir</w>
R A</w>
P ic
Oc to
Nanop atch</w>
Na than</w>
Mi chigan</w>
Mi ch
Leban on</w>
Ki ribati</w>
K ansas</w>
Je ffer
J es
J enni
I taly</w>
H on
G il
Eli z
Egy p
E s
D J</w>
Car l</w>
Beij ing</w>
Atlan tic</w>
Ari zona</w>
A O</w>
200 ,000</w>
. 5</w>
' clock</w>
Ừ </w>
ị n</w>
đ òn</w>
Đ ỏ</w>
ô tô</w>
zar re</w>
z ers</w>
x ay</w>
wide ly</w>
ver tical</w>
v. v</w>
v ắng</w>
v ẩn</w>
tro gen</w>
trans lated</w>
tr ọng.</w>
tr ễ</w>
to ys</w>
th ắn</w>
ter -
te sto
ta ined</w>
t ống</w>
t forward</w>
t ag</w>
straigh tforward</w>
ss y</w>
sp an</w>
signi fi
si tion</w>
shi pping</w>
sh ri
sec u
s n
reti na</w>
restau rants</w>
recon ci
re ducing</w>
re build</w>
qu it</w>
pu mp</w>
prosper ity</w>
pro fi
preci ous</w>
po t</w>
po sted</w>
ple as
phil anthro
ph ế</w>
ph er</w>
passe nger</w>
p un
ob serve</w>
nu ốt</w>
ng ụ</w>
multi p
mi ngly</w>
lin ed</w>
lea ther</w>
law yer</w>
lab s</w>
la p</w>
k ệ</w>
iể n.</w>
inve stors</w>
inno cent</w>
indu stries</w>
in tr
im ala
hormon es</w>
hom eless</w>
heal thier</w>
grand children</w>
gon na</w>
gene tically</w>
ga ined</w>
g ated</w>
fin ed</w>
fast est</w>
faci lities</w>
fac tories</w>
fabul ous</w>
excell ent</w>
ex pedi
eth ical</w>
en cies</w>
ei th</w>
ear n</w>
du st</w>
dom ain</w>
docu ments</w>
do se</w>
dir ty</w>
dic tion
di scri
descri ption</w>
deli very</w>
de sc
d ại</w>
d ary</w>
cr ows</w>
conser vative</w>
com mon
coll ec
ci de</w>
chi ef</w>
ch ay</w>
ca su
c ảng</w>
c and
bu ồng</w>
bu l</w>
bri ef</w>
bo ards</w>
biế t.</w>
bi zarre</w>
be lo
be e
be ating</w>
b ars</w>
attrac tive</w>
admini str
ad venture</w>
ach es</w>
Ta h
TED x</w>
T ru
T ro
Su san</w>
S pee
S har
Ro cke
Mar ch</w>
L à</w>
L ester
L ang
K ur
J ane</w>
I reland</w>
H C</w>
Green land</w>
F GM</w>
D ự</w>
D or
D .C.</w>
Colom bia</w>
Ch il
Ch e
C P</w>
C A</w>
Bal i</w>
B or
6 ,000</w>
199 4</w>
199 0s</w>
197 0s</w>
ề n.</w>
đ è</w>
ă n.</w>
á t.</w>
z i</w>
yl ac
xo áy</w>
wil d
war ning</w>
vir al</w>
vie wing</w>
univer sities</w>
un prece
unprece den
ul u</w>
ul tra
tu ổi.</w>
tr iều</w>
thu ỳ</w>
thu mb
ther a
th iếp</w>
testo sterone</w>
t ank</w>
st an
spea ks</w>
so le
smo king</w>
ske p
sk ele
shel f</w>
sh ore</w>
se mi
scen ario</w>
sc ar</w>
repe at</w>
remin ded</w>
re place
r èn</w>
r ence</w>
pro file</w>
prin ter</w>
prepar ing</w>
portra it</w>
ongo ing</w>
ol as</w>
obser vation</w>
nghi êng</w>
ng ây</w>
ne ver
nar row</w>
na ked</w>
n ạp</w>
n ín</w>
n es</w>
mind set</w>
mi ll
matri x</w>
mar ine</w>
ma xi
lo ves</w>
lin ing</w>
liber al</w>
le op
ki a.</w>
isol ated</w>
insi ghts</w>
illustr ate</w>
i ms</w>
ho t
ho st</w>
hea ven</w>
ham mad</w>
habit at</w>
h âm</w>
gradu ally</w>
g ạt</w>
g eria</w>
g ear</w>
fru it</w>
fing er
experim ental</w>
exci te
emp lo
emer ged</w>
e mber</w>
don or</w>
do od
dis orders</w>
descri bes</w>
de mics</w>
dau ghters</w>
d ưa</w>
d ential</w>
cy lin
cro p</w>
conver t</w>
contr ary</w>
conclu de</w>
clo sing</w>
cla ims</w>
citiz en</w>
categ ories</w>
cat astro
car ro
can e</w>
bri efly</w>
bed room</w>
be sides</w>
b ưu</w>
b ón</w>
b ell</w>
autonom ous</w>
audi o</w>
at titude</w>
assemb ly</w>
accoun ts</w>
a tic</w>
Wi de</w>
Tur key</w>
TED Global</w>
T w
St age</w>
Sha ng
Sec re
S R</w>
Re search</w>
P ra
P ort
Octo ber</w>
Mu hammad</w>
Mini ster</w>
Ma ha
M om</w>
Lester land</w>
L ý</w>
L an
K ir
K eith</w>
Jack son</w>
Is lands</w>
I sa
H op
H omo</w>
H ad
Gra ham</w>
G w
Fri day</w>
Franc is</w>
Ed ward</w>
E mily</w>
Dec ember</w>
Coun ty</w>
C our
Bhu tan</w>
B ea
B as
B .</w>
An derson</w>
9 3</w>
8 6</w>
7 ,000</w>
199 6</w>
197 5</w>
ố i.</w>
ề .</w>
ấ ng</w>
ơ i.</w>
â y.</w>
à y.</w>
whe els</w>
weal thy</w>
wea k</w>
vi êm</w>
vi l</w>
vari ation</w>
v ọt</w>
unpreceden ted</w>
ubiqui tous</w>
u d</w>
tra its</w>
to ngue</w>
tim acy</w>
thre w</w>
terri fying</w>
terr orism</w>
t ảo</w>
sub- Saharan</w>
sub tle</w>
su res</w>
sil k</w>
si de
shar p</w>
ser oton
sec tions</w>
s ound
rou te</w>
respon ses</w>
respon ding</w>
regi me</w>
reco ver</w>
reali stic</w>
re stric
re solution</w>
re mi
promo te</w>
prof oun
profoun dly</w>
predic ted</w>
perfor med</w>
on ia</w>
ni ghts</w>
nh ị</w>
nh i</w>
ng ục</w>
ne at</w>
n ãy</w>
mb led</w>
manag ers</w>
l ers</w>
kh iếu</w>
k ìm</w>
ir on</w>
investi ga
ine a</w>
inclu des</w>
imp ul
ignor ed</w>
iP od</w>
hi er
hear t
habi ts</w>
ha nging</w>
h at</w>
gla d</w>
gen u
ge ome
formu la</w>
fl ouri
fir ing</w>
f ought</w>
f ear
f au
engine ered</w>
elec ted</w>
eco systems</w>
dyna mics</w>
discipl ine</w>
dialo gue</w>
diagno sis</w>
dep th</w>
d ant</w>
concer n</w>
con temporary</w>
con cei
compar ison</w>
col or
clin ics</w>
clin ic</w>
chi ps</w>
ch ùm</w>
car ing</w>
c óc</w>
bu re
bom b
bo t</w>
bi te</w>
ban jo</w>
b ộc</w>
b ẫy</w>
b át</w>
b ble</w>
auth ors</w>
athle tes</w>
as sign
arti stic</w>
announ ced</w>
ang les</w>
ang ered</w>
al m</w>
ag ent</w>
ab and
You tube</w>
Wh o</w>
V al
U y</w>
U n
Ta mi
T uni
Swe eney</w>
Su dan</w>
Ste ven</w>
Sp anish</w>
Sau di</w>
S MS</w>
Russi an</w>
R on
R omo</w>
R ick</w>
Pla to</w>
O l
Nor thern</w>
Ne pal</w>
Na i
Mur ray</w>
L. A.</w>
Je opardy</w>
Hu ng
H un
H imala
Gr and</w>
G o</w>
Eliz ab
E con
De an</w>
Ca mp
C rai
C lar
Bl ack
Bee tho
Al an</w>
A ll</w>
7 6</w>
4 ,
20 -
199 5</w>
đu n</w>
à n.</w>
you ng
x ơ</w>
wit ness</w>
wi der</w>
wi d
we dding</w>
ven s</w>
v ẫy</w>
v ần</w>
unbeliev able</w>
u tter
transp ort</w>
trag edy</w>
tr action</w>
tim ated</w>
than e</w>
tal e</w>
ta x
t s
t ang</w>
sub stance</w>
story telling</w>
sta irs</w>
st ability</w>
some day</w>
smart phone</w>
six -
signifi can
significan tly</w>
sh ops</w>
sh it</w>
se as</w>
scr atch</w>
sa ke</w>
s ếp</w>
s p</w>
respon ds</w>
reli able</w>
reali zing</w>
re l</w>
ra pid</w>
ra p</w>
r ã</w>
r âu</w>
qu ận</w>
qu ir
puzz les</w>
psycho logist</w>
pri sons</w>
pre hen
pot ent</w>
pleas ant</w>
physi cian</w>
person alized</w>
par tly</w>
our ing</w>
ordin arily</w>
on stage</w>
nhu ộm</w>
nh ồi</w>
ng ộ</w>
ng le</w>
n âu</w>
myce lium</w>
mo od</w>
mo bility</w>
mechani sms</w>
mb ai</w>
m ar</w>
lo tter
lifesp an</w>
li hood</w>
leg acy</w>
la mp</w>
ke o</w>
j u</w>
it age</w>
intui tion</w>
interven tion</w>
in c
im muni
house hold</w>
heal ing</w>
hard ware</w>
h ả</w>
gu t</w>
gli mp
gen om
g ộp</w>
free ly</w>
fragi le</w>
for est
foot age</w>
fl owing</w>
fi nger</w>
es timated</w>
en thu
dra wings</w>
dr ome</w>
dom estic</w>
div or
disti nct</w>
dis rup
diag ram</w>
deman ds</w>
datab ase</w>
d ẹp</w>
d entally</w>
cu ả</w>
cou sin</w>
construc ted</w>
co s
cere mony</w>
capitali sm</w>
candi date</w>
back yard</w>
b ồn</w>
b ỏng</w>
an nu
air o</w>
air craft</w>
ace u
a im</w>
a de
Viet nam</w>
V ương</w>
V ene
Ti tus</w>
T hi
Shang hai</w>
R and
Prin ce
N ên</w>
N ations</w>
Mu mbai</w>
Lu ật</w>
Li fe</w>
Ka tr
K ri
K elly</w>
John son</w>
Je wish</w>
J an
Ho àng</w>
Gi áng</w>
Elizab eth</w>
E ri
Demo cr
D ad</w>
Col lege</w>
CN N</w>
C ậu</w>
C airo</w>
C D
Beetho ven</w>
Ala ska</w>
3 50</w>
19 45</w>
ử .</w>
ở .</w>
ĩ .</w>
yo to</w>
y ourselves</w>
x á</w>
w rest
v ating</w>
ul tras
tur ing</w>
tradi tions</w>
tr ick
to pic
ti lity</w>
threat ened</w>
thre ats</w>
th ắp</w>
th ật.</w>
th ạo</w>
th ylac
t ated</w>
t ate</w>
surge ons</w>
struc tural</w>
sta ting</w>
st ated</w>
shel ter</w>
sci ences</w>
sa dly</w>
s ùng</w>
rou gh</w>
robo tics</w>
ro lled</w>
ri e</w>
refuge e</w>
reci pe</w>
re minds</w>
rati o</w>
r ực</w>
qu e
pur suit</w>
psycho logists</w>
pri mi
pi gs</w>
pharm aceu
pe er</w>
partic le</w>
ow ner</w>
oper ations</w>
nu ts</w>
ng ô</w>
near by</w>
mor s</w>
mon ia</w>
mo tor
mirac le</w>
micro phone</w>
mean while</w>
me als</w>
mathema tici
mar t</w>
manag er</w>
mamm als</w>
le m</w>
l ậu</w>
ki ngs</w>
kh ốn</w>
kh ăng</w>
k able</w>
ins ane</w>
inno vations</w>
inclu ded</w>
im mer
im ed</w>
i ses</w>
i e</w>
hy bri
hun ting</w>
honest ly</w>
home work</w>
hom et
homet own</w>
hi ding</w>
hemi sphere</w>
ha med</w>
gun s</w>
gu r
gu id
gradu ated</w>
gener ous</w>
gen o
fre sh
fir st-
fall en</w>
failu res</w>
f ate</w>
experi encing</w>
exhibi tion</w>
excite ment</w>
ex am
et ary</w>
es thetic</w>
enthu si
enter pri
en tr
en li
emer ge</w>
eli te</w>
e ter
disa gre
diction aries</w>
deci sion
de sp
de fe
de als</w>
d âng</w>
controver si
continu ing</w>
consequ ence</w>
con tain</w>
comm it</w>
col ored</w>
col li
co inci
clu b</w>
cir cles</w>
calcu lations</w>
c ow
bu ried</w>
bree ding</w>
bi lli
ban king</w>
bacter ial</w>
b ổng</w>
ari ties</w>
architec tural</w>
appe ar
al t</w>
ade qu
acti vely</w>
ab ad</w>
a .m.</w>
Wor l
V ới</w>
T ra
Sk ype</w>
S ur
S ta
Rach el</w>
R en
Qu een</w>
Prince ton</w>
Phili p</w>
Ph òng</w>
Pe ace</w>
Nai ro
Mc Donald</w>
M ình</w>
K yoto</w>
K ay</w>
Jon as</w>
Jo el</w>
Jeffer son</w>
Irani an</w>
FOX O</w>
E G</w>
Du tch</w>
Du bai</w>
Crai g</w>
Christo pher</w>
Ca tho
C had</w>
C an</w>
Al ber
50 .000</w>
4 3</w>
3 9</w>
19 30</w>
1 1/
ắ n.</w>
đ ầu.</w>
á i.</w>
yi eld</w>
y land</w>
y e
x ô</w>
wor m</w>
wi res</w>
weap on</w>
volunte er</w>
ves sel</w>
v ors</w>
ur us</w>
ur b
tri nh</w>
tra jec
tow er</w>
ti n
thre sh
th or
tar ge
ta tional</w>
sy mb
symb ols</w>
survi ved</w>
sur faces</w>
suppor ting</w>
stret ch</w>
stor ed</w>
sti g
st anti
sp reads</w>
soci ally</w>
smar ter</w>
slu ms</w>
sku ll</w>
simi larly</w>
sig nature</w>
sho cked</w>
sexu ality</w>
seroton in</w>
see king</w>
schizophren ia</w>
scan ning</w>
sa fer</w>
s ói</w>
reg on</w>
r r
r ling</w>
pur poses</w>
prison ers</w>
previ ously</w>
poll in
po int
plan ned</w>
per pe
pas ses</w>
parti ci
p ink</w>
ori gin</w>
offi cer</w>
nutri ents</w>
non profit</w>
ni ngs</w>
navi gate</w>
n ắp</w>
my steri
mush rooms</w>
may or</w>
m ép</w>
lượ m</w>
lu ân</w>
lo s</w>
li on</w>
l ội</w>
kid ney</w>
kh e</w>
k in</w>
k ar
it z</w>
int ent</w>
inst alled</w>
inspi re</w>
ha bit</w>
guaran tee</w>
great -
go o
gir l
gener ating</w>
g ases</w>
foun dations</w>
for got</w>
fol ded</w>
flexi ble</w>
fi x
fi ber</w>
f red</w>
exp anding</w>
ex po
et te</w>
eni x</w>
end angered</w>
em bo
dru m</w>
divi sion</w>
disco vering</w>
disa bled</w>
di ver
di ty</w>
develo p
deli ber
da ting</w>
d or</w>
cre w</w>
conta gi
con vic
com prehen
co tton</w>
co operate</w>
clu sters</w>
chap ter</w>
ch iên</w>
ca sh</w>
bott les</w>
bl owing</w>
bl ack
ben eath</w>
barri er</w>
b ế</w>
b ẩy</w>
b and
authenti c</w>
audi ences</w>
as leep</w>
arre sted</w>
argu ing</w>
appro x
analo gy</w>
al li
abi a</w>
V ô</w>
V -
Ta yl
T re
T iếng</w>
T it
T hành</w>
Swi ss</w>
St one</w>
St ar</w>
Spee ch</w>
S en
R G</w>
Ph ần</w>
Or g
O regon</w>
O n
O liver</w>
Nairo bi</w>
N ature</w>
N 1</w>
M W</w>
Jer ry</w>
J en
I .</w>
Haw king</w>
H ere</w>
G race</w>
F DA</w>
Di ego</w>
Catho lic</w>
Car ol</w>
Cam bo
C as
Br ow
Bang al
B ố</w>
B lo
Augu st</w>
5 7</w>
5 -
4 1</w>
199 2</w>
198 0s</w>
1 80</w>
1 -
ẻ .</w>
ẹ p.</w>
ả nh.</w>
đ ến.</w>
đ àng</w>
đ an</w>
Đ an</w>
í .</w>
y ards</w>
x ế</w>
x on</w>
x em.</w>
wor ms</w>
win ds</w>
việ c.</w>
vi br
ver bal</w>
venu es</w>
v ách</w>
v on</w>
ur o</w>
un cle</w>
u ps</w>
tuy ệt.</w>
tu des</w>
trans mit</w>
trans mission</w>
tr êu</w>
tr ace</w>
thr owing</w>
telescop es</w>
ta xi</w>
surr ounding</w>
spectac ular</w>
so a
sch e
sca ff
satelli tes</w>
ro se</w>
ro pe</w>
ri tuals</w>
rhyth m</w>
represen tative</w>
read ers</w>
re quest</w>
re habi
ra in
r ổ</w>
pro ph
primi tive</w>
por tion</w>
po ckets</w>
pi ge
ph ôi</w>
percei ved</w>
pal m</w>
pack age</w>
or a
obe se</w>
nu ối</w>
nh ăn</w>
ng ợi</w>
ng ers</w>
ner ve</w>
mon keys</w>
mix ing</w>
me e</w>
mat ure</w>
main stream</w>
ma ting</w>
ma stery</w>
m o</w>
lic it</w>
li mb</w>
li est</w>
li ament</w>
legi s
lab el</w>
kh ép</w>
kh âu</w>
k le</w>
j un
it able</w>
inve sted</w>
interpre t</w>
inter rup
inten sive</w>
in dependence</w>
he lium</w>
happ ily</w>
hallucin ations</w>
gu ard</w>
go ds</w>
go d</w>
glu co
gi an.</w>
ge sture</w>
gar bage</w>
fun ds</w>
extre mi
ex tend</w>
ev </w>
esti mates</w>
eri an</w>
er rors</w>
entreprene ur</w>
en tation</w>
ele mentary</w>
el a
ec e</w>
dro pping</w>
disp l
determin es</w>
den ial</w>
democr acies</w>
de ar</w>
d enti
d ation</w>
cul ti
cri mes</w>
cour ses</w>
cou ver</w>
constra ints</w>
con .</w>
competi tive</w>
communi cations</w>
com ments</w>
collap sed</w>
co vering</w>
cele bri
c ộ</w>
c tu
c m</w>
c ence</w>
c able</w>
bure au
bur st</w>
bur ned</w>
bro ad</w>
br ands</w>
bon acc
bonacc i</w>
blin dness</w>
bio logist</w>
b ời</w>
b in
b acks</w>
auti stic</w>
approach es</w>
app lying</w>
an cing</w>
am ate
algorith m</w>
al a</w>
air planes</w>
aggre ssive</w>
achie vement</w>
a ster
Y R</w>
Wh en</w>
W oo
Victori a</w>
Van couver</w>
U C
Tor onto</w>
T here</w>
Ri ver</w>
R oo
R es
Pi er
Pho enix</w>
O ce
Nor way</w>
Neanderth als</w>
NG Os</w>
N ữ</w>
Me dic
Me di
Kh an</w>
Katr ina</w>
I g</w>
H ur
H as
Gw en</w>
Gu inea</w>
Gol d
Gi ai</w>
G ia</w>
Frank lin</w>
Fi bonacci</w>
F BI</w>
Dou g</w>
Ch o</w>
C la
Ber tie</w>
Ai mee</w>
A T
= </w>
8 3</w>
8 2</w>
ụ a</w>
ộ i.</w>
ế ng</w>
ưở ng.</w>
ú n</w>
ô .</w>
à nh.</w>
x ả</w>
x ài</w>
wan dering</w>
w w
và n</w>
vi sions</w>
up set</w>
un able</w>
tu a</w>
treat ments</w>
tr ội</w>
tr ói</w>
topic s</w>
to a</w>
ti er</w>
the ore
th ề</w>
tack le</w>
t ụt</w>
t ụi</w>
t to</w>
t one</w>
sub way</w>
su ck</w>
strate gic</w>
stor ms</w>
stop ping</w>
sti mul
ste pped</w>
squ ee
sm ells</w>
sin k</w>
simp ler</w>
si r</w>
shri mp</w>
se al</w>
right- hand</w>
rep licate</w>
regar dless</w>
re actions</w>
rainfor est</w>
r ải</w>
qu ăng</w>
prop ag
pro ven</w>
prin ts</w>
pri de</w>
pi e</w>
peace ful</w>
pat ents</w>
parado x</w>
par enting</w>
pan el</w>
over -
om an</w>
nh é.</w>
nh ã</w>
na i
n ếm</w>
mộ t-</w>
mu ôn</w>
mosqui tos</w>
mom en
min ating</w>
me thane</w>
me ga
mar ker</w>
ma pping</w>
loy ment</w>
lotter y</w>
lo cations</w>
list ened</w>
li êng</w>
lau ghter</w>
kho ang</w>
k ra
inter views</w>
inten ded</w>
initi ally</w>
in mates</w>
im men
hori zon
ho sti
ha cking</w>
h ẻo</w>
gu i
graph ical</w>
gra ve</w>
gor geous</w>
go tta</w>
ght ful</w>
gar et</w>
g ập</w>
fron tal</w>
free zing</w>
ffi cient</w>
fe deral</w>
explo sion</w>
embarra ssing</w>
ell ow
educ ate</w>
econom ist</w>
eco logical</w>
do o</w>
di ều</w>
di um</w>
di f
deva stating</w>
desti ny</w>
decision -making</w>
de serve</w>
d âu</w>
d ar</w>
cylin der</w>
cy clo
custom er</w>
cu ts</w>
cra sh</w>
coun ting</w>
corpor ations</w>
contribu tion</w>
con doms</w>
compe te</w>
com ment</w>
clu e</w>
climb ing</w>
class rooms</w>
chan nels</w>
ch ết.</w>
ch ì</w>
can v
ca i</w>
c ẩu</w>
bu le</w>
bom bs</w>
bo ss</w>
bl an
ber a</w>
believ es</w>
beauti fully</w>
b ới</w>
b ùn</w>
b óp</w>
awk ward</w>
as is</w>
answ ering</w>
aff ecting</w>
adop t</w>
aci ds</w>
abi li
aband oned</w>
Z </w>
Worl d
Vene zu
V ịnh</w>
U kra
U N
Tayl or</w>
Tas mania</w>
T uyệt</w>
SO PA</w>
S M</w>
Ro y</w>
R I
P y
P ep
P I
Oce an</w>
Ne il</w>
Mar garet</w>
M ạch</w>
M ir
Lib eria</w>
Jenni fer</w>
Indu strial</w>
I tali
Gi ới</w>
Ge h
Ga za</w>
Fo x</w>
F il
Euro pa</w>
Co ast</w>
Chur ch</w>
C ur
Bangal ore</w>
B lack</w>
Al fred</w>
A ar
9 00</w>
40 4</w>
2 5,000</w>
199 7</w>
1 2,000</w>
0 0,000</w>
- scale</w>
ự .</w>
ợ .</w>
đ ọng</w>
đ ắm</w>
Đ ịa</w>
Đ ô</w>
Đ a</w>
ê t</w>
you th</w>
wra pped</w>
wra p</w>
work force</w>
web sites</w>
war ri
w ound</w>
viol in</w>
ver b</w>
vacc in
vac u
v ặn</w>
tun nel</w>
tu mors</w>
tt es</w>
tru ths</w>
tra gic</w>
tou gh
toler ance</w>
tic ket</w>
ti ps</w>
thresh old</w>
th ường.</w>
tenden cy</w>
ten sion</w>
teenag er</w>
t ớ</w>
t ạc</w>
t z
t ful</w>
syn drome</w>
sy l
susp ect</w>
super market</w>
str ess
stor age</w>
st ack</w>
st abili
sp in</w>
signific ance</w>
sho ts</w>
sc ales</w>
sa o.</w>
s ỏi</w>
s ảnh</w>
s ni
ro cks</w>
ri vers</w>
ri ty</w>
ri ding</w>
repor ts</w>
remi tt
reason able</w>
re y</w>
re solve</w>
re placed</w>
radi cally</w>
ra pe</w>
r ệt</w>
r ặng</w>
qui e
pyrami d</w>
projec tions</w>
pro posal</w>
primar ily</w>
plan ted</w>
plac ing</w>
physici ans</w>
particip ation</w>
pa ste</w>
ou tw
occu p
obstac les</w>
o logists</w>
o logist</w>
ni ty</w>
nghi ền</w>
ng ắt</w>
ne ys</w>
n ạ</w>
n ine
mysteri ous</w>
momen tum</w>
mo de</w>
migr ants</w>
mechan ics</w>
manu al</w>
manipu late</w>
magni fi
luxu ry</w>
liter acy</w>
lin ear</w>
limi tations</w>
li sts</w>
le an
lan es</w>
kni fe</w>
kho án</w>
kh ốc</w>
ke t
k iều</w>
infor med</w>
indu stri
imp lant</w>
ill ance</w>
i ted</w>
i dio
human i
hu mi
ho o</w>
helicop ter</w>
hand -
ha i
guil ty</w>
gr ounds</w>
gluco se</w>
gi ếng</w>
gentle man</w>
geno cide</w>
gather ed</w>
g mented</w>
forest ation</w>
for mat</w>
fol ds</w>
fac tion</w>
ent -
en velo
en berg</w>
dimen sion</w>
desper ately</w>
desp air</w>
demo graphic</w>
dama ged</w>
d ỡ</w>
d al</w>
cri teria</w>
correc tly</w>
con temp
comprom ise</w>
compe ting</w>
chu i</w>
ch ặng</w>
ch ess</w>
carto oni
car ries</w>
car bon
can dy</w>
camp s</w>
ca the
c coli</w>
bro ccoli</w>
bor ed</w>
believ ing</w>
beet les</w>
be an</w>
b ến</w>
b iệt.</w>
b alls</w>
art work</w>
ar es</w>
an ni
ali stic</w>
ali en</w>
al titude</w>
agree ment</w>
ag e-
ag an</w>
ag a</w>
adequ ate</w>
ac knowled
V ăn</w>
Trea sure</w>
Te h
Sou thern</w>
So bule</w>
Ro ss</w>
P A
Olymp ics</w>
No vember</w>
Moz art</w>
M ộc</w>
M ari
Ki bera</w>
Ju lie</w>
I m
Hi ll</w>
Free Speech</w>
Da ve</w>
Coperni cus</w>
Co ch
Bil ly</w>
Bar ack</w>
B ec
Afri cans</w>
A ca
A V</w>
8 ,000</w>
5 3</w>
20 20</w>
1 25</w>
00 0-
ủ .</w>
đ ứt</w>
đ ẹp.</w>
đ ường.</w>
đ ãi</w>
á n.</w>
x ảo</w>
win ners</w>
win ner</w>
we i
visu ally</w>
vas cular</w>
univer s
un es</w>
ultras ound</w>
trajec tory</w>
tr ương</w>
tr o</w>
tr ea
tit les</w>
ti tudes</w>
ti se</w>
ti me-
ti ght</w>
ther mal</w>
the on</w>
temper atures</w>
techni cally</w>
t ness</w>
surve illance</w>
sugg estion</w>
succee ded</w>
su its</w>
stri ke</w>
strang er</w>
sp ac
so c
smo oth</w>
simp lest</w>
si zes</w>
si mulation</w>
sh i</w>
s ale</w>
ro of
remark ably</w>
recyc led</w>
rec la
rec all</w>
qu á.</w>
pro -
preven tion</w>
predic tion</w>
por ts</w>
po le</w>
pl er</w>
physici sts</w>
peri ods</w>
pas sive</w>
par o
par ag
pan demic</w>
pa d</w>
overwhel med</w>
ou x</w>
ok o</w>
offi cials</w>
offer ing</w>
nh à.</w>
ng ày.</w>
never theless</w>
my th</w>
mu se
mo du
mi ze</w>
mani fe
magi cian</w>
ma sters</w>
m ẹo</w>
m bo
lu ngs</w>
like lihood</w>
le an</w>
lab eled</w>
la ke</w>
l ứa</w>
l ách</w>
k ề</w>
k u</w>
jump ing</w>
ju ven
ju ice</w>
journali sts</w>
it es</w>
invest ments</w>
in son</w>
imp lan
i um</w>
histor ically</w>
hi red</w>
h ăng</w>
h án</w>
h iếu</w>
gu er
gra ffi
glimp se</w>
gi ờ.</w>
fl ows</w>
f ancy</w>
exti nction</w>
exten ded</w>
expedi tion</w>
expan sion</w>
exp ecting</w>
excu se</w>
eth nic</w>
ent y-
enab led</w>
electro des</w>
electr ons</w>
dy sse
duc k</w>
do or
da wn</w>
cu a</w>
connec ts</w>
colum n</w>
co vers</w>
ci a</w>
chuy ện.</w>
chu ộng</w>
che at</w>
challeng ed</w>
ch am
cen sor
cap abilities</w>
bul b</w>
blo gging</w>
bi lls</w>
batter ies</w>
b ênh</w>
b read
att acked</w>
appear ance</w>
ambi tious</w>
am y
am ond</w>
ag ents</w>
acti vated</w>
a esthetic</w>
Wal ker</w>
The y</w>
Ten nes
Teh ran</w>
Satur n</w>
Satur day</w>
S ol
Ri ves</w>
Pho to
O dysse
Nh ìn</w>
N ico</w>
N go
Mo vember</w>
Mat the
Ma y
M ỹ.</w>
M à</w>
M itch
M is
Lo ve</w>
Lang ley</w>
K y
K ha
Ju ly</w>
Jer sey</w>
I. Q
Har lem</w>
Gan do</w>
G ary</w>
G am
F ai
Do ha</w>
D un
D er
D an
B ệnh</w>
B ren
Archi e</w>
Aar on</w>
A ni
7 7</w>
2 -
11/ 9</w>
1. 3</w>
1. 2</w>
ỏ i.</w>
ắ ng.</w>
đồ n</w>
Đ ạo</w>
Đ iện</w>
zi ngly</w>
y al</w>
x -
we stern</w>
wat ers</w>
w ol
ver sions</w>
v áy</w>
v ators</w>
unh appy</w>
u tili
tri gger</w>
tri bal</w>
to p-
ter rain</w>
teen age</w>
t át</w>
t ti
sub stanti
sub si
su ối</w>
stri p</w>
strea ms</w>
story t
ster dam</w>
st ones</w>
sper m</w>
so i</w>
short -
shi re</w>
sh ower</w>
sch edu
satis faction</w>
s ma
refl ection</w>
reali zation</w>
re wards</w>
re war
re pu
re lates</w>
re fer</w>
re alm</w>
ra ped</w>
r ò</w>
r ìu</w>
r ab
pursu e</w>
publi sh</w>
propor tion</w>
program mers</w>
pro state</w>
pro pose</w>
pri l</w>
pra h</w>
pl ed</w>
pil es</w>
pher d</w>
overwhel ming</w>
ou ts</w>
opini ons</w>
off spring</w>
no de</w>
nh ỏ.</w>
nh ược</w>
ng ả</w>
ng ơi</w>
ner ves</w>
ne st</w>
na y.</w>
n ứt</w>
n ộp</w>
mu tations</w>
mo tors</w>
mini mum</w>
mi mic</w>
mi a</w>
medi tation</w>
me g
m ously</w>
m oud</w>
m ess
mess y</w>
m ere</w>
long e
longe vity</w>
li ght
li ath</w>
legis lation</w>
le verage</w>
le i
le ans</w>
lap tops</w>
l ấn</w>
kh iết</w>
kh </w>
k a
inv esting</w>
interven tions</w>
in da</w>
improvi sation</w>
hori zon</w>
hon ey</w>
high way</w>
head ing</w>
har dest</w>
ha ck</w>
h ở</w>
h àu</w>
h n</w>
h m</w>
h an</w>
gro cer
graph s</w>
graffi ti</w>
gra ins</w>
good bye</w>
glaci er</w>
gi àn</w>
g aps</w>
fu se</w>
frighten ing</w>
for bi
fla vor</w>
favori tes</w>
f ers</w>
exhi bit</w>
ex hau
ex ception</w>
establi shed</w>
es a</w>
epi so
enjo yed</w>
en e</w>
el le</w>
easi est</w>
du r
dra g</w>
distur bing</w>
disa sters</w>
dis gu
di ac</w>
detec tor</w>
def end</w>
dee pest</w>
dec o
dea f</w>
d ời</w>
cu be</w>
cr acy</w>
continu ous</w>
conduc ted</w>
comm and</w>
clo thing</w>
chu ối</w>
ch ốn</w>
ch út.</w>
ch eating</w>
ce ly</w>
cas ting</w>
candi dates</w>
c ọc</w>
bu ll
bri be</w>
bra ve</w>
bo ok
blo gs</w>
bl own</w>
bel ly</w>
beet le</w>
bath room</w>
barri ers</w>
b ound
b adly</w>
auton omy</w>
assu med</w>
associ ate</w>
ari ans</w>
are foot</w>
an ne</w>
a we</w>
Y our</w>
Venezu ela</w>
U .</w>
Tennes see</w>
T elescop
Sti rling</w>
Se bas
Sch war
S olly</w>
Re publi
R yan</w>
Power Point</w>
PI PA</w>
P C</w>
O prah</w>
Ngh e</w>
Mah moud</w>
M áy</w>
M e</w>
M ary</w>
M T
M A
Law rence</w>
L ớn</w>
L úc</w>
J im
I.Q .</w>
I NC
Har ry</w>
E r
Di ana</w>
D y
D A
C I
B ằng</w>
B un
Am sterdam</w>
Al bert</w>
Aca demy</w>
A sian</w>
A pril</w>
8 0,000</w>
5 9</w>
5 4</w>
5 0s</w>
20 s</w>
198 9</w>
1, 500</w>
0 .</w>
ừ m</w>
ỗ i.</w>
Đ ế</w>
á o.</w>
à o.</w>
zer land</w>
x ốp</w>
x ấp</w>
woo den</w>
wit zerland</w>
wild life</w>
w l</w>
w ed</w>
vo ca
vi sc
v els</w>
univer ses</w>
underst ands</w>
u sel
u a</w>
tra it</w>
toi lets</w>
thu mb</w>
the ories</w>
tal ents</w>
t ẻ</w>
t ước</w>
su spi
stri ngs</w>
star ing</w>
st es</w>
ss ment</w>
spi ll</w>
sph er
som es</w>
sm a</w>
sk i</w>
si ca</w>
short ly</w>
ser ver</w>
see mingly</w>
se a
s ưởi</w>
ri ngs</w>
resi st</w>
rehabi li
reg ard</w>
rec ession</w>
real- time</w>
re think</w>
re produce</w>
qu ỵ</w>
qu ẩn</w>
qu ạt</w>
proto cell</w>
profes sion</w>
proces sed</w>
pop ul
pi ty</w>
ph àn</w>
peri o
per mission</w>
pen is</w>
p ort
p it</w>
p an</w>
ow ning</w>
orches tra</w>
ol m</w>
ol by</w>
oc to
obser ved</w>
o o</w>
nh ộn</w>
nh ấc</w>
ngo ạn</w>
ng ness</w>
ng es</w>
nec k</w>
na mely</w>
n ến</w>
moti vated</w>
monit oring</w>
mon u
mi gration</w>
medi cation</w>
mar ry</w>
manu el</w>
lo ving</w>
lo a</w>
le x
le ver</w>
le th
land scapes</w>
la ge</w>
l ửng</w>
l ót</w>
l on
k ẽ</w>
k ansas</w>
jump ed</w>
jud gments</w>
j et</w>
ite m</w>
is y</w>
ir ri
inte gration</w>
ins ect</w>
inju ries</w>
ingredi ent</w>
incenti ve</w>
impre ssion</w>
il er</w>
ic e
i ster</w>
human -
hol ders</w>
ho i</w>
high- tech</w>
h é</w>
h r
h ar</w>
guer ri
gra sp</w>
g ăng</w>
g i</w>
frequ ently</w>
fra mes</w>
fr action</w>
extra ordinarily</w>
exper tise</w>
ex am</w>
ex ag
ev al</w>
encoura ged</w>
ema ils</w>
ei ght-
ear liest</w>
dou bled</w>
domin ated</w>
dolph in</w>
discri mination</w>
disco ver
detec tion</w>
der ness</w>
demo cra
d les</w>
d ang</w>
củ </w>
cul ate</w>
cro ssed</w>
controversi al</w>
contain er</w>
concer ns</w>
concentr ation</w>
compu tational</w>
compu tation</w>
compar ing</w>
coll ectively</w>
col oni
clu es</w>
chimpanz ees</w>
char ged</w>
ch ốc</w>
ch ạp</w>
cellu lar</w>
car es</w>
calcul ated</w>
c ows</w>
c ay</w>
bul ary</w>
br is</w>
bomb sight</w>
bla h</w>
bas king</w>
b ội</w>
b ọt</w>
automo bile</w>
astronom ers</w>
assu mption</w>
assu ming</w>
assemb le</w>
ar bi
appro ved</w>
apo logi
am ino</w>
adop ted</w>
ad vi
ack er</w>
ab y
Win d
Wei bo</w>
We b
V oy
U r
U p</w>
Tah ri
TED sters</w>
T y
Stan ley</w>
S witzerland</w>
S pain</w>
S and
Ro se</w>
Prin ce</w>
Phili pp
Per u</w>
Pe ople</w>
Palesti nian</w>
P ur
P E
O scar</w>
N ói</w>
N BA</w>
Mo ses</w>
Mo MA</w>
Me dia</w>
Ma ya</w>
Ma c</w>
La ke</w>
L ab</w>
K ong</w>
Je ff</w>
Je an</w>
J on</w>
Itali an</w>
Geh ry</w>
F ort</w>
E di
D olby</w>
D al
Can a
Cal tech</w>
CA D</w>
C âu</w>
Bru ce</w>
Bi osphere</w>
Ber n
B re
Ar kansas</w>
Ab u</w>
A re</w>
8 4</w>
7 9</w>
6 0,000</w>
4 50</w>
4 .
2 6
1 10</w>
ũ a</w>
đ ốn</w>
y la</w>
y east</w>
work place</w>
wi ves</w>
voca bulary</w>
vi al</w>
val ley</w>
v ướng</w>
v ùi</w>
v ít</w>
v ary</w>
tro l</w>
tra pped</w>
tr y
tou ching</w>
toc kh
ti ệt</w>
ti n.</w>
ti al</w>
tex ture</w>
terri fied</w>
te dly</w>
t ít</w>
t elec
syste matically</w>
supp lies</w>
stereo types</w>
sta ir
spi der</w>
sp ra
soa p</w>
sm alle
smalle st</w>
simul taneously</w>
sha king</w>
ser vation</w>
se as
sac red</w>
s ứa</w>
s ờ</w>
s ô</w>
s wa
s enti
s burg</w>
s anc
ro les</w>
repor ter</w>
replace ment</w>
rep li
regu lations</w>
regu larly</w>
re vel
re se
re com
r ớt</w>
publi c
pro position</w>
privi le
pre scri
practic ing</w>
pp y</w>
pl ates</w>
pil ls</w>
phenomen a</w>
ph ớt</w>
ph anh</w>
p ene
ow itz</w>
orig ins</w>
or ph
op er</w>
on a</w>
om ing</w>
ol d-
od or</w>
octo pus</w>
occur ring</w>
nh ại</w>
ngu ội</w>
net t</w>
nec ti
narra tives</w>
na tion
n ặc</w>
mạ </w>
mu d</w>
min us</w>
micro scop
measu res</w>
mar ch</w>
magnifi cent</w>
ma sses</w>
m ọt</w>
m à.</w>
m med</w>
lo ads</w>
left- hand</w>
la h</w>
l ụa</w>
l ượn</w>
l y-
khu ếch</w>
khu ất</w>
jo int</w>
j i</w>
iso lation</w>
intro ver
inter viewed</w>
inten tion</w>
inten sity</w>
int act</w>
instal lation</w>
inju red</w>
in i</w>
impre ssive</w>
imag ining</w>
ide ology</w>
icon ic</w>
i sing</w>
human it
hu t</w>
hor n</w>
hom o
ho pes</w>
hier archy</w>
hea ting</w>
he ter
han ded</w>
ha ted</w>
h ết.</w>
h iể
gi g
gh en</w>
genom es</w>
gener osity</w>
gen s</w>
g ắt</w>
fire flies</w>
film maker</w>
fi cations</w>
fam ously</w>
f ea
expo sure</w>
es cent</w>
er als</w>
enzy me</w>
enter ing</w>
ene mies</w>
encoura ging</w>
emb racing</w>
el u
docu mented</w>
disa bility</w>
di cation</w>
del u
de adly</w>
d in</w>
d ens</w>
cyclo pedia</w>
cr ack</w>
coura geous</w>
cor ners</w>
consist ent</w>
cong estion</w>
com ic</w>
co oper
co ach</w>
ch ọi</w>
ch ật</w>
ch at</w>
cele bra
cap ability</w>
canv as</w>
c ớ</w>
c ằn</w>
c ạo</w>
c ưỡi</w>
c ông.</w>
bun tu</w>
bul let</w>
buil ds</w>
bri dges</w>
break through</w>
belo ngs</w>
be ef</w>
b end</w>
b ands</w>
authori ties</w>
authenti city</w>
au to
astron au
assign ment</w>
arbi tr
ar -
approx im
app les</w>
any on</w>
analo g</w>
ama zingly</w>
ama zed</w>
ali g
ai red</w>
ad ju
acqui red</w>
ac knowledge</w>
abun dance</w>
a or
a is
US D</w>
Telescop e</w>
TED Women</w>
Si oux</w>
Scr atch</w>
S tockh
Ri ver
R ory</w>
Qu ân</w>
Ph át</w>
P H</w>
O u
Nor man</w>
Mitch ell</w>
Mini stry</w>
Mi d
Mel inda</w>
M ey
Lou is</w>
Le ster</w>
LO L</w>
Kar l</w>
Ju stin</w>
Isla mi
Hop kins</w>
H ệ</w>
H ou
F li
E van</w>
E i
D i</w>
D a</w>
Con necti
Coch rane</w>
Car ter</w>
C ari
C T</w>
C L</w>
Ar abia</w>
An th
An n</w>
A gn
5 6</w>
5 000</w>
4 6</w>
19 30s</w>
1 60</w>
ắ c.</w>
ư .</w>
y fish</w>
x en</w>
wor rying</w>
wi ng
w ow</w>
w ins</w>
ver i
vege table</w>
vari able</w>
vac ation</w>
v ựng</w>
v ag
usel ess</w>
u x</w>
u sage</w>
tt s
tro ops</w>
transfor ming</w>
trans it</w>
trac ks</w>
tr ics</w>
to oth
ti zation</w>
ti more</w>
ti ger</w>
thera pi
th ừng</w>
th ích.</w>
th y
terri bly</w>
ter ing</w>
t ected</w>
syl v
sy ri
swe at</w>
supp re
stri king</w>
sti ne</w>
squ ares</w>
sp are</w>
sol o</w>
six th</w>
shif ted</w>
sh -
seven th</w>
sett le
sel ected</w>
sec ular</w>
sculp tures</w>
scen es</w>
sc al
sal t</w>
s co
reve als</w>
resp ec
recei ving</w>
rec k
re vi
re jected</w>
re infor
re generate</w>
qu ad
prof essors</w>
produc ers</w>
proc essor</w>
pro test</w>
pr ay</w>
portra its</w>
plat forms</w>
phthal ate</w>
ph ích</w>
perspec tives</w>
pe a
part nership</w>
pa ths</w>
p po
p ouring</w>
p anic</w>
ow ners</w>
ou tr
organi zing</w>
or able</w>
on er</w>
ol ed</w>
nh ạo</w>
ng ủi</w>
ng ọc</w>
ng ạo</w>
ng ào</w>
ne oc
n ới</w>
n ộ</w>
n sylv
n in
mon o
mo or</w>
milli meter</w>
mi ssions</w>
metaboli sm</w>
me tric</w>
mat ched</w>
manufactu r
manag ing</w>
ma tions</w>
m ất.</w>
m ìn</w>
lo g</w>
lif ted</w>
li êu</w>
li ve
laugh ed</w>
la y
l ọt</w>
l on</w>
kin dness</w>
kh ử</w>
ke l</w>
j ell
j </w>
ir o</w>
intrigu ing</w>
institu tional</w>
infec tions</w>
im per
il la</w>
hi ll</w>
her itage</w>
hel met</w>
hea vi
har m
har bor</w>
h áo</w>
gra des</w>
gl ori
girl friend</w>
gi áng</w>
gi a.</w>
gener ates</w>
gam ma</w>
g ạo</w>
friend ship</w>
for give</w>
fin dings</w>
fe mini
fav el
favel as</w>
fat al</w>
f ting</w>
en er</w>
emp i
eli minate</w>
eleg ant</w>
ec raft</w>
ea se</w>
dro ps</w>
don ors</w>
docu mentary</w>
disti nc
diplom acy</w>
differ enti
di stor
demo s</w>
dec ent</w>
de tected</w>
de pic
de fi
dan cers</w>
d ồi</w>
d ental</w>
d are</w>
cu ps</w>
connec tivity</w>
confron ted</w>
concer t</w>
con vey</w>
con fir
con ception</w>
cock tail</w>
co oling</w>
cli ff</w>
clean ing</w>
civili zations</w>
chromo somes</w>
ch or
ce -
care gi
car t</w>
calcu lation</w>
cal end
ca ves</w>
c ắn</w>
bu sh</w>
bran ches</w>
bo ats</w>
blo gger</w>
be a
b ì</w>
ax it</w>
avo i
anxi ous</w>
annu al</w>
ani sm</w>
amp li
addic tion</w>
ad y</w>
accompli shed</w>
ab s</w>
ab s
a j
Z K</w>
Wil son</w>
Voy ager</w>
V í</w>
Tuni sia</w>
To àn</w>
Th ông</w>
Tahri r</w>
S ri</w>
S B</w>
Re zero</w>
R on</w>
R ec
R O
R .
Pro f
Pep si</w>
Pen nsylv
Pan theon</w>
P r
P lease</w>
P at</w>
Org anization</w>
Or leans</w>
O ak
Ni ch
Ng ôi</w>
Mil ler</w>
Mex ican</w>
Matthe w</w>
Ma thema
M as
Lin ux</w>
L ama</w>
Kh ông.</w>
J our
J ama
I Q</w>
H or
H ol
H in
H ei
Gree k</w>
Go liath</w>
G ood</w>
Es sex</w>
E st
E mp
E A</w>
D es
D E
Cu ba</w>
Connecti cut</w>
Cher no
C ùng</w>
Budd hi
Brow ne</w>
Broad moor</w>
Bal timore</w>
B oo
A ir</w>
9 4</w>
7 .
6 8</w>
3 -
- time</w>
ậ p.</w>
đ ặn</w>
zz y</w>
wor th
wi lli
và nh</w>
visu alize</w>
virtu e</w>
ve il</w>
ur ge</w>
uni on</w>
un lea
un fair</w>
tw ins</w>
trau matic</w>
trans l
tr ệ</w>
tr ường.</w>
tr àng</w>
tow el</w>
tor ture</w>
tom a
toma to</w>
ti sm</w>
thi êu</w>
therap ies</w>
ther mo
th ảy</w>
te mple</w>
tal ented</w>
t ụng</w>
t ế.</w>
syste matic</w>
swi tched</w>
su ýt</w>
stri an</w>
str essed</w>
sti mu
squ ared</w>
sole te</w>
soci ation</w>
sle pt</w>
shoul ders</w>
sexu ally</w>
sen sus</w>
se ats</w>
s killed</w>
rub ber</w>
rom ance</w>
ri ses</w>
ri chest</w>
repe ated</w>
reli ef</w>
rehabili tation</w>
refriger ator</w>
refl ected</w>
rea se</w>
random ly</w>
rai ses</w>
ra il
r ùa</w>
r d</w>
qu ấn</w>
pul se</w>
pro vin
privile ged</w>
prepar ation</w>
po ison</w>
pige on</w>
philosoph ical</w>
pherom one</w>
pharmaceu tical</w>
pe op
para chu
pa ys</w>
p ants</w>
ow ns</w>
ow e</w>
over head</w>
org asm</w>
or i</w>
or bi
op tical</w>
one- two-
oli tan</w>
occur s</w>
obser vations</w>
ob solete</w>
ob o</w>
o se</w>
nh ục</w>
nh ọn</w>
nh át</w>
ng e
neu tral</w>
neoc ortex</w>
nar r
na h</w>
mun d
mu star
mu sta
mp ing</w>
mirac les</w>
min al</w>
micr o</w>
me tic</w>
man d
mammo graphy</w>
ma pped</w>
m elt</w>
lo an</w>
leop ard</w>
la tive</w>
l ạy</w>
l un
ki es</w>
khi nh</w>
k -
jell yfish</w>
j unk</w>
j ac
iệ c</w>
invol ving</w>
inven ting</w>
interpre tation</w>
inter connected</w>
integr ate</w>
illu sions</w>
i mi
i le</w>
humanit arian</w>
hor ses</w>
ho b
he al</w>
ha o</w>
h ec
grocer y</w>
gol den</w>
gen eric</w>
g ớm</w>
g on</w>
femini st</w>
far ms</w>
fant asy</w>
f rac
f ing</w>
f ence</w>
exp on
end ers</w>
en cry
emo tionally</w>
emb ry
elev ator</w>
eleph ants</w>
eco logy</w>
e tic</w>
down town</w>
discu ssions</w>
develo pers</w>
destro ying</w>
desti nation</w>
dec or
dec lar
de pri
de forestation</w>
de ad
d ưng</w>
d rou
cr acks</w>
coun ts</w>
coun ted</w>
cor ti
cop e</w>
coo p</w>
consu ming</w>
concentr ated</w>
communi cating</w>
co verage</w>
co st-
co in</w>
co ding</w>
co ded</w>
co ca
cli ent</w>
cip al</w>
cigare tte</w>
chromo some</w>
cho p</w>
ch ích</w>
ca -
ca- Cola</w>
c úi</w>
c ành</w>
by l</w>
bul ance</w>
bu tter
bu gs</w>
bio diversity</w>
bi ll
b inary</w>
b ad
authori tarian</w>
attrac ted</w>
at ers</w>
archi ve</w>
ar ro
app s</w>
ans en</w>
anesthe sia</w>
all ing</w>
ali ke</w>
ai re</w>
adap tation</w>
ad ven
ad just</w>
ad er</w>
aci ous</w>
accur acy</w>
abs ence</w>
a- half</w>
a partments</w>
Y ale</w>
Y a
Willi ams</w>
V el
U S</w>
To à</w>
T so</w>
T on
T ar
T .</w>
T .
Stockh olm</w>
Ser ge
Se an</w>
S wa
S il
S how</w>
Re public</w>
R ou
Qu an</w>
Po tter</w>
Ph ương</w>
Pa pu
M ario</w>
M aria</w>
L yn
Ke pler</w>
K le
Joh ns</w>
I K
I D</w>
H om
H it
G ro
G ir
ES G</w>
E. U.</w>
De velo
Dal ai</w>
D .
Cour t</w>
Co ca-Cola</w>
Cherno byl</w>
Char lo
Ch ẳng</w>
Cambo dia</w>
C .
Bon nie</w>
B y
Agn es</w>
A y
7 4</w>
50 0,000</w>
5 ,
198 8</w>
198 6</w>
ỳ nh</w>
ử u</w>
ở m</w>
ổ .</w>
ẹ t</w>
ả o.</w>
đ ạm</w>
đ ính</w>
đ iếu</w>
õ m</w>
ã .</w>
z ones</w>
yo ta</w>
y as</w>
woo ds</w>
week end</w>
wat ts</w>
wa sted</w>
vo tes</w>
vo ters</w>
vacu um</w>
v ắt</w>
v ant
ur ora</w>
uni form</w>
un conscious</w>
two- thirds</w>
tr á</w>
ti fication</w>
thi a</w>
th ốn</w>
th ối</w>
th ỏ</w>
ter ror</w>
tat too</w>
tat to
tal in</w>
t sun
t ear</w>
t ching</w>
surg eries</w>
stu res</w>
stair case</w>
st ol
stol en</w>
ss ell</w>
si bli
sibli ngs</w>
she er</w>
sh ima</w>
ser en
sen sing</w>
sc ans</w>
sal ad</w>
safe ly</w>
sa v
sa ma</w>
s ne
ro lls</w>
resear ching</w>
rele ases</w>
regre ts</w>
refu se</w>
ree f</w>
recyc ling</w>
re qu
r ảnh</w>
r ong</w>
pur ple</w>
publi shing</w>
pri ority</w>
preven ting</w>
pre me</w>
poe ms</w>
pene tr
pe de
pas sions</w>
part ner
para site</w>
pan crea
pancrea tic</w>
pa ting</w>
pa ir
p our</w>
p ou
over seas</w>
or -
oper ated</w>
om ed</w>
olu min
off -
obser ving</w>
nor ms</w>
no vel
ni tric</w>
nh ức</w>
nh ốt</w>
nghiệ m.</w>
ng ừ
net working</w>
negoti ate</w>
n ực</w>
n ấc</w>
mu tation</w>
mod eling</w>
min ority</w>
micro RNA</w>
mi ll</w>
ment or</w>
measu rements</w>
me tals</w>
mb le
mar row</w>
man ner</w>
man kind</w>
ma ssively</w>
m ỉa</w>
m ác</w>
m ài</w>
m mer</w>
lo ses</w>
lo dy</w>
ll in</w>
leth al</w>
lec tures</w>
l ụt</w>
l ý.</w>
l le</w>
l anding</w>
ki ss</w>
kho ác</w>
j ecting</w>
it z
is lands</w>
ir st</w>
ir sh
inter ior</w>
inf lation</w>
inci dent</w>
in timacy</w>
in ser
in fl
in ations</w>
il and</w>
ick ens</w>
i nhi
hun t</w>
head line</w>
ham as</w>
h on</w>
gu it
gi cal</w>
g án</w>
g ins</w>
fung i</w>
func tioning</w>
fun dra
fru its</w>
frighten ed</w>
foun der</w>
for mal</w>
foll ows</w>
fif ty</w>
fi red</w>
fam ine</w>
f an
ex qui
ex pressed</w>
ex ceptions</w>
ever ly</w>
es cence</w>
ent ary</w>
enjo ying</w>
en counter
em pha
ell ows</w>
ec do
e ats</w>
du mb</w>
doub le-
disti ngui
discover ies</w>
dis per
dic ate</w>
di stances</w>
di le
deser ves</w>
dep loyed</w>
deli cious</w>
decep tion</w>
dd in</w>
d ào</w>
d ged</w>
cr ates</w>
cou sins</w>
cos mic</w>
contribu ted</w>
consu med</w>
con qu
con dom</w>
compas sionate</w>
comp en
comm end</w>
col m</w>
co at</w>
cho àng</w>
chi nh</w>
ch ment</w>
cer at
cerat ops</w>
cell o</w>
celebri ty</w>
ce l</w>
cat ad
car ri
car dio
can cers</w>
cal m</w>
ca tive</w>
ca stle</w>
c ào</w>
bound ary</w>
bo ther</w>
blu e
blo cking</w>
bi olumin
bi kes</w>
bi an</w>
ber y</w>
b ự</w>
b ra</w>
b ats</w>
ate mal
ar dian</w>
approach ing</w>
anti bodies</w>
analy zed</w>
an ten
an na</w>
an ecdo
an don</w>
alter ed</w>
ali e</w>
al ty</w>
al tru
al lo
al i</w>
ad dy</w>
activi sts</w>
accur ately</w>
accoun ting</w>
ac ed</w>
abun dant</w>
a wake</w>
a thic</w>
Wal mart</w>
W is
US DA</w>
U SA</w>
Tri ceratops</w>
Th ống</w>
T heo</w>
Su b
Sebas tian</w>
Sau l</w>
S am
S ad
Ru ssell</w>
Ri ght</w>
R an
R am
Qu ảng</w>
Prof essor</w>
Pic as
Pennsylv ania</w>
Odysse us</w>
O sama</w>
O s
Net fli
Na j
N u
Mon day</w>
Mal colm</w>
Ma k
M ell
M all</w>
M P
M BI</w>
M BA</w>
La w</w>
L ord</w>
L ea
K ate</w>
K B</w>
Jo ey</w>
Jim my</w>
Je ws</w>
Ja mie</w>
In tel</w>
INC RA</w>
Hi ro
Hel en</w>
Ha mp
HI V-
H irsh
H P</w>
Gu atemal
Gu ardian</w>
Gre ece</w>
Gla ss</w>
Free man</w>
Free dom</w>
F oo
F irst</w>
El vis</w>
Egyp tian</w>
Econ om
E .</w>
Christi ans</w>
Chil dren</w>
Cap e</w>
CI A</w>
C uri
C ro
C oll
Bon o</w>
Ba hamas</w>
B everly</w>
Anth ony</w>
Al i</w>
A urora</w>
A -
99 .
7 8</w>
7 ,
6 3</w>
2 /
195 7</w>
0 ,
) </w>
ợ m</w>
ề ng</w>
ươ c</w>
z o</w>
x ào</w>
worl d-
witne ssed</w>
whi s
well- known</w>
wel fare</w>
wei gh</w>
we t
warri or</w>
vol can
visi ting</w>
tu ộc</w>
tru sted</w>
trop ical</w>
transc end
tr aces</w>
tim ing</w>
ti ble</w>
thri ve</w>
threat ening</w>
ther lands</w>
th- century</w>
th ứ.</w>
text books</w>
terrori sts</w>
ten nis</w>
ta xes</w>
ta il
t ại.</w>
t ạ</w>
t ính.</w>
t ma</w>
t esti
t ag
sub mit</w>
sub jective</w>
su it
stress ful</w>
sp ell</w>
sp ect</w>
shif ts</w>
set ts</w>
sel fish</w>
se af
sa mp
s ợ.</w>
s áng.</w>
ri tual</w>
ri sky</w>
ri g</w>
revolu tions</w>
respon ded</w>
resi dents</w>
remitt ances</w>
regu l
re commend</w>
ran ny</w>
r ồng</w>
r ent</w>
qu ầy</w>
propag anda</w>
procedu res</w>
pro geria</w>
priori ties</w>
presi dential</w>
pic ks</w>
pi p
philanthro py</w>
pherom ones</w>
ph ải.</w>
ph úc.</w>
path ways</w>
par ks</w>
pa per
off s</w>
obse ssion</w>
nor m</w>
non violent</w>
no te
ni sh</w>
nh úng</w>
ne gl
mustar d</w>
muse ums</w>
mur der</w>
mon d</w>
min im
mi tes</w>
metabo lic</w>
mel ting</w>
medic ines</w>
mbo o</w>
mar a</w>
ma sk</w>
m ỉ</w>
m ông</w>
m éo</w>
m ánh</w>
low- cost</w>
low est</w>
logi es</w>
li ps</w>
legi timate</w>
l ỗi.</w>
l ười</w>
l áng</w>
ki ềm</w>
kho e</w>
k it</w>
jour nal</w>
invol ve</w>
intro duction</w>
inh ab
infec tious</w>
inde x</w>
impro vements</w>
ice berg</w>
i ter
i te</w>
hu ỳnh</w>
har mony</w>
gu ards</w>
gra ting</w>
gra ss
gi ầy</w>
gi ản.</w>
gi ll</w>
geome try</w>
geo graphy</w>
gener ative</w>
g man</w>
fee ds</w>
fe min
exag ger
ever -
ev ap
evap or
et as</w>
est ers</w>
est ate</w>
equ ations</w>
ep y</w>
en dea
empow ered</w>
embo died</w>
el ds</w>
ed it</w>
ecu rity</w>
ec o-
e ous</w>
disti nction</w>
disrup tive</w>
disp u
discu ssing</w>
dir t</w>
di ễu</w>
di sin
di e
di ce</w>
di a
demonstr ated</w>
del ay</w>
defe at</w>
def au
deci des</w>
dec rease</w>
d ẳng</w>
d son</w>
d ome</w>
củ i</w>
cru el</w>
cri tically</w>
coun tless</w>
convic ted</w>
conveni ent</w>
controver sy</w>
conta ined</w>
conser va
con front</w>
compu te</w>
comp ounds</w>
close st</w>
chu setts</w>
chi mps</w>
ch ảo</w>
ch k</w>
car ed</w>
calcu lating</w>
c ưng</w>
c ăm</w>
c ùng.</w>
bud gets</w>
bu tt
brow ser</w>
bran ch</w>
bi ased</w>
be ta</w>
be aten</w>
bar a</w>
ba mboo</w>
ate dly</w>
at omic</w>
at oes</w>
at eri
approxim ately</w>
approach ed</w>
am bulance</w>
alter na
ag oni
ag as
administr ation</w>
ack et</w>
accep table</w>
ac ou
a wa
W hoa</w>
V o
V iệc</w>
UC LA</w>
U ỷ</w>
Th ủ</w>
T ạo</w>
T ài</w>
Se a</w>
S ecurity</w>
Rob inson</w>
Pal m</w>
P in
Oak land</w>
O ffi
Nor we
Netfli x</w>
Ne therlands</w>
Mo der
Mell on</w>
Mathema tica</w>
Mar shall</w>
Maha tma</w>
M assa
M ala
M ag
Lu ân</w>
Lu ke</w>
L y
L en</w>
L e</w>
Ken yan</w>
Jour nal</w>
J o</w>
J ason</w>
IK EA</w>
I ll
Hit ler</w>
Himala yas</w>
H all
Guatemal a</w>
G .
Fre ud</w>
F ro
F or</w>
E vel
E lec
D ic
Charlo tte</w>
Ch uyện</w>
Cari b
Ca sey</w>
C lay</w>
C anyon</w>
AR PA</w>
195 0s</w>
15 0,000</w>
ứ ng.</w>
ố n.</w>
ỉ m</w>
ắ t.</w>
ậ u.</w>
ấ u.</w>
đ ười</w>
đ iểu</w>
đ iếc</w>
ê .</w>
ã o.</w>
za tional</w>
young est</w>
yo ga</w>
x ter</w>
wo o</w>
visu alization</w>
visc eral</w>
viru t</w>
v ỉa</w>
v á</w>
v ani
uy ến</w>
utter ly</w>
up side</w>
u buntu</w>
twi st</w>
tu ned</w>
transpor ted</w>
tr ading</w>
to ạ</w>
to oth</w>
ti tion</w>
ti de</w>
than k
th ấy.</w>
th ản</w>
text book</w>
teach es</w>
targe ted</w>
t cher</w>
syn chron
stun ning</w>
streng ths</w>
stom ach</w>
stitu tion</w>
sti mulation</w>
sti cky</w>
ste aling</w>
sta ys</w>
st atu
st al</w>
spher es</w>
sp rin
sp inning</w>
si ghted</w>
shel ves</w>
she pherd</w>
sha ping</w>
sh ining</w>
sett led</w>
sen sation</w>
sen ds</w>
self- interest</w>
scho ol
sche me</w>
sal ary</w>
sa ble</w>
s ố.</w>
s ương</w>
s wing</w>
s ary</w>
regu lation</w>
regi ster</w>
refu sed</w>
refl ective</w>
read er</w>
re venues</w>
rac ed</w>
ra dar</w>
quanti ties</w>
public ly</w>
promi sed</w>
premi se</w>
pow der</w>
post- conflict</w>
poly mer</w>
politici an</w>
po se
ple ased</w>
pip eline</w>
pi pe</w>
pen ici
pe sti
pe ers</w>
pe anu
pati ence</w>
pas sage</w>
p se</w>
p ron
p ill
p H</w>
ou gh
ori ented</w>
op position</w>
on ically</w>
ome ter</w>
occu py</w>
ob jec
o ids</w>
nucle us</w>
novel ty</w>
nh áy</w>
nh am</w>
ngo ặt</w>
ng âm</w>
ng side</w>
nai ve</w>
na sty</w>
n é</w>
n ap
mo dest</w>
memb rane</w>
me l</w>
mat ches</w>
m ons</w>
m ly</w>
loo se</w>
lo sses</w>
lo be</w>
ll er</w>
li ght-
lea f</w>
lab els</w>
la dder</w>
l ực.</w>
l én</w>
l ants</w>
kne es</w>
kin der
kinder gar
kid ding</w>
ket ball</w>
k .</w>
je wel
ir onic</w>
inevi tably</w>
inc i</w>
in tric
immen se</w>
i zation</w>
i ting</w>
hybri d</w>
hu mara</w>
hu h</w>
hu ge
huge ly</w>
horizon tal</w>
honest y</w>
hol der</w>
ho ok</w>
high light</w>
hi o</w>
heter o
h ức</w>
h ình.</w>
h iện.</w>
guit ar</w>
gri ty</w>
great ly</w>
gradu ates</w>
gi un</w>
gal ac
g ầy</w>
g ót</w>
g low</w>
ful filling</w>
fu s</w>
far ming</w>
fa st-
fa ils</w>
f on
expec tation</w>
ex otic</w>
ex c
ex amine</w>
es trogen</w>
es cal
envelo pe</w>
en try</w>
en for
displa ys</w>
disagre e</w>
di shes</w>
di ly</w>
di al</w>
demo graphics</w>
de vo
d ạn</w>
d ors</w>
cur ves</w>
cop ying</w>
cop ies</w>
continu ously</w>
consi dering</w>
conduc t</w>
com po
collabor ator</w>
collabor ate</w>
cock ro
cl arity</w>
ci tly</w>
chec king</w>
char ges</w>
ch ổ</w>
ch óp</w>
ch ênh</w>
ch à</w>
ch at
ch ase</w>
centi meter</w>
celebr ated</w>
cap tain</w>
c ưa</w>
c ling</w>
c attle</w>
bướ u</w>
bul bs</w>
bor row</w>
bo y
ber ty</w>
be side</w>
be am</w>
ban ned</w>
bal anced</w>
b ịt</w>
b owl</w>
b ow
b ond</w>
b at</w>
aw ard</w>
aun t</w>
at ories</w>
as set</w>
argu ed</w>
ara humara</w>
appe al</w>
anat omy</w>
an k
alo ngside</w>
al ph
adv ances</w>
adap ted</w>
ack ers</w>
a a
Z u
W on
V inci</w>
Tran sition</w>
Tr ước</w>
To yota</w>
Tha iland</w>
Te ch
Tami flu</w>
T in</w>
T arahumara</w>
Swe dish</w>
Su per
Ste in
Ste fan</w>
S ố</w>
S tation</w>
S pla
S now
S econ
S chu
S E
Ru fus</w>
Re u
R A
R .</w>
Pi tts
Photo shop</w>
Pe ter
Pas cal</w>
Papu a</w>
O k</w>
O S</w>
Ne u
N ơi</w>
Min ne
Mar yland</w>
M ore</w>
M ED</w>
Lan ka</w>
L es
Ko so
K ính</w>
K al
J R</w>
Indi ans</w>
Ill ino
H all</w>
H 5
H5 N1</w>
G ô-</w>
G ali
F ey
E co
E EG</w>
De sign</w>
Cri tic</w>
Coun cil</w>
Ch iếc</w>
Carib bean</w>
Cana dian</w>
C ục</w>
C ầu</w>
Bu ff
Bil bao</w>
Ba xter</w>
B ác</w>
B it
An dy</w>
A h</w>
A ge</w>
A dri
9 1</w>
8 9</w>
8 7</w>
7 1</w>
5 .000</w>
40 1</w>
40 0,000</w>
3 65</w>
3 60</w>
20 15</w>
199 1</w>
19 18</w>
-of- the-
ớ c</w>
ề nh</w>
ẽ o</w>
ằ ng.</w>
ươ m</w>
đ ổi.</w>
đ ạ
ê u.</w>
â m.</w>
á p.</w>
z ơ</w>
xu ống.</w>
xo a</w>
x ẻ</w>
x ót</w>
wi ll
who ever</w>
vi ền</w>
vi ên.</w>
veter ans</w>
val ve</w>
uri al</w>
tạ o.</w>
tu ber
tsun ami</w>
tri vial</w>
tra p</w>
tr ớ</w>
tou ri
to ken</w>
ti veness</w>
ther ed</w>
theore tical</w>
terri tory</w>
ta stes</w>
t ởm</w>
t ới.</w>
t ý</w>
t led</w>
syn ap
sym bio
stig ma</w>
ste ady</w>
statisti cally</w>
stand ar
some time</w>
so l</w>
slo pe</w>
skele ton</w>
si de-
sho e</w>
sh are
seven -
secon dary</w>
scre ening</w>
scienti fically</w>
scar ce</w>
sani tation</w>
sa i.</w>
s ấu</w>
s mu
ri an</w>
reve aled</w>
respon si
renew able</w>
rela tives</w>
refl ects</w>
re forms</w>
ra tion
ra ge</w>
r ậm</w>
r ãnh</w>
r à</w>
r aces</w>
qu ấy</w>
qu a.</w>
puni shment</w>
pu lls</w>
pros the
proble matic</w>
pro ved</w>
pro jection</w>
pri mate</w>
pr ing</w>
pop s</w>
po sters</w>
pi ter</w>
ph iện</w>
persi st
peop les</w>
penici llin</w>
partici pating</w>
parachu te</w>
para sites</w>
ox i</w>
orang u
on ey</w>
om in
om i</w>
om ag
occa sion</w>
o p</w>
nu mer
no isy</w>
no -
nh ôm</w>
nh ân.</w>
neuro scientist</w>
neuro logical</w>
n ước.</w>
n au
my tho
mom s</w>
mm m</w>
mm ar</w>
minu m</w>
man eu
mach in
ma o</w>
m ầu</w>
lo com
locom o
lo cks</w>
li fer
le gen
lap se</w>
l úng</w>
kindergar ten</w>
kilo s</w>
ki ck</w>
khu ấy</w>
k ép</w>
k iếp</w>
ju ana</w>
j ar
iệ u.</w>
ir relevant</w>
ir rational</w>
investi gation</w>
invent or</w>
inno vate</w>
initi ative</w>
inher ent</w>
inf ant</w>
in- law</w>
in sic</w>
in car
imp aired</w>
ill ary</w>
ig n</w>
hon ey
ho ped</w>
ho ly</w>
her d</w>
har ness</w>
han dy</w>
h ội.</w>
h ốc</w>
h iên</w>
gra mmar</w>
gr ant</w>
good ness</w>
gh test</w>
gen ous</w>
ga ins</w>
g ốm</w>
for -
flu ctu
fil med</w>
fi bers</w>
fe tus</w>
fair ness</w>
f ans</w>
explor ed</w>
explo it</w>
experim enting</w>
exp or
ex -
evalu ate</w>
ero tic</w>
er o</w>
entreprene urial</w>
empow ering</w>
emp ower</w>
emer gence</w>
el lu
ear ning</w>
ear ned</w>
ea stern</w>
e se</w>
dụ ng.</w>
dy s
divor ce</w>
discipl inary</w>
di gging</w>
deci ding</w>
dec lining</w>
dec k</w>
d ì</w>
d well</w>
d dy</w>
cyber criminals</w>
cul tur
cri tic</w>
cre ator</w>
cou ch</w>
cooper ative</w>
contagi ous</w>
con sensus</w>
con science</w>
con figu
colum ns</w>
coca ine</w>
co ast
cli tor
cli ps</w>
cli cking</w>
ci ety</w>
ci des</w>
chron ic</w>
characteri stic</w>
ch ải</w>
ch asing</w>
cathe dr
cat ching</w>
can -
cal ci
ca ps</w>
ca o.</w>
c úng</w>
c ates</w>
butt ons</w>
broad cast</w>
bott om
boo st</w>
bloo dy</w>
ble w</w>
ble e
bi al</w>
be loved</w>
be half</w>
be at
bas ketball</w>
ba th</w>
b ỉ</w>
b én</w>
b áu</w>
atta ch</w>
as th
as hamed</w>
ari se</w>
apologi ze</w>
analy zing</w>
alu minum</w>
ali an</w>
al ga
al er</w>
ag on</w>
adap tive</w>
ad ow</w>
accep ting</w>
acceler ate</w>
ac re</w>
ac compani
Wat er
Vir tual</w>
V ào</w>
V e
U NI
Tr iều</w>
Ti bet</w>
Th ần</w>
Ter ence</w>
TED MED</w>
T wee
T o</w>
Su preme</w>
Su per</w>
Stu dio</w>
So ciety</w>
S w
S pring</w>
Ro ck
Ro bo
River side</w>
Pitts burgh</w>
Picas so</w>
Par ty</w>
Par a
P .</w>
NG O</w>
N ào</w>
N ar
Massa chusetts</w>
Mad agas
MP 3</w>
M r
M R</w>
Lin us</w>
L esters</w>
L en
L HC</w>
Koso vo</w>
Ki ngdom</w>
K an
Ju piter</w>
Ju dy</w>
J .</w>
Illino is</w>
I ce</w>
Ho ặc</w>
H ôm</w>
H al
Gil bert</w>
Gar den</w>
Gali leo</w>
F i</w>
F ellow</w>
Ever y
Evel yn</w>
E lli
Den nis</w>
Den iso
Demo cratic</w>
D ARPA</w>
Coun try</w>
Co oper</w>
C re
C ra
C hu
Buddhi st</w>
Br and</w>
Bon net</w>
Bo ts
Bar bara</w>
B ồ</w>
B ài</w>
B P</w>
B BC</w>
As sociation</w>
Ar m
A vi
A L</w>
A A</w>
6 7</w>
6 2</w>
2/ 3</w>
196 2</w>
19 65</w>
15 ,000</w>
10 1</w>
# </w>
đ ời.</w>
đ ắc</w>
đ ầm</w>
Đ ộng</w>
Đ ồng</w>
Đ ôn</w>
Đ ào</w>
ê m.</w>
ê c</w>
ysi a</w>
y ce</w>
x ịt</w>
wide spread</w>
weigh s</w>
w et</w>
w a</w>
vậ t.</w>
view ers</w>
vari ables</w>
valu ed</w>
v ôi</w>
v ec
v ates</w>
uy ển</w>
up load</w>
unemp loyment</w>
u h</w>
tuber cu
tubercu lo
tuberculo sis</w>
tradi tionally</w>
tr ời.</w>
tr ay</w>
tox ins</w>
tow ns</w>
to ol
to ll</w>
thylac ine</w>
thri lled</w>
the ast</w>
th west</w>
ter y</w>
tempor al</w>
te dness</w>
te am
tane ous</w>
ta h</w>
t ưởng.</w>
t ters</w>
t ney</w>
t asking</w>
t ance</w>
susta ined</w>
suspi cious</w>
surr ound</w>
sun der
sty les</w>
stri kes</w>
sti cally</w>
squ ir
spac ecraft</w>
so ver
si nh.</w>
shad ows</w>
sequ ences</w>
sel ect</w>
scrip ts</w>
scre aming</w>
schol ar
sc ow</w>
s ộ</w>
s ập</w>
s ô-</w>
s áp</w>
s lower</w>
s ands</w>
ro b
ri dge</w>
rhyth m-
rhythm- etic</w>
repu tation</w>
repor ting</w>
repe atedly</w>
ren dering</w>
regu late</w>
re placing</w>
quali fied</w>
qu ả.</w>
psychia tri
pro be</w>
preci pi
poli tically</w>
poli ce
po x</w>
po sture</w>
pi ll</w>
phra ses</w>
philosoph ers</w>
per ceptions</w>
pe ts</w>
p unch</w>
p neu
p car</w>
over night</w>
oun ce</w>
or dered</w>
oper ates</w>
op tim
ob s</w>
o ven</w>
o le</w>
nu mb
no t-
ni ck
ngu ỵ</w>
ne e</w>
n óc</w>
n ão.</w>
multip ly</w>
mu ddin</w>
mou ths</w>
mor tal</w>
moder ni
mo bili
mir rors</w>
mind- wandering</w>
milli on-
migr ate</w>
migr ant</w>
mi sunder
mi ld</w>
me sh</w>
mb o</w>
mar ked</w>
man -
magne ts</w>
magaz ines</w>
machin ery</w>
m ộc</w>
m ỉm</w>
less ness</w>
le ar</w>
large -scale</w>
la i.</w>
l ately</w>
k ton</w>
jud ges</w>
journali sm</w>
jo y
ja w</w>
j an</w>
inva sive</w>
intro ducing</w>
interven e</w>
inter s</w>
inten tions</w>
inte grity</w>
inher ently</w>
in timate</w>
in et</w>
impre ssed</w>
imple ment</w>
implan ted</w>
im ing</w>
illustr ates</w>
i sed</w>
hyper -
hur ts</w>
ho ll
heavi ly</w>
he y</w>
hal f
glu e</w>
glob alized</w>
gh ty</w>
gh im</w>
genu ine</w>
gen tly</w>
gen it
ge stures</w>
ga ining</w>
g ục</w>
g ật</w>
g ross</w>
g -
full- time</w>
frequ encies</w>
fle sh</w>
fish er
fic it</w>
fi tting</w>
fi ghters</w>
far ther</w>
fa me</w>
f ense</w>
expen se</w>
ex pose</w>
eth ics</w>
es ar</w>
equi ty</w>
equ als</w>
episo de</w>
enterpri se</w>
encounter ed</w>
employ ment</w>
electr omag
e Bay</w>
du ra</w>
dre aming</w>
dre amed</w>
dra ma</w>
dr unk</w>
do ses</w>
di ar
diar rhe
dec reas
dec om
d ale</w>
cro ss
cou ples</w>
corti sol</w>
cor ri
cor relation</w>
convin cing</w>
con sent</w>
comp ound</w>
com pati
coinci dence</w>
co ch
chec k
che mo
champ i
cha ins</w>
ch ói</w>
ch éo</w>
ch én</w>
ch ord</w>
censor ship</w>
c ửu</w>
c ả
c ôi</w>
c ày</w>
c age</w>
bu mps</w>
bor e
boo ts</w>
biom ateri
bene ficial</w>
bene fi
b ệ</w>
b ôi</w>
b acked</w>
at titudes</w>
aster oid</w>
ar in</w>
anticip ate</w>
ani um</w>
ani mations</w>
amp u
am en</w>
al ties</w>
al arm</w>
ag ra</w>
achiev ing</w>
accu mulate</w>
accompani ed</w>
acceler ating</w>
a- rhythm-etic</w>
a the
a gi
Wind ows</w>
Wal es</w>
V s</w>
V iết</w>
V enter</w>
Ukra ine</w>
Tw o</w>
Tr ắng</w>
To án</w>
Ta i
T ốt</w>
T ạng</w>
T ình</w>
T ype</w>
T am
T S</w>
Spla shy</w>
Sin cla
Si êu</w>
Serge y</w>
Secon d</w>
S áu</w>
S ene
Ro bi
R s</w>
R W</w>
Po li
Ph ục</w>
Ph ụ</w>
Ph illi
O hio</w>
O f</w>
Nich olas</w>
Ngh iên</w>
Naj muddin</w>
NI H</w>
N ước</w>
N in
N atur
Mo scow</w>
Mi nh</w>
Medic ine</w>
Mar c</w>
Madagas car</w>
Ma a
M ul
L ạt</w>
Kore an</w>
Ken tu
Ka bul</w>
K aren</w>
Ja ke</w>
J K</w>
Indi ana</w>
I N
Hy der
Hu ck</w>
Ho á</w>
Ham let</w>
Had ron</w>
Ha z
H ành</w>
H àng</w>
Ga yla</w>
Fri ed
Fai za</w>
Em ma</w>
E ll
Develo pment</w>
De fense</w>
Dar fur</w>
D re
D eep</w>
Col lider</w>
Co hen</w>
Cher yl</w>
Ch áu</w>
Ch en</w>
CE R
Bo y</w>
Be at
Ban dura</w>
B ắt</w>
B ất</w>
An as</w>
Ac tor</w>
A th
A s</w>
9 2</w>
5 1</w>
4 9</w>
199 3</w>
198 3</w>
197 9</w>
196 0s</w>
18 th</w>
18 0
10 0.000</w>
1 .000</w>
- free</w>
ồ .</w>
ỏ m</w>
ẽ .</w>
ẩ n.</w>
đ ự
đ ắp</w>
đ ươc</w>
Đ i</w>
x ắn</w>
x ì</w>
x âu</w>
willi ngness</w>
wi ped</w>
wi ck</w>
whist le</w>
wat ches</w>
wan a</w>
w ear
w age</w>
vu i.</w>
vo cal</w>
vio let</w>
vic tory</w>
vibra ting</w>
vi sion
vi able</w>
v ầy</w>
v ác</w>
v ans</w>
v ali
uni ted</w>
uni qu
unemp loyed</w>
un seen</w>
un fortunate</w>
ul ate</w>
tw eets</w>
trick y</w>
tri ps</w>
trau ma</w>
transi stor</w>
trans fer
tr ị.</w>
tr ù</w>
tor tured</w>
tion- state</w>
tic kets</w>
thumb s</w>
thu ật.</w>
thir ty</w>
thin kers</w>
therapi st</w>
th ủng</w>
th and</w>
ter ey</w>
tatto os</w>
tan ks</w>
ta y.</w>
ta tives</w>
t ỉa</w>
t com</w>
t ates</w>
syri nge</w>
sur fing</w>
sur able</w>
su ms</w>
struc tured</w>
storyt eller</w>
stea m</w>
ste pping</w>
statisti cal</w>
standar di
stand point</w>
squ id</w>
sp ray</w>
sour i</w>
sol ar-
sna ke</w>
sli p</w>
sl owing</w>
sin ess</w>
sha de</w>
sh ow
sev elt</w>
separ ation</w>
secon d-
sec tors</w>
se ssions</w>
se k</w>
se als</w>
satis fying</w>
sa b
s ẹo</w>
s son</w>
s ounded</w>
ru ins</w>
routi ne</w>
ro ckets</w>
revol utionary</w>
rescu ed</w>
represen ting</w>
remin der</w>
rela x</w>
recy cle</w>
recom men
recogni zing</w>
reason ing</w>
re turns</w>
re production</w>
re ka</w>
re invent</w>
ra ins</w>
r ang</w>
psychop ath</w>
pregn ancy</w>
prac tically</w>
pp le</w>
poor ly</w>
pol l</w>
plan ting</w>
pic k
ph ông</w>
peri or</w>
pen cil</w>
pay ments</w>
parag ra
p u</w>
p sy</w>
p lo
p ies</w>
oy ster</w>
org es</w>
optim al</w>
op y</w>
op o
occu pi
ob scu
night m
nightm are</w>
nh ượng</w>
ngh e.</w>
ng ự</w>
ng ặt</w>
ng ước</w>
nc el
ncel adu
nceladu s</w>
n ồi</w>
n áo</w>
n thia</w>
musta che</w>
mund ane</w>
multi national</w>
moti vate</w>
modi fied</w>
mo s</w>
miser y</w>
min erals</w>
middle- class</w>
mi cally</w>
men u</w>
mee ts</w>
me se</w>
marke t
mar sh
magni tude</w>
m á</w>
long est</w>
lo cally</w>
lo ans</w>
liber als</w>
li p</w>
li ation</w>
leg ally</w>
labor atories</w>
la sting</w>
la nh</w>
ju ry</w>
jo kes</w>
invent ors</w>
instinc ts</w>
insti nct</w>
inst all</w>
infor mal</w>
in tangible</w>
in cu
impul se</w>
improvi se</w>
imple mented</w>
imper ative</w>
imagin able</w>
ig er</w>
ic o
house holds</w>
hosti le</w>
hor ror</w>
head quarters</w>
harm ful</w>
har d-
happi est</w>
hand ful</w>
h .</w>
gover n</w>
go sh</w>
go at</w>
gi ục</w>
gi fts</w>
gg les</w>
fun eral</w>
fru gal</w>
fil ters</w>
faci lit
fac ul
f MRI</w>
estab lish</w>
enor mously</w>
enni um</w>
enli ghten
en cyclopedia</w>
en -
emer ges</w>
el abor
edu cating</w>
e u</w>
e thic</w>
dro id</w>
disap pointed</w>
dia meter</w>
di ary</w>
descri bing</w>
deni ed</w>
defau lt</w>
dec ei
dec e
de s
dd it</w>
d board</w>
cu st
cri ed</w>
cra p</w>
coun sel
cor rupt</w>
conveni ence</w>
cont ex
condi tioning</w>
concentr ate</w>
concen tra
con fined</w>
compati ble</w>
color ful</w>
co des</w>
clitor is</w>
cho ir</w>
chi ll</w>
chemi st</w>
cham ber</w>
ch arities</w>
cen ture</w>
cat aly
car diac</w>
c òi</w>
c acy</w>
bu ff
bre w</w>
bor r
bo ar
bloo p</w>
bl end</w>
billi on
ben ch</w>
bee keepers</w>
be ep</w>
batt le
b ầm</w>
b ơ</w>
b ành</w>
b ent</w>
b all
aw i</w>
avoi ding</w>
attribu tes</w>
athle te</w>
at om</w>
as y
arter ies</w>
arre tt</w>
arbitr ary</w>
ar rest</w>
ar che
appropri ately</w>
appro val</w>
appreci ation</w>
app lies</w>
anno ying</w>
anni ver
an us</w>
ambigu ous</w>
alga e</w>
addre ssing</w>
acqui re</w>
ac on</w>
ac com
a xes</w>
a v</w>
a tri
a ster</w>
Wi red</w>
V ề</w>
Tro y</w>
Tr ị</w>
TED ster</w>
T il
T B</w>
Sincla ir</w>
Si sy
S ẽ</w>
S D</w>
S -
Roo sevelt</w>
Rocke tt</w>
Ri ley</w>
Re agan</w>
R ei
R ag
R ab
Qu i
Py th
Pla y
Philipp ines</w>
Phi .</w>
Par liament</w>
P ants</w>
No ah</w>
Ni k
Nh ất</w>
Ngh ị</w>
Mon terey</w>
Mis souri</w>
Mi ssi
Me g
Man n</w>
M o</w>
M ap
M ao</w>
M ach
Le o</w>
L ight</w>
Kin sey</w>
Kentu cky</w>
J ere
Hyder abad</w>
Hung ary</w>
Hamp shire</w>
H mm</w>
H ay</w>
H an</w>
Gr and
Go ering</w>
Geor gia</w>
Gab ri
G all
Fried man</w>
Emp ire</w>
E nceladus</w>
Dani sh</w>
D D</w>
D D
D -
Cy nthia</w>
Co de</w>
Chri st</w>
Ch ry
Cam -</w>
CER N</w>
C old</w>
C l
Budd ha</w>
Bu il
Bro thers</w>
Bla ir</w>
Ba yes</w>
B ăng</w>
B arefoot</w>
B R
An dre
Ac centure</w>
A ye</w>
A lli
8 ,
7 50</w>
5 0-
198 5</w>
197 8</w>
18 00</w>
00 -
0 -year-old</w>
ộ c.</w>
ỉ u</w>
ặ t.</w>
ạ ch.</w>
Ư ớc</w>
ơ c</w>
ơ .</w>
đ ề.</w>
đ ắng</w>
đ ậy</w>
Đ ịnh</w>
Đ ã</w>
â u.</w>
zer o-
x ổ</w>
x áo</w>
x e.</w>
wor e</w>
won ders</w>
wol ves</w>
wid th</w>
web cam</w>
wai ted</w>
wa shed</w>
w an</w>
vu ốt</w>
vide o
velo city</w>
ve t</w>
vari ations</w>
v ũng</w>
v iếng</w>
ur ship</w>
uni ty</w>
under -
un predictable</w>
ultra violet</w>
ultra -
u tter</w>
u k</w>
tz mann</w>
ty pe
trop olitan</w>
trav els</w>
transforma tions</w>
trans mi
tr ỏ</w>
to ast</w>
ti ghtly</w>
ti ck</w>
ther -
tex ts</w>
terri fic</w>
temp tation</w>
t ản</w>
t ty</w>
t as
sur gical</w>
super massive</w>
su ôn</w>
su ey</w>
stu ff
sto ck
sti n
sti cking</w>
sti cal</w>
stag g
sta dium</w>
st are</w>
st amp</w>
st al
squee ze</w>
spon taneously</w>
speci alists</w>
spec u
spa tial</w>
so ta</w>
small pox</w>
sli ce</w>
ski r
sing le-
sing er</w>
sh mi</w>
semi -
self- assembly</w>
sea water</w>
sa dness</w>
ru shed</w>
ro om
ri p</w>
ri gi
resp ected</w>
reson ance</w>
resili ent</w>
requi rements</w>
ren e</w>
remo tely</w>
rememb ering</w>
recogni zes</w>
re viewed</w>
re turning</w>
re sur
re o</w>
re ject</w>
ra tions</w>
ra tings</w>
r òng</w>
r ne</w>
quie tly</w>
ques tion
qu ẳng</w>
pul ses</w>
pu rely</w>
pu berty</w>
proto types</w>
protec tive</w>
prote sts</w>
program med</w>
prob able</w>
pro secu
prison er</w>
prin cipal</w>
pri mates</w>
pred ator</w>
preci sion</w>
pol ari
play ground</w>
plan kton</w>
pl ing</w>
pi x
phenomen al</w>
ph ao</w>
per fu
pede strian</w>
pack aging</w>
p ted</w>
p p</w>
p ecu
p ac
ower ment</w>
ow anus</w>
ora do</w>
ol l</w>
occupi ed</w>
occup ation</w>
ob tained</w>
nur ture</w>
nu t</w>
ni cely</w>
ng uyệt</w>
ng ement</w>
ng a</w>
nec tar</w>
ne tic</w>
na il</w>
n ai</w>
my ths</w>
multi verse</w>
mu tual</w>
mor e
mor ally</w>
mon th-
mon ster</w>
mix ture</w>
min or</w>
mid st</w>
mi ng
metho do
mer i
measu rement</w>
me stone</w>
me er
meer k
me en</w>
maxi mum</w>
market place</w>
man da</w>
ma tics</w>
ma ke
m me
lon ely</w>
lo ading</w>
li sted</w>
lex ico
lea k</w>
le ap
la .</w>
l ầy</w>
l ít</w>
kh ống</w>
ju ngle</w>
jo ining</w>
je ans</w>
ir ony</w>
investi gate</w>
inter faces</w>
instruc tion</w>
inno vators</w>
inf er
in sky</w>
in duced</w>
identi ties</w>
identi fying</w>
i con</w>
họ ng</w>
hypothe ses</w>
humi lity</w>
hope ful</w>
hero ic</w>
hea vens</w>
he ated</w>
half way</w>
ha un
ha ha
h ỏi.</w>
h all
guid ance</w>
grab bed</w>
gra titude</w>
gor ous</w>
gall on</w>
galac tic</w>
g gy</w>
g ang</w>
fundra ising</w>
flo at</w>
fl at
fini shing</w>
fi ghts</w>
expre ssive</w>
expan ded</w>
exerci ses</w>
ex cep
evol ving</w>
eu reka</w>
et t</w>
es .</w>
era dication</w>
er nal</w>
er ec
equi pped</w>
entr ance</w>
enjo y
en u
employ ee</w>
emp owerment</w>
emp loyed</w>
el ders</w>
ei m</w>
ee t
edi tor</w>
e ties</w>
du k</w>
dro p
dr us</w>
dood ling</w>
docu menting</w>
do s</w>
do l</w>
displ aced</w>
discu ssed</w>
desper ate</w>
desi res</w>
deri ved</w>
den y</w>
de z</w>
de bris</w>
d ấn</w>
d ney</w>
cu es</w>
cru shed</w>
crow ded</w>
cre am</w>
cop i
contin ents</w>
constra ined</w>
con spir
comprehen sive</w>
commodi ties</w>
com a</w>
col la
coast al</w>
co ol
co ck</w>
clu bs</w>
climb ed</w>
ck ers</w>
chemo therapy</w>
chec ked</w>
che ster</w>
char ming</w>
char coal</w>
chan n
chan ical</w>
ch ồn</w>
ch iết</w>
ch en</w>
cere br
cerebr al</w>
catastro phic</w>
cartooni st</w>
car dboard</w>
calci um</w>
ca m
c âm</w>
c ine
bon ds</w>
blee ding</w>
bec ca</w>
be hold</w>
base ment</w>
bas ket</w>
ba zơ</w>
b ịch</w>
b ã</w>
b àng</w>
automa tic</w>
attemp ts</w>
att end</w>
associ ation</w>
assemb led</w>
asse ssment</w>
appe aling</w>
ap min
anniver sary</w>
ambigu ity</w>
alu za</w>
alterna tives</w>
all y-
adolesc ence</w>
admi re</w>
ach s</w>
accoun tability</w>
accom mod
accep tance</w>
ac cent</w>
absor b</w>
a y.</w>
a sh</w>
a ja</w>
Z e</w>
You ng</w>
Y o</w>
W y
Vi vian</w>
U hm</w>
Th iết</w>
T ế</w>
T âm</w>
T D</w>
Sy stem</w>
Shir ley</w>
Sher yl</w>
She ila</w>
Se li
San dy</w>
S imp
S coop</w>
S E</w>
Rob b
Rob </w>
Re port</w>
Qu ần</w>
Per ry</w>
P R</w>
O w
O 2</w>
Nig erian</w>
Nh iều</w>
Na zi</w>
Moz ambi
Minne sota</w>
Mar duk</w>
Mala ysia</w>
Ma x</w>
M ỗi</w>
M en</w>
M aps</w>
Lin da</w>
Lib ya</w>
Lad y</w>
L ei
L ai</w>
Ka plan</w>
K end
K aluza</w>
Ju sti
Jes se</w>
IM F</w>
I stan
Hun ter</w>
Ho spital</w>
Ho ff
Hirsh horn</w>
Hiro shima</w>
Har ri
H ob
H il
Gre g</w>
Gor don</w>
Ger man
G owanus</w>
G apmin
Fey n
Est onia</w>
Econom ist</w>
E du
E ames</w>
D ra
D id</w>
D M
Com p
Col orado</w>
Cas sin
Carol ine</w>
Car gill</w>
Ca in</w>
CS F</w>
C ủa</w>
C ome</w>
C lev
C E</w>
By rne</w>
Braz i
Bal k
B roo
B ach</w>
Arm strong</w>
An na</w>
Al tos</w>
Afri can-
A tt
8 .
3. 5</w>
20 .000</w>
2- 3</w>
2 50,000</w>
198 7</w>
197 3</w>
18 58</w>
15 -
1 500</w>
00 .000</w>
ữ .</w>
ổ n.</w>
đ ỗi</w>
Đ ài</w>
ó c.</w>
ò ng.</w>
y an
x ít</w>
x en
wonder fully</w>
wing suit</w>
wi ring</w>
w ers</w>
việ t</w>
visi tors</w>
vi ron
val id</w>
up date</w>
underst and
un d</w>
un -
u ter
tu na</w>
tri ễn</w>
tri um
transp lan
transl ator</w>
trac ked</w>
tra iler</w>
tra de
tr ỗi</w>
tr ơn</w>
tr on</w>
tr ess</w>
tici sm</w>
ti ên.</w>
ti zing</w>
ti ni
thou ghtful</w>
th ực.</w>
th ức.</w>
th ẹn</w>
th ương.</w>
th ành.</w>
th à</w>
te m</w>
ta to</w>
ta ke
t ưới</w>
t òi</w>
t ler</w>
t all
tall er</w>
symp tom</w>
symbo lic</w>
sym phony</w>
swee ping</w>
survi vors</w>
surve ys</w>
suppor tive</w>
summar y</w>
suit case</w>
sugg es
sub mer
su fficient</w>
su ff
stric ts</w>
strang ely</w>
stra ins</w>
stra in</w>
sti mulate</w>
ster ing</w>
spon sor
spee ds</w>
spec ted</w>
spar k</w>
soc cer</w>
so oner</w>
sing ers</w>
sig ning</w>
shu ttle</w>
shor ter</w>
sh r
set tings</w>
seaf ood</w>
scre ens</w>
scr at
scho oling</w>
satis fied</w>
sani tary</w>
sa urus</w>
s ự.</w>
s ừng</w>
s ụt</w>
s ạc</w>
s lum</w>
ri cane</w>
revolu tion
resur rec
ren dered</w>
reme mbers</w>
regi onal</w>
refer red</w>
recep tor</w>
reali ties</w>
rea ches</w>
re fined</w>
re design</w>
re define</w>
re building</w>
r ách</w>
r l
quir ing</w>
ques tioning</w>
qu eu
qu een</w>
purch ase</w>
proto cells</w>
promi sing</w>
profi table</w>
profes sions</w>
pro jected</w>
presen ting</w>
prefer ences</w>
pred ators</w>
pra ying</w>
pot atoes</w>
pol es</w>
po tato</w>
po is
po ets</w>
play ful</w>
pi c</w>
phthal ates</w>
ph ẫn</w>
ph ả</w>
ph út.</w>
ph ình</w>
person alities</w>
pecu liar</w>
pe tals</w>
pay ment</w>
path way</w>
partner ships</w>
par ked</w>
pa tri
p .m.</w>
or n</w>
on to
oll s</w>
o i</w>
nu mb</w>
non sense</w>
no vels</w>
no ises</w>
ni ck</w>
nh ọc</w>
nh ấm</w>
ng -</w>
near est</w>
ne sses</w>
n ya</w>
n ac
mor ous</w>
min i</w>
mill en
mi te</w>
mi mi
metaph or
mb s</w>
mathematici ans</w>
mat ching</w>
mar in</w>
mar i
man tha</w>
man ages</w>
mammo gram</w>
mam mal</w>
mal nutrition</w>
m ội</w>
m ường</w>
m ma</w>
lã i</w>
ly m
ll as</w>
li ễu</w>
li mestone</w>
le ton</w>
laun dry</w>
la use</w>
la g</w>
l ố</w>
l ẫy</w>
kno ck</w>
kilo grams</w>
ki êu</w>
ki te</w>
ke st</w>
k ỵ</w>
k ị</w>
k er
jewel ry</w>
j ar</w>
j am</w>
is a</w>
ir onically</w>
invi tation</w>
interrup ted</w>
inter section</w>
inter ro
infor m</w>
industri alized</w>
indu l
in justice</w>
in depend
in complete</w>
im pose</w>
ig ni
ide als</w>
ic y</w>
i zing</w>
hypothe tical</w>
hu mili
hoo ked</w>
hon ored</w>
ho á.</w>
he mo
ham mer</w>
h èn</w>
h alls</w>
guaran te
graph er</w>
grand mothers</w>
glori ous</w>
gi ềng</w>
g ặm</w>
g y-
g le</w>
fu tu
fron tier</w>
fro gs</w>
flu or
flouri sh</w>
fi s
fi es</w>
fi a</w>
ff in</w>
ff e</w>
f eller</w>
explor es</w>
explo de</w>
ev o</w>
est -
epi demics</w>
envi sion</w>
entreprene urship</w>
enfor cement</w>
ener ge
end less</w>
en .</w>
empi ri
emp ire</w>
embarra ssed</w>
emb ar
ellu lar</w>
ell ers</w>
eli tes</w>
du ration</w>
du m</w>
dri lling</w>
dra ws</w>
don ation</w>
don ated</w>
distribu te</w>
discipl ines</w>
direc ted</w>
dict ator</w>
determin ation</w>
destruc tive</w>
dep lo
deli vering</w>
defin es</w>
def en
declar ed</w>
dece ased</w>
de posi
de light</w>
de ficit</w>
dan cer</w>
da y-
d ẫu</w>
d ấy</w>
d uyên</w>
d ine</w>
cu mu
cru ci
cop per</w>
conver ted</w>
contribu tions</w>
contribu ting</w>
confu sing</w>
conduc tor</w>
con ce
comp lish</w>
collabor ators</w>
colla gen</w>
clo th</w>
circu lation</w>
cigare ttes</w>
chil les</w>
ch ổi</w>
ch anh</w>
certi fic
ce ph
car cin
campaig ns</w>
calend ar</w>
calcu lus</w>
c ừ</w>
c ỗi</w>
c sek</w>
bu cket</w>
bru tal</w>
broad er</w>
brea sts</w>
bon us</w>
ble ssed</w>
bio -
beg in
be ats</w>
basi cs</w>
bal lot</w>
b ộ.</w>
b ú</w>
b ol
au d
atta chment</w>
astron omy</w>
as sy</w>
arti culate</w>
ari th
ar ena</w>
app lause</w>
any time</w>
anim ated</w>
an as</w>
ambi tion</w>
amate urs</w>
alph ab
ali gn
after ward</w>
adop tion</w>
addre ssed</w>
acceler ated</w>
ac res</w>
ac complish</w>
ab road</w>
a tro
a qu
Zi pcar</w>
Z etas</w>
Y êu</w>
W o
Vi king</w>
V ấn</w>
U l
Tur k</w>
Thu ật</w>
T ranh</w>
T hur
T -
St and
Sha h</w>
Sene gal</w>
Scot tish</w>
Schwar z
Sa mantha</w>
S ức</w>
S po
Robi csek</w>
Re ddit</w>
Re becca</w>
R ho
R am</w>
Q uyền</w>
Pre go</w>
Por tu
Pol and</w>
Ph ố</w>
Ph ượng</w>
Pau lo</w>
Pau ling</w>
Pau la</w>
Ow ens</w>
O z</w>
O per
Norwe gian</w>
No t</w>
Nik ola</w>
Ngo ại</w>
Na omi</w>
N at
Mc Chry
McChry stal</w>
Mal awi</w>
Ma j
M illi
M .</w>
L or
L ev
Kle in</w>
Ki va</w>
Kh án</w>
Ju an</w>
Jo sh</w>
Jes sica</w>
Istan bul</w>
Irani ans</w>
I P</w>
Hin du</w>
Han nah</w>
Ha vard</w>
H ồng</w>
H iện</w>
H ills</w>
Gi ải</w>
Gabri el</w>
G l
For tune</w>
F our</w>
F L</w>
Eng el
En viron
Den mark</w>
Con ference</w>
Coll ins</w>
Clev eland</w>
Ch ị</w>
Ch ào</w>
Cassin i</w>
C ứu</w>
C á</w>
C lu
Brazi lian</w>
Bol tzmann</w>
Bea u</w>
B run
B ow
B loo
B lan
An droid</w>
AR S</w>
A nh.</w>
A .
8 8</w>
6 000</w>
6 ,
4 0s</w>
2. 3</w>
194 9</w>
19 40</w>
1, 100</w>
1 70</w>
ụ c.</w>
ỡ i</w>
ờ n</w>
ọ n.</w>
ệ p</w>
ư c</w>
đ út</w>
ă ng.</w>
é c</w>
á ch.</w>
Á o</w>
y u
xu ôi</w>
x ở</w>
wri tes</w>
wr ink
wil derness</w>
wi shes</w>
vo ld</w>
virtu es</w>
ver ge</w>
vari eties</w>
vant age</w>
v óc</w>
v esting</w>
v ar
urb anization</w>
ur gent</w>
uniqu ely</w>
un stable</w>
tu p</w>
tu ary</w>
tter ed</w>
transforma tive</w>
trans lating</w>
tr ical</w>
ti ne</w>
ti gru
tigru ten</w>
three- four</w>
tho od</w>
thir dly</w>
thi eu</w>
ther land</w>
them es</w>
th ạc</w>
th ình</w>
th áng.</w>
th ly</w>
telec om
tang le</w>
tal es</w>
t ứ</w>
t ột</w>
t son</w>
t enti
tenti mes</w>
t ags</w>
synthe sis</w>
symp athy</w>
sw allowed</w>
survi ving</w>
surr oun
summar ize</w>
succ esses</w>
suc ks</w>
strugg led</w>
stro kes</w>
sto cks</w>
stati stic</w>
stagg ering</w>
sta ke</w>
ssi pp
ssipp i</w>
speci alist</w>
sp ills</w>
sour cing</w>
sof a</w>
ske tches</w>
simi l
sh allow</w>
se ttle</w>
sc ent</w>
sc at
sc aling</w>
sa in</w>
s- on</w>
s ảy</w>
s ải</w>
s nu
s light</w>
s ler</w>
s ance</w>
s an
roof s</w>
roo ted</w>
ro de</w>
ro ad
rigi d</w>
ri nging</w>
ri ch
rewar ded</w>
reti red</w>
responsi bilities</w>
requi rement</w>
represen tatives</w>
ren der</w>
refl ecting</w>
reco vered</w>
recla im</w>
reci pes</w>
reason ably</w>
re per
re b
re actor</w>
radi us</w>
rac ial</w>
ra p
ra ms</w>
r ọi</w>
r ành</w>
quo tes</w>
qu áng</w>
qu o</w>
qu an.</w>
pu r</w>
progre ssive</w>
pre su
pre ju
poor er</w>
poli cing</w>
plan etary</w>
pi pes</w>
pi lots</w>
physi ology</w>
perio dic</w>
perfor ms</w>
patho logy</w>
paradi se</w>
par the
p ly</w>
ou trag
organi zational</w>
one-two- three-four</w>
ok o
of tentimes</w>
o live</w>
nucle i</w>
notic ing</w>
non e
none theless</w>
nick name</w>
nh ạc.</w>
nh ún</w>
ngh ĩ.</w>
ng ừ</w>
ng ợp</w>
new ly</w>
ne t.</w>
ne o</w>
n ấng</w>
muni cations</w>
mu ti
mom ent
mo de
mi sh</w>
medi cations</w>
meani ngs</w>
me ister</w>
mathematici an</w>
marri ages</w>
manufactu re</w>
manipu lation</w>
mal e-
ma u</w>
ma id</w>
ma -</w>
m ặn</w>
lu c
long ed</w>
lo é</w>
ll o</w>
liter al</w>
like wise</w>
li citly</w>
les bian</w>
le ys</w>
law n</w>
la ying</w>
kno cked</w>
kilome ter</w>
khuy a</w>
kh ờ</w>
k èn</w>
k ar</w>
justi fy</w>
j acket</w>
intrigu ed</w>
intell ect</w>
int end</w>
insu la</w>
insi st</w>
influ ences</w>
indic ate</w>
indi genous</w>
incar cer
in doors</w>
in door</w>
in as</w>
im migrants</w>
i try</w>
i ra</w>
humani ties</w>
hu mble</w>
hr vold</w>
ho tter</w>
he li
hand ling</w>
hai -
hai- ba</w>
habit ats</w>
h ắc</w>
h ươ
gri p</w>
gra vita
gr ace</w>
gi ang</w>
gg ling</w>
gen tle</w>
gar dens</w>
g matic</w>
g ela
g ates</w>
foun ding</w>
for cing</w>
fini tely</w>
fin ity</w>
fi lls</w>
fi de</w>
fe e</w>
facul ty</w>
f lights</w>
f ellows</w>
exqui site</w>
experim entation</w>
exp licitly</w>
exist ential</w>
ex it</w>
ex hil
evalu ation</w>
ev ada</w>
et ty</w>
esti val</w>
es sing</w>
era dicate</w>
enni al</w>
endea vor</w>
en vy</w>
en os</w>
elabor ate</w>
educ ators</w>
edi tors</w>
e z</w>
e uro</w>
e tri
e po
duc tive</w>
du ty</w>
distr acted</w>
dinosa ur</w>
din ing</w>
dile mma</w>
diarrhe a</w>
diagno se</w>
di ngly</w>
di ffer</w>
detec ting</w>
den ing</w>
deman ding</w>
degra ded</w>
de er</w>
dd led</w>
cu ssion</w>
cr ank</w>
counter -
coun try
coordin ation</w>
cont ents</w>
consist ently</w>
confu sion</w>
configu ration</w>
con sin</w>
con fer
comm entary</w>
comb inations</w>
com pressed</w>
com position</w>
co l</w>
co her
co di
cla imed</w>
cl ari
circu itry</w>
check list</w>
ch ứ.</w>
ch ằng</w>
cathedr al</w>
cardio vascular</w>
carcin o
cand le</w>
can xi</w>
cab in</w>
ca fe
c ẩm</w>
c ầu.</w>
c ười.</w>
bu ồm</w>
bu ses</w>
brea th
boy friend</w>
bottom -up</w>
bor ough</w>
bor g</w>
bio technology</w>
bio logically</w>
bi op
ben ign</w>
be ds</w>
be ans</w>
bacter ium</w>
back grounds</w>
ba i
ba .</w>
b ịp</w>
b ần</w>
b é.</w>
b bon</w>
aw a</w>
at ori
astronau ts</w>
as sure</w>
arti facts</w>
ari um</w>
ari anism</w>
ar ming</w>
an om
alphab et</w>
al together</w>
al ge
al ert</w>
aj evo</w>
air ports</w>
ag meister</w>
ach ing</w>
accoun table</w>
abu sed</w>
abi an</w>
ab sur
ab andon</w>
ab alone</w>
ab a</w>
a mie</w>
a esthe
Z am
Ye men
X anh</w>
World Wide</w>
Wi i</w>
War ner</w>
W ay</w>
Ven us</w>
US C</w>
U tah</w>
U E</w>
U C</w>
Tu y</w>
Tr ên</w>
Tr uyền</w>
Tr ini
Tor osa
Tor aja</w>
Th ương</w>
Th ì</w>
T unes</w>
T ulu</w>
T el</w>
Su m
So phia</w>
Smi th
Se th</w>
Sar ajevo</w>
S pri
S ph
S ir
S el
S cri
S agmeister</w>
Ron ald</w>
Rocke feller</w>
Ro yal</w>
Ro ssy</w>
Ro ck</w>
Rand ol
R oman</w>
R SW</w>
Qui xo
Peter sburg</w>
P ari
P ach
O tt
O .
Neu mann</w>
Natur al</w>
N evada</w>
My hrvold</w>
Mu ll
Mr s.</w>
Missi ssippi</w>
Mi cho
Mat thieu</w>
Mas low</w>
Mari e</w>
M en
M O
Lu cy</w>
Lib by</w>
Li sten</w>
Li ke</w>
Lar amie</w>
La k
La gos</w>
L oc
L as</w>
Kh ali
K ết</w>
K ra
K nee</w>
Juli et</w>
Jan ine</w>
J i
J Y</w>
In formation</w>
I V</w>
Hur tigruten</w>
Hu sse
Hu dson</w>
Hea ther</w>
Has an</w>
Har ris</w>
H ình</w>
H ome</w>
H any</w>
H ansen</w>
H AL</w>
Gree ks</w>
Gre y</w>
G ranny</w>
For ce</w>
Feyn man</w>
F red</w>
F ra
Ex xon</w>
Em manuel</w>
E S</w>
Dy son</w>
Du ke</w>
Di amond</w>
Dar win
Dan ny</w>
DD T</w>
D olly</w>
D ick</w>
Co sta</w>
Cho ir</w>
Che ch
Cha z</w>
Ch ắc</w>
CD C</w>
C s</w>
C eline</w>
C R</w>
Bu siness</w>
Bu enos</w>
Bu drus</w>
Broad way</w>
Bots wana</w>
Bol t</w>
Blu e
B ờ</w>
B in</w>
Alber to</w>
Alber ta</w>
Al lo
Air stream</w>
Ah med</w>
A w
A qu
A manda</w>
A dam
A chilles</w>
@ </w>
9 .</w>
6 1</w>
4 000</w>
2 .000</w>
197 6</w>
12 th</w>
1. 4</w>
0. 1</w>
- year-olds</w>
ỳ .</w>
ụ .</w>
đự ơc</w>
đị nh.</w>
đi ềm</w>
đ ất.</w>
Đ ồ</w>
Đ ầu</w>
Đ ôi</w>
ù .</w>
é t.</w>
é p.</w>
zer bai
y um</w>
worth while</w>
world view</w>
wi pe</w>
whi te
wa king</w>
w ling</w>
w ells</w>
w ages</w>
vibr ant</w>
vi vid</w>
vi cious</w>
ver b
v ã</w>
v als</w>
up loaded</w>
uni te</w>
two- way</w>
two- dimensional</w>
tur b
tter ing</w>
tri angle</w>
transfer red</w>
trans mitted</w>
tr ọt</w>
tr iển.</w>
tor al</w>
to àn.</w>
tion ality</w>
tic k
ti mber</w>
thu ở</w>
tho i</w>
there by</w>
the ft</w>
thank fully</w>
th ỉu</w>
th êu</w>
ter a
tag ged</w>
t ệ.</w>
t ặc</w>
t ans</w>
sym me
sw am</w>
survi ves</w>
surroun dings</w>
sur plus</w>
super star</w>
super computer</w>
sup pose
suppose dly</w>
sul fur</w>
sub sequ
su sc
susc ep
su ed</w>
sto le</w>
ster ies</w>
ster eo</w>
statu e</w>
state -of-the-
state-of-the- art</w>
star vation</w>
ssi mi
spon taneous</w>
sph eric</w>
sp y</w>
sp li
sp ends</w>
sour ced</w>
sol ves</w>
socie tal</w>
so le</w>
sna kes</w>
slo gan</w>
sla ve</w>
sky scra
simpli stic</w>
si ghts</w>
seren di
sequ encing</w>
sequ enced</w>
seas ons</w>
se me
scholar ship</w>
scar city</w>
scaff old</w>
sc ru
sab ba
sa il
s ấm</w>
s út</w>
s que</w>
s now
s day</w>
s ane</w>
ru pe
routi ne
routine ly</w>
rough ness</w>
rl wind</w>
revel ation</w>
requ ests</w>
rep lied</w>
ren al
rele asing</w>
rela xed</w>
reconci liation</w>
recep tors</w>
re z</w>
re tail</w>
re solved</w>
re serves</w>
re ser
re hear
re generative</w>
re duces</w>
re create</w>
ran av</w>
ra ging</w>
r ạng</w>
r enti
quo t</w>
que z</w>
pursu ing</w>
pul sion</w>
pu mps</w>
promi ses</w>
progre ssion</w>
program mer</w>
pro lifer
priori tize</w>
pres s
preju dice</w>
pred atory</w>
pre y</w>
pre ten
pou red</w>
pop ping</w>
pollu tants</w>
poll s</w>
po sts</w>
pneu monia</w>
pill ars</w>
pi rate</w>
pho bic</w>
ph áp.</w>
ph us</w>
pesti cides</w>
parthe id</w>
paragra ph</w>
pa sted</w>
p raise</w>
outrag eous</w>
ou ting</w>
ori entation</w>
oper ator</w>
op ed</w>
on ic
oli ngo</w>
off shore</w>
o zone</w>
o iled</w>
no ble</w>
ni trogen</w>
nh ảm</w>
ngh ĩ
ngh ênh</w>
ng ần</w>
n ặn</w>
n ôn</w>
n òng</w>
n ell</w>
n ang</w>
mur dered</w>
mur der
mu ốn.</w>
mu lating</w>
mort g
mo sque</w>
mirac ul
min ded</w>
micro bial</w>
memor ial</w>
mean time</w>
me er</w>
mb les</w>
marsh m
mac ro
m ịn</w>
m ăng</w>
m út</w>
lo ser</w>
lo cau
locau st</w>
liter ate</w>
li ghter</w>
li ers</w>
legen dary</w>
lea ks</w>
land fill</w>
lan e</w>
l ộng</w>
l ẩn</w>
l ạ.</w>
l or
intr insic</w>
inhi bi
ing enu
ingenu ity</w>
inf r
in trac
in er
in adequate</w>
imag inary</w>
i red</w>
i ans</w>
i ..</w>
hươ u</w>
hy dr
hu n</w>
ho spit
histor ian</w>
hero in</w>
help less</w>
har vesting</w>
ha z
guil t</w>
great- great-
govern mental</w>
glo ves</w>
gh o
gene tici
gen ic</w>
ge town</w>
g ởi</w>
g ồ</w>
g ầm</w>
g ôn</w>
g ào</w>
g ory</w>
g g</w>
g ad
fu sed</w>
frustr ation</w>
frustr ating</w>
four -year-old</w>
forbi d</w>
for ec
flouri shing</w>
fil ming</w>
fi tted</w>
fe ver</w>
fe es</w>
fav ela</w>
fashi oned</w>
fab ri
f ool</w>
f ec
eye br
explo ded</w>
explan ations</w>
exhil ar
eter nal</w>
est e
est a</w>
es day</w>
epi ph
enti ties</w>
enter taining</w>
energe tic</w>
en ters</w>
emb raced</w>
em ph
electromag netic</w>
el der</w>
eigh th</w>
edi ting</w>
econom ically</w>
ea ds</w>
e ve</w>
e ing</w>
du ỗi</w>
du de</w>
drin ks</w>
dr owning</w>
disappe ars</w>
digi tally</w>
dif fusion</w>
diagno stic</w>
di stricts</w>
develop mental</w>
develo per</w>
deplo y</w>
del a
deep -
de sk
de partments</w>
de en</w>
datab ases</w>
dang ers</w>
d è</w>
d rought</w>
d ley</w>
cá u</w>
cur sor</w>
cultur ally</w>
culti vate</w>
crow d
cra f
cou marin</w>
cosmo s</w>
cor responds</w>
cool er</w>
coo kies</w>
coo ked</w>
conspir acy</w>
consider ation</w>
consi sts</w>
conserva tives</w>
connec tedness</w>
concentra tions</w>
common ly</w>
commer cials</w>
comman d
com ics</w>
com e
com .</w>
cockro ach</w>
co ins</w>
clean er</w>
cine ma</w>
cha otic</w>
ch ệch</w>
ch ickens</w>
certi fied</w>
cat alo
care ers</w>
cam els</w>
c ơm</w>
c ali
c ables</w>
bu ll</w>
bott len
blu r
blo cked</w>
bio graphy</w>
batt les</w>
bar b
bar ak</w>
ban kers</w>
ban anas</w>
bal ancing</w>
b ục</w>
b ạt</w>
b áng</w>
b less</w>
av atar</w>
au gmented</w>
attemp ted</w>
associ ations</w>
assi stant</w>
arti fi
arith metic</w>
appreci ated</w>
appe ti
appar ent</w>
anti ci
anim ate</w>
ani ty</w>
addic ted</w>
ad renal
acknowled ged</w>
ac y
a i.</w>
a er
X- rays</w>
X u</w>
W ould</w>
Vic tor</w>
V ật</w>
V il
Tu esday</w>
Trini dad</w>
Tr ăng</w>
Torosa urus</w>
Tit anic</w>
Ti ền</w>
Th ôi</w>
Th ung</w>
T ính</w>
T ul
T ower</w>
T hay</w>
Sy rian</w>
So cial</w>
Snow den</w>
Sisy phus</w>
Si e
Shir ky</w>
Secre t</w>
S ử</w>
S talin</w>
S or
S ony</w>
S li
S hu
S hel
S he</w>
Ru mi</w>
Rob in</w>
Re d
Qu ốc.</w>
Qu á</w>
Pro sper
Po st</w>
Pi lot</w>
Phi l</w>
Pen n</w>
P ranav</w>
P ine</w>
P ear
Or ku
O oh</w>
Ni xon</w>
Ngh ĩa</w>
New castle</w>
N ô</w>
N ano</w>
N SA</w>
Mu barak</w>
Mozambi que</w>
Mil ky</w>
Mid west</w>
Mi ster</w>
Mey er
Medi cal</w>
Me chanical</w>
M ục</w>
M ee
Lu ria</w>
Le ague</w>
L. A</w>
L ịch</w>
L abor
L ED
K ant</w>
Jor d
Jere my</w>
Je an
Isa bel</w>
I nu
I ma
I g
Husse in</w>
Hou ston</w>
Hi story</w>
He brew</w>
Ha i
H at
H O</w>
Geor getown</w>
Gen e</w>
Gapmin der</w>
G it</w>
G en</w>
Fin ance</w>
E den</w>
Du olingo</w>
D r
D aw
D I
Cu ối</w>
Com pu
Ci vil</w>
Chic ken</w>
Chi ld</w>
Chech nya</w>
Ch ú</w>
C ả</w>
C ũng</w>
C up</w>
C ab
C K</w>
Bur ma</w>
Bro ther</w>
Bren da</w>
Blo om
Black berry</w>
B e</w>
B at
B S</w>
Avi v</w>
Att en
An ne</w>
All en</w>
Al -
Ai res</w>
A zerbai
A x
A po
A gency</w>
A BC</w>
8 1</w>
7 3</w>
3. 7</w>
20 13</w>
198 2</w>
17 th</w>
15 th</w>
10 0
1. 8</w>
1. 7</w>
ầ m.</w>
Ả o</w>
ư a.</w>
ú a.</w>
è o.</w>
ç a</w>
zon ing</w>
zi p</w>
z y
z anne</w>
x ông</w>
x ói</w>
wrest ling</w>
whis key</w>
wal let</w>
w are
volun tary</w>
volu mes</w>
vi vi
vi ous</w>
ver t</w>
ver bs</w>
vari ability</w>
vag ina</w>
va sive</w>
v õ</w>
un ky</w>
u tility</w>
u ti
tạ p.</w>
ty ped</w>
tti ng-
tting- edge</w>
tri gg
tr âu</w>
tori um</w>
tor n</w>
topi a</w>
to sh</w>
tim eline</w>
ti ền.</w>
ti vi
ti st</w>
ti ent</w>
ti ba</w>
through s</w>
thor ough
tho a</w>
the irs</w>
than ol</w>
th ân.</w>
th read</w>
th ful</w>
ter n</w>
tan ni
tanni ca</w>
ta ils</w>
t ú</w>
t ling</w>
t es
t ality</w>
synthe si
susta ining</w>
suscep tible</w>
surpri ses</w>
sur ge</w>
supp ress</w>
sul fide</w>
str ands</w>
stimu lus</w>
ste er</w>
stand -up</w>
st en
st at</w>
spor es</w>
spiri tu
spec im
space ship</w>
sp en</w>
son ian</w>
sne a
sla sh</w>
ski p</w>
skep tical</w>
side walk</w>
si ngs</w>
si mulate</w>
short- term</w>
sh out</w>
sh na</w>
ser -
sen sible</w>
self- este
self-este em</w>
sel ective</w>
sear ches</w>
scre w</w>
schol ar</w>
satis fy</w>
sabba tical</w>
sa ves</w>
sa u.</w>
s sels</w>
ri gorous</w>
reti re</w>
restric ted</w>
restor ation</w>
respec tful</w>
resp ir
rep ly</w>
red dies</w>
reconci le</w>
reci pro
reci pi
re serve</w>
re productive</w>
re pair
re moving</w>
re mix</w>
re luc
re construct</w>
rainfor ests</w>
ra il</w>
r ạch</w>
r ưởi</w>
r án</w>
r ated</w>
r able</w>
qui z</w>
qu al</w>
puppe ts</w>
puppe t</w>
psycho tic</w>
psychia tric</w>
provi ders</w>
provi der</w>
produc er</w>
proc ee
pre ference</w>
pra yer</w>
pr ô
post cards</w>
pop ped</w>
poll ination</w>
poli cy
pi vo
pho ton</w>
perpe tu
per vasive</w>
per cep
pe tition</w>
paraly sis</w>
par an
par ab
pack aged</w>
p tic</w>
p acking</w>
ow a</w>
over weight</w>
out door</w>
op a
on ary</w>
ol ine</w>
offi cers</w>
obscu re</w>
ob ago</w>
o dd
nur turing</w>
nin th</w>
nh ẽ</w>
nh ô</w>
nh e
ngo ài.</w>
ng ách</w>
ner d</w>
negoti ating</w>
na tionally</w>
na mese</w>
n ọc</w>
n ôi</w>
n ders</w>
n ant</w>
my steries</w>
motor cycle</w>
more over</w>
mo cki
mocki ng
mini mize</w>
millen nia</w>
memor able</w>
medi ate</w>
me tan</w>
me lody</w>
mb er
maxi mize</w>
mar gins</w>
manufactur ers</w>
man- made</w>
mal ware</w>
main taining</w>
ma fia</w>
m iệt</w>
ly ri
lu ẩn</w>
low- tech</w>
low- income</w>
lou der</w>
lo ver</w>
liệ u.</w>
liter ary</w>
limi tation</w>
light ning</w>
liber ty</w>
li via</w>
li m
li gh
lear ns</w>
lean or</w>
la zy</w>
la sts</w>
l ẫm</w>
kin dly</w>
kid neys</w>
kid na
ki cked</w>
k én</w>
juven ile</w>
j ad</w>
it -
issu ed</w>
invol vement</w>
invi ting</w>
inven tions</w>
introver ts</w>
intric ate</w>
intr insi
intrinsi cally</w>
inter n
inter galactic</w>
inten tional</w>
insi sted</w>
inh eri
inheri ted</w>
infr ared</w>
individu ally</w>
indic ators</w>
independ ently</w>
inclu sive</w>
in comes</w>
in .</w>
imp ri
im posed</w>
im mortality</w>
ill nesses</w>
idio t</w>
identi fication</w>
ide ological</w>
ick lider</w>
ic ker</w>
i i</w>
hã nh</w>
ho p
ho dop
he i
ha ir
h ời</w>
h r</w>
h ence</w>
gy m
gravita tional</w>
grass roots</w>
graph ically</w>
grab s</w>
gl ory</w>
gi ễu</w>
gi òn</w>
gi o</w>
gi fted</w>
gi cally</w>
geo graphic</w>
gener ator</w>
gas oline</w>
gall ery</w>
ga ting</w>
g ò</w>
g ân</w>
g ator</w>
fu zzy</w>
fri ction</w>
free way</w>
free -
fra gmented</w>
for- profit</w>
foll owers</w>
fo ster</w>
floo ding</w>
flo ors</w>
flexi bility</w>
fle x</w>
fis cal</w>
finan cially</w>
fear ed</w>
far -
fac e-
explor ers</w>
exp licit</w>
eth ni
era dicated</w>
environ mentally</w>
enh ance</w>
emplo y</w>
eli minating</w>
eli minated</w>
elev ated</w>
el ines</w>
el -
eff ec
e uro
e thanol</w>
e ber</w>
dra gged</w>
do g
div ine</w>
distinc tive</w>
disgu sting</w>
dis ruption</w>
dis connected</w>
detec tors</w>
desk top</w>
deser ts</w>
der -
dep le
den ser</w>
demonstr ates</w>
deli ghted</w>
dat a-
dat a
d y-
cy matics</w>
cy cli
cumu lative</w>
cu tting-edge</w>
cro sses</w>
credi ble</w>
cre epy</w>
cr acked</w>
coun ty</w>
cosmo logy</w>
corpor ation</w>
contra dic
continu ally</w>
conclu sions</w>
concep tual</w>
compla in</w>
compen s
compar able</w>
commu nal</w>
commodi ty</w>
comman ds</w>
colli sion</w>
coch lear</w>
co p</w>
clu ster</w>
cle ver
ck r</w>
cir cular</w>
che ated</w>
champ ion</w>
ch ửng</w>
ch ọn.</w>
ch unk</w>
ch in</w>
ch eri
cen tered</w>
carro t</w>
caregi vers</w>
carbon ate</w>
cal y
cal o</w>
ca ff
c son</w>
by pass</w>
bureau cratic</w>
bu ys</w>
bu ry</w>
break down</w>
bran ded</w>
br o</w>
bloo d
bio sphere</w>
bill board</w>
bi tes</w>
be having</w>
bal con
b ùm</w>
b lob
b ind</w>
ax ít</w>
athle tic</w>
at i</w>
asth ma</w>
arter y</w>
arra nge</w>
ar row</w>
ar mor</w>
ar cha
ar ch</w>
anticip ated</w>
ang els</w>
ance stor</w>
analy tics</w>
amate ur</w>
al lies</w>
ais sance</w>
air s</w>
aig n</w>
advo cate</w>
ad jac
accu sed</w>
acci dentally</w>
Zam bia</w>
Y ear</w>
Wis consin</w>
Wiki Lea
Wa it</w>
W ong</w>
W I
Viet namese</w>
Ve gas</w>
V u
V ila</w>
UNI CE
UNICE F</w>
U sain</w>
U mar</w>
U h</w>
Tu cson</w>
To by</w>
Ti de</w>
Tha tcher</w>
Te ch</w>
T ối</w>
T ương</w>
T ên</w>
T ox
T obago</w>
T iên</w>
Sun ni</w>
St y
Sph ere</w>
Sk y
Simp son</w>
Sh reddies</w>
Ser ra</w>
Secre tary</w>
Sau nders</w>
Sad dam</w>
S lo
S ala
Ro bot</w>
Ri ghts</w>
Randol ph</w>
R. S</w>
R C</w>
Pri me</w>
Portu gal</w>
Poli ce</w>
Po p</w>
Pin ker</w>
Per cy</w>
Pal in</w>
Paki st
Pa trick</w>
P .
Ott oman</w>
Orku t</w>
Or nish</w>
Offi ce</w>
O ops</w>
O kin
Nic ole</w>
Na tive</w>
N ine
N ation</w>
N R
N O</w>
Moun t</w>
Mon key</w>
Mi ssion</w>
Mar cus</w>
Mand arin</w>
Mak oko</w>
MA S</w>
M ắt</w>
M ạng</w>
M es
M L</w>
Lo ại</w>
Lin d
Li ttle</w>
Le gos</w>
Lak shmi</w>
L icklider</w>
L i</w>
Ku z
Ku wait</w>
Kh ối</w>
Kh mer</w>
Ker ry</w>
Ka aba</w>
K no
K ath
K IP
Jord ans</w>
Jac ques</w>
Jac kie</w>
J M</w>
J .
Inu it</w>
IP CC</w>
I an</w>
I G
Hoff man</w>
Har vey</w>
Ha ve</w>
H igh
H S</w>
Gr ant</w>
Go gh</w>
Gla dwell</w>
Gi ống</w>
Gi ám</w>
Gi f
German s</w>
G rou
G over
G on
G od
G ame</w>
For bes</w>
Fli ckr</w>
Fin an
F und</w>
F our
Eri k</w>
Egyp ti
Edi son</w>
E uro</w>
E leanor</w>
E b
Dur ga</w>
Di rec
Der ar
Democr ats</w>
Da vis</w>
Da ta</w>
D am
D C</w>
Curi tiba</w>
Coperni can</w>
Clu b</w>
Cho pin</w>
Ch an
Carol yn</w>
Car ri
Camp aign</w>
CE Os</w>
C ổ</w>
C rea
C ard</w>
C ao</w>
C O</w>
Bu y</w>
Bri tannica</w>
Bi onic
Ber ry</w>
Beat les</w>
Ba gh
B owl</w>
B iển</w>
B est</w>
B ene
B ag
Azerbai jan</w>
Austr alian</w>
Ari ely</w>
An des</w>
Allo Sphere</w>
Alex is</w>
A v
A R</w>
9 /
6 50</w>
6 .
4 0-
30 0,000</w>
20 14</w>
2, 5</w>
2 .</w>
198 1</w>
197 7</w>
197 2</w>
196 8</w>
194 7</w>
10 th</w>
10 -year-old</w>
1, 200</w>
. com.</w>
ộ t.</w>
ỉ .</w>
ẽ m</w>
ẩ m.</w>
ấ n.</w>
ượ ng.</w>
đ ệ</w>
đ ấng</w>
đ ấm</w>
đ ũa</w>
đ ê</w>
Đ ộ.</w>
Đ ến</w>
Đ ạt</w>
à u.</w>
Â m</w>
zz ar</w>
z able</w>
xu ẩn</w>
x én</w>
x ta
work shop</w>
wor ries</w>
wind mill</w>
week ends</w>
volcan o</w>
vo ic
vibra tions</w>
ver tically</w>
ven ding</w>
va stly</w>
v ề.</w>
v ãn</w>
v v</w>
v re</w>
ur gency</w>
up per
uni or</w>
unh eal
une qual</w>
un ve
un imaginable</w>
un cover</w>
un aware</w>
tu m
tru sting</w>
tru st
tri angles</w>
tre admi
transforma tional</w>
transcend ence</w>
trans duc
tr út</w>
tr ine</w>
tr aded</w>
tori al</w>
top- down</w>
tooth brush</w>
to le
to b
ti um</w>
thylac ines</w>
thro at</w>
thou ght-
thin ker</w>
thi est</w>
the a
th ục</w>
th ắng.</w>
th ê</w>
telecom munications</w>
tele phones</w>
te ori
te in</w>
tac tics</w>
t úp</w>
t é</w>
t ours</w>
t arianism</w>
synthe size</w>
swe at
surr ounds</w>
subur bs</w>
substanti al</w>
su perior</w>
stu mbled</w>
stru st</w>
stric tly</w>
stri pped</w>
stret ched</w>
str ous</w>
stor ing</w>
stitu tes</w>
sti r
ster ol</w>
stea k</w>
ste ering</w>
state ments</w>
stabili ze</w>
sta kes</w>
st ee
spo of
spi ders</w>
spee ches</w>
sla ves</w>
ske tch</w>
sion ately</w>
short age</w>
settle ment</w>
sett ling</w>
sensi tivity</w>
se am
scri bed</w>
scre am</w>
schedu le</w>
scen ari
scenari os</w>
scan ned</w>
sc and
sandwi ches</w>
s ụn</w>
s ỡ</w>
s ưng</w>
s thand</w>
s ors</w>
s no
s miles</w>
s ect</w>
ru g
rou tes</w>
rich ness</w>
ri ghtly</w>
respon sive</w>
respir atory</w>
reli ev
relev ance</w>
rela tivity</w>
regi stered</w>
regi mes</w>
refer ences</w>
ree fs</w>
recei ver</w>
reali zes</w>
re views</w>
re use</w>
re tain</w>
re gain</w>
re fers</w>
re bel</w>
rac ism</w>
ra nging</w>
ra inf
rainf all</w>
r ụng</w>
r ệp</w>
r ạc</w>
puni sh</w>
publi cation</w>
prote sters</w>
projec tor</w>
pro ton</w>
pri mal</w>
pres ses</w>
predic ting</w>
pre va
pre frontal</w>
pr one</w>
pione er</w>
pho bia</w>
ph ồn</w>
ph u</w>
persu ade</w>
pe tro
pe er-
pat ch</w>
passe ngers</w>
particip ated</w>
pain ter</w>
pa vi
p unk</w>
p tions</w>
p ond</w>
p ins</w>
over looked</w>
over lap</w>
outr age</w>
oul der</w>
orches tr
or ship</w>
op e</w>
oo p</w>
on .</w>
om ics</w>
old- fashioned</w>
off en
obstac le</w>
o v
o ke</w>
nữ .</w>
note book</w>
non violence</w>
no i</w>
nho áng</w>
nh í</w>
nh ung</w>
ngừ ơi</w>
nghĩ a.</w>
ng ất</w>
ng ấm</w>
ng ó</w>
ng uyền</w>
n ơ
n d</w>
n am
mạ ng.</w>
mul ated</w>
mu s</w>
mp y</w>
minim al</w>
milli seconds</w>
microscop ic</w>
mi sc
methodo logy</w>
metaph ors</w>
mb ly</w>
mat tered</w>
marshm allow</w>
m ĩ</w>
lob by</w>
lo ãng</w>
lo à</w>
lo gging</w>
lo ca
lo c
lo ang</w>
live stock</w>
life like</w>
libr aries</w>
li ngui
li ngu
li king</w>
li bri
libri um</w>
le xi
le sterol</w>
laun ching</w>
lau re
la stly</w>
la sted</w>
l ốc</w>
l ầu</w>
l as</w>
kni ves</w>
ki êm</w>
ki sh</w>
kh a</w>
k ẽm</w>
k ened</w>
ju xta
investiga ting</w>
inva sion</w>
int esti
instal lations</w>
ing eni
inf la
incu b
incre mental</w>
in jection</w>
in corpor
impri son
impre ss</w>
impli cation</w>
ignor ant</w>
id t</w>
i sh</w>
i ors</w>
human kind</w>
hu b</w>
home op
holi day</w>
hob by</w>
ho án</w>
high- speed</w>
hi ves</w>
hi stories</w>
hi ppo
har ne
ha y.</w>
h ằn</w>
h ills</w>
h hh</w>
h eel</w>
guerri llas</w>
guerri lla</w>
gu esses</w>
gr ounded</w>
gr ace
go ssi
glu ten</w>
gh ề</w>
gee ks</w>
ga ngs</w>
ga de
g ery</w>
g ate
g am</w>
fung us</w>
fundam ent
fun ders</w>
fri ed</w>
frequ ent</w>
foun ders</w>
fore most</w>
for mat
for gi
for ds</w>
focu ses</w>
fo oled</w>
fo cal</w>
flu i
fli pping</w>
fla w</w>
fl ow
fir sthand</w>
fir ms</w>
fir mly</w>
fif teen</w>
fic tional</w>
fi les</w>
ff el</w>
fau lt</w>
fat ty</w>
fast- forward</w>
f- 2</w>
f u</w>
exten sive</w>
exp ands</w>
exi le</w>
execu tive</w>
ex tro
ex tin</w>
ex emp
ex cer
evol ves</w>
ev a</w>
ess ness</w>
es tin</w>
eri al</w>
equi librium</w>
epi c</w>
en de</w>
emph asis</w>
emb ro
em body</w>
effec tiveness</w>
du mp</w>
don ations</w>
don ate</w>
disc lo
disa d
dis c</w>
direc tors</w>
digi tize</w>
di sh
di ment</w>
di ans</w>
dep ths</w>
demo li
deliber ately</w>
deli vers</w>
dele te</w>
deco de</w>
de x</w>
de mi
da f</w>
da f-2</w>
d .</w>
cur ator</w>
cu bic</w>
cryst als</w>
cryst al</w>
cru de</w>
critici zed</w>
cre ators</w>
cr ow</w>
coun cil</w>
cou pled</w>
cong r
con test</w>
compas s</w>
communi st</w>
com posed</w>
com missi
collec tions</w>
col a</w>
cogni tively</w>
co ined</w>
cli cks</w>
clean ed</w>
cla pping</w>
ck ly</w>
ck -
civili an</w>
cir cul
chec ks</w>
char ts</w>
char is
ch ững</w>
ch ộp</w>
ch ào.</w>
ch ant</w>
ceph alo
cen tr
cellu lose</w>
cell phone</w>
cate gori
car p
car bo
calcul ators</w>
c õi</w>
c led</w>
c key</w>
c asse
bur ns</w>
bul lets</w>
bu ông</w>
bu tt</w>
bu t
broad casting</w>
break throughs</w>
bra kes</w>
boun ce</w>
bo s</w>
blob s</w>
blo ggers</w>
bl ows</w>
bl in</w>
begin nings</w>
be st-
bas s</w>
ba ting</w>
ba ker</w>
ba ch</w>
b ịa</w>
b ending</w>
attribu te</w>
att or
at traction</w>
at -
astronom ical</w>
assi stance</w>
as signed</w>
as sign</w>
as ph
arro g
arra ngement</w>
arra nged</w>
ar ose</w>
appar atus</w>
anticip ation</w>
anthropo logy</w>
anthropo logist</w>
ani st</w>
anc es
ali zes</w>
al pha</w>
al e
air line</w>
agre es</w>
aesthe tics</w>
adolesc ents</w>
acu te</w>
aca demics</w>
ac ry
a partheid</w>
Ya hoo</w>
Y ellow
Wi ll</w>
Wester ners</w>
W u
W hole</w>
W he
W HO</w>
Victori an</w>
Vi agra</w>
V ụ</w>
Tur bo</w>
Trea ting</w>
Tr ưởng</w>
The se</w>
Tech no
Ta ke</w>
T ìm</w>
Sy dney</w>
Si de</w>
Sa ve</w>
S leep</w>
S even
S I
S .
Rou ge</w>
Republi cans</w>
Republi can</w>
Rag u</w>
R ica</w>
R ic
Qu ản</w>
Pla yer</w>
Phili ps</w>
Pal extin</w>
Pa v
P tole
P L</w>
Ou t</w>
On line</w>
O ur</w>
O ri
Na z
N ội</w>
Mc Lu
McLu han</w>
Mc Cain</w>
Mar x</w>
Mar tha</w>
Ma p</w>
Ma di
M ùa</w>
M om
M ill
La tinh</w>
LED s</w>
L im
Ken y
KIP P</w>
K id
Justi ce</w>
Jo se</w>
Jama ica</w>
J S</w>
In stag
Ig bo</w>
I x
I owa</w>
Hu man</w>
Ho t
Ho locaust</w>
Ha y
Ha idt</w>
H .
Gr ound</w>
Gif fords</w>
Gen eva</w>
G ould</w>
G et</w>
Fre der
Finan cial</w>
Fin land</w>
Fi re
Europe ans</w>
Ear le</w>
E mb
E bert</w>
Derar tu</w>
Del ta</w>
D ù</w>
Ch in
Ch and
Cap tain</w>
Can cer</w>
Ca sh</w>
Ca pi
C ir
C -
Brun o</w>
Bar ri
Bar bie</w>
B ốn</w>
B ul
B A
Arab s</w>
Ar ts</w>
All ende</w>
Al geria</w>
Ad venti
A il
A L
A C</w>
7 47</w>
7 0,000</w>
6 6</w>
4 6
3 .</w>
2, 500</w>
2 nd</w>
2 8
196 9</w>
195 3</w>
18 5</w>
12 -year-old</w>
11 th</w>
0. 2</w>
- hour</w>
… </w>
ợ c</w>
ỡ .</w>
ỉ n</w>
ẵ ng</w>
ẫ n.</w>
ẩ ng</w>
đ ả</w>
đ ong</w>
Đ ốc</w>
Đ ặc</w>
Đ ưa</w>
ô c</w>
ó ng.</w>
è .</w>
á u.</w>
zo o</w>
ze iro</w>
y êu.</w>
y ne</w>
y elling</w>
x e
wor n</w>
wi g</w>
whi p</w>
was ting</w>
war mer</w>
wan der</w>
wa ving</w>
w u
w rec
w i</w>
vo la
virtu ous</w>
vibr ate</w>
vi ation</w>
veter an</w>
ver ted</w>
vege tarian</w>
vec tor</w>
vari ed</w>
val ence</w>
val ds</w>
v ăng</w>
v áng</w>
up ta</w>
up grade</w>
unheal thy</w>
under way</w>
u sable</w>
u s
us d</w>
u pri
tw enty</w>
tw ea
tur bul
tun nels</w>
trium ph</w>
tribu te</w>
tremend ously</w>
treadmi ll</w>
transduc er</w>
tra nh.</w>
tr unk</w>
tr olu
tr ed</w>
tough er</w>
tori c</w>
tool box</w>
tom y</w>
toler ant</w>
to ck</w>
tiế ng.</w>
tion ate</w>
thorough ly</w>
th op
th ick
terrori st</w>
ten se</w>
technologi sts</w>
tax pa
t ể</w>
t âm.</w>
t man</w>
t el
syn c</w>
survi vor</w>
sur ro
suppor ts</w>
succee ding</w>
substanti ally</w>
sub mitted</w>
stri a</w>
str at
str and</w>
steri le</w>
sta ke
spi ke</w>
space -time</w>
sp er</w>
so da</w>
sn ap
smar test</w>
sma shed</w>
sli ces</w>
sla very</w>
sl owed</w>
side- by-
side-by- side</w>
si es</w>
si e
shir ts</w>
sh rin
sh re
sh outing</w>
sh in
sh ers</w>
sh ells</w>
sever ely</w>
seme ster</w>
sel ls</w>
secre tly</w>
se aled</w>
scrip tions</w>
sch er
scher i</w>
scar f</w>
sc roll</w>
sc are</w>
sc aled</w>
sal mon</w>
sal a</w>
sa van
sa il</w>
s ử.</w>
s op
s laughter</w>
s late</w>
s giving</w>
s ch</w>
ru led</w>
ru in</w>
rou s</w>
room mate</w>
rom antici
ro b</w>
rhe toric</w>
reve aling</w>
restor ative</w>
resp ects</w>
rela tional</w>
recy cl
recei ves</w>
re union</w>
re ss
random ness</w>
rac or
racor ex</w>
ra v
r ợ</w>
r ẫy</w>
qu ỳ</w>
qu ật</w>
publi sher</w>
proto col</w>
pron oun
promo ting</w>
progre ssively</w>
progra mm
prof en</w>
proble m-
pro ving</w>
pro pri
preven ted</w>
prev ents</w>
pres sures</w>
pres ent-
por n</w>
por e</w>
point ment</w>
po s</w>
ple x</w>
pione ers</w>
pil lar</w>
physi ological</w>
persist ent</w>
peri al</w>
perfor mer</w>
per t</w>
per sever
pen sion</w>
peanu t</w>
pea ks</w>
pe ssimi
pas sionately</w>
parti ally</w>
parti al</w>
par liament</w>
p ec
ow ler</w>
ow -up</w>
outw ard</w>
out break</w>
ous y</w>
ous al</w>
orangu tan</w>
ora zo</w>
opo ly</w>
op pon
op ing</w>
oni an</w>
one- dimensional</w>
ol y
offi cially</w>
of i</w>
obli vious</w>
o it</w>
no m</w>
nh ì</w>
nh anh.</w>
nghi ã</w>
ngh èo.</w>
ng ẩng</w>
neuro scientists</w>
neuro logic</w>
ner dy</w>
negoti ation</w>
nee dless</w>
nee ding</w>
nec es
near -
navi gation</w>
n úm</w>
n áu</w>
n ouri
n als</w>
mộ t.</w>
mạ nh.</w>
mytho logy</w>
mosqui toes</w>
mor pho
mon k</w>
mini sters</w>
milli on
mid night</w>
mi mics</w>
meri to
med abad</w>
mechan ically</w>
mb orazo</w>
mb l
mar in
manipu lated</w>
man tra</w>
mag net</w>
ma ster
ma ng
loy al</w>
locomo tion</w>
lo ops</w>
liber ation</w>
li thi
let tu
lea ked</w>
la ys</w>
la sers</w>
la kes</w>
l ẽo</w>
l ine
l ent</w>
l bs</w>
knowled ge
kh eim</w>
kee per</w>
k r
k man</w>
k ang
jun ction</w>
jo ins</w>
is er</w>
intrac table</w>
interpre ted</w>
inter viewing</w>
inte grating</w>
inst ances</w>
inspi rational</w>
ingeni ous</w>
inf eri
inf ect</w>
ine ly</w>
inci dentally</w>
in timi
in organic</w>
in d
in ck</w>
in cent</w>
imp lants</w>
im mortal</w>
illustr ation</w>
illu mination</w>
ill is</w>
il yn</w>
id an</w>
i pur</w>
i mit
i bu
ibu profen</w>
i Tunes</w>
i Po
iPo ds</w>
hus bands</w>
hun ters</w>
human oid</w>
hop eless</w>
honey bees</w>
ho ạn</w>
ho óc</w>
hiể u.</w>
hiể m.</w>
hippo campus</w>
hi ring</w>
hi p-
hear s</w>
head -
ha ts</w>
ha tred</w>
ha b</w>
h àng.</w>
h int</w>
h eck</w>
guid elines</w>
gui ded</w>
gri m</w>
gre e
[...]
