e </w>
t </w>
, </w>
t h
s </w>
o </w>
. </w>
a </w>
y </w>
i n
d </w>
a n
e r
o u
e n
p o
s t
m </w>
a l
i </w>
í </w>
t o</w>
c h
o n
th e</w>
r o
a t</w>
o r
a r
an d</w>
in g
ou </w>
s e</w>
k </w>
e l
f </w>
u </w>
po s
n e
ing </w>
a t
& a
l i
pos ;
&a pos;
l </w>
i s</w>
é </w>
r e
o v
l e
o t
m e</w>
o f</w>
i t</w>
ch </w>
j e</w>
i c
s e
in </w>
n o
on </w>
er </w>
th at</w>
ě </w>
a k
i t
q u
a v
en </w>
; </w>
e d</w>
I </w>
w h
ž e</w>
l e</w>
a c
d o
p ro
p ř
i l
qu ot
quot ;</w>
& quot;</w>
th e
t o
á </w>
e s</w>
s t</w>
y ou</w>
p r
n í</w>
an </w>
j e
l y</w>
a b
w e</w>
t er
n a</w>
m o
a s</w>
b u
a d
w </w>
t i
v </w>
l o
al </w>
d e
&apos; s</w>
b e
v ě
or </w>
t e
o m
d i
ý </w>
er e</w>
a k</w>
h o</w>
n a
t e</w>
th is</w>
h o
v e</w>
s k
r </w>
? </w>
c e</w>
- </w>
ž </w>
b y
t r
d ě
o p
u r
s o</w>
a m
v y
k ter
d o</w>
í m</w>
a s
n ě</w>
ou t</w>
o b
j s
th </w>
- -</w>
v i
u n
g h
o l
p e
s i
se m</w>
n ě
n á
j sem</w>
ř e
n </w>
at i
the y</w>
v á
t ak
m ě
k d
j í</w>
: </w>
ar e</w>
en t</w>
a y</w>
ů </w>
v er
a p
w i
m i</w>
o d
l d</w>
c o</w>
a g
m e
z </w>
h av
r i
p l
f or</w>
s h
w as</w>
l i</w>
b y</w>
př e
k y</w>
al ly</w>
m u
al e</w>
s l
ou r</w>
hav e</w>
r a
j ak
wh at</w>
p </w>
en t
on e</w>
a u
e x
0 </w>
s i</w>
bu t</w>
no w</w>
b e</w>
al l</w>
d n
m y</w>
wi th</w>
ý ch</w>
e m</w>
r á
c i
en í</w>
g o
w or
c an</w>
a d</w>
m i
r u
c on
k u
&apos; t</w>
z a
n i
d e</w>
t ě
i m
l a</w>
š í</w>
f or
s u
n é</w>
n í
s a
c i</w>
s p
e t</w>
k u</w>
ab out</w>
th ere</w>
př í
s o
kd y
li k
v í
v el
ou n
v š
c om
v e
r e</w>
j ak</w>
gh t</w>
t a
k o
d í
m ů
ou ld</w>
p er
js me</w>
t u
e m
o d</w>
i v
li d
ř í
i st
th er</w>
no t</w>
l a
d u
m y
e ar
m í
j í
f i
t y</w>
ro z
é ho</w>
l o</w>
js ou</w>
t ak</w>
ic k
be c
kdy ž</w>
ic </w>
c e
i ch</w>
m á
ati on</w>
p u
el </w>
&apos; re</w>
á v
jak o</w>
b o
vě t
dě l
st i</w>
pe op
peop le</w>
e v
ver y</w>
th ing</w>
s po
kter é</w>
al i</w>
z á
c </w>
l u
lik e</w>
s v
d s</w>
j u
i f</w>
t s</w>
ro m</w>
c o
k on
m u</w>
f rom</w>
k a
f e
m or
h e</w>
do b
ho w</w>
s s</w>
it y</w>
g </w>
z e</w>
g i
m a
st u
ch o
é m</w>
je d
ac e</w>
k á
ý m</w>
on s</w>
pr av
an t</w>
v ý
pr o</w>
n o</w>
př i
ic e</w>
ju st</w>
j i</w>
au se</w>
c í</w>
the se</w>
at e</w>
c el
k a</w>
er s</w>
d y</w>
t ur
u l
v o
bec ause</w>
om e
wh en</w>
u je</w>
ž e
i r</w>
th in
t er</w>
b i
p ar
k l
p re
ov at</w>
u m
o k
s y
d u</w>
il l</w>
st e</w>
ar </w>
tak že</w>
ne j
el l</w>
r an
il i</w>
t en
the m</w>
le t</w>
h le</w>
á l
e t
u s</w>
v z
mor e</w>
pro b
mo h
s í
u p</w>
y ear
go ing</w>
í ch</w>
f f
pře d
h ere</w>
n á</w>
k now</w>
d r
n ov
z a</w>
ř í</w>
m in
g r
w ay</w>
t y
ne b
s ome
o ther</w>
mů že
ad y</w>
t w
á ní</w>
st av
vš e
en ce</w>
i d</w>
y our</w>
j </w>
g et</w>
se e</w>
thin k</w>
m an
m ak
pro to
s vět
t ed</w>
st e
the ir</w>
an g
l á
s el
i l</w>
wh ich</w>
neb o</w>
s c
h ad</w>
my sl
proto že</w>
s ou
ing s</w>
h </w>
ro v
ž iv
ti on</w>
m at
t u</w>
t ře
wh o</w>
na š
o k</w>
v a
st ar
w n</w>
e st
n y</w>
al a</w>
c t</w>
m ě</w>
w ere</w>
0 0</w>
vá m</w>
oun d</w>
w ould</w>
no sti</w>
b ě
re ally</w>
t i</w>
p ů
y s</w>
ž it
č í
kter ý</w>
gh </w>
it i
th en</w>
n ý</w>
in d</w>
m en
&apos; ve</w>
d á
so me</w>
p ou
ag e</w>
i s
sk u
in e</w>
po d
d on</w>
t í</w>
á z
je dn
ab y</w>
p en
c re
wor ld</w>
&apos; m</w>
li t
ž í
d er
ti me</w>
mo ž
po ku
h l
to m</w>
ho d
p ad
ře k
by l</w>
wh ere</w>
m no
ac tu
t el
in ter
by lo</w>
s ob
f u
t ing</w>
ou r
st an
d ů
t ro
t ím</w>
n e</w>
h i
ov é</w>
actu ally</w>
h e
po r
s pe
h as</w>
le d</w>
st á
h ap
ab le</w>
b ý
pro st
ž d
in to</w>
d ay</w>
v í</w>
l é
i z
or y</w>
lo g
le d
č </w>
d al
l ov
ne ž</w>
ac k</w>
ou gh</w>
p o</w>
kd y</w>
k ing</w>
no st</w>
g o</w>
year s</w>
po z
g en
w ill</w>
m ent</w>
poku d</w>
n ím</w>
e k</w>
vše ch
b r
n ou</w>
a st
d ru
th ings</w>
t ě</w>
w ant</w>
j in
ď </w>
j en</w>
p h
t en</w>
m á</w>
te ch
š </w>
bý t</w>
fi r
t al
c ould</w>
ně co</w>
n i</w>
o se</w>
for m
r on
ent s</w>
di ff
to ho</w>
se d</w>
sy st
li v
pr áv
g re
mo st</w>
m al
d ing</w>
g e</w>
st í</w>
mak e</w>
ka žd
by la</w>
j á</w>
kter á</w>
te č
i es</w>
ž en
ri ght</w>
za č
i r
od y</w>
z na
y ing</w>
st at
il a</w>
g e
ic al</w>
vel mi</w>
to to</w>
n ení</w>
la st
u č
sa id</w>
lid é</w>
w ell</w>
w e
ur e</w>
f e</w>
th an</w>
ř e</w>
be en</w>
ab y
sh e</w>
v last
some thing</w>
j ste</w>
le s</w>
u děl
p a
le m</w>
n u
cho m</w>
pr ac
m on
ý mi</w>
g u
e k
x </w>
ní ch</w>
ou s</w>
tw o</w>
ar d</w>
z v
t le</w>
ov ání</w>
sku teč
d v
t a</w>
pr v
bu d
fir st</w>
l en
k te
mo z
diff er
vy t
mu ch</w>
to hle</w>
th ose</w>
ov er</w>
je me</w>
z pů
t é
at ed</w>
r y</w>
k do</w>
com p
a f
el y</w>
j i
p ak</w>
tur e</w>
j ší</w>
f un
i d
5 </w>
s s
kd e</w>
h is</w>
jí cí</w>
ř i</w>
lo ok</w>
r y
u jí</w>
tech no
t ady</w>
u ž</w>
kte ří</w>
al o</w>
j ich</w>
l ar
mí st
p le</w>
o prav
go t</w>
d a</w>
tak é</w>
le č
f ac
s m
má me</w>
mu s
it e</w>
in e
i de
k ou
a z
z mě
wor k</w>
může te</w>
te ď</w>
ne w</w>
si on</w>
s ay</w>
c k
m ov
in a</w>
ch ang
w a
b le</w>
li fe</w>
lit tle</w>
in y</w>
al so</w>
pl an
v r
si g
b ack</w>
ko li
el i
n u</w>
dru h
n ých</w>
lid í</w>
f in
d ne
il li
c í
ná m</w>
ro b
le p
ch op
e ver
po tře
ev en</w>
ná s</w>
v ol
živ ot
č á
z e
b ody</w>
h um
k om
ví ce</w>
l l</w>
d er</w>
man y</w>
s am
an s</w>
p ě
vi dě
er i
ick é</w>
c ent</w>
se s</w>
o m</w>
h u
p á
on ly</w>
re e</w>
může me</w>
ž á
ta m</w>
st r
i g
f o
ty to</w>
fu l</w>
en ti
tak e</w>
ne ed</w>
ál ní</w>
h em</w>
k rá
l ou
jed no
bu de</w>
st ru
vel k
c a
l í
i ch
spo leč
I n
an y</w>
sk é</w>
j en
il y</w>
k ol
c oun
ten to</w>
a ch</w>
b a</w>
d ed</w>
r ů
pr á
ever y
d í</w>
je jich</w>
it el
go od</w>
mů že</w>
by ch</w>
š í
it s</w>
p at
di d</w>
m lu
wh y</w>
vi dí
th r
o f
c al
lo t</w>
př ed</w>
du c
ch tě
so ci
d n</w>
š tě</w>
a m</w>
vá s</w>
vo ř
pro č</w>
lo gi
st ví</w>
ma jí</w>
2 0
sh </w>
j ist
c u
co me</w>
or g
ex per
ste j
le žit
w s</w>
en d</w>
z i</w>
c ol
lo ok
po h
p i
n ing</w>
d at
ar ound</w>
1 9
l s</w>
tr y</w>
s ho
oprav du</w>
un i
ar y</w>
mysl ím</w>
h er</w>
c en
k e
on al</w>
s ur
differ ent</w>
před stav
th ou
m ar
ad e</w>
a in</w>
s ol
u s
ch áz
C h
o h
k ind</w>
b er</w>
d a
on g</w>
st o
ov er
e very</w>
to mu</w>
s vě
&apos; ll</w>
A </w>
i e</w>
do wn</w>
ti v
bu il
it u
ž í</w>
k r
v ů
un der
mi li
in form
m é
vě ci</w>
k ov
t í
po dí
ch il
al s</w>
s ci
á m</w>
pro je
b ra
mě li</w>
en er
thr ough</w>
ex ist
ch u</w>
0 00</w>
le ar
at er</w>
z em
w er</w>
ne u
k s</w>
u se</w>
k ů</w>
ne d</w>
stu d
ati ons</w>
t é</w>
ob je
způ sob
m s</w>
e c
ev er</w>
A m
por t
ac i</w>
ří k
dob r
s en
ch y
com m
be ing</w>
s on</w>
mu sí
e f
st ro
m p
sa me</w>
sv é</w>
hap pen
f a
je ho</w>
všech ny</w>
h u</w>
at ing</w>
jed en</w>
1 0</w>
po dob
an y
t ic
e s
é mu</w>
o t</w>
d en</w>
si de</w>
řek l</w>
tr u
2 </w>
do st
p e</w>
ní ho</w>
te dy</w>
an k</w>
a ž</w>
c ar
a ch
er v
o l</w>
ká z
ř </w>
r u</w>
z ku
k e</w>
tr i
pu t</w>
kter ou</w>
k em</w>
z d
i on</w>
sel f</w>
ne v
ž i
s il
ra z
h y</w>
t re
! </w>
s na
ů m</w>
h ear
e st</w>
do ing</w>
ve d
dal ší</w>
ře j
by chom</w>
wa ys</w>
u t
k ou</w>
&apos; </w>
naš e</w>
je ště</w>
c or
m a</w>
or s</w>
g ra
m ot
tr an
sl ov
od po
vě dě
N e
z de</w>
A f
n av
l ing</w>
c es</w>
p t
č as
v es</w>
o č
E D
h el
c our
re d</w>
vět š
th ree</w>
f il
pou ží
i li
e d
ro d
mož ná</w>
š e</w>
co ž</w>
pří kl
ov al</w>
ic ally</w>
svět ě</w>
ho dn
s or
j de</w>
tak ov
org an
m es</w>
c t
v od
n it</w>
ic s</w>
vyt voř
v al
re al
á d
r el
m to</w>
qu est
v at</w>
s le
&apos; d</w>
n at
ov an
s led
s chop
illi on</w>
cal led</w>
spe ci
dů ležit
d áv
p í
log y</w>
a jí</w>
ich ni</w>
do l
dne s</w>
vš ichni</w>
n it
to day</w>
l ad
af ter</w>
žá dn
ka z
by li</w>
tal k</w>
ov á
de m</w>
n ého</w>
el i</w>
č ní</w>
k ro
for e</w>
b </w>
x t</w>
sp ě
pří bě
ně jak
ac í</w>
h or
T ED
bu de
vidí te</w>
chang e</w>
a se</w>
jí t</w>
z ná
prv ní</w>
ov ali</w>
t ell</w>
mí t</w>
la st</w>
moh li</w>
ch to</w>
zna men
potře bu
per cent</w>
mo c</w>
an i</w>
in u</w>
an ce</w>
il o</w>
hum an</w>
mo d
pu l
n ad
v á</w>
th ank</w>
č í</w>
in t</w>
am i</w>
ň </w>
té to</w>
ot áz
st a
má m</w>
me zi</w>
– </w>
tě chto</w>
n out</w>
ry ch
do m
za jí
každ ý</w>
hap p
gen er
bra in</w>
o wn</w>
z am
m ade</w>
f ind</w>
j te</w>
ol d</w>
č i</w>
c ti
z í
w om
vlast ně</w>
vi de
c ent
p s
fac t</w>
c ích</w>
o s
my š
mě l</w>
by ly</w>
vy pad
re s</w>
techno logi
de sig
s cho
dat a</w>
h al
5 0</w>
d ov
year </w>
gre at</w>
g ro
t ter</w>
sh ould</w>
im port
h ist
e c</w>
pre s
lo w</w>
Am er
moh ou</w>
av e</w>
b li
mlu v
at es</w>
b er
an other</w>
n ak
hl av
di dn</w>
š ích</w>
ic i
r ad
l u</w>
gi ve</w>
f t</w>
& #
&# 9
w an
č e
lo b
c er
ne ch
p s</w>
m ý
t ý
pro du
pr ů
wi th
v y</w>
dě ku
š tě
u mě
in s</w>
ide a</w>
ni ch</w>
h rá
as i</w>
mno ho</w>
im ag
e ach</w>
b eli
ně jší</w>
rů z
al y</w>
ti mes</w>
všech no</w>
be fore</w>
e y</w>
4 </w>
ch od
koli k</w>
2 0</w>
w ing</w>
star ted</w>
my s
c ur
w ar
ta to</w>
st ory</w>
thou ght</w>
d en
by ste</w>
ex am
ar i
z ab
w ent</w>
ve s
do es</w>
kl ad
d ic
be tter</w>
st ran
g er</w>
cour se</w>
en é</w>
of f</w>
e p</w>
bi g</w>
li c
be z
l in
. .</w>
ji m</w>
r it
at el
jedno du
an d
b it</w>
do kon
s how</w>
dě ti</w>
á t
vá me</w>
stá le</w>
ce st
děku ji</w>
n ic</w>
vá ní</w>
st and</w>
prob lem</w>
ter s</w>
syst em</w>
hod ně</w>
b or
tw e
l as
ag ain</w>
ví te</w>
mi ght</w>
8 </w>
sh i
vě ř
c ul
příkl ad</w>
lid i</w>
import ant</w>
h a</w>
je te</w>
di a</w>
te ch</w>
vě c</w>
le ss</w>
k i
ag o</w>
aby chom</w>
an c
nev er</w>
m ent
živ ot</w>
n um
k no
star t</w>
lep ší</w>
m an</w>
p an
a sk
č e</w>
bě hem</w>
3 </w>
tr a
uděl at</w>
pro to</w>
le t
g et
n or
t ly</w>
ou s
n y
al i
ce p
vel op
b u</w>
. ..</w>
l ab
má te</w>
f am
comp le
1 </w>
se con
inter est
stu p
děl at</w>
prob lé
u káz
st ill</w>
p ic
f ound</w>
í me</w>
po ř
š el</w>
pro ce
mo c
z jist
l ém</w>
dr en</w>
dob ře</w>
o st</w>
n ic
m il
uni ver
prost ře
ť </w>
ni kdy</w>
n s</w>
li ght</w>
l ine</w>
v en
iti on</w>
ch ce
k é</w>
e č
de ci
to ge
á ch</w>
š ení</w>
toge ther</w>
k t
chil dren</w>
n ým</w>
c tion</w>
po čí
ne xt</w>
mů j</w>
svě t</w>
skuteč nosti</w>
př i</w>
hi m</w>
si ble</w>
par t</w>
st rá
pl ace</w>
g y</w>
bi o
S t
ur č
rob ot
me an</w>
de velop
d in
ac i
k y
vě cí</w>
twe en</w>
prob lém</w>
be tween</w>
, 000</w>
Amer ic
z dr
í te</w>
st i
myš len
ch ci</w>
se t</w>
al o
st ře
fe w</w>
vidě t</w>
koli v</w>
p as
be g
b ar
š en
ma y
h r
c k</w>
ny ní</w>
ví me</w>
tro chu</w>
iti es</w>
ati ve</w>
st or
znamen á</w>
jed na</w>
g lob
be z</w>
ac t</w>
ick ý</w>
an o</w>
N o</w>
quest ion</w>
y s
jedn ou</w>
6 </w>
děl á
p lo
ca me</w>
mý š
zají m
míst o</w>
com es</w>
re as
pl a
lov e</w>
s lo
d lou
un </w>
t v
je st
comm un
b as
musí me</w>
e ve</w>
pře s
may be</w>
ati v
es n</w>
bud ou</w>
zdr av
do esn</w>
par tic
u m</w>
organ iz
z i
š ím</w>
ví c</w>
to o</w>
lov ě
práv ě</w>
c ou
3 0</w>
ú ž
m é</w>
mat eri
k ed</w>
po int</w>
in cre
č lově
u sed</w>
en g
jed in
z ení</w>
n er
po j
20 0
zí sk
t in
c it
a me</w>
l ong</w>
á h
scho ol</w>
ro m
f ri
e p
c ů</w>
c ts</w>
con om
stej ně</w>
am er
or i
k ni
g iv
sel ves</w>
ho to</w>
řej mě</w>
pře mýš
d re
z kou
su p
n ot
č ast
sp ou
ab ili
exam ple</w>
ch ar
úž as
techno logy</w>
po lit
li ve</w>
h er
th er
m ay</w>
b re
č in
t ot
ro p
r ic
o stat
po mo
w al
7 </w>
sa moz
v in
cel a</w>
za čí
o le</w>
ro ce</w>
op er
li m
re al</w>
u jeme</w>
st op
look ing</w>
mus í</w>
pá r</w>
e conom
b í
su b
min u
ev ol
řík á</w>
moh l</w>
d one</w>
com pu
ch e
c lo
no stí</w>
mu l
w ater</w>
vi d
an ds</w>
el a</w>
mi s
sk ý</w>
c all</w>
on y</w>
vy u
te m</w>
vel ice</w>
stu di
tě ch</w>
po pul
an é</w>
š pat
under stand</w>
pod le</w>
di s
al ways</w>
vě d
ine ss</w>
aby ch</w>
a st</w>
p le
per son</w>
t ři</w>
š ko
pě t</w>
pu bli
me m
fun g
o me</w>
do ká
dv a</w>
vět ší</w>
wom en</w>
tu to</w>
mon ey</w>
způsob </w>
b av
a way</w>
tě ž
mé ně</w>
st ra
samoz řejmě</w>
fe el</w>
exper im
b l
se ar
ab ly</w>
ob rá
e kon
dí ky</w>
zajím av
se be</w>
ž u</w>
wan ted</w>
ti ons</w>
ou t
f er
dv ě</w>
spou st
sl y
ki ds</w>
gr ap
stan e</w>
ne ss</w>
to mto</w>
to hoto</w>
r ak
po wer</w>
pl ně</w>
sk vě
pou ze</w>
ří ct</w>
fo od</w>
vi l</w>
život a</w>
f ot
i č
h ar
f our</w>
z at
ti l</w>
m ag
vide o</w>
v lá
gr am
as k</w>
s práv
h y
beli eve</w>
ro om</w>
ron g</w>
us ing</w>
f ace</w>
c le
ov ala</w>
způ so
mno hem</w>
m o</w>
hel p</w>
ick ých</w>
b a
ves mí
st s</w>
spo n
počí ta
jest li</w>
exper i
sku p
inform ation</w>
he al
svět a</w>
wh ole</w>
w er
po č
pl ay</w>
tr ying</w>
coun try</w>
con tro
zv lá
thin king</w>
t vr
k o</w>
ekon om
z en
mar k
c ted</w>
bud ou
ati onal</w>
an im
w at
e i
c ap
m en</w>
o sob
di sc
exist uje</w>
s mě
every thing</w>
u e</w>
sl u
pod stat
vše ch</w>
ener gi
wor king</w>
secon d</w>
ně ko
A n
ů j</w>
vyt vá
sor t</w>
mě st
fi ve</w>
ně kdo</w>
e -
prá ce</w>
m illion</w>
o ff
bo ok</w>
al iz
tran s
ar t</w>
nov é</w>
i le</w>
for m</w>
z nov
tře ba</w>
sp ace</w>
f ul
ro st
ne t</w>
d ri
el ec
u kaz
sou r
pr i
p sy
b lo
e ch</w>
ří ká
vy š
pro duc
na ší</w>
na d</w>
n ice</w>
u jící</w>
le g
dokon ce</w>
y es</w>
mě sí
get ting</w>
sk ých</w>
na uč
t ou
e ty</w>
do st</w>
con ne
el ek
bude me</w>
te ach
r a</w>
A r
č ím</w>
poh y
do lar
ě jší</w>
sv ůj</w>
st re
ko lem</w>
chtě l</w>
mo je</w>
b ro
ku l
vi e
bu s
prá ci</w>
an t
po stav
po li
na příklad</w>
c y
sk á</w>
cház í</w>
příbě h</w>
on es</w>
d ní</w>
obrá z
fu ture</w>
š e
pl at
me ans</w>
h ran
č ty
sol u
prost ě</w>
l dn</w>
l ap
f f</w>
to ok</w>
num ber</w>
skvě l
pre t
ener gy</w>
d á</w>
Ne w</w>
9 </w>
ř it</w>
ř ení</w>
le ty</w>
l on
an s
re ad</w>
n er</w>
pe č
e duc
urč it
li t</w>
v rá
ř en
ac k
1 00</w>
č er
va jí</w>
s erv
h un
K </w>
ú plně</w>
zá klad
z av
th s</w>
ne s
abili ty</w>
w ard</w>
en ough</w>
be st</w>
com ing</w>
v ím</w>
skuteč ně</w>
s itu
v en</w>
á r
ti sí
re ady</w>
ic ky</w>
o sti</w>
m ents</w>
m as
h ov
cre ate</w>
kter ých</w>
ne t
bec ome</w>
sv ou</w>
TED </w>
u vě
ick á</w>
qu ite</w>
b en
b al
zam ě
tr ies</w>
mo ment</w>
in st
M ar
poz or
kol i</w>
vlast ní</w>
sen se</w>
e g
š kol
ov ých</w>
ok ol
n en
le dn
en vi
ží t</w>
sa ys</w>
s ing
with out</w>
si ve</w>
př es</w>
n al
h ou
ro k</w>
n ém</w>
be m</w>
roz hod
moz ku</w>
be au
am at
č as</w>
z í</w>
tr av
ná š</w>
mož né</w>
m ů</w>
áv á</w>
sm all</w>
in f
d ar
tel y</w>
mě la</w>
ne e
je m</w>
em s</w>
roz dí
pl ac
le ft</w>
ov á</w>
k v
d ou
sk y</w>
ot s</w>
je jí</w>
wh e
si ons</w>
le tí</w>
hi gh
f ol
budou c
zem ě</w>
mak ing</w>
u ji</w>
ph ys
š ť
sci ence</w>
col le
hal f</w>
w ed</w>
st ri
lar s</w>
i k
dolar ů</w>
g over
em ent</w>
tal king</w>
ste ch</w>
interest ing</w>
ic i</w>
di vi
pos sible</w>
a x
w on
k re
j az
š t
ca se</w>
pří pad
stru k
j ob
gr ou
envi ron
bu du</w>
vá ž
in ve
aby ste</w>
s u</w>
p ad</w>
b an
mod el</w>
v ed</w>
tr ad
happen ed</w>
desig n</w>
ty p
i a</w>
z ap
syst ém</w>
soci al</w>
liv es</w>
st alo</w>
s ní
jí d
ro ss</w>
p ap
ous ly</w>
f ak
s ing</w>
po chop
musí te</w>
po k
d at</w>
ang u
ne jsou</w>
vš e</w>
větš ina</w>
va ž
h ra
di v
způso bem</w>
e ss</w>
dol lars</w>
f ar
á t</w>
shi p</w>
ov ý</w>
or u</w>
je m
coun tries</w>
sk ou</w>
prob le
prob ably</w>
l angu
vý zku
stu ff</w>
sk ého</w>
s er
re sear
znov u</w>
pr in
krá t</w>
j de
po jen
it u</w>
la jí</w>
k il
pret ty</w>
p ed</w>
D </w>
vypad á</w>
r ac
pl á
ob la
mak es</w>
c lu
th ers</w>
sh ar
lear n</w>
G o
z ví
su ch</w>
mluv it</w>
l ení</w>
k t</w>
wh ile</w>
přes ně</w>
li st
bo t</w>
pro ti</w>
o g
el se</w>
ch an
f re
sci enti
ho me</w>
el s</w>
min d</w>
h ard</w>
dr ž
gover n
buil d</w>
re mem
ov ou</w>
ic k</w>
dě je</w>
naš ich</w>
in tel
b lí
ž ili</w>
ver s
pro te
b ad</w>
Af ric
3 ;</w>
1 ;</w>
1 5</w>
&#9 3;</w>
&#9 1;</w>
s ad
in ste
ap </w>
go es</w>
č em</w>
ur y</w>
to ld</w>
se d
si m
jednodu ch
c in
ok ay</w>
e a
ně kolik</w>
žen y</w>
vidí me</w>
ou p
on ce</w>
m r
k in
imag ine</w>
ick ou</w>
e qu
ú spě
pro gram
mov e</w>
ti es</w>
t it</w>
ní mi</w>
k am
ide as</w>
d ro
u d
tak hle</w>
re spon
p ati
vo j
ne z
E n
wor ds</w>
n ar
f ron
ol s</w>
e as
ar ch
ně kdy</w>
i ons</w>
hodn ot
h and</w>
vů li</w>
sv ého</w>
sk u</w>
mě r
jen om</w>
do stan
s in
reas on</w>
po l
mo der
any thing</w>
to p</w>
happ en</w>
š li</w>
w rong</w>
technologi e</w>
ic es</w>
S </w>
zv u
w as
v al</w>
le tech</w>
jaz y
sv o
sa w</w>
lab or
de fin
ta in</w>
re m</w>
m lad
y oun
vá te</w>
t á
su l
o s</w>
k tiv
zd ro
y et</w>
sim ple</w>
rá d</w>
on ec</w>
zna č
pro cent</w>
n ými</w>
in side</w>
ří d
on u</w>
každ é</w>
V </w>
vš ak</w>
pře st
prv é</w>
c las
c ity</w>
Y or
te m
o z
nak onec</w>
experi ence</w>
čá st</w>
prav dě
o ce
k á</w>
ar e
th ough</w>
dob ě</w>
ro bot</w>
pravdě podob
happen s</w>
s li
dě lají</w>
In ter
důležit é</w>
vy so
f y
c ar</w>
A l
se x
p er</w>
jedno ho</w>
it a</w>
ch ví
ask ed</w>
j o
ob rov
lo st</w>
d ří
prostře dí</w>
potřebu jeme</w>
h led
bec </w>
mus ic</w>
d ra
bu r
ac ross</w>
obje v
l í</w>
hav ing</w>
d le</w>
cti ve</w>
ž il</w>
ž i</w>
velk é</w>
mo le
l ater</w>
en c
řek la</w>
u mož
se en</w>
l and</w>
in ed</w>
š lo</w>
o ch
ně které</w>
k vůli</w>
ž dy</w>
se t
in sp
al ity</w>
bez peč
po d</w>
on i</w>
min ut
b illion</w>
pří li
l at
di g
wor ks</w>
ma ch
di e</w>
a ir</w>
tel e
te k</w>
le ad
e z
da ys</w>
h le
buil ding</w>
v od</w>
jedn ot
vů bec</w>
li k</w>
š k
š it</w>
s on
proble ms</w>
ně j
in v
stru c
sc ri
h at</w>
g al
tak to</w>
cel é</w>
le vel
he ad</w>
vy svět
o de
no thing</w>
ob raz
en ds</w>
S A</w>
su c
thou s
remem ber</w>
jí cích</w>
j mé
a w
ro ku</w>
fe ct</w>
z ní</w>
sing le</w>
p ing</w>
en a</w>
t or
pro fe
educ ation</w>
d al</w>
č it</w>
á d</w>
v nit
t an
mno ž
h rom
fam ily</w>
evol u
c are</w>
ro di
ka jí</w>
cel ls</w>
O K</w>
chil d</w>
é st</w>
tur n</w>
s it</w>
po n
pic ture</w>
partic ul
stud ent
gh ts</w>
čast o</w>
spo lu
j as
bas ically</w>
% </w>
vidě li</w>
sp í
ick ého</w>
fung uje</w>
every body</w>
e mi</w>
c an
zač al</w>
in á
bude te</w>
vá l
st v
ni kdo</w>
liv ing</w>
li dem</w>
ch á
4 0</w>
w rit
suc ce
příli š</w>
mat ter</w>
b at
sou čas
s ch
h at
b ou</w>
w it
sle du
p al
d ou</w>
sa ying</w>
f lo
er y</w>
U .
ž it</w>
z tr
s áh
kter ým</w>
krá s
gi r
dobr é</w>
b ot
va še</w>
on ů</w>
bo th</w>
some one</w>
odpo vě
look s</w>
cel ý</w>
ur ing</w>
langu age</w>
kul tur
ur al</w>
s ure</w>
dě tí</w>
bus iness</w>
pomo cí</w>
hi gh</w>
contro l</w>
beau ti
al ready</w>
il l
compu ter</w>
N A</w>
su per
sh or
do m</w>
de mo
dal ších</w>
ag es</w>
E ar
ř i
á l</w>
svě d
o c
ne te</w>
f ar</w>
c it</w>
bi li
w in
wor d</w>
tu res</w>
p aci
nu tí</w>
dí tě</w>
ra č
jedn u</w>
a th</w>
youn g</w>
jak é</w>
d i</w>
sam i</w>
gu y</w>
u p
tru e</w>
podstat ě</w>
led ní</w>
al most</w>
stá t</w>
st ic</w>
ke ep</w>
ze pt
mu sel
elec tr
žádn é</w>
vz ta
heal th</w>
am az
ear </w>
po wer
ati on
po tom</w>
it al</w>
em u</w>
jin é</w>
in divi
bu ň
si x</w>
proce ss</w>
mys l</w>
look ed</w>
k ap
indivi du
cep t</w>
ap e</w>
ti ve</w>
is n</w>
do cela</w>
won der
i ž</w>
d el
ze mi</w>
g s</w>
at ely</w>
í ze</w>
po t
le v
in ě</w>
sv ých</w>
stop </w>
sob ě</w>
our s</w>
nej lepší</w>
lo c
čí sl
s it
di re
d am
chce te</w>
f ic
ak tiv
psy cho
pos lední</w>
pen íze</w>
par t
gra m</w>
t ku</w>
kdy by</w>
en ces</w>
vytvoř it</w>
v ždy</w>
na prost
iti ve</w>
inste ad</w>
člově k</w>
some times</w>
me m</w>
incre di
ex pl
do sáh
au to
with in</w>
ri s
podí ve
po té</w>
ge ts</w>
g g
vědě t</w>
ve řej
ou ght</w>
L e
vie w</w>
strá n
společ nosti</w>
of ten</w>
n ab
fi g
th ir
plan et</w>
ká ch</w>
Ear th</w>
zač ali</w>
vol u
stu p</w>
re g
před po
ist s</w>
beauti ful</w>
ň uje</w>
z el
pos ledn
na z
mal é</w>
ak e</w>
D NA</w>
2 5</w>
žit í</w>
prav id
b ers</w>
č el
whe ther</w>
t ky</w>
so f
slov a</w>
proje ct</w>
mno ha</w>
energi e</w>
b ri
F ran
z práv
v ali</w>
na ps
řek li</w>
spo j
p t</w>
lik a</w>
inve st
dá l</w>
tur ns</w>
sm r
ji ž</w>
nav r
na m
hist ory</w>
ans wer</w>
va š
ná stro
h lu
ex pe
do by</w>
resear ch</w>
prac ov
vz ni
my self</w>
je j</w>
be hav
neu ro
ot ev
mů žu</w>
moz ek</w>
b ly</w>
6 0</w>
job </w>
j men
f ic</w>
di se
a in
změ nit</w>
sto letí</w>
g li
dn e</w>
to lik</w>
m ou
hu d
bi r
vý sled
grou p</w>
ge st</w>
cle ar</w>
t on</w>
br ing</w>
1 2</w>
uděl ali</w>
iz ed</w>
hear d</w>
děl á</w>
uč itel
t ů</w>
mí n
moh la</w>
m ně</w>
ukaz uje</w>
ni l</w>
ent ly</w>
behav i
b í</w>
Afric a</w>
ší ho</w>
áv ají</w>
po ten
o by
mo ci</w>
ku d</w>
krá t
en o</w>
tak y</w>
i p
e ce</w>
z n
sv ým</w>
our selves</w>
lear ned</w>
i ze</w>
c ky</w>
tak ing</w>
s r
on a</w>
nit ed</w>
con tin
ch al
z ů
prac ovat</w>
f as
ř ad
mi d
in ou</w>
ex ac
chce me</w>
stud ents</w>
un der</w>
o st
kon tro
d ali</w>
was n</w>
univer se</w>
sly š
růz ných</w>
minut es</w>
ho l
deci ded</w>
U nited</w>
some body</w>
mon ths</w>
l er</w>
exac tly</w>
e b
dá t</w>
P </w>
Go og
0 s</w>
rych le</w>
poz dě
bě ž
á n
su m
i ght</w>
te st
sk a</w>
r at
on -
k or
ho pe</w>
S te
or ie</w>
nějak é</w>
e ho</w>
B </w>
te st</w>
si mp
sh ed</w>
s ound</w>
op en</w>
množ ství</w>
me d
m ého</w>
li š
e ts</w>
sin ce</w>
hl í
hl as
glob al</w>
f le
T he</w>
vel y</w>
u li
cen tr
č ení</w>
Č í
un til</w>
ně j</w>
amaz ing</w>
z u
s qu
po dn
ok am
ní k</w>
me as
chal len
se e
rad i
r en
ne po
li ter
is su
f -
er ing</w>
dost at</w>
r eli
mo ther</w>
do stat
d ent</w>
Inter net</w>
stan ding</w>
ro ve
pozdě ji</w>
pl ast
k ý</w>
k op
dá m</w>
č et
u ká
me t
h á</w>
bi g
ště stí</w>
čá stí</w>
čas u</w>
nat ure</w>
jedn é</w>
chví li</w>
zá vi
z y</w>
plan et
en ý</w>
ál ně</w>
re sul
kter ém</w>
d ě</w>
C </w>
stu dy</w>
pi ece</w>
dv ou</w>
commun ity</w>
chtě li</w>
čty ři</w>
č ky</w>
stor ies</w>
ostat ní</w>
n an
li z
druh é</w>
buil t</w>
v ní
st er</w>
el ing</w>
Americ a</w>
říká m</w>
obla sti</w>
labor at
f an
ac tion</w>
sy m
s dí
pr is
op en
k an
f el
comple tely</w>
the m
př á
oun ds</w>
or der</w>
dělá me</w>
co g
ch ing</w>
elek tr
1 0
t or</w>
sh are</w>
h á
f al
cou ple</w>
an al
ad v
them selves</w>
naš eho</w>
me di
every one</w>
velk ý</w>
rove ň</w>
or din
mat em
le du</w>
j me</w>
wom an</w>
tak ové</w>
re volu
r un</w>
m ic
chtě jí</w>
ná ní</w>
sy n
před ná
naz ý
inform ace</w>
in du
happ y</w>
ch ed</w>
případ ě</w>
d ál
ře šení</w>
zví ř
tí mto</w>
t un
t on
ra ther</w>
dě t
cre ated</w>
umě ní</w>
při j
problé my</w>
ne me</w>
l ní</w>
kom un
hear </w>
St ates</w>
á te</w>
s y</w>
lear ning</w>
j u</w>
in ing</w>
in de
ex tr
dů vod</w>
1 8
čá sti</w>
z ak
věř itel
vz děl
v ari
t vá
sk r
ph ot
mysl í</w>
log ical</w>
b ran
anim als</w>
ně ní</w>
ne ws</w>
fron t</w>
arch it
ap pe
ě t</w>
vý zna
pro vi
ne m</w>
mě ní</w>
k ami</w>
vě z
vod u</w>
jin ého</w>
c anc
bec ame</w>
au di
vě dom
vesmí ru</w>
s av
mu st</w>
mi st
happen ing</w>
e te</w>
c ro
st oup
l y
kin ds</w>
i st</w>
i m</w>
de ta
d ot
ain st</w>
plac es</w>
iv ní</w>
e y
R o
vě de
st ati
paci ent
lid ské</w>
lid mi</w>
h on
govern ment</w>
g ame</w>
ag ainst</w>
a ir
J oh
In dia</w>
ří zení</w>
ul t</w>
sex u
rod ní</w>
pře kv
překv ap
ob sa
k li
Americ an</w>
spo r
poř ád</w>
neu věřitel
mp ;</w>
h ru
fil m</w>
at a</w>
S pojen
&a mp;</w>
žen a</w>
por t</w>
naš i</w>
k ové</w>
ap pro
w ar</w>
na jít</w>
mi le</w>
fri ends</w>
f li
ar ti
a ť</w>
z pět</w>
v ing</w>
pen ě
jedn o</w>
hrom ady</w>
ea h</w>
dob u</w>
ci r
st ate</w>
hu ge</w>
environ ment</w>
al lo
zajímav é</w>
vi r
t able</w>
struk tur
soci ety</w>
potře b
me chan
gr ound</w>
differ ence</w>
E u
r un
pří mo</w>
po ru
něko lika</w>
lé pe</w>
it self</w>
do káz
r am
ne vy
naprost o</w>
ke y</w>
19 9
od liš
da jí</w>
č ně</w>
nov ý</w>
level </w>
de b
cul ture</w>
cent ury</w>
at e
Ch ina</w>
on line</w>
ob ě
o grap
ne ur
g a
en á</w>
ch em
an ti
í m
té mě
rak ov
pro gram</w>
ou ldn</w>
ob vi
život ě</w>
qu i
po lo
ov i</w>
o thers</w>
j ů</w>
in ten
h ours</w>
h ot
th re
sour ce</w>
roz hodn
o x
ni ght</w>
h mot
gu ys</w>
cel ou</w>
ap p
z cela</w>
vá š</w>
témě ř</w>
th y</w>
pok rač
d y
í t</w>
b ed</w>
at ten
če ho</w>
o w</w>
hear t</w>
M a
thir d</w>
ov liv
o -
le ží</w>
ka m</w>
insp i
im p
ar g
ně kteří</w>
n al</w>
l ots</w>
i se</w>
de v
cel ém</w>
b ac
zem í</w>
z ad
při prav
mili ar
kon eč
en i</w>
dá le</w>
disc over
am oun
su d
společ en
poř ád
le ast</w>
w r
posledn ích</w>
pa st</w>
o gra
fi el
d uring</w>
ve z
syst é
okol o</w>
i i</w>
e ss
ch rá
B u
slo žit
do hromady</w>
bo hat
Yor k</w>
T </w>
In di
sof tw
is m</w>
ex cit
ct or</w>
ar ly</w>
N or
ří me</w>
sam ot
s ám</w>
rá t</w>
p ur
k new</w>
jde te</w>
dne š
de c
č emu</w>
tur ned</w>
thous ands</w>
struc ture</w>
sel f-
schop ni</w>
pře svěd
ná d
ná bo
na me</w>
c at
bo ok
am es</w>
ško ly</w>
u tí</w>
sto jí</w>
pre z
ovan é</w>
op ti
fig ure</w>
em ot
dov ol
D e
z alo
t ou</w>
sho ws</w>
prin ci
ob chod
in ov
z er
se ver
pu t
mi l</w>
g ave</w>
f l
y ed</w>
st al</w>
ro w</w>
quest ions</w>
it ě</w>
h an
gen et
canc er</w>
š la</w>
kl í
ch ování</w>
al ong</w>
zku šen
vz po
uděl al</w>
te h
t iny</w>
mu s</w>
m ing</w>
con si
c em</w>
uvě do
přá tel
mus ím</w>
c au
wh at
vědě li</w>
v ody</w>
lar ge</w>
hou se</w>
gro w</w>
G od</w>
šť ast
spoust u</w>
pří ležit
po in
ne k</w>
fin an
experim ent</w>
Am eri
u jete</w>
stej né</w>
ma j
in es</w>
gal ax
dal ek
d an
8 0</w>
w on</w>
te x
předná š
otáz ka</w>
nej en</w>
di men
O h</w>
id ent
vidě l</w>
s í</w>
po cit</w>
jin ý</w>
de k</w>
ty hle</w>
sk on
se k
publi c</w>
mark et</w>
jin ak</w>
g ar
ba sed</w>
S .</w>
Af gh
ž ení</w>
ss ing</w>
sl ou
rov at</w>
popul ation</w>
nat ural</w>
l -
dobr á</w>
zdrav ot
syst ems</w>
st y
ph one</w>
pat ter
nab í
inst itu
chang ed</w>
ak ter
áv at</w>
sv ob
real ity</w>
nej větší</w>
mov ing</w>
g ran
eng ine
vš im
u st
u mí
stan ce</w>
po st
m al</w>
le s
dří ve</w>
war ds</w>
ent ed</w>
dobr ý</w>
b ab
vi ol
při šel</w>
před tím</w>
power ful</w>
po prvé</w>
mož nost</w>
h ad
diff ic
commun ic
ci vi
ac e
P ro
žádn ý</w>
úžas né</w>
speci es</w>
re ad
our self</w>
or e</w>
n ational</w>
cti ons</w>
E v
per hap
perhap s</w>
illi ons</w>
dáv á</w>
cház e
w el
ti on
ta in
t ní</w>
pr a
nic i</w>
le y</w>
giv en</w>
Goog le</w>
z as
l an
f ree</w>
č erv
za po
společ nost</w>
re gi
fin ally</w>
ear ly</w>
ck s</w>
ží me</w>
změ n
wonder ful</w>
vědě l</w>
i gh
hum an
ch u
c r
y ourself</w>
t vo
pos ky
or ig
me ss
kom uni
doká že
ím co</w>
te xt</w>
tak es</w>
růz né</w>
mot iv
dru h</w>
č ek</w>
port un
ov ého</w>
jedn ím</w>
fas cin
en y</w>
e fe
ac ce
ří kají</w>
teh dy</w>
t ř
see ing</w>
představ te</w>
pos ed</w>
po má
op portun
mul ti
d es</w>
á me</w>
zat ímco</w>
z lo
pů l</w>
h roz
cou ldn</w>
b el
si on
mě lo</w>
mysl el</w>
h é</w>
demo kr
d ge</w>
c ím</w>
Eu ro
ž en</w>
za stav
ten hle</w>
ing ly</w>
gro w
c lim
ac tiv
J o
G re
použí t</w>
po roz
p les</w>
otáz ku</w>
no st
m er</w>
h ind</w>
vš em</w>
tele vi
tel ef
pr im
p amat
mi mo
m ých</w>
gr ad
con t
at or</w>
ro ky</w>
odpově ď</w>
li č
de ch</w>
dalek o</w>
c op
val ue</w>
me dia</w>
lo sti</w>
kou p
eas y</w>
d on
2 00</w>
ti s
spo lu</w>
s eri
reli gi
particul ar</w>
obráz ek</w>
in ning</w>
H ar
představ it</w>
kno wn</w>
/ </w>
s mysl
ne g
mach ine</w>
hrá t</w>
exist ují</w>
z da</w>
sc ale</w>
ní ky</w>
le ave</w>
in nov
bl ack</w>
ativ ní</w>
a j
U. S.</w>
5 00</w>
z u</w>
těž ké</w>
po lov
něko ho</w>
ní ci</w>
me mor
j our
de ath</w>
d ly</w>
as h
u es</w>
st er
se ven</w>
rozdí l</w>
rel ation
par ents</w>
out side</w>
B i
z an
to m
ment al</w>
e yes</w>
be hind</w>
av er
at t
tě la</w>
syst ému</w>
po trav
h ou</w>
dise ase</w>
cur r
a do
me tr
l é</w>
ful ly</w>
de moc
En gli
- li</w>
wor ked</w>
moh lo</w>
jak ý</w>
experim ent
cer tain</w>
bud ov
at om
U SA</w>
R e
js i</w>
d ce</w>
c ri
audi ence</w>
P o
D av
we b
sp end</w>
pre dic
podí vat</w>
p am
ni mi</w>
nee ds</w>
na jednou</w>
iti ons</w>
ch a
vý rob
si bili
mal ý</w>
kl á
ef fe
econom ic</w>
dlou ho</w>
W ell</w>
č ka</w>
simp ly</w>
re si
par ts</w>
musel i</w>
fot ogra
dá me</w>
b á
žd y
zá sad
z lep
vyu ží
ter ms</w>
pos lou
it ed</w>
comm on</w>
c ities</w>
arg um
ak ing</w>
zd á</w>
y eah</w>
vy rob
v ždy
v l
tech ni
s ím</w>
při roz
g ing</w>
fa ther</w>
dou f
do spě
atten tion</w>
vnit ř</w>
proje kt</w>
produ k
ori i</w>
mili onů</w>
ch lap
ch i
b om
po se</w>
mi kro
for ce</w>
T h
č ek
we ek
tak en</w>
t -
re st</w>
re ce
ná z
kno w
jak ým</w>
en e
ei ght</w>
book s</w>
W or
R </w>
č ku</w>
z ni
wal k</w>
u res</w>
př it
me dic
ká ní</w>
comple x</w>
b ě</w>
začí t</w>
year -
vz ít</w>
vi su
sub je
ně te</w>
míst a</w>
f ly</w>
f av
a il
zač ala</w>
vel i
real ized</w>
nějak ý</w>
ne bylo</w>
n at</w>
mu ž
k at
g es</w>
d -
ch ov
buň ky</w>
amoun t</w>
J e
tot iž</w>
se bou</w>
sc re
pomo ci</w>
m at</w>
lon ger</w>
enti re</w>
e mo
comp any</w>
Engli sh</w>
A u
zjist ili</w>
ukáz at</w>
u vnitř</w>
podíve jte</w>
i an</w>
de scri
zamě st
takov ý</w>
in vol
h ands</w>
e at</w>
d é
what ever</w>
u de</w>
rů st</w>
ob vy
me an
m nou</w>
hum ans</w>
grow th</w>
e ko
diffic ult</w>
con sci
con d
comp an
civi liz
ab solu
ě ji</w>
we ek</w>
vir tu
le h
fri end</w>
dost ali</w>
c le</w>
w ers</w>
softw are</w>
po mal
ho sp
gro wing</w>
U ni
zdrav í</w>
pl y
im age</w>
chtě la</w>
zab ý
vá mi</w>
ick ým</w>
f é
ex tre
behavi or</w>
at ure</w>
O </w>
vy vin
st ala</w>
ov aly</w>
k ů
fel t</w>
fe eling</w>
beg inning</w>
b in
pří stup</w>
po važ
ov alo</w>
o bec
ná sled
lé ka
b il
č ist
tr ac
peně z</w>
mid dle</w>
k ým</w>
dost al</w>
d ers</w>
cel l</w>
čísl o</w>
vá dě
sk ém</w>
si ze</w>
e ch
0 ,000</w>
ž ila</w>
ú rov
zá leží</w>
z pá
vý vo
velk á</w>
op ět</w>
měst a</w>
jednot liv
ful l</w>
bu y</w>
P ar
váž ně</w>
re cor
p y
k val
ho ld</w>
hlav ní</w>
en ing</w>
ší mi</w>
sv ém</w>
pravděpodob ně</w>
pa in
ne moc
l un
fam ili
ei ther</w>
b lu
ž ou</w>
zpá tky</w>
zná m
vš ude</w>
si l</w>
se qu
lé č
fan ta
vi dí</w>
tri ed</w>
sp ent</w>
schop nost</w>
proje k
mic ro
li g
are a</w>
W i
v er</w>
ste p</w>
rá di</w>
pu st
pap er</w>
nee ded</w>
laborat o
fy zi
ch y</w>
am a</w>
č an
wat ch</w>
vyš ší</w>
teach ers</w>
per i
jedn á</w>
at el</w>
a č
vytvoř ili</w>
vy j
tel ling</w>
t voř
re spe
know led
f y</w>
di l</w>
can not</w>
al e
š tí</w>
sur vi
s nad
po vr
kl ád
fiel d</w>
clo se</w>
chang es</w>
G e
C ar
t ří
svět lo</w>
sour ces</w>
skvěl é</w>
r .</w>
p il
minu t</w>
ci al</w>
B o
ve de</w>
spoust a</w>
mu ž</w>
budouc nosti</w>
ag ed</w>
S h
M </w>
w in</w>
st ov
přest o</w>
podí váte</w>
ov lá
o il</w>
mys li</w>
moh u</w>
k lu
d vě
ž ní</w>
z by
vers ity</w>
ti to</w>
re cog
poz o
num bers</w>
ne byl</w>
navr h
fol lo
dn y</w>
Y ou</w>
1 1</w>
z hru
zhru ba</w>
u su
shor t</w>
re ak
ne y</w>
in clu
di ag
de al</w>
I sl
C on
mysl íte</w>
bli ž
vědom í</w>
společ ně</w>
sh ing</w>
qu ick
ná ro
n ů</w>
n erv
imag es</w>
co st</w>
w ouldn</w>
jíd lo</w>
au th
wr ite</w>
se k</w>
s ite</w>
hlu bo
g y
for ward</w>
est er
ži jeme</w>
ž el
vždy cky</w>
the ory</w>
st age</w>
sit ting</w>
pr ou
jednodu še</w>
im pro
ž ad
vš ím</w>
příbě hy</w>
od s</w>
ní ků</w>
m ap
dí v
ask ing</w>
za řízení</w>
uvě dom
slov o</w>
pří ro
nábo žen
min ist
me z
le ss
e f</w>
bor n</w>
w il
spe ak</w>
sna ží</w>
ně jak</w>
he ad
giv ing</w>
druh ý</w>
beg an</w>
š i</w>
vy ře
t l
stud ent</w>
sou částí</w>
poč et</w>
interest ed</w>
c ení</w>
ál ních</w>
zkou š
u vidíte</w>
sk ým</w>
rů st
pre ci
odpo věd
má lo</w>
ct ly</w>
ě ní</w>
věde ck
se x</w>
gre en</w>
g one</w>
d ala</w>
aver age</w>
ze mě
mysl eli</w>
ko sti</w>
et ing</w>
dvě ma</w>
de pen
comp as
c amer
žit el
ár ní</w>
základ ní</w>
z áv
vz or
tře tí</w>
solu tion</w>
přemýš l
pres ent</w>
ná vr
ne má</w>
ne mají</w>
loc al</w>
k id</w>
bio log
zvlá št
z r
or ity</w>
m ou</w>
S ou
ří ci</w>
zá roveň</w>
vz dál
under standing</w>
ta hle</w>
s mysl</w>
přemýš let</w>
poli ti
knowled ge</w>
jin ých</w>
giv es</w>
char ac
T wit
á n</w>
zá kon
zá jem</w>
vzni k
umě t</w>
ou gh
la w</w>
j o</w>
fa st</w>
evolu tion</w>
en ím</w>
ekonom i
any one</w>
w o
v ést</w>
t ví</w>
stran ě</w>
phys ical</w>
p ay</w>
otáz ky</w>
k ri
f ur
develop ed</w>
d it</w>
M o
I V</w>
žádn á</w>
č il</w>
th an
r at</w>
ne dáv
mili ard</w>
jí cí
de te
z ed</w>
vy prá
t ab
sl av
robot s</w>
počíta č
me t</w>
ma in</w>
h ned</w>
for tun
compan ies</w>
c us</w>
c am
v zá
quick ly</w>
nu t
m er
let ad
kon ci</w>
clas s
7 0</w>
week s</w>
te am</w>
t it
su ff
se ems</w>
per spe
h lá
fy z
dol ů</w>
c ting</w>
ar s</w>
za se</w>
vz dělá
u drž
soci ální</w>
ru les</w>
příkl ad
per s
p is
hod in</w>
a po
zá bav
zač át
u tr
st ry</w>
ro te</w>
produ ce</w>
po žá
ne byla</w>
na zv
mě ly</w>
důležit ější</w>
druh ou</w>
dom ů</w>
Ev rop
člově ka</w>
w rote</w>
pati ents</w>
oh rom
enc y</w>
d rá
com pe
B rit
si a</w>
pap í
ordin ary</w>
mi les</w>
al one</w>
á ni
z rov
st ává</w>
s ses</w>
r ate</w>
r an</w>
pr ve</w>
oun d
on d</w>
ně m</w>
míst nosti</w>
matem ati
jak mile</w>
hl ad
fun k
er ed</w>
en om
e vid
dn í
ben ef
au gh
řík al</w>
wor k
ri ed</w>
problé mů</w>
ob lí
fer ence</w>
dá te</w>
b akter
a y
S e
uká žu</w>
real ize</w>
phot ograp
di es</w>
d ang
c ru
ň ují</w>
zam y
vo ice</w>
univer z
tisí ce</w>
scienti sts</w>
při šli</w>
prav da</w>
poh led</w>
or o</w>
mole ku
kter ými</w>
hist or
fi ed</w>
dn out</w>
c li
ac y</w>
zrov na</w>
změ ny</w>
vy br
scho ols</w>
r ně</w>
mili ó
j ím</w>
ig n</w>
gir l</w>
br ought</w>
bo x</w>
bac ter
am s</w>
Ch ar
ško le</w>
š i
trans form
ru ce</w>
po ví
pl ant</w>
op ak
ne tu</w>
k en</w>
in tro
fun </w>
f ine</w>
f ear</w>
vz du
te ach</w>
svob od
spo tře
sp ir
roz ší
polit ical</w>
incredi ble</w>
happ iness</w>
fun dam
fundam ent
cho ice</w>
blí z
ab </w>
špat ně</w>
zem ích</w>
year- old</w>
v a</w>
tisí c</w>
st ě
p ady</w>
nor má
cu t</w>
cre ating</w>
ch ce</w>
R ob
á ly</w>
t ar
pře de
po or</w>
pla ying</w>
ob dob
il s</w>
i ve</w>
ch es</w>
Wor ld</w>
H IV</w>
ř el
y er</w>
věř ím</w>
si mil
sc en
ra z</w>
min e</w>
li e</w>
kom p
h ry</w>
anim al</w>
Dav id</w>
š tí
výsled ky</w>
vyvin u
sen s
or e
obvi ously</w>
o stí</w>
mi mo</w>
kro k</w>
cent er</w>
at mo
1 8</w>
to ols</w>
při jít</w>
před mě
př en
prost oru</w>
pe v
ov ým</w>
opportun ity</w>
ne můžete</w>
n on-
li fe
inf ra
h věz
bot tom</w>
al ter
ži jí</w>
ál ního</w>
zá vě
vytvá ří</w>
sk oro</w>
rych le
při jde</w>
př ine
mlu ví</w>
lik ely</w>
jak é
do kud</w>
clim ate</w>
a ž
Af ri
č tvr
získ at</w>
při po
pers onal</w>
nev ím</w>
g ed</w>
econom y</w>
develop ing</w>
budouc nost</w>
at ors</w>
ach i
P h
ř ed</w>
vy rá
um í</w>
speci ally</w>
pr iv
per son
myšlen ka</w>
individu al</w>
hun dre
cer tain
D ar
velk ou</w>
va ší</w>
tě lo</w>
se em</w>
s ity</w>
r ice</w>
qu e</w>
ná pad</w>
mov ement</w>
ho od</w>
h ů</w>
h rad
ess enti
er a</w>
ap lik
T u
ál ním</w>
vyprá vě
se be
s ounds</w>
poten ti
poj ď
moder n</w>
jednoduch é</w>
fi e</w>
Spojen ých</w>
— </w>
začí ná</w>
vi ru
ter ri
ten d</w>
teach er</w>
sur face</w>
star ting</w>
sle ep</w>
situ ation</w>
rodi če</w>
resul t</w>
recog ni
ná sledu
ná sil
materi al</w>
k ům</w>
k ru
inform ací</w>
fi sh</w>
ch od</w>
c um
c ed</w>
acce ss</w>
úspě š
poh ledu</w>
ou cí</w>
ní mu</w>
ne js
myšlen ky</w>
mys let</w>
logi e</w>
dostan ete</w>
de se
challen ge</w>
ast er</w>
W hat</w>
S u
B ro
vě ku</w>
v u</w>
uč it</w>
s rov
rost l
rac y</w>
qu ality</w>
okam ži
o li
ne bude</w>
gran d
ex tra
z vý
sna d</w>
prost or</w>
potře ba</w>
má ní</w>
ma the
kno ws</w>
g en</w>
e specially</w>
do má
dar k</w>
absolu tely</w>
run ning</w>
prez ent
na pad
mu ži</w>
h our</w>
h ab
de mon
ali for
ště ní</w>
č ase</w>
zá pad
s ave</w>
ro le</w>
pro f
pozor nost</w>
komuni k
kl am
intel lig
inde ed</w>
hl é
gr av
e me</w>
con vers
ch a</w>
car e
bo le
bo ard</w>
N </w>
Euro pe</w>
č t
str ate
sk y
sam a</w>
n ers</w>
mor ning</w>
issu e</w>
co ol</w>
cháze jí</w>
blo od</w>
an ý</w>
ac ích</w>
0 .</w>
ě j
stati st
st í
spo jen
spe ed</w>
sibili ty</w>
plan ts</w>
l ze</w>
chang ing</w>
cel kem</w>
Ch ri
vzděl ání</w>
spí še</w>
sp here</w>
sam é</w>
podob ně</w>
pati ent</w>
od e</w>
nej více</w>
mathe mat
ick ém</w>
fo cus</w>
doká že</w>
cest u</w>
as h</w>
špat né</w>
ř á
reg ul
r ap
pre ss</w>
ová ním</w>
nor mal</w>
naš em</w>
mlu vil</w>
ka ž
f lu
en ou</w>
develop ment</w>
bu je</w>
au to</w>
au ta</w>
L i
t ic</w>
prů měr
použí vat</w>
lab </w>
hundre ds</w>
hl as</w>
h uje</w>
gu ess</w>
discover ed</w>
cho dem</w>
b s</w>
a ses</w>
C o
způsob y</w>
wh ite</w>
sol ve</w>
pro ces</w>
pos ition</w>
m ne</w>
m illions</w>
col or</w>
D i
9 0</w>
vid ím</w>
tur al</w>
tr ou
tech n
relation ship</w>
pres sion</w>
n ili</w>
kl ady</w>
jmen uje</w>
incredi bly</w>
do prav
c rit
big ger</w>
b aby</w>
anal y
určit ě</w>
sud den
sudden ly</w>
s á
pě ti</w>
prostře d
or ů</w>
ná mi</w>
jí cím</w>
jde me</w>
in stru
hu deb
en ých</w>
ar en</w>
an g</w>
Z emi</w>
M c
ž ím</w>
vzdělá vání</w>
u š
rozhodn utí</w>
re qui
prac t
mu t
liter ally</w>
každ á</w>
k ur
form s</w>
fak t</w>
do z
bu ně
b ack
P e
t ory</w>
správ ně</w>
so on</w>
slyš eli</w>
slu ž
poz ná
pic tures</w>
p u</w>
nád her
no body</w>
j a
di st
al g
ag ing</w>
Joh n</w>
1 6</w>
ří te</w>
čí me</w>
začát ku</w>
vytvá ře
u žit
s mal
ov ě</w>
gu e</w>
u važ
succe ss</w>
p y</w>
míst ě</w>
min ul
mess age</w>
k ar
děl ali</w>
druh y</w>
do šlo</w>
de ep</w>
b all</w>
ře č
ú to
á nu</w>
vě do
vyu žít</w>
re ál
od hal
nov ých</w>
kni hy</w>
je t</w>
gir ls</w>
bu n
svo je</w>
reas ons</w>
profe s
moh ly</w>
me et</w>
d ý
c vi
av y</w>
are as</w>
L </w>
větš inou</w>
v ac
u ally</w>
to mu
svět la</w>
studi e</w>
re p
prost řed</w>
potřebu jete</w>
podn ik
nov ou</w>
n el
mo bi
m ém</w>
iti onal</w>
it ing</w>
hav en</w>
fav or
expl ain</w>
d red</w>
M ich
1 3</w>
řek nu</w>
tri bu
takov á</w>
su s</w>
sp er
sho wed</w>
s sed</w>
oce an</w>
ne měli</w>
mole cu
glob ální</w>
evid ence</w>
dri ve</w>
alter n
19 8
zvu k</w>
tre at
sk lad
pro vo
pro ved
ple x
ol u</w>
o w
ne jsem</w>
meas ure</w>
l t</w>
kr é
in fe
d or
conne cted</w>
compu ters</w>
com par
L on
ú ko
ztr á
read ing</w>
per fect</w>
o log
nějak ou</w>
nauč it</w>
mi to</w>
j dou</w>
i de</w>
em er
compas sion</w>
beg in</w>
š est</w>
čá st
wa ste</w>
takov ého</w>
pů sob
měsí ců</w>
m ed</w>
l ar</w>
ist an</w>
il lu
ic ity</w>
av ail
V i
M ex
1 4</w>
život y</w>
su sta
sou vi
se cre
s er</w>
s al
ro r</w>
re sources</w>
ká m</w>
k at</w>
jazy k</w>
hov o
hor u</w>
g ames</w>
douf ám</w>
car s</w>
3 00</w>
š em</w>
é ri
wi sh</w>
stra š
sh ape</w>
po rov
m ým</w>
lo se</w>
clas s</w>
any body</w>
al low</w>
I s
G </w>
říká me</w>
ú čin
ú čast
wor th</w>
tě mito</w>
t at</w>
sp read</w>
pod a
lá r
ktiv ní</w>
kil ome
i led</w>
f er</w>
dig it
cel ého</w>
F or
žen ý
č ili</w>
wal king</w>
umě l
tě mi</w>
te pl
svo ji</w>
st rong</w>
sou stře
si onal</w>
se cur
ro ad</w>
posky t
popul ace</w>
liv ed</w>
l am
každ ého</w>
f ru
ey e</w>
R u
zat ím</w>
za poj
vi sion</w>
v alo</w>
v ala</w>
uč í</w>
tvo ří</w>
svět ové</w>
su gg
sugg est
sl a</w>
se dě
rá da</w>
rozhod l</w>
ris k</w>
ri zi
raz y</w>
pro gre
mus el</w>
mo st
mili ony</w>
memor y</w>
k le</w>
gener ation</w>
dosáh nout</w>
ativ ity</w>
an a</w>
writ ing</w>
v č
technologi es</w>
sta ur
sc op
re staur
potřebu je</w>
p é
off ice</w>
oblí ben
ni ž
ni fic
naps al</w>
l and
koneč ně</w>
kon kré
in tu
hran í</w>
do min
dneš ní</w>
di ed</w>
bu l
b od
ar ed</w>
alifor ni
če j
ther e
sk in</w>
pod mín
per fe
ox y
ob li
ně me</w>
materi als</w>
list en</w>
jedin ý</w>
in k</w>
fe et</w>
d eli
blu e</w>
a th
výzku m</w>
v ill
u prostřed</w>
u dá
pojď me</w>
ne igh
na horu</w>
ex pen
energi i</w>
em ents</w>
ef fect</w>
chy b
car b
život ní</w>
zdro je</w>
uč ení</w>
ukáz alo</w>
tel ls</w>
smě rem</w>
re fle
pam ě
ne máme</w>
i sl
di stri
de gre
ct ors</w>
T al
ži je</w>
ž el</w>
řek ne</w>
ál u</w>
te orie</w>
při bliž
pos l
ov ém</w>
man u
in žený
h and
distri bu
cí tí
ce ss
bo j
V ám</w>
Amer ice</w>
žen é</w>
čí st</w>
vše ho</w>
po lic
po každé</w>
oh ro
mi se</w>
man i
hy po
hun dred</w>
for d</w>
ex plo
en ci</w>
cent ly</w>
b an</w>
at ur
B e
šk er
ukáz al</w>
to p
t ří</w>
sup port</w>
sp ar
secur ity</w>
ov e</w>
ov a</w>
ostat ních</w>
oby v
ní z
not ice</w>
n ine</w>
kter ého</w>
ch ud
by to
beli ev
b ře
D P</w>
A I
všech na</w>
vesmí r</w>
ve šker
tru th</w>
ter m</w>
stan dar
spo ň</w>
re cently</w>
pr on
plat í</w>
neu stále</w>
mo bil
me to
k ra
innov ation</w>
il ls</w>
bra ins</w>
E </w>
ty pe</w>
stav u</w>
sk o</w>
och ran
n ému</w>
mod el
mimo chodem</w>
men ší</w>
je v
f all</w>
dokáže me</w>
ale spoň</w>
C ol
Af rice</w>
tu hle</w>
s un
pro sím</w>
poten ci
par al
maj or</w>
kom plex
kli mat
in te
hod iny</w>
ho le</w>
every where</w>
ch at</w>
bri dge</w>
bacter ia</w>
avail able</w>
at s</w>
še ho</w>
ň te</w>
za hr
y m
x i
tran sl
t vů
star ts</w>
sle dek</w>
sk lá
si mul
s mo
rá no</w>
pořád ku</w>
počíta če</w>
ovan ý</w>
ov atel
on to</w>
obdob í</w>
něj ších</w>
nes mí
ne mám</w>
mož nosti</w>
en ded</w>
dů vě
druh á</w>
democ racy</w>
ac coun
zjist it</w>
vědě la</w>
smr ti</w>
pl av
ph il
na jí</w>
minu te</w>
it ou</w>
it ní</w>
f em
e se</w>
be comes</w>
0 -
č né</w>
č lá
z ran
u ží
t á</w>
sou kro
od děl
nech at</w>
mov ed</w>
jak ý
itel né</w>
g ol
for e
ar m</w>
M on
wor l
viol ence</w>
v an
tý den</w>
put ting</w>
obje cts</w>
ně kde</w>
invol ved</w>
děl al</w>
cel á</w>
au tor
ac tive</w>
ž ky</w>
y -
wat ching</w>
to wards</w>
stro je</w>
pro per
pohy b
po moc</w>
pe ace</w>
ová n</w>
organiz ace</w>
odpo ví
oby čej
ob tí
m el
m ap</w>
in se
fre e
en s</w>
dělá te</w>
dr amat
dostat eč
c lear
b it
ř ilo</w>
č len
č i
vy h
visu al</w>
ver z
tou to</w>
sur g
scienti fic</w>
prav du</w>
particul arly</w>
pa in</w>
ov šem</w>
nu clear</w>
nav í
mor al</w>
ma th</w>
leg al</w>
ko ho</w>
kam ar
dn é</w>
at ures</w>
1 ,
č a
y ond</w>
věd ci</w>
proje cts</w>
ová na</w>
ne můžeme</w>
ne cess
ici an</w>
h it</w>
con cer
bo y</w>
be yond</w>
archit ek
zná te</w>
zná me</w>
vál ky</w>
prů mysl
použí vají</w>
po stup
naví c</w>
mysl íme</w>
mu že</w>
l en</w>
kap it
inter netu</w>
do kt
de ter
c over
c enti
ac ity</w>
N A
z ar
tal ked</w>
sym bo
sr dce</w>
pro cent
prac oval</w>
nov á</w>
nic tví</w>
miliar dy</w>
me ch</w>
li v</w>
ent y</w>
certain ly</w>
ag </w>
P au
L u
G er
vá dí</w>
v ul
rod iny</w>
počíta č</w>
pot k
pochop it</w>
mon th</w>
mis sion</w>
m ž</w>
it el</w>
dů vod
activ ity</w>
B r
va šeho</w>
spo ko
sh e
s bí
pt á
prob í
potenti al</w>
mo dr
li gh
kdy bychom</w>
k ých</w>
jmé na</w>
e ff
dů sled
do stup
di sku
desig ned</w>
camer a</w>
av es</w>
a h
ř il</w>
ved le</w>
u po
stá ty</w>
speci al</w>
r ing</w>
pic k</w>
p it
o gen
ná pad
mů žou</w>
lí me</w>
inter est</w>
indu stry</w>
bre ak</w>
F ace
B er
řík ali</w>
zá j
we b</w>
w all</w>
tr é
technologi í</w>
simil ar</w>
pos í
mno ho
mal á</w>
m ci</w>
k al
id enti
gre at
fin i
e ties</w>
dáv at</w>
do mov
d ings</w>
d ence</w>
ck ed</w>
cest a</w>
E ast</w>
19 7
říd it</w>
zpráv y</w>
vý zv
v ra
u se
sur pris
skup ina</w>
rozhod li</w>
ri sk
pos itive</w>
op ak</w>
obráz ky</w>
mo ř
min ds</w>
la un
jour ney</w>
jo y</w>
jak ou</w>
imp act</w>
i er</w>
gra f
Twit ter</w>
Sou th</w>
M i
z bran
vnit ř
sto od</w>
sever al</w>
pě k
pu b
produ ct</w>
potřebu jí</w>
kt ů</w>
expe ct</w>
exam ples</w>
do or</w>
do ma</w>
co koliv</w>
bu b
an e</w>
ad s</w>
AI D
ž r
výzku mu</w>
vrá tit</w>
tomu to</w>
spoj ení</w>
se par
re cy
pě st
podn i
okam žit
o sa
ne bezpeč
mluv ím</w>
lid ského</w>
k amer
inter net</w>
grap h
fol low</w>
demon str
d av
che mi
br at
ar ily</w>
zač ne</w>
z mí
technologi i</w>
sv ými</w>
stv a</w>
se zna
ri ch</w>
r is</w>
naš li</w>
mas s</w>
k men
ici ans</w>
grou ps</w>
f aster</w>
dy nam
de ad</w>
com b
cho ose</w>
cel á
c ause</w>
b rá
Wi ki
W est</w>
Indi i</w>
2 4</w>
ží te</w>
zjist il</w>
u živ
tot ally</w>
skup iny</w>
re ach</w>
projek tu</w>
pravid la</w>
poin ts</w>
nástro je</w>
li l</w>
klí č
jmé nem</w>
is mus</w>
hist orii</w>
fac es</w>
ev ent
elek tř
děl ám</w>
cí tit</w>
carb on</w>
cal cul
b le
Z em
Fran ci
B raz
š ku</w>
za chrá
vě dy</w>
vzta h</w>
succe ss
su d</w>
sta čí</w>
sm art</w>
ple ase</w>
měst o</w>
mach ines</w>
hl ou
g l
fortun ately</w>
do slova</w>
de ep
cond itions</w>
chá p
bas ic</w>
voj á
v ic
umě le
t ili</w>
stro j</w>
správ né</w>
situ aci</w>
scre en</w>
ru š
po dě
patter n</w>
ob čas</w>
myš lení</w>
mi lit
mean ing</w>
le ad</w>
kan celá
indu stri
im pan
g ot
favor ite</w>
dří v</w>
com for
an iž</w>
J ap
z pě
y ers</w>
wa it</w>
u dr
susta in
st itu
ru ku</w>
příležit ost</w>
pří stup
ob nov
ně kterých</w>
nábožen ství</w>
lin es</w>
li st</w>
l er
il ing</w>
high -
fun gu
ep ing</w>
ch ron
ar t
ad í</w>
ad ap
AID S</w>
ř ád
č ních</w>
í k</w>
ver sion</w>
studi es</w>
sek un
představ uje</w>
phys ics</w>
on e
m p</w>
list ening</w>
kom u</w>
ka z</w>
issu es</w>
ine se</w>
im a</w>
ig nor
hlav ně</w>
dev ice</w>
big gest</w>
allo wed</w>
ad es</w>
H e
zá žit
va z
th ro
st ay</w>
smysl u</w>
sh ap
secon ds</w>
pří jem
přesvěd č
pře kon
podob né</w>
part ner
ot ec</w>
ne w
m it</w>
m am
lo stí</w>
in d
in come</w>
in al</w>
high er</w>
h my
g ent
fur ther</w>
fo ot
en ter
ch ance</w>
c y</w>
appro ach</w>
a ro
Uni versity</w>
TED u</w>
S an</w>
R ich
čísl a</w>
wel l-
wan ts</w>
tr ag
there fore</w>
t au
stře dní</w>
soci eties</w>
sig ná
se a</w>
rá mci</w>
přit om</w>
prac ují</w>
obtí ž
ko st</w>
job s</w>
jak á</w>
hor ší</w>
fi gu
bo dies</w>
any way</w>
an tly</w>
3 D</w>
wor se</w>
vzá jem
sl un
sc ape</w>
sa fe</w>
po div
ová ny</w>
obvy kle</w>
mov ie</w>
it ivní</w>
im medi
ear li
du ce</w>
dre am</w>
dn ích</w>
den ně</w>
deci sions</w>
comp lic
cep tion</w>
w ind</w>
vi zu
uč in
tau ght</w>
sho wing</w>
příbě hu</w>
př ist
pou žití</w>
po čá
po ver
po ko
otev řen
ot e
o be
ně ji</w>
nal ez
lu je</w>
le c
insp ir
en ě</w>
b ru
b lá
ast ron
ari é
ac tions</w>
S i
ů v</w>
zvlášt ní</w>
zem ř
writ ten</w>
v il
stor e</w>
sig n</w>
rychle ji</w>
re pres
pro mě
planet ě</w>
ous ness</w>
no ci</w>
mlu víme</w>
l ate</w>
jíd la</w>
er ous</w>
en ding</w>
e co
druh ů</w>
cre ative</w>
an í</w>
In die</w>
ř ili</w>
za chy
to ol</w>
teach ing</w>
st ers</w>
spo čí
si ght</w>
regi on</w>
r ace</w>
při chází</w>
oč i</w>
ovan á</w>
oprav dov
neuvěřitel ně</w>
mo ment
mag net
kr ab
každ ém</w>
im possible</w>
ick s</w>
ester n</w>
ep ide
d ání</w>
ck é</w>
ch ž</w>
c razy</w>
Is ra
E gy
B ill</w>
1 7</w>
ztr at
z mi
wi se</w>
vě da</w>
vez me
v ti
te mp
t ors</w>
st y</w>
s end</w>
nal é
me k</w>
m í</w>
h om
event ually</w>
dovol te</w>
dig ital</w>
as pe
C ity</w>
zept al</w>
tru st</w>
tru m</w>
stra ch</w>
slov y</w>
roz voj
problé mu</w>
pr ak
p age</w>
oč ek
od pad
net work</w>
mě ří
mat ka</w>
gr as
fo cu
excit ing</w>
ex pla
dě tem</w>
convers ation</w>
contin ue</w>
an á</w>
Z á
T V</w>
R i
H o
úrov ni</w>
změ ní</w>
z ích</w>
stre et</w>
spe aking</w>
s we
pů vod
p ó
p tion</w>
ot a</w>
ol der</w>
obrov ské</w>
nam ed</w>
m oun
jas ně</w>
imag in
Zem ě</w>
Ch inese</w>
základ ě</w>
zdravot ní</w>
v liv</w>
ur s</w>
u pří
tr áv
to wn</w>
ti sk
sled ovat</w>
sl ab
sig nific
pří j
produc ts</w>
prac uje</w>
pr y
ph enom
jin ými</w>
hist orie</w>
fi re</w>
f fe
důvod ů</w>
dlou ho
d ně</w>
cest ě</w>
bí l
bab ies</w>
C O
živ oč
ší me</w>
zvíř ata</w>
vz al</w>
umož ňuje</w>
sur pri
sou hlas
sna žíme</w>
skuteč né</w>
růst u</w>
resul ts</w>
prů bě
or em</w>
ob čan
ma in
m ely</w>
il u
gre w</w>
dé l
b or</w>
ang lič
ad u</w>
V el
M e
větš inu</w>
u r</w>
tru ly</w>
st ed</w>
sol ar</w>
skr ze</w>
seri ous</w>
s ent</w>
ri se</w>
při šla</w>
podíve jme</w>
os op
mí stech</w>
mez iná
j á
is mu</w>
incre ase</w>
go al</w>
em plo
electr icity</w>
chy tr
c iti
be ings</w>
argum ent</w>
4 00</w>
ř iv
zů st
zn alo
změ nu</w>
z vy
wi de</w>
vyt vo
ver s</w>
užit eč
t ila</w>
t ation</w>
systé my</w>
s ell</w>
pů j
přede vším</w>
ovan ých</w>
op at
ob last</w>
mnoho krát</w>
li es</w>
k ó
jící ho</w>
famili ar</w>
contro l
ci es</w>
Y ou
Afgh an
200 8</w>
š ť</w>
vý sledek</w>
vzdál en
uvědo mil</w>
tě m</w>
sup posed</w>
student i</w>
sor ts</w>
rozdí l
rov é</w>
re mark
r ely</w>
prv ním</w>
pover ty</w>
plast ic</w>
or m
nic méně</w>
ne může</w>
ne měl</w>
lead ers</w>
každ ou</w>
k ovat</w>
k ill</w>
jedno m</w>
jas né</w>
inf lu
i í</w>
ho w
eff ici
do stane</w>
do sa
de s
con vin
cest y</w>
c as
b es</w>
G u
úko l</w>
we ight</w>
vyj ád
vy ví
tr a</w>
t ým</w>
some how</w>
sed m</w>
s en</w>
ro li</w>
pracov ní</w>
plan ety</w>
phil osop
pas s
liv é</w>
kaž do
je jí
hra je</w>
fin ding</w>
essenti ally</w>
dri ving</w>
dov ed
do w
diag no
d augh
cont ent</w>
be es</w>
V á
čty ř
á ny</w>
zlep š
věř it</w>
vě dí</w>
rop y</w>
ro man
re por
podí váme</w>
perspe ctive</w>
pe m</w>
okamžit ě</w>
obraz ov
nar az
muž ů</w>
kni hu</w>
im es</w>
how ever</w>
hodn é</w>
gener al</w>
extra ordinary</w>
expen sive</w>
druh ého</w>
bu jí</w>
Ge or
žádn ou</w>
ší mu</w>
závi sl
wi fe</w>
vyře šit</w>
usu ally</w>
st voř
osob ní</w>
nej lep
nedáv no</w>
ko le
g t</w>
free dom</w>
extre mely</w>
dů kaz
ca ses</w>
by t
ar má
aliz ed</w>
W ash
D er
š ky</w>
ú da
zvíř at</w>
zač nou</w>
vypad at</w>
vlá dy</w>
u ju</w>
tv ím</w>
tre at</w>
t am
t al</w>
schop nosti</w>
s fé
př el
pry č</w>
pos un
po kro
om s</w>
obli če
nu l</w>
nej důležitější</w>
naš ím</w>
mas sive</w>
kom bin
kl ad</w>
i al</w>
fundament al</w>
e br
develop </w>
buně k</w>
beau ty</w>
b la
am ong</w>
ac ci
Afghan istan</w>
vz ali</w>
vidě la</w>
vaš i</w>
takov ou</w>
stov ky</w>
s ví
roz děl
re ag
ran ge</w>
překvap iv
po ps
pl us</w>
ná pady</w>
milit ary</w>
med ical</w>
kter ému</w>
kov ý</w>
jin á</w>
ick ými</w>
hodnot y</w>
heal thy</w>
h am
gh tly</w>
c la
au ton
af fe
4 5</w>
19 6
š ti</w>
zab í
z ne
u ne
tě mto</w>
stá tech</w>
stu pu
speci f
sho wn</w>
sel y</w>
s sion</w>
s at</w>
ro vá
pí s
pre v
pr int</w>
plan e</w>
peri od</w>
op </w>
ob raz</w>
o id</w>
ná sob
na pl
kou sek</w>
kdy bych</w>
hran ice</w>
h ur
g las
f our
expl or
dn ím</w>
din osa
c ris
c ra
ak es</w>
M an
ú č
z bav
vr ch
u ses</w>
sí lu</w>
se m
s un</w>
pří tel
pro poj
ov ě
od mě
násil í</w>
na pří
měr ně</w>
logi st</w>
kon z
k vět
k on</w>
inte gr
evol ved</w>
el low</w>
conne ct</w>
bun ch</w>
archit ec
any more</w>
an ci</w>
a h</w>
Mich a
M us
C am
řík at</w>
úspě ch</w>
význa m</w>
vyrá bě
viru s</w>
trad itional</w>
tr á
ru kou</w>
revolu tion</w>
př iná
použí váme</w>
použí vá</w>
patter ns</w>
ner oz
n ul
me ant</w>
individu als</w>
gi e</w>
g ri
dal ším</w>
cap acity</w>
b and</w>
as su
W estern</w>
J uli
z ji
vě ří</w>
výzku m
vytvoř il</w>
vill age</w>
udr žitel
té ma</w>
sí ly</w>
slu ne
skr z</w>
sh ro
r á</w>
pub lik
polic y</w>
o znač
nav zájem</w>
měsí c</w>
mí st</w>
leg s</w>
kol a</w>
human ity</w>
fam ous</w>
en orm
dokon al
cí tí</w>
con stru
compe t
c ad
ab ove</w>
Wash ing
Ch ris</w>
$ </w>
čí te</w>
vývo j</w>
vý bě
v lo
tro j
sí la</w>
star s</w>
součas nosti</w>
sa mo
recogni ze</w>
ně čeho</w>
napří č</w>
na slou
in ách</w>
ici al</w>
h ic
h ají</w>
grad u
emot i
con sum
cho ices</w>
ag en
ad d</w>
a i
1 50</w>
ří zen
z bo
y l
vý chod
ul ti
tr h</w>
thous and</w>
ta jem
stv o</w>
stan d
oč í</w>
on e-
oh led
obje ct</w>
n ila</w>
mé di
me ta
matem at
for man
em a
el o</w>
ear s</w>
e th
dostat ek</w>
cí tím</w>
consci ousness</w>
c lin
br zy</w>
bez pe
ab sol
W e</w>
S a
B ar
ší te</w>
zá ch
zač alo</w>
win do
význa m
trav el</w>
thr ough
stran ge</w>
při pad
představ u</w>
pro cház
organiz ation</w>
open -
mí t
mysl ela</w>
m ic</w>
logi i</w>
kov ých</w>
g er
fanta stic</w>
con tribu
ch ir
ak s</w>
ac ím</w>
škol u</w>
ře d
ň ovat</w>
wo od</w>
wh er
tu je</w>
thre e-
tal ks</w>
st em</w>
ser ve</w>
produc tion</w>
pr áz
po pu
nov ého</w>
nej de</w>
ne existuje</w>
na roz
mal ou</w>
li ghts</w>
k ce</w>
j ení</w>
h nutí</w>
h as
gener ace</w>
f ran
contin u
ce ch</w>
T it
D r.</w>
1 .
č ů</w>
zen s</w>
vše mi</w>
subje ct</w>
star ší</w>
skvěl ý</w>
sho t</w>
pl an</w>
per forman
ní ku</w>
man ag
mag ic</w>
le ch</w>
l ně</w>
je ž</w>
in for
extr é
excit ed</w>
dostan ou</w>
do ctor</w>
dn ic
de f
cen u</w>
bio logy</w>
at y</w>
V y
Nor th</w>
K ore
1 2
ř ů</w>
web site</w>
ver se</w>
tra ining</w>
speci fic</w>
smal ler</w>
respon se</w>
přibliž ně</w>
provi de</w>
pract ice</w>
poroz umět</w>
oun ded</w>
od bor
ná me</w>
nen á
mr t
mo ji</w>
lo w
le k</w>
er ci
earli er</w>
dáv ají</w>
do pad
dang erous</w>
d rop
d cer
cí l</w>
complic ated</w>
colle ge</w>
bakter ie</w>
auton om
Wiki pe
W al
T o
P al
K en
CO 2</w>
ů h</w>
země děl
z o
vypad ají</w>
tr ů</w>
te en
stá tů</w>
some where</w>
shi ps</w>
s low</w>
pu ll</w>
průbě hu</w>
prav ed
p ag
ot i
nauč il</w>
ke pt</w>
kdy byste</w>
intellig ence</w>
i ous</w>
hud bu</w>
extr a</w>
cris is</w>
comple x
co m</w>
chir ur
an ou</w>
an i
M in
A si
- year-old</w>
ž dě
úžas ný</w>
zají má</w>
vy bav
tý če</w>
tvů r
sto že</w>
st ří
pře stože</w>
partic les</w>
or it
ní me</w>
naš el</w>
moder ní</w>
kon f
k lo
i ční</w>
colle ag
clear ly</w>
bo ys</w>
allo ws</w>
ac ting</w>
Yor ku</w>
S ch
M at
Americ ans</w>
šk od
ú roveň</w>
vy vol
val ues</w>
to -
tin ě</w>
stej ný</w>
sta ro
spí š</w>
sh r
roz hov
ra ise</w>
obrov ský</w>
n one</w>
měsí ce</w>
mě nit</w>
mr tv
m ers</w>
lon g
konf lik
kon ec</w>
jist ě</w>
jin ou</w>
jedin é</w>
immedi ately</w>
hud ba</w>
h im
en ého</w>
dom ní
dire ction</w>
dal o</w>
ck et</w>
cel o
auto mat
ast ro
am b
NA SA</w>
I T</w>
H a
řeč eno</w>
vlá da</w>
ve k</w>
ve hic
u míst
roz vo
religi on</w>
prv ních</w>
par ad
p ping</w>
p av
p ast
ob serv
nit ř</w>
nech ci</w>
mluv ili</w>
m un
h ů
gre ater</w>
engine ering</w>
en ess</w>
dí vat</w>
dn ý</w>
con text</w>
bu ď</w>
bu t
T imes</w>
P or
M id
L o
I rá
H ig
velk ých</w>
tv ar
tran spor
than ks</w>
st vím</w>
ser ies</w>
sc é
s ů</w>
psycho log
postav it</w>
na prav
mobi le</w>
level s</w>
lar gest</w>
jí me</w>
inst al
ing ing</w>
fi ght</w>
ex cept</w>
dí tě
dn ů</w>
d ře
d ve
consi der</w>
col labor
care er</w>
buil dings</w>
arti st</w>
ar ri
an ts</w>
6 00</w>
1 5
změ na</w>
z rak
upo n</w>
success ful</w>
stati sti
situ ace</w>
scienti st</w>
s ent
ru le</w>
ra i
pře ce</w>
ov y</w>
os m</w>
on i
obje vil</w>
něj ším</w>
nástro j</w>
mod els</w>
mal ých</w>
m it
lar ger</w>
ko leg
incre as
est im
ent re
ent er</w>
en cour
e ding</w>
ch em</w>
c over</w>
b on
b ing</w>
atel e</w>
You Tu
z ovat</w>
won der</w>
vů d
vi sible</w>
ved lo</w>
ved l</w>
uděl áme</w>
tion ary</w>
su g
stav </w>
sk ými</w>
pr ene
ple as
p is</w>
o h</w>
ná le
krás né</w>
k ře
h ack
e ating</w>
důležit á</w>
dru gs</w>
dost ala</w>
dis appe
dire ctly</w>
de pre
d ance</w>
con cept</w>
cel ebr
c ot
bezpe čí</w>
a i</w>
W e
Th om
F i
č ila</w>
zer o</w>
ze jména</w>
z obraz
veli kosti</w>
treat ment</w>
tou ch</w>
te ř
t ová
struktur u</w>
stran u</w>
sk ills</w>
sig n
s pr
ro vání</w>
resear ch
progre ss</w>
prac ujeme</w>
pou h
p ick
otev ř
od stran
mar ke
m ate</w>
ku s</w>
jedin á</w>
ist ic</w>
him self</w>
he z
fa ir
el ess</w>
dokáz ali</w>
ast er
al though</w>
al ing</w>
YouTu be</w>
A l</w>
… </w>
zvlá ště</w>
za jist
we apo
vě cech</w>
tre es</w>
sear ch</w>
s atel
ra jí</w>
r as
při způsob
pozor u
pod por
ne musí</w>
ne mohl</w>
ne bo
n on
minu losti</w>
lár ní</w>
li že</w>
kl in
k ry
k le
k arié
hu st
hrá l</w>
entre prene
ener get
em p
dů m</w>
dou b
di spo
c ov
c lou
aw are</w>
an ci
ali ve</w>
2 1
řek něme</w>
áni stá
z ve
z ra
we al
ven tion</w>
v ot
ter or
sup p
strán ku</w>
společ ností</w>
rov ol
r ou
proce su</w>
pro pojen
performan ce</w>
p es</w>
ome zen
na opak</w>
n ovat</w>
mož ností</w>
mon it
materi ál</w>
liv ě</w>
kro mě</w>
k lid
it iv
fotogra fie</w>
fo ot</w>
far má
ex ist</w>
dnic tvím</w>
de sp
cor re
ci on
bo hu
bl ind</w>
any where</w>
3 5</w>
vy žad
vul ner
va jící</w>
sí tě</w>
surg ery</w>
sp á
sou cit</w>
s is</w>
prostře dnictvím</w>
prac ovali</w>
po chází</w>
organ is
ohled ně</w>
o ž
not ic
nej větš
nad šen
míst ní</w>
le jte</w>
jest liže</w>
inv ented</w>
h ání</w>
dob rovol
curr ent</w>
cre ativity</w>
ak ce</w>
čí n
zdro jů</w>
z z
vý kon
t la
su e</w>
se em
pokrač ovat</w>
on o</w>
ně ž</w>
k ty</w>
k de
iv ed</w>
inclu ding</w>
in ci
hosp ital</w>
ho ře</w>
hled at</w>
great est</w>
for get</w>
de si
co ffe
bir ds</w>
ar tic
ag ree</w>
ac ks</w>
J i
J ames</w>
še sti</w>
wer en</w>
vesmí r
un fortunately</w>
ti vi
ther n</w>
stan ou</w>
sp ac
slov </w>
sel ec
remark able</w>
re z
oprav dy</w>
nej prve</w>
ne možné</w>
na místo</w>
mor ální</w>
kon struk
ič ky</w>
intel ig
ident ity</w>
h led</w>
gr ade</w>
follo wing</w>
fi gh
er t</w>
enc ed</w>
dí me</w>
dv ac
do jde</w>
cí lem</w>
conne ction</w>
complex ity</w>
ch est
ati ves</w>
a sed</w>
ď te</w>
čet ně</w>
zpráv a</w>
zamy sl
v teř
určit é</w>
ter ro
sv ému</w>
strán ky</w>
serv ice</w>
při jí
pro vádě
oč e
oče ká
ok e</w>
nad ě
metr ů</w>
man žel
laborato ři</w>
k do
jin ým</w>
inter national</w>
ent ing</w>
bohu žel</w>
actu al</w>
Micha el</w>
A ri
áv ali</w>
wh ose</w>
vy sí
v četně</w>
tw o-
through out</w>
surpris ing</w>
student y</w>
st o</w>
st ing</w>
sna žím</w>
s lep
s -
re ach
nejs pí
mě r</w>
kil led</w>
jmé no</w>
j el</w>
ič ka</w>
hle di
h ru</w>
got ten</w>
f r
dow n
do opravdy</w>
deci sion</w>
d ate</w>
as soci
ad ul
ad dre
Rich ard</w>
Face book</w>
zásad ní</w>
z dá
vol un
v ak
univer s
under stood</w>
tw ice</w>
tvr d
stat es</w>
star é</w>
sh u
ra q
pl né</w>
par ty</w>
otáz kou</w>
op pos
od had
ne mohou</w>
na cház
měst ě</w>
myšlen ku</w>
mu set</w>
mu se
mi x
met ap
komp lik
j n</w>
fun ny</w>
for th</w>
fil mu</w>
fa il
en d
deci de</w>
cel er
T i
I raq
20 00</w>
zkušen osti</w>
vů či</w>
vytváře t</w>
vyso ké</w>
vo dem</w>
vari ous</w>
stru gg
st ick</w>
si v
si bly</w>
pur pose</w>
polit ics</w>
pa id</w>
ot u</w>
me th
le tě
l á</w>
grav it
fungu jí</w>
fi re
dí te</w>
cog n
chem ical</w>
cen y</w>
ant ní</w>
anci ent</w>
al es</w>
ab les</w>
R B</w>
O r
7 5</w>
ě h
Čí ně</w>
zamě ř
za prvé</w>
vě t</w>
vzpo mín
vy stav
ve get
use ful</w>
tr ack</w>
tem per
strá v
s ili</w>
rel ated</w>
recor d</w>
pohy bu</w>
nov á
ne moci</w>
ne jsme</w>
men d
medic ine</w>
lov ed</w>
li ber
l ý</w>
koup it</w>
iv a</w>
du š
dní ho</w>
con duc
ar ds</w>
anc ed</w>
af ter
a id</w>
S an
H u
An g
wal ked</w>
u hlí
tvr dí</w>
sustain able</w>
st ant</w>
shar ing</w>
qu ar
pří pad</w>
ps át</w>
pr ice</w>
poslou ch
oper ation</w>
na hoře</w>
kre sl
fe ed</w>
exist ence</w>
do ctors</w>
cul ar</w>
crit ical</w>
budov y</w>
bir th</w>
an ad
aktiv ní</w>
ac ie</w>
a jící</w>
O b
I zra
I t</w>
C om
Čí na</w>
zby tek</w>
za znamen
uděl áte</w>
terri ble</w>
stej nou</w>
squ are</w>
sp án
s an
robot a</w>
real iz
r itu
r ic</w>
pro zkou
priv ate</w>
poč tu</w>
poda řilo</w>
ová no</w>
or ies</w>
obec ně</w>
ne byly</w>
kov ou</w>
ho dy</w>
grap h</w>
effe ctive</w>
communic ate</w>
commun ities</w>
char ge</w>
J er
Geor ge</w>
získ ali</w>
zav ol
wa iting</w>
w are</w>
u zav
tý dny</w>
tr valo</w>
tr ain</w>
survi ve</w>
sna žil</w>
rá ní</w>
ro čně</w>
ro ste</w>
pří tom
po le</w>
pl ý
pas s</w>
parad ig
ode hrá
oce ánu</w>
ná hod
nauč ili</w>
molecu les</w>
léka ř
lo g</w>
ju d
fl ying</w>
f light</w>
ex pan
ema il</w>
do le</w>
di plo
der ed</w>
cro w
cor por
communic ation</w>
clo ser</w>
ch tí
ch ec
b ou
av ing</w>
K on
Ar ab
Afgh ánistá
změ nil</w>
wor ry</w>
vzdu chu</w>
vod a</w>
vní mání</w>
u vol
tý ká</w>
trou ble</w>
tran spar
tot y
sli ghtly</w>
shar ed</w>
rozdí ly</w>
re duc
pro toty
pro spě
ne mo
k er</w>
inter act</w>
hodnot u</w>
ho t</w>
fa jn</w>
f ing
em br
dlou h
differ ences</w>
d ad</w>
cre ates</w>
co sts</w>
an alo
aliz ation</w>
T e
B ri
ší len
čt ver
í ho</w>
z pí
z au
ty p</w>
stud ying</w>
sní m
scop e</w>
s op
s ice</w>
radi o</w>
pře du</w>
popul ar</w>
pla yed</w>
pl ný</w>
pi ec
ná rodní</w>
neur ons</w>
mi r
in stance</w>
finan cial</w>
et u</w>
dru g</w>
dobr ou</w>
do g</w>
dec ades</w>
chod it</w>
ch lá
bu s</w>
app lic
ad em
D an</w>
B ůh</w>
šen ím</w>
š né</w>
á tek</w>
změn ilo</w>
ver sus</w>
té mat
ten den
techno log
ta jí</w>
struktur y</w>
sli de</w>
rov něž</w>
rat ic</w>
ra id</w>
phenom en
ostat ními</w>
ome z
ne myslím</w>
ne byli</w>
milió nů</w>
me eting</w>
ma z
le ch
jed ine
inspi red</w>
hear ing</w>
govern ments</w>
gen es</w>
fung ovat</w>
emoti onal</w>
el e</w>
efe ktiv
druh u</w>
daugh ter</w>
con fli
coffe e</w>
chil d
atmo sfé
ar ab
N i
ál ů</w>
zap lat
tu al</w>
takov ých</w>
sur r
sk len
po sti
pa th</w>
obvy kl
ob a</w>
o ther
in je
hra jí</w>
hod inu</w>
dv ak
do pad</w>
dise ases</w>
dese ti
confli ct</w>
con clu
ch ovat</w>
c ode</w>
a head</w>
a -
X </w>
V ir
N ob
20 .</w>
ří t</w>
vě zení</w>
vy bud
vol by</w>
ven ku</w>
ve změ
tvá ř</w>
tra ff
t ov
t ask</w>
stan ces</w>
snad no</w>
slyš et</w>
robot y</w>
rad ěji</w>
r ay</w>
o es</w>
normá lní</w>
na hrá
n ur
my st
kl as
im provi
hr a</w>
g as</w>
g an
fo s
famili es</w>
ent ní</w>
enorm ous</w>
dvak rát</w>
dr ží</w>
dokáže te</w>
dn ou</w>
dlouho dob
cul tural</w>
cri min
comfor table</w>
bio logical</w>
anc y</w>
S ever
S atur
J a
G al
Dar win</w>
A d
čí s
z ing</w>
vytvoř ení</w>
vy nále
vid itel
typ es</w>
tri al</w>
st om
rych lost</w>
roz um
qu ick</w>
problé mem</w>
podmín ky</w>
piec es</w>
pas sion</w>
on ing</w>
m ně
i ron
ho ž</w>
hlav u</w>
f it</w>
dol lar</w>
d voj
con sequ
chy by</w>
bar vy</w>
b ol
b its</w>
astron om
an ých</w>
af raid</w>
adv ant
ad d
a ční</w>
Ste ve</w>
Mid dle</w>
H </w>
F re
Char les</w>
A p
žen u</w>
ý b
á k</w>
závi slo
zpě t
vrá til</w>
vo z
t ka</w>
sí ť</w>
stan tly</w>
secre t</w>
s wi
při mě
práv o</w>
pres sed</w>
pos sibly</w>
po tě
partic ip
p ped</w>
opti mi
och ot
ní ka</w>
ná klad
ne ví</w>
mo m</w>
mo jí</w>
minul ý</w>
la w
l ying</w>
iv er</w>
in centi
fun ction</w>
for mu
fi kov
ev ent</w>
dra w</w>
do stá
do ku
do cum
de jte</w>
con su
bro ken</w>
b ought</w>
W h
T ur
zá ležit
z vyš
z lat
vz e
u z
to ři</w>
te prve</w>
t ree</w>
st řel
solu tions</w>
sk op
ri ghts</w>
pří rod
per form
pat ří</w>
p í</w>
ound ation</w>
ně čím</w>
ná klady</w>
notic ed</w>
nesmí rně</w>
lo wer</w>
li li</w>
ke ys</w>
k ní
inde pen
impro ve</w>
har d
f ying</w>
experim ents</w>
elek tro
do chází</w>
cti vely</w>
col lap
cle an</w>
citi zens</w>
cit u</w>
c ure</w>
by d
aci on
P aci
N ig
M IT</w>
I ran</w>
ži jete</w>
č tí</w>
zá bě
za hran
wil ling</w>
u prav
to x
sp ad
součas né</w>
slun ce</w>
s pl
roz měr
ro t
produc ed</w>
pos ed
pohy b</w>
pamě ti</w>
p ig
or a</w>
op ust
nějak á</w>
n uje</w>
mí ru</w>
kultur y</w>
ku je</w>
itu de</w>
i Ph
fil oz
figh ting</w>
environ mental</w>
ef for
eb o</w>
duš ev
cí til</w>
be coming</w>
bal ance</w>
ap art</w>
ab str
S cho
Mex ic
Evrop ě</w>
Brit áni
20 10</w>
1 7
žen ou</w>
áv al</w>
zá kaz
zkušen ost</w>
z ně
y a</w>
vá š
vybr at</w>
ta ins</w>
statist ics</w>
společ ného</w>
sou tě
shi ft</w>
re pe
pro ti
pou žit
po měrně</w>
plá nov
no stech</w>
ne ar</w>
n ation</w>
n ali</w>
mé dia</w>
musel a</w>
min i
medic í
m hle</w>
lí bí</w>
lid ských</w>
ká lní</w>
k ého</w>
ju jí</w>
jednoduch ý</w>
it ation</w>
ic í</w>
fir my</w>
enti al</w>
dov nitř</w>
dostateč ně</w>
de set</w>
chtí t</w>
Spojen é</w>
M u
š ek</w>
zran itel
zaměst nan
vz ruš
učitel é</w>
ur a</w>
tre mend
tom hle</w>
sup por
sly šel</w>
složit é</w>
si des</w>
s wit
publi shed</w>
prote ct</w>
pi su
oppos ite</w>
ne budu</w>
le ts</w>
ku m</w>
kon tak
ko ž</w>
j eli
jeli kož</w>
iv é</w>
hy dro
hod no
fe els</w>
el e
dů vodu</w>
dět ství</w>
d rob
a ther</w>
W illi
W ar</w>
J u
š est
č ního</w>
č er</w>
zku sit</w>
z en</w>
vysvět lit</w>
vaš em</w>
tě z
t říd
t ko</w>
sum mer</w>
su m</w>
struc tures</w>
stre am</w>
stran y</w>
str av
sor ry</w>
scri pt</w>
re -
r av
pomá há</w>
poli ci
po v
part ner</w>
obsa huje</w>
obráz ku</w>
ob ě</w>
no hy</w>
nen a
mani pul
lé ky</w>
less on</w>
la ws</w>
l ot
i mi</w>
hlav ě</w>
for ces</w>
fa ir</w>
et c</w>
emplo y
elec tro
e th</w>
dob a</w>
dec ade</w>
d ané</w>
comple te</w>
cház et</w>
ch la
cen a</w>
bel ow</w>
adul ts</w>
ac cor
ac celer
W hy</w>
S we
Lon don</w>
Har v
E inste
A le
. com</w>
ž lu
át or</w>
vy bí
va hu</w>
ukaz ují</w>
u vidíme</w>
t ká
str eng
ss or</w>
sr d
spotře b
smr t</w>
r ů</w>
pu sh</w>
ph ones</w>
od kud</w>
obvi ous</w>
ni m</w>
nej víc</w>
most ly</w>
m ati
m .</w>
li ed</w>
l ay</w>
l ack</w>
ko st
ka jící</w>
jí st</w>
j ad
intro duc
hu s
hled ání</w>
g est
for my</w>
focu sed</w>
fli es</w>
fi i</w>
evolu ce</w>
dů vodem</w>
dru ž
de st</w>
bi ot
aliforni a</w>
Thom as</w>
S tre
L os</w>
Iraq </w>
D on
C alifornia</w>
B ron
Afric an</w>
200 9</w>
á no</w>
zpráv u</w>
ve čer</w>
ur ban</w>
t ina</w>
sur ve
st ar</w>
sp ending</w>
sol di
skuteč nost</w>
roz ví
ric ul
rel ev
re ma
práv a</w>
povr chu</w>
polov ina</w>
pod poru
mat ters</w>
li vo
land scape</w>
l on</w>
l av
kre ativ
ju je</w>
j du</w>
inse cts</w>
in iti
enti rely</w>
eas ily</w>
chá pe
car ry</w>
br illi
an gi
Tal k</w>
Indi an</w>
část ice</w>
úspě chu</w>
závě r</w>
zách ran
zač neme</w>
z jev
vě tr
tu jí</w>
sup er</w>
str ic
sti mul
s ně
s ad</w>
rostl iny</w>
re ve
prů zku
prac uji</w>
oxy to
ov ací</w>
ost rov
oh ledu</w>
o logy</w>
o le
náz or</w>
no c</w>
neu tr
ne víme</w>
ků že</w>
konkré tní</w>
kon fer
k av
jen že</w>
infra structure</w>
hmy z</w>
hel ping</w>
gra f</w>
dimen sional</w>
cri me</w>
cor ner</w>
c tiv
a we
N a
M il
zá zna
začí nají</w>
z nám</w>
worl d
v it
u skuteč
ther ap
syn chron
stop ped</w>
st aly</w>
služ by</w>
sexu al</w>
s praved
s ong</w>
ro l
ro kem</w>
re klam
ra in</w>
psy ch
pas sed</w>
p in
ou l
or chest
opti mis
ob se
ne arly</w>
kr at
k ém</w>
inter vie
hol ding</w>
h or</w>
h air</w>
fin al</w>
e ti
důležit ý</w>
differ ently</w>
degre es</w>
cre atures</w>
con fi
br inging</w>
b log
achi eve</w>
ac ts</w>
ac cur
Vá s</w>
M el
H ol
D u
žen ý</w>
Í rá
vyu žití</w>
t ání</w>
stand ard</w>
sle te</w>
sku tku</w>
serv ices</w>
se stav
se kt
rych lostí</w>
ro ck</w>
pří rodní</w>
před ví
po žad
po chyb
po bře
plan ets</w>
objev ili</w>
ně né</w>
ná zv
net works</w>
ne musíte</w>
mp tion</w>
mot or</w>
meta for
materi ály</w>
mat ely</w>
m out</w>
kon verz
k áv
hudeb ní</w>
hel ped</w>
genet ic</w>
ex ten
di vo
demokr acie</w>
class room</w>
c ům</w>
benef it</w>
ac emi</w>
absol ut
S mi
F </w>
2 1</w>
š ly</w>
ň ování</w>
západ ní</w>
z pomal
volun te
ven kov
ved la</w>
ved ení</w>
uživ atel
uděl á</w>
uděl ala</w>
student ů</w>
stra ight</w>
st ali</w>
snad né</w>
sch iz
rod ina</w>
respe ct</w>
pomal u</w>
po kou
po de
p el
ová ni</w>
ot y</w>
organiz ations</w>
organ ic</w>
or ed</w>
on ym
nepo ko
m m</w>
long -
langu ages</w>
jí te</w>
jednodu š
jad er
i P
h ád
h ome
g ers</w>
fu el</w>
f ra
f low</w>
effe cts</w>
dispo z
de stro
d ying</w>
d .</w>
chec k</w>
ber g</w>
ba se
ati vely</w>
Jap an</w>
Ja pon
J an
D en
řad ě</w>
zlo č
z odpověd
windo w</w>
vi br
ved ou</w>
usu al</w>
uni que</w>
tu ře</w>
telef on</w>
tal ity</w>
t el</w>
shar es</w>
roz hodně</w>
respon sibility</w>
re mot
prote in</w>
pris on</w>
photograp h
oxyto c
ov o</w>
op in
oc cu
nez byt
nazý váme</w>
m ale</w>
lo ss</w>
l au
jist ý</w>
high ly</w>
gh t
gent le
finan ční</w>
fe ed
fac ts</w>
f old</w>
ex erci
eko log
dět mi</w>
dá r
dob ro
dlou hou</w>
car to
beli ef</w>
bas is</w>
att ack</w>
atmo sphere</w>
ag re
a č</w>
J </w>
řek nou</w>
ře č</w>
úžas ná</w>
zel en
vč ely</w>
vnitř ní</w>
v skutku</w>
u h
tv or
tur ning</w>
traff ic</w>
tot al</w>
stá r
strá vil</w>
st ron
sion ate</w>
signific ant</w>
sdí let</w>
roz ho
re cent</w>
přemýš líme</w>
pravděpodob nost</w>
open- source</w>
odliš né</w>
neigh bor
ne máte</w>
min im
me at</w>
low -
li cen
l or
glas s</w>
em pa
defin ition</w>
colleag ues</w>
blíz ko</w>
ali st</w>
ag ricul
Pau l</w>
Br iti
A sia</w>
1 4
č ný</w>
át ých</w>
z or
ys is</w>
vál ce</w>
vaš ich</w>
v é
tr hu</w>
tr ade</w>
to ler
syst em
strate gi
rep lic
r ou</w>
pozo rov
po hod
pain ting</w>
o slav
ní ž</w>
nav ští
manu fac
m or</w>
lid ská</w>
lead ing</w>
k nout</w>
hr din
h ují</w>
g ely</w>
expe ct
equ ip
en joy</w>
emo ce</w>
el es</w>
druh ým</w>
disc over</w>
di sci
cam pa
byto sti</w>
app ly</w>
angi ogen
aci i</w>
P ri
K i
K e
H ey</w>
Der ek</w>
Briti sh</w>
Au str
5 ,000</w>
ří dí</w>
čas op
ú mrt
z nak
y ellow</w>
vá ním</w>
vzpo mí
vy lep
vide a</w>
vi a</w>
val u
učitel e</w>
uděl ám</w>
u spo
teen ag
sty le</w>
reak ce</w>
příklad ů</w>
pře ká
publi kum</w>
po ško
po vz
po ně
pl u
pacient ů</w>
otáz ek</w>
nost mi</w>
nech ce
nazý vá</w>
nav ig
nabí zí</w>
na znač
mlad í</w>
maj ority</w>
m lá
l ovat</w>
kni ha</w>
jen ž</w>
je z
g ang
flo or</w>
fanta st
en se</w>
dispoz ici</w>
de sí
cu t
comp are</w>
com pon
charac ter</w>
benef its</w>
b illions</w>
at temp
am p</w>
accor ding</w>
Mus li
Isra el</w>
život ů</w>
žen o</w>
řek nete</w>
řad u</w>
zvu ky</w>
z veřej
wi s
weapo ns</w>
vy stoup
tová r
te orii</w>
t in</w>
stat us</w>
slune ční</w>
skuteč ný</w>
sh el
sav ing</w>
s ac
revolu ce</w>
r ying</w>
pre par
okamži ku</w>
ob y</w>
o dol
ně čem</w>
neuvěřitel né</w>
ne budou</w>
mě ru</w>
mi ssing</w>
meziná rodní</w>
marke ts</w>
mark eting</w>
le -
ju st
institu tions</w>
inov ace</w>
fem ale</w>
fascin ating</w>
eng age</w>
dív ka</w>
dokáz al</w>
doku ment
disci pl
deta il</w>
dese ti</w>
d li</w>
consci ous</w>
compar ed</w>
chví le</w>
child hood</w>
challen ges</w>
be at</w>
at d.</w>
ak er</w>
ak ci</w>
š ak</w>
řík ala</w>
ěj ších</w>
čer né</w>
zá ří</w>
w ear
vý ji
vyrob it</w>
ver ti
ter y</w>
ster e
sh ouldn</w>
se ts</w>
ri ch
respon sible</w>
religi ous</w>
rakov iny</w>
prou d</w>
poli ce</w>
po vím</w>
om o</w>
na stav
myšlen ek</w>
mor tality</w>
lid ský</w>
it ch
heal th
de m
cítí te</w>
ce mi</w>
bo x
av šak</w>
ar gue</w>
V al
T he
S cot
P á
G ol
Ameri č
6 5</w>
št ích</w>
člá n
áz i</w>
zač nete</w>
zač aly</w>
vý u
vzděl áv
vic ti
uč itel</w>
umí me</w>
tremend ous</w>
ta j
supp ly</w>
spoko jen
sp is
roz e
research ers</w>
re fu
ran dom</w>
přátel é</w>
připo mí
pro mise</w>
pro de
nej dříve</w>
mag az
lead s</w>
ku jí</w>
kra jin
kno wing</w>
kilome trů</w>
inten z
import antly</w>
il ní</w>
i on
hor iz
hi li
h ate</w>
gi ant</w>
figu red</w>
fail ure</w>
expl ore</w>
ex p
e u
dne ss</w>
di versity</w>
deep ly</w>
compet ition</w>
c é
bus ine
an der
En g
E x
zá kon</w>
wis dom</w>
vě du</w>
vy práv
u jte</w>
tříd ě</w>
typ ical</w>
ter ed</w>
temper ature</w>
tan e
tajem ství</w>
t ické</w>
t ical</w>
t at
svě tem</w>
seem ed</w>
reál ném</w>
pu s</w>
poz itivní</w>
pou žili</w>
pol y
ot oč
ostat ním</w>
ori th
ne zapo
li i</w>
k al</w>
inst in
ho mo
hle dem</w>
he im
gen e</w>
fore ign</w>
for mu</w>
far mers</w>
electr ic</w>
dro p</w>
dr y</w>
desp ite</w>
d ent
col d</w>
cogn itive</w>
ck ý</w>
ap er</w>
alg orith
W il
Q u
P r
P A</w>
N ational</w>
A t
19 </w>
ško l</w>
ě l
č et</w>
át el</w>
á ř
z rych
velk ým</w>
ulti mately</w>
u jících</w>
tře mi</w>
tře ch</w>
té hle</w>
tis sue</w>
the tic</w>
th row</w>
tex tu</w>
televi zi</w>
t ons</w>
sv á</w>
sil k</w>
rod in
ra dost</w>
přiná ší</w>
při šlo</w>
přemýšl el</w>
pt át</w>
psy chi
pre si
poz nat</w>
postup ně</w>
phenomen on</w>
ov ými</w>
on ic</w>
ob r
mu ze
mo ments</w>
me ters</w>
mathemat ics</w>
komun ity</w>
j eli</w>
influ ence</w>
imagin ation</w>
hus band</w>
hud by</w>
g ay</w>
emot ion</w>
dá ch</w>
do mu</w>
dimen sions</w>
con tr
co ok
amer ické</w>
aliz ace</w>
Scho ol</w>
S ar
P a
L a
K .</w>
Isl am
H ow</w>
B en
š anci</w>
ře te</w>
zdro j</w>
zastav it</w>
wor st</w>
vzta hy</w>
vy p
ve ment</w>
tv ar</w>
televi sion</w>
suff ering</w>
sk oč
sil né</w>
rozhod la</w>
rai sed</w>
př átel</w>
pro hlá
pre ss
pos sibility</w>
poroz umění</w>
podnik atel
pod po
po š
po vat</w>
plan t
org ans</w>
obla stí</w>
nej lépe</w>
nech á
nauč ila</w>
n ilo</w>
mu sc
lí te</w>
lu cky</w>
li dech</w>
kultur a</w>
kop í
kon ce</w>
k lik
h nout</w>
f ted</w>
de bat
chod u</w>
ch air</w>
be d
b al</w>
Zá pad
Vir g
Ne w
N ě
M al
Euro pe
Ch ic
200 6</w>
10 ,000</w>
ž ku</w>
š impan
án ů</w>
w ear</w>
vzta hu</w>
vyvinu li</w>
vyprávě t</w>
virtu al</w>
ved li</w>
te -li</w>
star á</w>
se dí</w>
ro oms</w>
relation ships</w>
re duce</w>
pře žití</w>
pí sm
po e
nar r
nadě je</w>
na jdete</w>
lid stva</w>
kri ze</w>
kr it
kontro lu</w>
ist a</w>
hy per
he at</w>
g am
fas hi
el ed</w>
domá cí</w>
di stance</w>
demokr at
cy cle</w>
cu k
con ference</w>
co koli</w>
cap able</w>
blí ž</w>
as po
an n
alg orit
advant age</w>
Washing ton</w>
š pi
ří z
čá ste
zá sob
zjist ila</w>
zač átek</w>
z heim
y ch
vytvá ření</w>
vyso ce</w>
vy z
univer sity</w>
umož ní</w>
tro šku</w>
tri als</w>
to s</w>
to i
sv at
sur ge
st a</w>
smě ř
skup inu</w>
sho es</w>
sexu ální</w>
růz nými</w>
rov nová
re port</w>
rakov inu</w>
ps al</w>
prof it</w>
probí há</w>
podí val</w>
okamži k</w>
ob ou</w>
nov iná
neg ative</w>
ne moc</w>
ne ed
mov es</w>
mat ky</w>
m av
le dem</w>
l ů</w>
konkré t
komp let
kni h</w>
jed ná
je tí</w>
ho du</w>
hel d</w>
fi x</w>
fi f
f í
ev ents</w>
dé le</w>
cí ho</w>
centr al</w>
c les</w>
br ings</w>
behavi or
architec ture</w>
ar gu
ans wers</w>
U </w>
T his</w>
St an
S un</w>
S N</w>
Mar s</w>
B ang
Al zheim
A tl
200 4</w>
říká te</w>
ř ím</w>
ú z
áh nout</w>
zvlá šť</w>
z uje</w>
ves nici</w>
v čel
v enti
svět u</w>
su it</w>
sl í
skvěl á</w>
set kání</w>
s si
re di
r ates</w>
quot e</w>
příro dy</w>
pé če</w>
predic t</w>
prac tic
pochop ení</w>
po sto
po pisu
pa ir</w>
pa int</w>
other wise</w>
orig inal</w>
op s</w>
ok ra
nov ým</w>
not e</w>
nejspí š</w>
mem bers</w>
ky ně</w>
jo in</w>
ing u</w>
hosp it
ho pe
fre qu
epide mi
el eg
ear th</w>
deter min
dal šími</w>
dal šího</w>
cover ed</w>
control led</w>
comm it
comm er
chod í</w>
cal ls</w>
bir d</w>
aspo ň</w>
ap preci
anal ý
af r
Joh n
ED </w>
200 7</w>
19 5
. 000</w>
š ili</w>
člá nek</w>
člově kem</w>
ó n</w>
zr ak</w>
zni v
zne či
z větš
vti p
vo zí
veli kost</w>
tý dnů</w>
tur ing</w>
thin ks</w>
stu ck</w>
stre ets</w>
srov nání</w>
sr de
sp ust
sp id
sl o</w>
rel ea
představ iv
pr st
počá tku</w>
potřebu ji</w>
pos t</w>
plá n</w>
perfe ctly</w>
ní te</w>
nor m
ne věděli</w>
ne měla</w>
ne mohli</w>
ne koneč
mě st</w>
mo on</w>
mark et
mar ri
m l
liv u</w>
le té</w>
le tter</w>
kov á</w>
kou zel
it ely</w>
ing redi
in -
hrom ad
he d
gh t-
fa iled</w>
en tem</w>
em ber</w>
ed ge</w>
dov o
doká ží</w>
dn u</w>
dev ices</w>
descri be</w>
d ové</w>
col ors</w>
char akter
cau ses</w>
cap ital</w>
awe some</w>
at ta
ar ms</w>
an ebo</w>
ad minist
W at
T hat</w>
Mexic o</w>
K aliforni
H er
Bi g</w>
Afghánistá nu</w>
ž ka</w>
řed itel
zr cad
zjist íte</w>
zi sk
vě c
výji me
vý poč
vlast ních</w>
u číme</w>
tvá ří</w>
trad ič
th i
th -
sy mp
slo w
sk ry
si x
seri ously</w>
separ ate</w>
s mí
ri d</w>
re turn</w>
r ough
qu es</w>
pro vá
pro pag
postav ili</w>
pa ying</w>
oper ate</w>
oc cas
obla stech</w>
not ion</w>
no ise</w>
nemo cí</w>
meas u
l ou</w>
klimat u</w>
just ice</w>
iv o</w>
gr y</w>
galax y</w>
for ever</w>
fic ation</w>
f ram
employ e
du e</w>
de vět</w>
cor e</w>
ch ap
am ed</w>
ak e
We b</w>
Min ist
L in
Jo e</w>
2 2</w>
zvu ku</w>
způso buje</w>
znalo sti</w>
vysvět luje</w>
vo ices</w>
ul tra
ul ous</w>
tr vá</w>
systé mů</w>
survi val</w>
so il</w>
schop en</w>
s éri
s and</w>
roz lo
ro by</w>
pu ts</w>
program u</w>
phot os</w>
par k</w>
ovan í</w>
osob a</w>
okol í</w>
obje ví</w>
ob leč
necess ary</w>
ne funguje</w>
ne ch</w>
naš im</w>
n ou
mě stech</w>
moun tain</w>
mar ried</w>
liv er</w>
le gi
kultur ní</w>
k říd
k ři
k les
inter pret
in si
hel ps</w>
h la
g ain</w>
emot ions</w>
ech no
děl ala</w>
du je</w>
drž et</w>
dre ams</w>
dovo lit</w>
disc us
deta ils</w>
de pression</w>
dat ab
d den</w>
cor ru
ch lad
bre ak
ari an</w>
ar ma</w>
accoun t</w>
ac king</w>
U. K.</w>
P er
K or
J on
C D</w>
C .</w>
A li
1 6
1 ,000</w>
život u</w>
čer a</w>
zau j
we ir
vě novat</w>
výsled kem</w>
vy rov
vod ou</w>
vlast ním</w>
tě le</w>
t r</w>
st one</w>
spoust y</w>
spolu práce</w>
sp at
roz sa
pů l
přij dou</w>
předpo klá
pro mi
press ure</w>
pomá hají</w>
pok ry
pan e</w>
p li
oxytoc in</w>
ote pl
ob chod</w>
nějak ého</w>
naslou ch
mi x</w>
metap hor</w>
m illi
lo ad</w>
k ří
jin í</w>
iv al
it i</w>
inter face</w>
in o</w>
imp lic
ic ated</w>
hr d
he av
g lo
feed back</w>
er -
ef ul
econom ics</w>
eas ier</w>
e vil</w>
důsled ky</w>
dostan eme</w>
digit ální</w>
di sor
desi re</w>
descri bed</w>
demokr acii</w>
degre e</w>
dam age</w>
civiliz ation</w>
cir cum
cir cle</w>
ch ů
abili ties</w>
Vi et
V a
O x
Lon dý
I f</w>
F ren
200 5</w>
živoč ich
ž id
ří ch</w>
ři di
ča sem</w>
weal th</w>
w aves</w>
věc mi</w>
vy rost
vo c
val y</w>
vak cí
typ u</w>
trans form</w>
thou ghts</w>
t es</w>
stud ovat</w>
str at
sna žili</w>
sil ný</w>
přesvěd čit</w>
přednáš ky</w>
pé či</w>
psychi at
pre vi
prac í</w>
počíta či</w>
potenci ál</w>
podí vali</w>
pod ně
p un
ori í</w>
or ang
opportun ities</w>
ol um
nech al</w>
necess arily</w>
na chází</w>
me ter</w>
li la</w>
led ov
lad ies</w>
l ých</w>
ků ži</w>
ky ber
ke eping</w>
kat astro
kam en
invest ig
iPh one</w>
i lit
h am</w>
galax ie</w>
fru str
for est
follo wed</w>
fair ly</w>
ex change</w>
em ent
effici ent</w>
dí váte</w>
dá váme</w>
dostan u</w>
do kola</w>
deb ate</w>
de te</w>
de ser
con ver
cho rob
and -
an tu
addre ss</w>
Stre et</w>
P i
O SN</w>
M as
M ad
Egy p
C E
Ar ab</w>
ž et</w>
škol ách</w>
škol a</w>
á ty</w>
změ ně</w>
zlo čin
za ch
z t</w>
z em</w>
v an</w>
tě stí</w>
to ward</w>
telef on
takov é
svět el
svo jí</w>
stá tu</w>
spe ech</w>
souvi sí</w>
skup in
sho p</w>
shar k</w>
sh es</w>
re gener
re ch</w>
pos u
pol len</w>
plan ning</w>
papí ru</w>
p ounds</w>
ovan ou</w>
oper ating</w>
off er</w>
odpověd i</w>
ob ran
ná ch</w>
největš ích</w>
nej en
n ily</w>
mot or
molecu le</w>
kon čí</w>
k ly</w>
k ci</w>
ho spo
hed vá
gi ft</w>
fil led</w>
exper ts</w>
ex plan
ekonomi ky</w>
e mis
d ents</w>
cu stom
b ní</w>
al u
ad ult</w>
ac ked</w>
Sever ní</w>
Einste in</w>
C anad
zákon y</w>
zji šť
zept at</w>
zd ory</w>
zd arma</w>
začí náme</w>
x im
world wide</w>
vysvět lení</w>
vypad al</w>
vo jen
vlast nosti</w>
udrž et</w>
ste ps</w>
star ý</w>
sní mek</w>
sl ad
sit es</w>
s niž
respon d</w>
r ational</w>
pust it</w>
pre -
pravid el</w>
prac ovala</w>
pol lu
poku s</w>
pobře ží</w>
plac ed</w>
perfe kt
p iz
oč ima</w>
ot ce</w>
osob ně</w>
os au
orig ami</w>
organiz ed</w>
obtíž né</w>
ob klo
o sm
o ku</w>
new sp
ne tu
ne pře
naš těstí</w>
měří tku</w>
mí r</w>
mili onu</w>
me ňte</w>
me -li</w>
lo sing</w>
kv ant
kni ze</w>
ho les</w>
hl oup
fe el
doká žu</w>
desig nu</w>
desig ning</w>
de st
cí le</w>
charac ters</w>
cat ch</w>
br it
beg ins</w>
arti f
al -
ad ed</w>
Y </w>
W ow</w>
Fren ch</w>
B ob
Austr ali
9 9</w>
čt ení</w>
ý š
ál ními</w>
zůst at</w>
zna jí</w>
war ming</w>
vý raz
vý bor
vé d
vytvá říme</w>
vide os</w>
velk ého</w>
v ní</w>
u ch
tě les
tr pě
studi i</w>
slu š
sent ence</w>
sbí r
s ně</w>
roz vin
roz to
roz man
rozman it
příležit osti</w>
příkl ady</w>
příbě hů</w>
profe sion
pro ve</w>
pro found</w>
poz or</w>
povr ch</w>
potřeb ovali</w>
ot ic</w>
o ci
následu jících</w>
ni chž</w>
nav zdory</w>
nat ur
myšlen kou</w>
moz ky</w>
mon keys</w>
mno zí</w>
minu ty</w>
lun ch</w>
lim ited</w>
lead er</w>
konfer enci</w>
klád á</w>
k tu</w>
k ování</w>
jednoduch á</w>
jak ou
iz ol
im mun
i or</w>
h nu
g ang</w>
fun cti
fr ag
fi x
fac tory</w>
er ship</w>
equip ment</w>
eful ly</w>
dob ří</w>
di u</w>
d l</w>
c lic
brilli ant</w>
bole st</w>
bo j</w>
bi l</w>
as sem
ap par
af fect</w>
ad i
Pal est
G lob
Bi ble</w>
2 3</w>
špat ný</w>
ří cí</w>
zážit ek</w>
zná mé</w>
zapoj it</w>
zab i
z krát
wher e
vod ní</w>
vlá k
vi sit</w>
va st</w>
us ers</w>
un less</w>
tr val
ten s</w>
tem por
t ick
stre ss</w>
soldi ers</w>
so ft</w>
sezna m</w>
s mut
s a</w>
ro ll</w>
re ci
produk ty</w>
procent a</w>
poz nání</w>
power ed</w>
podni kání</w>
pochop ili</w>
p ir
ov u</w>
org an</w>
obyv atel</w>
ně mu</w>
nápad ů</w>
norm ally</w>
ne můžu</w>
na mi</w>
měsí ci</w>
mus lim
mot ion</w>
mod ely</w>
mo du
lá ska</w>
ká te</w>
kr ý
kon cept</w>
kon cep
komplex ní</w>
já dr
it es</w>
inter net
hor mon
fa il</w>
experi ences</w>
dě lit</w>
du jí</w>
dne ch</w>
di sa
den ní</w>
d anc
curr ently</w>
cre ation</w>
cra ft</w>
con centr
commer cial</w>
c to
av oid</w>
at eli</w>
ari a</w>
P ol
2 ,
1 3
č tě
é nu</w>
získ al</w>
z odpově
wh en
when ever</w>
wear ing</w>
vědeck é</w>
vytváře jí</w>
vyj ad
ti ch
t itu
t il
t an</w>
sud den</w>
st ation</w>
spoj it</w>
slow ly</w>
si ster</w>
sequ ence</w>
sdí lení</w>
samo stat
s w
re gre
prá v</w>
pl ate</w>
pe k</w>
part ment</w>
one moc
obrov ská</w>
ně komu</w>
ner ov
ne záleží</w>
ne s</w>
men tion
man aged</w>
letad la</w>
l ím</w>
kultur u</w>
kon kur
j un
it able</w>
in ner</w>
in dic
ici ous</w>
hor ri
hod in
hmot y</w>
has n</w>
gen om
ga ther
g lu
fini shed</w>
extre me</w>
ent ation</w>
efe kt</w>
dost ává</w>
din osau
de fine</w>
cy ber
cur ious</w>
cond ition</w>
cest ou</w>
c king</w>
bohat ství</w>
bo at</w>
bi zar
b ank</w>
W ar
R us
Pe ter</w>
P hili
O k
H ou
Europe an</w>
D o
D ani
C A
Ang eles</w>
čas .</w>
ú čel
změn ila</w>
zachrá nit</w>
x u</w>
work ers</w>
wh om</w>
we st</w>
vzruš ující</w>
vypráv í</w>
vyjad ř
vehic le</w>
ve ter
v las
uli ci</w>
t onu</w>
system at
stře du</w>
studi ed</w>
struktur a</w>
stej ná</w>
stav eb
spir it</w>
specif ically</w>
spe c
sibili ties</w>
rozhodn out</w>
pří ští</w>
při cház
projek ty</w>
program s</w>
pozo rovat</w>
poz nat
polit ické</w>
po hlav
planet u</w>
p ace</w>
oxy gen</w>
odpo věděl</w>
obliče je</w>
náhod ou</w>
ni koho</w>
neur on</w>
nej vyšší</w>
nej dřív</w>
k řiv
ival ent</w>
ist é</w>
inv ited</w>
intel ek
inform aci</w>
hvěz dy</w>
hrá li</w>
hlav y</w>
he avy</w>
gen y</w>
galax ies</w>
four th</w>
equ al</w>
engine er</w>
enc ing</w>
e ase</w>
důkaz y</w>
do poru
dlou hé</w>
deseti letí</w>
der ing</w>
ch ut
c ing</w>
busine sses</w>
bre a
br and</w>
bi e</w>
be k</w>
at trac
anti -
ak u</w>
TED x
S y
S lun
M r.</w>
K ev
Irá ku</w>
H en
Gre at</w>
F in
Afri ky</w>
- up</w>
žr alo
žr al
že k</w>
ň ů</w>
čast ěji</w>
č ním</w>
č em
způsob ů</w>
znamen alo</w>
zd i</w>
zbran ě</w>
z ó
věde c</w>
vě nov
vezme te</w>
uš et
utr á
ti hle</w>
t ovat</w>
t ough</w>
t lu
strate gy</w>
stav ět</w>
st ol
sol d</w>
shap es</w>
s ť
risk s</w>
revolu ci</w>
re k</w>
re action</w>
r ty</w>
přírod ě</w>
při poj
přes un
produ ktiv
poz em
polov inu</w>
po vol
ph ra
ov í</w>
obchod ní</w>
názv em</w>
nej horší</w>
mí ry</w>
men š
mat ic</w>
m ur
lin k</w>
lead ership</w>
le aving</w>
komunik ace</w>
kat eg
jin de</w>
jedin ou</w>
je jím</w>
j im
invest ment</w>
in ti
hodn ý</w>
gr as</w>
feel ings</w>
f ill</w>
f enom
f ab
experi enced</w>
exerci se</w>
eng ine</w>
emp ty</w>
elektr on
e ps</w>
de a
d la</w>
c ard</w>
bro ther</w>
bre ast</w>
bot tle</w>
b od</w>
au tis
associ ated</w>
arti sts</w>
ac tor</w>
a war
Viet na
S ing
L at
Ji žní</w>
Gre en
E l
2 50</w>
ře m</w>
ř ič
é ž</w>
 </w>
zajímav á</w>
z nepoko
vz hledem</w>
v stoup
tran sm
tr en
ter u</w>
t inu</w>
stup u</w>
stitu te</w>
sm ell</w>
sk s</w>
roz hraní</w>
rodi l</w>
rap id
příro da</w>
případ ů</w>
při cházejí</w>
přednáš ce</w>
př ání</w>
pu zz
prv ního</w>
pri vi
pri or
prav dě</w>
po tí
po bí
pe st</w>
p ení</w>
ot y
or et
obchod u</w>
neg oti
ne o
naš imi</w>
nat oč
naprav o</w>
n é
multi ple</w>
mo ře</w>
mist akes</w>
mar k</w>
let ý</w>
less ons</w>
každ ému</w>
k ot
je hož</w>
itel ně</w>
infor ma
industri al</w>
increas ingly</w>
illu str
id a</w>
i ky</w>
fin anc
equ ivalent</w>
dí ry</w>
dol ph
do k
discover y</w>
din ner</w>
di et</w>
del iver</w>
del fí
believ ed</w>
back ground</w>
ati s
ag ent
T ex
P S</w>
Ho ward</w>
H i
F er
Ameri čan
20 th</w>
0 0
žen á</w>
zajím at</w>
vě říme</w>
vá leč
vytvo ří</w>
vy zkouš
vy pořád
vod ě</w>
univers al</w>
umí te</w>
tří dy</w>
tu s</w>
trad iční</w>
to mor
tomor row</w>
te ku
sto ck</w>
st ab
st -
spo t</w>
sou část</w>
scen e</w>
py ram
pro cen
poz ici</w>
pohyb ovat</w>
ph an
per ce
pe c</w>
paral y
od mít
ně kým</w>
nal e
mě řit</w>
mou se</w>
m ní</w>
let ters</w>
k id
k ab
je zd
j dě
is on</w>
in visible</w>
impan ze
har der</w>
fi k
fal se</w>
e ct</w>
dve ře</w>
dosáh li</w>
dist in
di i</w>
de me</w>
cítí me</w>
cí tila</w>
cul tures</w>
con serv
con fu
chirur g
ch impanze
cau ght</w>
běž né</w>
bý vá</w>
b am
ang le</w>
an onym
ab sor
ab oli
P en
C hi
Ameri ky</w>
ř ila</w>
č ná</w>
závi sí</w>
zví ře</w>
zkrát ka</w>
zaměst n
vě jší</w>
vyžad uje</w>
ve če
utr at
upří mně</w>
tře s
těž ší</w>
tri p</w>
tr pí</w>
ti onal</w>
t ings</w>
symbo l</w>
studi í</w>
stro my</w>
stan ds</w>
st ávají</w>
spolu práci</w>
skvě le</w>
samot né</w>
sam y</w>
s ick</w>
rost ou</w>
rod inu</w>
rece pt
případ ech</w>
pá nové</w>
pozor nosti</w>
podě lit</w>
pamat uji</w>
ohro mu
odděl ení</w>
nech ali</w>
mé mu</w>
moleku ly</w>
mlad é</w>
mir ror</w>
mi k
matemati ky</w>
le jší</w>
klád at</w>
kdy koliv</w>
kamar á
ji chž</w>
jednotliv é</w>
j ších</w>
ir s</w>
inter view</w>
graph ic</w>
ge ome
fic tion</w>
expe cted</w>
evol uč
empa thy</w>
ekonom ické</w>
ef s</w>
econom ists</w>
e dy</w>
dí váme</w>
dn utí</w>
d ky</w>
comp li
ch vil
ch am
be ar</w>
ar ies</w>
anal ysis</w>
ac cept</w>
Ste war
S tu
S al
R wan
Q </w>
M ary</w>
Le on
Glob al</w>
F ri
9 5</w>
špat ná</w>
š ká
ň á
čet l</w>
úda je</w>
zásad ě</w>
z věd
z ou
was h
vš tě
vz ala</w>
vešker é</w>
ve jte</w>
ve du</w>
tu č
tu red</w>
tre ated</w>
tr ick</w>
suggest s</w>
sig nal</w>
shro má
sh ame</w>
sen ding</w>
s au
re ward</w>
r ural</w>
při spě
přen á
průmysl u</w>
pravid lo</w>
pla yer</w>
p al</w>
ovliv ňuje</w>
os u</w>
os ity</w>
orig in
obsa h</w>
ní kem</w>
následu jící</w>
ne ček
ne znamená</w>
napad lo</w>
n ations</w>
mů m</w>
mluv ila</w>
mat es</w>
marri age</w>
lá sky</w>
laun ched</w>
komunik aci</w>
ko ho
jící mi</w>
hypo the
hi dden</w>
h a
gro wn</w>
gen i
g u</w>
for má
fle xi
fascin ující</w>
ex pression</w>
every day</w>
eri a</w>
engine ers</w>
en jo
em bar
el im
el ements</w>
democ ratic</w>
consequ ences</w>
conne ctions</w>
con cep
co al</w>
civiliz ace</w>
ch ick
bu bl
b right</w>
b oun
b in</w>
aw ful</w>
au t</w>
atom s</w>
antu m</w>
ant ic</w>
altern ative</w>
M ě
M ac
H DP</w>
An gli
š il</w>
čin nosti</w>
áv ala</w>
zemř el</w>
vý živ
vál ka</w>
vyš et
vyso kou</w>
vy nalez
veřej né</w>
ves nice</w>
v čera</w>
tra ined</w>
tr end</w>
test ing</w>
tar get</w>
sá hl
sy n</w>
sug ar</w>
sní žit</w>
smr tel
sly šíte</w>
skup ině</w>
sign als</w>
sed mi</w>
s hod
restaur ant</w>
psycho logy</w>
propoj ení</w>
princi ple</w>
poř á
por ad
po or
pav ou
pas sionate</w>
p hoto</w>
ob avy</w>
návr h</w>
niž ší</w>
nebezpeč né</w>
natur ally</w>
nal ev
nalev o</w>
na h
mu m</w>
mou th</w>
le tu</w>
kor up
ko g
k la
jist é</w>
ing u
im un
i čí</w>
i sh</w>
high est</w>
head s</w>
h ous
for est</w>
fa i
er al</w>
dů raz
dynam ic</w>
dokáz at</w>
dn á</w>
desig ner</w>
da ří</w>
cut ting</w>
concer ned</w>
com bin
colle ctive</w>
běž ně</w>
bro ad
b ic
b ase</w>
artic le</w>
an ces</w>
am in</w>
R I</w>
N .</w>
Harv ard</w>
Eng land</w>
Bang lad
20 11</w>
1 20</w>
ž ily</w>
še ň</w>
š é
ře či</w>
č kou</w>
zvěd av
způsob u</w>
změn ili</w>
zab rá
z neu
z mat
w ine</w>
vět šího</w>
ví š</w>
vy chází</w>
vezmě te</w>
vezme me</w>
uvědo mu
ukáz ala</w>
ta x
stej ným</w>
star at</w>
stan ov
spir itu
spe k
souvi slo
shar ks</w>
sc ar
ri g
ri dic
religi ons</w>
re source</w>
qu antum</w>
pří tel</w>
přine s
proje v
profes sional</w>
produ kt</w>
poz adí</w>
poli o</w>
pod poř
pleas ure</w>
open ed</w>
o po
ni k</w>
ne dostat
na podob
n ala</w>
má š</w>
mi gr
mess ages</w>
li ší</w>
kom ent
je jichž</w>
jazy ka</w>
in s
hlou b
h i</w>
gradu ate</w>
fot ky</w>
fal e
employe es</w>
elim in
e ds</w>
dě ní</w>
dív ky</w>
de stru
coun t</w>
campa ign</w>
camer as</w>
an u</w>
al ism</w>
al ed</w>
air plane</w>
af ford</w>
achi ev
S he
P at
M ur
Kore a</w>
Fran k</w>
Egy pt</w>
B ur
B ud
2 6</w>
život ního</w>
ši ř
řen ím</w>
č ten
ó zní</w>
í š</w>
é n</w>
á le</w>
záj mu</w>
změ n</w>
zeměděl ství</w>
zan ech
zajímav ý</w>
zabý vat</w>
z prav
wil d</w>
weir d</w>
vyt áh
v at
uvědom ili</w>
tvoř it</w>
techn ical</w>
te x</w>
surpri sed</w>
st ál
společen ské</w>
spac es</w>
sop hist
sh ake</w>
sel s</w>
se ction</w>
s co</w>
rozhod ování</w>
relev ant</w>
re d
r ound</w>
příklad em</w>
přiroz eně</w>
při blí
pře mě
př in
prev ent</w>
poz ice</w>
pohy bují</w>
pl ak
pen gu
pacient a</w>
p ages</w>
o lik</w>
nemoc nice</w>
nejen om</w>
nej růz
nebo ť</w>
na hrad
mo thers</w>
li d</w>
la č
ká l
kil ling</w>
kdy si</w>
inspi rov
in j
in fin
hedvá bí</w>
g ly</w>
form ed</w>
fashi on</w>
f at</w>
en ed</w>
emo cion
dů vody</w>
do sud</w>
dinosa urs</w>
del ší</w>
chan n
bě h
blo ck</w>
be e</w>
b led</w>
ati l</w>
as on</w>
appro pri
aplik ace</w>
ap s</w>
ang li
amer ických</w>
ag s</w>
a če</w>
Y es</w>
Slun ce</w>
P T
Ok ay</w>
I tal
Hig gs</w>
H un
G DP</w>
E d
B ost
Ad am</w>
ši ro
š et
ř ené</w>
čin í</w>
í cí</w>
zbran í</w>
y l</w>
vzá c
ver ze</w>
v o</w>
us il
us er</w>
ur ych
ur ban
uměle ck
tl ak</w>
techni ky</w>
takov ým</w>
spán ku</w>
sh all</w>
sel ling</w>
sekun d</w>
se ň</w>
sa fe
rostl in</w>
ro ads</w>
ra m</w>
připrav eni</w>
předmě t</w>
před stí
prostřed ky</w>
proper ty</w>
produc ing</w>
pro vést</w>
pro s
pre fer
potrav in</w>
pohy buje</w>
pass words</w>
ot á
osob u</w>
o th</w>
ně čemu</w>
ně no</w>
ná te</w>
nov el</w>
nech te</w>
ne závisl
mus ical</w>
memor ies</w>
life time</w>
lic ky</w>
le te
laborato ře</w>
l ady</w>
kov i</w>
kon textu</w>
kog nit
j ní</w>
iv es</w>
in tr
in king</w>
ic als</w>
hodno cení</w>
gener ations</w>
evolu tionary</w>
el u</w>
efe ktivní</w>
dů kaz</w>
dá my</w>
depen ds</w>
cre dit</w>
coun ter
clou d</w>
clo ck</w>
bur n</w>
aw k
an ého</w>
adv ent
Wikipe dia</w>
W all</w>
V ý
P re
Chri sti
B C</w>
Ap ple</w>
A maz
ú lo
zni č
zmi z
zdravot nictví</w>
zam il
wor ried</w>
vá šeň</w>
vrch olu</w>
v ent
uspo řád
udá losti</w>
u ti
typ y</w>
tre st
t ý</w>
t ent</w>
swit ch</w>
surpri se</w>
stro jů</w>
streng th</w>
straš ně</w>
st olu</w>
sou sed
sna žit</w>
sled ování</w>
set ting</w>
se str
se es</w>
sam o</w>
robot ů</w>
remot e</w>
působ í</w>
přel o
pri me</w>
prav é</w>
potk al</w>
politi ku</w>
poda ří</w>
po city</w>
pi e</w>
per ception</w>
open ing</w>
op tion</w>
ograp h
nu že</w>
nad šení</w>
nad ěji</w>
na mes</w>
má ma</w>
mov ements</w>
mou dro
mlad ých</w>
mic rob
mention ed</w>
ment ed</w>
mak ers</w>
m ali</w>
lé t
lo ck</w>
len g
le ge</w>
le aves</w>
l el</w>
krát ké</w>
kov ého</w>
kou z
ko stí</w>
kni h
jak oby</w>
intellig ent</w>
im it
hvěz d</w>
hon est</w>
her o</w>
gentle men</w>
fo ie</w>
fal ling</w>
f las
eri e</w>
effor t</w>
dri ver</w>
dost alo</w>
dne ska</w>
di ab
dem and</w>
cop y</w>
clin ical</w>
ch ů</w>
cau sed</w>
cat eg
blo g</w>
bir th
b ar</w>
ask s</w>
ang licky</w>
ali ze</w>
ad lo</w>
ac cu
T ali
St ate</w>
Sh ake
S pe
Rob ert</w>
G r
Franci sco</w>
Bu t</w>
An d</w>
zlep šit</w>
zap amat
well- being</w>
věd ců</w>
výzv a</w>
vý stav
vulner able</w>
vr cho
ver zi</w>
ur ies</w>
tí me</w>
té ž</w>
terro ri
svobod u</w>
sup pose</w>
stá tní</w>
stup id</w>
stor y
st af
sp i
sen z
sc an
ry by</w>
ru hé</w>
rov ý</w>
rod ině</w>
recy kl
pří š
před cho
pron ik
produc tive</w>
použí vání</w>
potře by</w>
posí l
politi ky</w>
podob ě</w>
person ally</w>
oč i
otepl ování</w>
opin ion</w>
nic ích</w>
ni koli</w>
ni e</w>
nej méně</w>
ne chtěl</w>
může š</w>
muse um</w>
mist ry</w>
mimo řá
mikro skop
matemati ka</w>
mal in
le te</w>
krá lov
ko řen
k ti
ju mp</w>
inžený r
indepen dent</w>
ill ness</w>
ici st</w>
ic emi</w>
hypo té
hope fully</w>
hodnot a</w>
hard ware</w>
fini sh</w>
f on
ester day</w>
environ ments</w>
encour age</w>
en ým</w>
elektř iny</w>
ekonomi ka</w>
dre w</w>
dor az
domá c
do my</w>
di le
convin ced</w>
con stantly</w>
cle an
chy t
chem icals</w>
charac ter
celo svět
c ti</w>
bu z
bre ath</w>
b one</w>
b les</w>
auth or</w>
as y</w>
U. N.</w>
T or
Smi th</w>
P ak
P I
O ly
Ně me
M y</w>
Le e</w>
C oun
B oh
A h
2 8</w>
š et</w>
čí mž</w>
zná t</w>
where as</w>
výbě r</w>
voz id
vní mat</w>
velk ém</w>
vel ik
ved oucí</w>
vac cin
u t</w>
tí mhle</w>
tvar u</w>
therap y</w>
t le
strán ka</w>
strugg le</w>
st al
st abili
spočí vá</w>
sh oul
s and
rozvoj ových</w>
roz umět</w>
roz u
rop a</w>
rodi č
robot i</w>
ro hu</w>
ris m</w>
re prezent
pří štích</w>
předmě ty</w>
průměr ný</w>
prů mysl</w>
práv ní</w>
profe ssor</w>
pro sper
prin ting</w>
pos ou
poh á
podpor u</w>
po stup</w>
po p</w>
p h</w>
očeká vání</w>
ovliv nit</w>
oun ding</w>
os mi</w>
oper aci</w>
on ed</w>
oc cur
ob o
ná vště
nu tr
no w
nerv ous</w>
nejlep ších</w>
neighbor hood</w>
naps at</w>
mon key</w>
model u</w>
mo bili
mno st</w>
mili on</w>
mi min
meth od</w>
mat ch</w>
ma il</w>
lí z
letad lo</w>
l augh
katastro f
inve st</w>
hledi ska</w>
gen cy</w>
fung ovalo</w>
essenti al</w>
en i
el et
dě siv
dri ven</w>
distribu tion</w>
de ví
dal y</w>
convin ce</w>
chy bí</w>
cen trum</w>
artif icial</w>
ann oun
am ing</w>
ado le
ac adem
V en
T o</w>
Swe den</w>
Mar tin</w>
M RI</w>
G PS</w>
F lor
A bra
A .</w>
7 00</w>
2 7</w>
2 .
2 ,000</w>
život em</w>
ší ří</w>
Š véd
řej mé</w>
závislo sti</w>
znám ý</w>
zlep šení</w>
zkušen ostí</w>
zer o-
vý jim
viol ent</w>
ve -
univerz itě</w>
u pozor
u lo
u hl
tla čí
tic s</w>
techni ques</w>
sti mu
st ot
spolu pracovat</w>
soci álních</w>
slyš ela</w>
sk ému</w>
signá l</w>
se v
schop ný</w>
samot ný</w>
rá t
roz šiř
ri e</w>
recy c
re ment</w>
r né</w>
pří jem</w>
překvapiv ě</w>
prim ary</w>
pr ax
pou žil</w>
potě šení</w>
posky tuje</w>
po mohli</w>
pa th
on g
om á
ok o</w>
obyv atel
obraz y</w>
obje kty</w>
ně mž</w>
nost ní</w>
no h
nemoc nici</w>
ne obvykl
n ant</w>
médi í</w>
mor ál
min d
men u</w>
magnet ic</w>
ku p
kni hov
jud g
jour n
jednoduš ší</w>
intel lec
hlav ním</w>
grav ity</w>
gol f</w>
fra me</w>
flo wers</w>
fiel ds</w>
fak ta</w>
fac ing</w>
et i</w>
dí vá</w>
dr ink</w>
dlou há</w>
defin ed</w>
d ů</w>
d ots</w>
cvi čení</w>
cou z
consu mption</w>
chu doby</w>
che ap</w>
ch le
bub ble</w>
br z
ber t</w>
b ling</w>
b ere</w>
as s</w>
arri ved</w>
ar do</w>
appe ar</w>
ad verti
ac ted</w>
ab led</w>
Y eah</w>
S hi
S ci
Pro je
L ar
K ar
H am
Dar win
Ari stot
20 50</w>
2 9</w>
10 0,000</w>
zku ste</w>
zkou mat</w>
zač nu</w>
we ather</w>
všim li</w>
vý mě
využí vá</w>
vypad alo</w>
v ě</w>
učitel ů</w>
uč eb
u spě
tř ic
tvá ře</w>
tr au
to krát</w>
tiv ity</w>
ten tokrát</w>
tal ent</w>
t áh
statisti ky</w>
star ých</w>
sou se
sil í</w>
si an</w>
se y</w>
se ctor</w>
s mile</w>
s atis
ru ky</w>
rece ived</w>
r ali</w>
pů dy</w>
při jdete</w>
předpo ví
př iv
pt ali</w>
proved li</w>
pro ží
princi ples</w>
pr u
pla y
pat ent</w>
partic le</w>
par ado
ož to</w>
osob y</w>
ob č
ob lo
no s
nen ap
ne víte</w>
ne budeme</w>
mist ake</w>
li qu
lev o</w>
ku pu
kap ac
k ist
jak ožto</w>
ist ické</w>
isl á
inclu de</w>
il led</w>
i ka</w>
horiz on
ho d</w>
h ang
h al</w>
grap hy</w>
ex act</w>
er ror</w>
ele ph
el né</w>
el ement
dramat ic</w>
dostá váme</w>
dostup né</w>
do sti</w>
defin itely</w>
ci vil</w>
chápe te</w>
car efully</w>
bu ying</w>
be t</w>
b ad
awar eness</w>
att acks</w>
an ese</w>
W </w>
Val ley</w>
Shake spe
L or
Ger many</w>
Chri st
8 5</w>
3 2</w>
škol ní</w>
ří dil</w>
ře šením</w>
č ce</w>
záv od
zept ala</w>
zav ed
za hrad
z im
wonder ing</w>
wi red</w>
wat ched</w>
w ave</w>
větš ině</w>
vytvoř ila</w>
vr stv
vr ac
vez me</w>
ven ue</w>
ve ch</w>
užiteč né</w>
uvědom it</w>
un g</w>
un e</w>
tu mor</w>
tis k</w>
takové to</w>
stá lo</w>
stere oty
staf f</w>
společen ství</w>
skon čil</w>
sk elet
rost lin
re fer
r ati
qu est</w>
původ ní</w>
pří to
představ a</w>
proje ktů</w>
presi dent</w>
prav ě
poj men
po může</w>
po cház
photograp h</w>
philosop hy</w>
ot er
ome zení</w>
ohromu jící</w>
odpově dí</w>
obleč ení</w>
o proti</w>
o bez
nov in
ne do
n or</w>
moz kové</w>
modr é</w>
mobil ní</w>
men out</w>
long- term</w>
lid skou</w>
lab or</w>
l in</w>
l ers</w>
ku chy
kamar ád
ji žní</w>
je h
iz ing</w>
it ý</w>
in sul
in her
hovo ří</w>
h ýb
f ts</w>
f ting</w>
expla ins</w>
ex ter
est ab
estab li
el d</w>
dě j
dá ř
doká žou</w>
diab et
da ily</w>
d ku</w>
cí tili</w>
cont act</w>
cla im</w>
ck rát</w>
ce stu
budouc nu</w>
argum ents</w>
ar u</w>
an cest
al ities</w>
ab or
Paci fic</w>
Nor den</w>
Jap anese</w>
Cam bridge</w>
Braz il</w>
4 0
19 60</w>
ž al
š ir
ř ka</w>
čty ř</w>
člově ku</w>
Čí ny</w>
zá ní</w>
ze v</w>
zbo ž
zamě řit</w>
z prac
vy děl
vi sit
ves sels</w>
ven ci</w>
valu able</w>
určit ý</w>
ur ch</w>
u zná
te eth</w>
stvoř ení</w>
správ ný</w>
správ ná</w>
sm lou
selec tion</w>
ro má
relea sed</w>
re mind</w>
ps aní</w>
pro mot
poslou chat</w>
pos sibilities</w>
pohy by</w>
po krok</w>
plý t
plat form</w>
pil ot</w>
ph er
papí r</w>
pa pr
p ted</w>
oper ace</w>
ol i</w>
o i
nějak ým</w>
násled ně</w>
no hou</w>
med it
mean ing
li br
krás ný</w>
kr iti
kilome ters</w>
kdo koliv</w>
k ali</w>
jedn at</w>
ič ku</w>
iz ation</w>
it ting</w>
is ing</w>
hou ses</w>
hap pi
h ně
gen der</w>
g un</w>
g old</w>
g ap</w>
fer ti
far m</w>
electr ical</w>
děl í</w>
dokt or</w>
dokt or
dob ou</w>
crow d</w>
clic k</w>
cal ling</w>
budou cí</w>
blí že</w>
au d
atel né</w>
appro ach
am e
acci dent</w>
a ff
Twit teru</w>
Ob ama</w>
B l
A R
199 0</w>
žen ých</w>
šťast ný</w>
ř el</w>
ček at</w>
á ř</w>
zjev ně</w>
zbo ží</w>
zamysl íte</w>
zají mal
z řejmě</w>
y esterday</w>
we bu</w>
war m</w>
věř te</w>
vě nu
vzdu ch</w>
vyjád řit</w>
vybr ali</w>
vy hled
vot e</w>
vo le
vizu ální</w>
victi ms</w>
vi ze</w>
v dě
trad ition</w>
tr at
thre at</w>
the ater</w>
t ál
t mav
t ary</w>
su sp
strán ce</w>
ste el</w>
spec trum</w>
sophist icated</w>
sledu je</w>
schop na</w>
rych losti</w>
rizi ko</w>
requi res</w>
r i</w>
příjem né</w>
pří čin
pří spě
přátel i</w>
pro por
pro hlí
pro dáv
poe try</w>
pla ys</w>
pis y</w>
per man
particip ate</w>
partic i
p ack
ori ent
organis ms</w>
op ač
o svět
ní kům</w>
not e
nej ste</w>
na rod
na p
n ické</w>
mili on
medi um</w>
meas uring</w>
mathemat ical</w>
mak er</w>
la h
l ands</w>
klad u</w>
kil o
k m</w>
jedin ým</w>
jed nání</w>
jaké koliv</w>
isl and</w>
intro duce</w>
incenti ves</w>
immun e</w>
hun ger</w>
hospit als</w>
had n</w>
h ell</w>
graf u</w>
go ods</w>
for ced</w>
flo wer</w>
figu res</w>
fac tors</w>
exist s</w>
exist ovat</w>
estim ate</w>
en coun
el ně</w>
effe ctively</w>
dě lejte</w>
dv ou
drop ped</w>
d lu
constru ction</w>
con venti
con stant</w>
bur ning</w>
bud get</w>
bar ev
b rát</w>
at ory</w>
applic ations</w>
adole sc
accur ate</w>
absolu te</w>
U S
San ta</w>
S un
M t</w>
K el
G ates</w>
C en
B ank</w>
19 4
ň ujeme</w>
červ ené</w>
znov a</w>
zel ené</w>
zd voj
zas áh
zajímav ější</w>
z ved
writ er</w>
výrob ě</w>
virtu ální</w>
v levo</w>
v ar
univerz ity</w>
un usual</w>
un it</w>
um s</w>
ta ste</w>
ta il</w>
t les</w>
str ing</w>
st ou
spraved l
spo ke</w>
součas ně</w>
sl ing</w>
si vely</w>
sho ot</w>
shap ed</w>
se ch</w>
sch ů
sav ed</w>
s ila</w>
rozvo j</w>
rozdíl né</w>
rel ease</w>
re place</w>
re main</w>
rapid ly</w>
pří č
přátel e</w>
přimě t</w>
přest at</w>
prez ident
pr su</w>
pořád ně</w>
poz itiv
popul aci</w>
po mohl</w>
paci ent</w>
p tají</w>
p en</w>
optimi stic</w>
objev ila</w>
o ku
not es</w>
ne od
ne mohla</w>
nacház íme</w>
na rodil</w>
mo squ
materi álů</w>
manufac turing</w>
m ad
lu m</w>
lo di</w>
lim it
kr ad
je de</w>
inter action</w>
intelek tu
instru ment</w>
infe cted</w>
in ev
import ance</w>
ic ích</w>
i ku</w>
hum or</w>
hr en
hospo dář
ham bur
gra in</w>
gener aci</w>
fran couz
form er</w>
fil my</w>
fel low</w>
fe wer</w>
explan ation</w>
equ ation</w>
dra wing</w>
dou ble</w>
do me
dire ct</w>
corre ct</w>
comb ine</w>
cle ver</w>
circum stances</w>
cir cu
ch ro
bi om
bi as</w>
bal lo
a er
S o</w>
S her
O d
M is
Jo se
J en
I I</w>
Hig g
Ger man</w>
Brit ain</w>
B on
B en</w>
Australi a</w>
An tar
3 3</w>
200 2</w>
19 .</w>
živ é</w>
ž ilo</w>
ři krát</w>
ře šit</w>
úrov ně</w>
úmrt nost</w>
ú h
ár ních</w>
zá ření</w>
zept ali</w>
zamy slete</w>
z důraz
wal ls</w>
vě k</w>
vy rů
vy kon
univer zá
ukáz ali</w>
uhl í</w>
tý mu</w>
tá ta</w>
tr y
tic ky</w>
tenden ci</w>
techno logical</w>
stra chu</w>
spor tov
spo leh
sou citu</w>
sled ovali</w>
skvěl ou</w>
sig ned</w>
sens ory</w>
s ny</w>
roz sáhl
rough ly</w>
ro dí</w>
ro cket</w>
ri de</w>
regul ar</w>
re ver
př er
publi ku</w>
pu ber
produk ce</w>
podob ného</w>
po no
po myslel</w>
pla yers</w>
paradig m</w>
pan ts</w>
pad es
opti mist
op tions</w>
odpoví dá</w>
ob zvláště</w>
o cit
náz ory</w>
nástro jů</w>
neur onů</w>
nel í
naš la</w>
na jdeme</w>
n ac
multi -
milió ny</w>
mil uji</w>
microb es</w>
met aboli
man age</w>
m as</w>
lé čit</w>
l ence</w>
ku cha
kon cer
komun itě</w>
k li</w>
jist á</w>
jazy kem</w>
is k</w>
ick ému</w>
hur t</w>
hlubo ce</w>
hl u</w>
har mon
fre sh</w>
fotogra f
fi le</w>
fe eding</w>
fac tor</w>
f at
exper t</w>
ex po
em pati
e mi
dušev ní</w>
dov oli
dov e
dot ý
dobro druž
do mě</w>
deter mine</w>
corru ption</w>
cor tex</w>
consi dered</w>
confi dence</w>
com man
colle ct</w>
ci z
chy b</w>
chla pec</w>
che mistry</w>
ber ou</w>
at en</w>
amoun ts</w>
adv anced</w>
T ran
Stewar t</w>
Satur n</w>
Pri ze</w>
K ing</w>
G ul
G ore</w>
E m
D .</w>
Ar th
Ar du
Afri ka</w>
1 1
čá stic</w>
čin nost</w>
č te
ó n
zá had
z ná</w>
whe el</w>
vě cem</w>
vý hod
vy ni
vrá tí</w>
vrá tili</w>
vol ně</w>
vol ba</w>
une x
typ ically</w>
transform ed</w>
tra its</w>
the -
th um
symp to
stá l</w>
stav ě
spá nek</w>
spis ovatel
rá me</w>
ri ver</w>
re ti
r are</w>
qu e
přemýšl eli</w>
pře číst</w>
profe sor
pris on
prez id
pre g
pre dat
použit ím</w>
potřeb ovat</w>
potrav iny</w>
polit icians</w>
pokrač uje</w>
pamě ť</w>
pa y
ox ide</w>
op ice</w>
odliš ný</w>
obrov skou</w>
ob div
o logical</w>
něj šího</w>
ná hle</w>
ne dostatek</w>
mě ření</w>
mechan ical</w>
lik ed</w>
ledn e</w>
le st</w>
le g</w>
kval itu</w>
koup il</w>
kou sky</w>
kol o</w>
každ ým</w>
k es</w>
hlas y</w>
for mě</w>
f lic
explor ation</w>
ex hi
el ling</w>
ear th
důležit ou</w>
dítě te</w>
dí vali</w>
dí lo</w>
dá vání</w>
dra hé</w>
do předu</w>
do pl
dlouh ý</w>
disc u
de man
de aling</w>
cor n</w>
collap se</w>
clo sed</w>
ck ets</w>
chy stá
chemi ká
br ou
bat tle</w>
as u</w>
ap ped</w>
al d</w>
ag ement</w>
ac cep
Ste ph
Kev in</w>
Higg s
F o
Canad a</w>
Ale x
5 0,000</w>
21 .</w>
říd ili</w>
ř ady</w>
ý vá</w>
ú vahu</w>
zprav od
z es</w>
wher ever</w>
wal ks</w>
vědo mě</w>
vý š
vzpomín ky</w>
vzděláv ací</w>
vysí l
vyrábě t</w>
vybav ení</w>
vy fot
viru ses</w>
vez mu</w>
umož ňují</w>
ul ar</w>
tu d</w>
transpor tation</w>
takov ý
t kem</w>
swe et</w>
svob ody</w>
stu pem</w>
spr ing</w>
spid er</w>
sním ky</w>
smě ru</w>
skuteč ná</w>
sk ill</w>
sil nější</w>
sil ně</w>
sex y</w>
s m</w>
rozhov or</w>
robot ic</w>
rizi ka</w>
ri es</w>
r acion
pří stroj</w>
přemýšl ím</w>
pře žít</w>
proper ties</w>
pro vin
previ ous</w>
pract ical</w>
phra se</w>
ol ds</w>
ohrom né</w>
odpo vědět</w>
ně na</w>
ně kam</w>
nádher né</w>
normá lně</w>
nej oblíben
mi ss</w>
manag ement</w>
magaz ine</w>
ma ster</w>
lé ta</w>
lu x
lu jí</w>
lo ď</w>
leng th</w>
le ti
lar gely</w>
konz um
kon tin
ke eps</w>
kde koliv</w>
kam pa
jednotliv ých</w>
jdě te</w>
is y</w>
in sight</w>
ici de</w>
i di
ho st
hlu b
h eli
grand mother</w>
gi ble</w>
gener ate</w>
gen ome</w>
fle w</w>
fac ili
ex pon
environ ment
entreprene urs</w>
el ine</w>
do pam
deta ily</w>
deta il
crimin als</w>
c at</w>
bre aking</w>
bio logie</w>
bezpeč né</w>
b ors</w>
b age</w>
ativ ně</w>
ar a</w>
ak tivi
agricul ture</w>
add ition</w>
a pe
W o
Tal ks</w>
Man hat
Lo ok</w>
In du
Goog lu</w>
G han
C aro
C H
200 1</w>
1 000</w>
š ed
řen á</w>
ř az
á na</w>
zvy kl
zpravod aj
zahr nuje</w>
vzájem ně</w>
vy pl
vide oh
uvaž ovat</w>
uká že</w>
u li</w>
tu be</w>
tot éž</w>
to w
tit ul
tisí ci</w>
st icks</w>
sk á
sil ou</w>
signá ly</w>
sig ns</w>
s sive</w>
ru b
ri er</w>
přiroz ené</w>
přednáš ku</w>
př il
pí še</w>
pí te</w>
pul led</w>
procen to</w>
pr sty</w>
postav il</w>
popisu je</w>
poně kud</w>
pod rob
pochop itelně</w>
po vin
pick ed</w>
par ent</w>
pacient y</w>
ote ví
organiz aci</w>
oprav dové</w>
obrazov ce</w>
něj šími</w>
nej chud
nar á
mo di
mno hé</w>
map a</w>
mag ne
léč bu</w>
liter ature</w>
liqu id</w>
la yer</w>
krát ký</w>
kontro lovat</w>
klu k</w>
kaz uje</w>
jí ch</w>
ja pon
itel e</w>
is u</w>
interest s</w>
inter pre
intelig ence</w>
hlav ních</w>
h ovat</w>
gre en
gras s</w>
gener ally</w>
for du</w>
fe atures</w>
eng aged</w>
emis sions</w>
emer ging</w>
elektr ár
dri ves</w>
do gs</w>
di sh</w>
deep er</w>
de plo
dal eko
chlá p
bu m</w>
bu cks</w>
bole sti</w>
boj ovat</w>
bod u</w>
b ask
architek tur
app lied</w>
ac tivi
absolut ně</w>
ab sur
Y em
St ar
N an
K h
Islam ic</w>
H ong</w>
H an
Gol d
G ar
C o</w>
Bron x</w>
Braz í
A h</w>
21 st</w>
200 3</w>
ň ující</w>
zkou mání</w>
země třes
zemětřes ení</w>
zdro jem</w>
zají mají</w>
za ží
worl ds</w>
vě říte</w>
využí vat</w>
volunte ers</w>
vl ny</w>
tu šení</w>
tr ig
toi let</w>
te be</w>
sí tí</w>
suff er</w>
subje cts</w>
sub -
sty l</w>
st ag
srov ná
srde ční</w>
správ nou</w>
sp inal</w>
sil ence</w>
sel hání</w>
sebe vra
sdí lí</w>
schop ností</w>
safe ty</w>
rá n
run s</w>
rel ate</w>
re move</w>
rakov ina</w>
přístup u</w>
přij mout</w>
přemýš líte</w>
pře prav
pěk ně</w>
prv ky</w>
pro of</w>
požá dal</w>
pod la
pal iva</w>
p hosp
p an</w>
out come</w>
op y
of -
ob oru</w>
o stro
o cen
nu li</w>
neigh bors</w>
ne zisk
ne viděli</w>
ne pro
ne bezpečí</w>
nalé zt</w>
n ation
mlad ý</w>
men tion</w>
m ý</w>
m ad</w>
lon i</w>
laun ch</w>
lap </w>
kte m</w>
kri zi</w>
kl ou
kampa ň</w>
k ers</w>
it é</w>
is ol
in ové</w>
hom es</w>
hi de</w>
h ře</w>
gu ar
funk ční</w>
extré mně</w>
expo nen
epide mic</w>
ekonom ický</w>
ed it
e tr
disa ster</w>
di vá
desí tky</w>
de grad
da jící</w>
d lo</w>
chvil ku</w>
chlap ík</w>
cha os</w>
ch ou</w>
car rying</w>
c ross</w>
bude š</w>
bom b</w>
blá zniv
bio logii</w>
bar vu</w>
ax is</w>
au ti
aster n</w>
ar ing</w>
administ r
ac compli
a than</w>
S han
M ic
M an</w>
L ong</w>
J am
Británi i</w>
B os
Ar ch
A bed</w>
3 8</w>
3 ,000</w>
. C.</w>
ž ď
š tině</w>
čtyř mi</w>
zná zor
zjist íme</w>
zap ad
zahran ičí</w>
wi d
whe el
wh ist
war s</w>
vývo je</w>
vzni ká</w>
vz hů
vzhů ru</w>
vy uč
vy sky
vide u</w>
vari ety</w>
v nější</w>
un like</w>
uli ce</w>
u plat
u jist
top ic</w>
th in</w>
test ed</w>
terro rism</w>
techni que</w>
te t
te ams</w>
stupu je</w>
stron ger</w>
strat eg
sto j
speci ální</w>
sol ved</w>
sna ze</w>
skuteč nou</w>
sh ir
rychle jší</w>
rost oucí</w>
requi red</w>
rel atively</w>
recor ded</w>
rad ši</w>
rad ical</w>
qui et</w>
připomí ná</w>
představ ují</w>
pí š
pí sk
produc tivity</w>
proce sses</w>
prob ěh
pro pos
pos lech
pomo ct</w>
polov ině</w>
pol lin
podob ný</w>
pod vádě
po wers</w>
po va
po cit
plat it</w>
phys ically</w>
perspe ktiv
per form</w>
p ack</w>
ovan ého</w>
or bit</w>
od sou
no on</w>
ni koliv</w>
ni jak</w>
ne i
ne budete</w>
nat olik</w>
naroz ení</w>
nak re
mov ies</w>
mil k</w>
mem ber</w>
ma so</w>
lí to
lé tat</w>
lou d</w>
livo st</w>
kov ě</w>
komunik ovat</w>
kom ik
k la</w>
it im
incre ased</w>
im ple
i du</w>
hovo řit</w>
hmot a</w>
hlav ou</w>
g a</w>
fyzi ky</w>
fundament ally</w>
f oundation</w>
exponen ci
er ad
equ ally</w>
en u</w>
elektř inu</w>
educ ational</w>
e ze</w>
e work</w>
dáv no</w>
druh ém</w>
doub t</w>
doprav ní</w>
dcer a</w>
chlá pek</w>
ch ain</w>
ca st</w>
c tic
bezpeč nost</w>
b ů</w>
b ov
b lin
auth ority</w>
at tr
ast oni
ap p</w>
an -
algorith ms</w>
ak ers</w>
agen da</w>
a the
W K</w>
T an
Ken ya</w>
K am
H omo</w>
E ver
Bob </w>
8 00</w>
š ný</w>
ř ské</w>
čís el</w>
čem ž</w>
č ilo</w>
í ku</w>
zů stává</w>
zí tra</w>
zábav a</w>
zv ol
zajímal o</w>
zajist it</w>
wh i
všim něte</w>
vznik l</w>
vz or</w>
vulner ability</w>
va jí
určit ou</w>
ur u</w>
tvr zení</w>
tv ary</w>
tro p
tisk ár
the me</w>
tex t
te jte</w>
tane ously</w>
tak zv
t ape</w>
sym b
sug gest</w>
stud oval</w>
st able</w>
společ né</w>
situ ations</w>
sh ado
schop né</w>
sc or
s áz
s děl
resi stance</w>
re verse</w>
připad á</w>
pro chází</w>
použí vám</w>
pou ži
po p
plan s</w>
plan es</w>
pl ná</w>
pe ak</w>
over all</w>
ov ember</w>
odehrá vá</w>
nost em</w>
no ční</w>
neur ony</w>
ne chtějí</w>
n ést</w>
míst nost</w>
mole cular</w>
me try</w>
mal ého</w>
life style</w>
lid stvo</w>
letě t</w>
leg itim
kul tuře</w>
karié ru</w>
j it</w>
inv ent</w>
intu itive</w>
increas ing</w>
ig no
identi fy</w>
i um</w>
her oes</w>
gar den</w>
fu sion</w>
fig ur
f ú
f ell</w>
exist ing</w>
ex pres
ev rop
energi í</w>
ene my</w>
embar ras
dí la</w>
druh ému</w>
dobr ých</w>
diagno sti
de set
cur ve</w>
col ate</w>
ci l</w>
cháze jící</w>
cho se</w>
char ity</w>
challen ging</w>
centr a</w>
cen ters</w>
bý val
bi a</w>
ber eme</w>
atom y</w>
ap es</w>
am y
aliz aci</w>
adv ice</w>
ad dic
T er
S en
S O
N á
Mě sí
Mic ro
M S</w>
K le
Hen ry</w>
Ha iti</w>
H ans</w>
C he
B el
B ab
Au strá
A pol
3 7</w>
20 12</w>
. A.</w>
žel ez
še jí</w>
ře ch</w>
čel íme</w>
č okol
ú silí</w>
á vání</w>
ztrat ili</w>
z hr
y n
wonder ed</w>
win ter</w>
věř ili</w>
vzor ce</w>
vil le</w>
v ky</w>
uč ili</w>
ut vá
us mí
uh lič
tr illion</w>
tab ul
syn dro
st ations</w>
sp u
sna žila</w>
si de
sed m
satel li
satelli te</w>
rov al</w>
ren e
reg ist
re sc
r al</w>
přesvěd čení</w>
pr ch
posl at</w>
polici e</w>
pod mí
pamat ujete</w>
pain tings</w>
out comes</w>
org ány</w>
obráz ků</w>
obe sity</w>
ob il
náz oru</w>
neuro log
nei ther</w>
ne viděl</w>
navští v
nauč í</w>
narr ative</w>
mě ří</w>
mno h
lá sku</w>
legi sl
la sk
l ac
krát ce</w>
krás ná</w>
kom er
ke y
jíd lem</w>
ju dge</w>
journ alist</w>
jin ém</w>
jazy ky</w>
j ela</w>
inter nal</w>
illu sion</w>
i ed</w>
hodn á</w>
hod í</w>
ho eni
hlé dnout</w>
he mi
graph ics</w>
funk ce</w>
fram ework</w>
fl at</w>
fin ance</w>
f ears</w>
expla ined</w>
experiment u</w>
ex press</w>
ent u</w>
dě jin
dí val</w>
dr one</w>
doved nosti</w>
dobr ým</w>
do pis</w>
dan ý</w>
d ž
cop y
consi st
collabor ation</w>
ck á</w>
cap ita</w>
c ine</w>
c et</w>
c a</w>
by s</w>
bot y</w>
bor ing</w>
attemp t</w>
appropri ate</w>
ang er</w>
ag gre
affe cted</w>
ad ded</w>
ac tors</w>
Wat son</w>
Virg in
Sa har
S vět
S tře
O ne</w>
O E
Nob el
M and
Kaliforni i</w>
J ane</w>
F oundation</w>
F ar
E li
Dani el</w>
C or
C as
B I</w>
3 6</w>
ži jící</w>
čer p
úžas ných</w>
át ů</w>
á ři</w>
získ áte</w>
zá livu</w>
znač ky</w>
zmí nil</w>
zkou šel</w>
ze ď</w>
zdá lo</w>
zad ruhé</w>
zad r
zach ra
z opak
z isk</w>
w ings</w>
w ast
všim l</w>
všech en</w>
výrob u</w>
vy pěst
vy dě
vrch ol
vlá du</w>
ve j</w>
vac cine</w>
va ším</w>
u jícím</w>
tri bes</w>
tra st</w>
tká ně</w>
televi ze</w>
telef onu</w>
tain ment</w>
sí me</w>
sí le</w>
stav í</w>
st áv
st rom</w>
soustře dit</w>
sou stav
skon čí</w>
sk ep
sil ná</w>
sho ot
sens itive</w>
sen ses</w>
se h
sand wi
sam ý</w>
růz no
rá me
ry t
rov á</w>
ri f
requi re</w>
reach ed</w>
r ing
přítel e</w>
příbě hem</w>
překon at</w>
pě tí</w>
pís men
prů měru</w>
práz dn
proce ssing</w>
pro jít</w>
pos el
popu lární</w>
pol ar</w>
poin ted</w>
po vě
pl nou</w>
phosp hor
phan tom</w>
p p
obse ssed</w>
obraz u</w>
ně n</w>
newsp aper</w>
nej ist
neb oli</w>
ne za
ne exist
na po
měsí cích</w>
míst em</w>
measu red</w>
manžel ství</w>
mam mo
mal ém</w>
m lé
m ení</w>
lim it</w>
kre ativní</w>
kon ců</w>
komplet ně</w>
kdo koli</w>
kamer y</w>
itel é</w>
introduc ed</w>
inten se</w>
in vention</w>
hran ici</w>
hnu tel
hlubo ko</w>
h n
g or
fun ctions</w>
fi ve-
fac ial</w>
fac ed</w>
exp and</w>
ex cel
evoluč ní</w>
ekonomi ku</w>
dot y
deli ver
defin ice</w>
cur i
conventi onal</w>
compu ting</w>
com mod
cháp at</w>
chick en</w>
ch at
car ds</w>
c ry
c en</w>
by tek</w>
bo ha</w>
bic y
behavior al</w>
base ball</w>
am ent</w>
Tali ban</w>
T r
Pá kist
Mc Don
K u
J á</w>
In stitute</w>
I ran
Evrop y</w>
B il
19 th</w>
0 .
0 ,
- f
ů l</w>
ší řit</w>
ěj ším</w>
čer stv
čer no
ček á</w>
úžas nou</w>
ú smě
ú kolem</w>
á lem</w>
zdvoj násob
zby teč
zapo mně
y i
w re
vůd ci</w>
věd ě</w>
výsled ků</w>
vybud ovat</w>
ven i
vehic les</w>
učin it</w>
těž ko</w>
trav eling</w>
transl ate</w>
ton ight</w>
to y</w>
tempor ary</w>
teenag ers</w>
t all</w>
stá t
stup ňů</w>
strá nek</w>
stro mů</w>
stre t
sta yed</w>
společ ný</w>
sou č
sou th</w>
some what</w>
sol ární</w>
sol ving</w>
smysl u
sm art
slou ží</w>
sk o
si st
shu t</w>
se ven
rá di
rov nice</w>
roman tic</w>
resi dent</w>
re hab
rehab ilit
radi ation</w>
r en</w>
pů jde</w>
při vádí</w>
při spí
při dat</w>
přest ěh
představ y</w>
pt á</w>
pt al</w>
provo z
počítač ů</w>
phys icist</w>
perform ing</w>
per cent
p ky</w>
org as
on ally</w>
oh le
odstran it</w>
odpo věděla</w>
odpad u</w>
ochran u</w>
oce án</w>
nov iny</w>
no se</w>
nevy hnutel
nak lá
nadšen ý</w>
na živ
myst ery</w>
monit or</w>
m rak
lik rát</w>
lep ším</w>
l ého</w>
ku jeme</w>
kri min
kr ou
kol on
k ými</w>
j el
in ation</w>
im pul
hon est
h its</w>
h au
ex e
ex cu
et ní</w>
effici ency</w>
earth qu
dr ag
domní vám</w>
dne te</w>
discus sion</w>
destru ction</w>
des k</w>
den se</w>
de sper
de fe
dang er</w>
chem ické</w>
c ku</w>
c ast
bá je
bus y</w>
br ý
box es</w>
bom b
birth day</w>
bav it</w>
at u
ari o</w>
appar ently</w>
air craft</w>
Y R</w>
V er
Ro ck
Par k</w>
P od
Nob el</w>
K at
I M
G i
Fre e
D ou
Chic ago</w>
C al
B líz
Ameri ka</w>
A b
3 1</w>
- and-
ždě ní</w>
šťast ní</w>
č ko</w>
ý ma</w>
ú spo
ú kol
é ně</w>
zábav né</w>
zvý šit</w>
zodpověd nost</w>
zo om</w>
zná má</w>
zbav it</w>
zaměstn anc
z hor
wo od
we ak</w>
w l</w>
w ake</w>
ví těz
vzta hů</w>
vystoup ení</w>
vid ně</w>
vid itelné</w>
v prav
v liv
v la
udá lost</w>
u l</w>
u dělají</w>
u cin
tuč ňá
te da</w>
svět ový</w>
sur ely</w>
stře do
stran ou</w>
str an</w>
sto jím</w>
standar ds</w>
stab ilní</w>
srd ci</w>
společ nostech</w>
spo lé
spo ken</w>
sp an</w>
sledu jí</w>
sklá dá</w>
sever ní</w>
sedě l</w>
schiz of
ro of</w>
repres ents</w>
rel ative</w>
regi ons</w>
raz it</w>
rat s</w>
r s</w>
r on</w>
r ent
přit až
pó diu</w>
produk ci</w>
prepar ed</w>
pre fer</w>
prav dy</w>
prav div
pozo rování</w>
politi ka</w>
pohlav í</w>
podpo rovat</w>
podob ných</w>
pode z
pod é
plá nu</w>
photograph s</w>
pe t</w>
oči vidně</w>
os fé
nut ně</w>
need le</w>
nechce me</w>
ne věděl</w>
ne ver
naroz en
na mi
myšlen kami</w>
mor ality</w>
meziná ro
me mes</w>
me me</w>
materi álu</w>
map u</w>
m on</w>
léka ři</w>
léka ř</w>
liv ý</w>
kontro lov
invest ice</w>
inter ag
i gen
hon or</w>
hod it</w>
he sla</w>
hal ucin
form a</w>
fi rem</w>
fai th</w>
f an</w>
er ů</w>
elektr ické</w>
dr inking</w>
dar k
corpor ate</w>
con flic
con ce
clo sely</w>
ck o</w>
cho colate</w>
chimpanze es</w>
chi p</w>
ch ý
care ful</w>
cap it
ca -
c em
bíl kov
by tu</w>
budov a</w>
bro w
bod ů</w>
bo oku</w>
b ří
b ones</w>
ar my</w>
ar i</w>
ap pl
after noon</w>
ad ě</w>
ac </w>
ab use</w>
Vel ké</w>
TED Global</w>
S put
P hoeni
OE CD</w>
Musli m</w>
L ak
Jo shu
J im</w>
H y
H C</w>
F O
D V
B al
Asi i</w>
Američan ů</w>
7 0.</w>
živoč i
ť á
řád ně</w>
ře k</w>
řad a</w>
čty řech</w>
čer ná</w>
účel em</w>
ú mysl
záležit ost</w>
zak áz
z al
year- olds</w>
větš iny</w>
východ ní</w>
vál ku</w>
vzpomí nám</w>
vzdálen ost</w>
vy myslet</w>
vy dal</w>
v před</w>
uvědom ila</w>
urč it</w>
uká ži</w>
u spoko
transform ation</w>
three- dimensional</w>
te sts</w>
t řikrát</w>
sv al
sly ší</w>
sing ing</w>
sex u</w>
serv ed</w>
secon dly</w>
se cure</w>
rych lé</w>
ro ots</w>
re present</w>
příklad u</w>
při hlá
písm o</w>
psycho logie</w>
proper ly</w>
program y</w>
pe d
pan í</w>
pal u
pacient i</w>
ovliv ňují</w>
org ánů</w>
ok na</w>
od váž
nutr ition</w>
neuro science</w>
nej důležit
neg ativní</w>
navrh nout</w>
nav ždy</w>
mí te</w>
meto dy</w>
lé ků</w>
lu cin
le jí</w>
lask av
l an</w>
kte ch</w>
kro kem</w>
komun it
kaz y</w>
ju mp
jednodu cho
jak á
intro ver
intellec tual</w>
ic ate</w>
hrá la</w>
hroz né</w>
horri ble</w>
hal lucin
h l</w>
gram ot
gh et
gen ů</w>
fil m
ent ů</w>
econom ies</w>
eco system</w>
e v</w>
dost ávají</w>
dobr ého</w>
dist ant</w>
dis play</w>
diag ram</w>
d in</w>
d ar</w>
convers ations</w>
conclu sion</w>
combin ation</w>
class ical</w>
cla im
cháp ání</w>
chy tře
cel ých</w>
c rac
buň ka</w>
bi olum
beli efs</w>
behavi ors</w>
be ach</w>
b ag</w>
autonom ous</w>
autis m</w>
as si
ap art
anglič tině</w>
al ist
S yl
S om
P u
M or
M ilo</w>
M ed
Le go</w>
Isl am</w>
Gre en</w>
Bud d
B ang</w>
Atl antic</w>
8 0s</w>
19 0
čtě jší</w>
í n</w>
á váme</w>
zá klad</w>
zv .</w>
znamen at</w>
změn ily</w>
zam ys
z má
z menš
z jednodu
y nam
vývo ji</w>
ví tr</w>
vyvinu l</w>
tí te</w>
tem ber</w>
ta sks</w>
t zv.</w>
t av
sy na</w>
spojen é</w>
spo juje</w>
serv es</w>
sdí len
schiz op
s el</w>
rozší řit</w>
roz mě
rov ých</w>
ro rs</w>
ridic ulous</w>
ri min
rema ins</w>
překvap ení</w>
představ ení</w>
pust ili</w>
preci sely</w>
požad av
počítač ové</w>
použí vali</w>
pos ad
porov nání</w>
pops al</w>
pomá hat</w>
pokro ku</w>
po čas
po hl
piz za</w>
pi re</w>
per s</w>
pass word</w>
optimis m</w>
obsa hu</w>
objev ovat</w>
objev it</w>
ob í
nut né</w>
nov ě</w>
normá l
no s</w>
ni čeho</w>
nech ce</w>
nazý vám</w>
nazv al</w>
na program
mlad ší</w>
minu tu</w>
mi zí</w>
meaning ful</w>
mal ič
lé k</w>
l ové</w>
kv ence</w>
krás a</w>
konverz ace</w>
kole gy</w>
kognit ivní</w>
klíč ové</w>
ke jte</w>
každ ých</w>
její ho</w>
jaké koli</w>
j at
informa ční</w>
in ts</w>
i dy</w>
hun gry</w>
hot el</w>
hle dáme</w>
hi er
he ň</w>
h ne</w>
glo be</w>
g un
funk ci</w>
fol ks</w>
filoz o
f ro
f rac
exe cu
ep tember</w>
dí vám</w>
dok toři</w>
dis ru
diabet es</w>
depen dent</w>
d ary</w>
cre te</w>
contribu te</w>
co operation</w>
co ok</w>
ck ých</w>
chy l
chrá nit</w>
c ents</w>
bro ke</w>
assu me</w>
aspe ct</w>
appreci ate</w>
ans wer
altern ativ
air s</w>
agen cies</w>
activ ities</w>
a e
S ky
S ir</w>
S eptember</w>
Ri o</w>
Par is</w>
Oly mp
N el
Co ca-
Bro w
4 8</w>
částe čně</w>
červ ená</w>
zv on
zaplat it</w>
zamys let</w>
wh el
vá na</w>
vy pu
vy pravě
vr st
uč il</w>
u pu
tvů j</w>
tré n
trans ition</w>
tra je
tou ched</w>
tor ů</w>
tit le</w>
ti vely</w>
ti e</w>
synchron iz
syn the
symb ols</w>
svět lem</w>
surpris ingly</w>
stu du
sta ří</w>
sp lit</w>
sp in</w>
složit ější</w>
sho ck</w>
sens ors</w>
se st
scé ná
schizof ren
sc ared</w>
s or</w>
s lid
roz pí
remem ber
real ita</w>
reak ci</w>
reach ing</w>
r ab
při čemž</w>
psycho logical</w>
princi py</w>
pre ce
pravděpodob né</w>
poví dá</w>
poví dat</w>
poskyt nout</w>
pollu tion</w>
pohy bu
podí l</w>
planet a</w>
pl ain</w>
ph ase</w>
p ů</w>
ovlá dat</w>
over whel
ov en</w>
otev řít</w>
or ing</w>
off ers</w>
od d</w>
ob al
nu tri
ne viditel
ne be</w>
min d-
mik rob
mechan ism</w>
main ly</w>
m ming</w>
ly -
loc ation</w>
lic ity</w>
li ty</w>
li ber</w>
le kce</w>
le dy</w>
l ine
kó d</w>
kval ity</w>
kol á
ko sm
k itch
jo ined</w>
ji ž
jev o</w>
jaké ho
iv ing</w>
ing -
in di
hu jící</w>
ho ping</w>
ho j</w>
hle du</w>
happi er</w>
four -
fortun ate</w>
fing ers</w>
fe der
f ázi</w>
f a</w>
experiment y</w>
dí ra</w>
dr ones</w>
do t</w>
divi ded</w>
de jme</w>
danc ing</w>
d ami</w>
cr ash</w>
cor d</w>
concep ts</w>
con crete</w>
compon ents</w>
compon ent</w>
comb ined</w>
colle cted</w>
co w</w>
chy bě
chud é</w>
cho roby</w>
cho dil</w>
charakter ist
cen é</w>
cau sing</w>
bo ji</w>
bo je</w>
ban kov
b ách</w>
ač koliv</w>
az e
archit ect</w>
ap ie</w>
an tic
ak tu
ak t
ad mit</w>
academ ic</w>
ac ího</w>
a ys</w>
Z </w>
Willi am</w>
Tex as</w>
T ony</w>
T ak
P ot
N o
Ma y
M y
J e</w>
Gul f</w>
Cen tr
C ho
B ot
B ay</w>
Arab ic</w>
A ct</w>
A O</w>
8 0.</w>
ž né</w>
ší ření</w>
č ích</w>
č te</w>
č nost</w>
Čí ň
ú zemí</w>
á ře</w>
á ze</w>
záj my</w>
zvyš uje</w>
zneči štění</w>
zdrav é</w>
zahr nu
zab ít</w>
z vo
z ou</w>
z one</w>
z as</w>
vzdálen osti</w>
vypořád at</w>
vlas y</w>
vide o
vaz bu</w>
v ku</w>
v ag
upří m
under ne
underne ath</w>
ul l</w>
u žití</w>
tra it</w>
tan gible</w>
ta ining</w>
ta ined</w>
svět ová</w>
sv az
surge on</w>
sty lu</w>
stu jeme</w>
star t
so lid</w>
sm ar
sly ším</w>
sledu jte</w>
skup in</w>
she ep</w>
sc ent</w>
s má
s me</w>
s bě
roz li
rov i</w>
rodi čů</w>
rich er</w>
rel ation</w>
regre t</w>
re ži
re plac
r ý
příš er
pří stroje</w>
pá tr
proce d
pro dávat</w>
princi p</w>
pr vo
post -
posel ství</w>
pops at</w>
polo žit</w>
podé l</w>
po tvr
po ro
po pis
plast y</w>
pl er</w>
perman ent</w>
percent age</w>
part ners</w>
on em</w>
od tud</w>
od rá
obě ti</w>
ně která</w>
násled ky</w>
ne stačí</w>
ne mělo</w>
ne musíme</w>
navr hu
nan o
nah raz
na pos
moz kem</w>
minut ách</w>
micro scope</w>
medi ální</w>
me -
ma st
ma mo
m ými</w>
lov es</w>
lim its</w>
le gen
laborat ory</w>
ká me</w>
komun itu</w>
k ne
ji šť
je sky
inženýr ství</w>
inter actions</w>
intel igen
inspir ing</w>
ing dom</w>
infin ite</w>
in put</w>
hou se
hi p</w>
gu il
gr and</w>
gol f
fyz ické</w>
fun ding</w>
fos sil</w>
fa thers</w>
f lu</w>
eng aging</w>
embr ace</w>
em bed
důsled ku</w>
du chov
domin ant</w>
do ms</w>
do dáv
di alo
dat es</w>
d vi
colle ction</w>
cli p</w>
chytr é</w>
chy ba</w>
ch ři
ch ová
cel ým</w>
by -
but ton</w>
bra in
bohat ší</w>
bla ho
bi ke</w>
bab ička</w>
auto mobil
ak adem
W right</w>
T em
Steph en</w>
Ste ven</w>
Shakespe are</w>
S us
S am
Ro sling</w>
Pr in
Pak istan</w>
M od
M er
Lat in</w>
Jose ph</w>
In don
I s</w>
I Q</w>
Hol ly
H i</w>
Go li
D ay</w>
CA PT
C enter</w>
C a
Británi e</w>
B lu
Apol lo</w>
Alzheim er</w>
Ali ce</w>
A c
2 4
št ov
zví ře
znov u
zept áte</w>
zat rac
z ře
vý hody</w>
vá ch</w>
využí vají</w>
vrcho l</w>
volu me</w>
vlast ního</w>
vie ws</w>
velk ými</w>
ve y</w>
uvaž ování</w>
utr pení</w>
uměle c</w>
ul tr
u číte</w>
tun e</w>
tri k</w>
tri be</w>
trac king</w>
tit les</w>
thre at
the s</w>
te a</w>
svět lu
surve y</w>
stro ke</w>
stro ji</w>
ss -
spe ct</w>
spe aker</w>
so -
sl ý
simp licity</w>
sev ere</w>
schop ná</w>
schizop hren
sc ul
sc rat
sau ce</w>
s rá
s me
s .</w>
ru čně</w>
ro č
real itu</w>
re je
r ady</w>
pů du</w>
při zn
přemýš lení</w>
př ene
profes or</w>
prob ability</w>
priv acy</w>
pri ze</w>
pri ority</w>
prav ou</w>
počas í</w>
pozoru hodné</w>
poz dě</w>
poku sit</w>
pochop il</w>
po pt
po pravdě</w>
plánov ání</w>
phosphor us</w>
perfekt ní</w>
paraly zed</w>
over come</w>
organiz ací</w>
odpo ledne</w>
o di
ni č
ne ural</w>
ne ar
nazý vají</w>
na mal
na j
n ky</w>
n ity</w>
musc le</w>
moř ské</w>
motiv ation</w>
mi es</w>
met al</w>
mal ým</w>
m ó
lid sk
lev é</w>
lat est</w>
lap top</w>
l ent</w>
krab ice</w>
konz erv
kon ference</w>
kancelá ři</w>
kancelá ře</w>
jaký koliv</w>
iv ý</w>
ind ické</w>
hrá či</w>
hra jeme</w>
hled ali</w>
h en
gri d</w>
gang u</w>
g ence</w>
functi onal</w>
fu els</w>
fri gh
forest s</w>
foot print</w>
fak e</w>
evolu ci</w>
es is</w>
el ev
ea th</w>
dý ch
dítě ti</w>
du m
drá hy</w>
dolph ins</w>
disappe ar</w>
diagno sed</w>
di an</w>
d ži
con stra
chce š</w>
c on</w>
bro thers</w>
blo cks</w>
bizar re</w>
be have</w>
atta ched</w>
ati z
at ic</w>
ar du</w>
ap ar
ancest ors</w>
an á
ak cí</w>
W in
U gan
T y
T om</w>
S au
S A
N C
K os
Je ff
J or
Inter netu</w>
Hou se</w>
Ghan a</w>
Fran ce</w>
E ric</w>
E M</w>
D o</w>
Con gre
CAPT CH
C ur
B ol
B each</w>
Arth ur</w>
Al -
. D.</w>
ží cí</w>
život ech</w>
š ila</w>
š ené</w>
š ance</w>
čá stech</w>
čet li</w>
úko ly</w>
zábě ry</w>
ztr ac
zpět nou</w>
zneu ží
znalo stí</w>
znak y</w>
zku sili</w>
zji štění</w>
zero- sum</w>
zby tku</w>
zač ní</w>
za h
vů dce</w>
vrá tila</w>
vid es</w>
určit ém</w>
unex pe
ukáz ka</w>
u ary</w>
tr hy</w>
te e</w>
t ank</w>
séri i</w>
sun light</w>
st adi
spor t</w>
sp reading</w>
soukro mí</w>
sk lon</w>
sk em</w>
si r</w>
scri p
sav ings</w>
sam ple</w>
rod in</w>
robot ics</w>
ro ot</w>
re com
původ ně</w>
příj my</w>
pří pady</w>
pěk né</w>
puzz le</w>
pu shing</w>
ps ali</w>
prote ins</w>
produ ktů</w>
pro sa
pres ence</w>
pou žitel
potřeb oval</w>
postav y</w>
posl ali</w>
por tré
po vědomí</w>
po blíž</w>
plá ny</w>
pl enty</w>
pil ot
pi ano</w>
philosop her</w>
pas sing</w>
pan ěl
p ure</w>
ov at
osob nosti</w>
od pad</w>
o sud</w>
o slov
ně me
nádher ný</w>
ná zev</w>
nezbyt né</w>
nel ze</w>
ne stalo</w>
navrh l</w>
n -
mi rac
me ss</w>
mal es</w>
lo cked</w>
kon stru
kon ek
komun ita</w>
klí čem</w>
kdy koli</w>
kam a</w>
k l</w>
je š</w>
j ab
iv á</w>
it ím</w>
instru ments</w>
inspi re</w>
implic ations</w>
il legal</w>
ignor e</w>
hov ě
ho ř
her o
h ři
gu id
fyz icky</w>
foot age</w>
fif th</w>
fem in
er o
ent ropy</w>
en z
electr onic</w>
el ement</w>
earthqu ake</w>
e sh</w>
e sc
děku jeme</w>
dí cí</w>
dvac et</w>
do ors</w>
do dnes</w>
di um</w>
dete ct</w>
des átých</w>
depen ding</w>
de ká
d ding</w>
cuk rov
contro ls</w>
con trast</w>
col on
char t</w>
chap ter</w>
cer ti
cent uries</w>
bě ží</w>
bí lé</w>
be er</w>
ač koli</w>
automat icky</w>
au tě</w>
applic ation</w>
an da</w>
aktiv ity</w>
agre ed</w>
adverti sing</w>
ad a</w>
Uni on</w>
Tit an</w>
T ru
S o
Palest in
K á
Jon athan</w>
Jan uary</w>
J ak</w>
Face booku</w>
F ellow</w>
Ar t</w>
5 0
19 50</w>
- to-
šen ý</w>
š pin
ř eli</w>
č el</w>
způsob í</w>
zel ená</w>
zdá n
zas lou
youn ger</w>
ym pi
win ning</w>
vyví jí</w>
vprav o</w>
un clear</w>
ul ty</w>
u kon
témat u</w>
trav eled</w>
ten ed</w>
telef ony</w>
t ých</w>
t ori
swi m</w>
su icide</w>
stran a</w>
squ e
spolu pracov
sklen í
shro ma
sedě t</w>
schop ní</w>
sc ary</w>
sam ples</w>
sam ou</w>
ru ka</w>
rov ali</w>
rel ativně</w>
re min
příležit ostí</w>
přemýš lejte</w>
představiv ost</w>
před lo
pí sku</w>
pu mp
provi ding</w>
provi ded</w>
pro po
prin ter</w>
predic tions</w>
potře bu</w>
potenti ally</w>
posu d</w>
poor est</w>
polit ice</w>
poh ř
po vědět</w>
po cket</w>
po citu</w>
plast ics</w>
pe ň</w>
ov o
ov atel</w>
op ia</w>
ok ou
ohle dech</w>
od sud</w>
o logie</w>
ná růst</w>
nes ná
ne gie</w>
ne dá</w>
nat á
naslouch ání</w>
nar u
naps ala</w>
myš lence</w>
mez itím</w>
meto da</w>
met r</w>
mechan is
me ga
me g
matemati ku</w>
mas a</w>
man až
lá tky</w>
lo y
lid ském</w>
lev a</w>
krab ici</w>
kitch en</w>
kil ler</w>
k ala</w>
ist ics</w>
interest ingly</w>
institu ce</w>
inspi ru
impro vement</w>
ident ical</w>
hýb at</w>
hroz ně</w>
home work</w>
hol ds</w>
health care</w>
hab it
h ory</w>
guar an
gro ws</w>
gener ated</w>
fot ka</w>
fi al
ev alu
ent ro
embed ded</w>
elektr ický</w>
e scape</w>
dů stoj
drá hu</w>
druh em</w>
do posud</w>
do jem</w>
div ad
depen d</w>
curi osity</w>
ct ví</w>
cr ack</w>
cook ing</w>
consum er</w>
colle cting</w>
co ordin
co -
centr u</w>
can di
cam p</w>
calcul ate</w>
c er</w>
bakter ií</w>
aplik aci</w>
an xi
al l-
ad vi
achi e
acci dents</w>
Z im
X -
Se cre
Pa ří
P resident</w>
P op
K er
K an
H e</w>
D al
D A</w>
Car negie</w>
Boh a</w>
Ardu ino</w>
A hoj</w>
7 2</w>
3 ,
199 9</w>
. m.</w>
ště v
špin av
řen ý</w>
řek něte</w>
ě n</w>
čet la</w>
ček ali</w>
í mi</w>
záv až
základ ních</w>
zá klady</w>
zu by</w>
z ují</w>
z krat
z klam
výsled ku</w>
vý da
vá ny</w>
vyprávě ní</w>
vy mý
vlast nictví</w>
ve st</w>
ve sel
un comfortable</w>
ulti mate</w>
tře tí
tě hot
tvr dě</w>
tu r</w>
tu mor
tu dí
tudí ž</w>
trad ice</w>
ti sku</w>
test y</w>
ter mí
tele phone</w>
tal í
takov ém</w>
succe ed</w>
studi o</w>
stric t</w>
stov ek</w>
sto le</w>
standar di
stan ice</w>
stan ete</w>
st ůl</w>
slu že
sled oval</w>
sle eping</w>
skelet on</w>
shroma žď
sedě la</w>
ry bá
rozděl ení</w>
rost la</w>
ri sing</w>
rep lik
rene w
real -
re ference</w>
ra w</w>
r ky</w>
r hy
příto mnost</w>
přin ést</w>
pí še
ptá ci</w>
prote ction</w>
prospě ch</w>
promě n
prak ti
poško zení</w>
pou ště
posun out</w>
postav ení</w>
posledn ím</w>
popt áv
pig s</w>
pev ně</w>
per su
pe er</w>
pap ers</w>
pain ful</w>
p ali
oček áv
ow ned</w>
otevř ené</w>
or b
on ics</w>
om lou
okol ností</w>
occur red</w>
obje kt</w>
násled ovat</w>
nu la</w>
no where</w>
ne se</w>
nav štěv
nan ot
mys ly</w>
my š</w>
musí š</w>
mo č
mlu víte</w>
mil uju</w>
metafor a</w>
matemat ice</w>
mam in
lí b
lun g</w>
log ic</w>
licen se</w>
kre s
kov ali</w>
koup ili</w>
kontak tu</w>
konstruk ce</w>
konkrét ně</w>
kde koli</w>
ji mi</w>
jazy ků</w>
ja il</w>
itel ný</w>
intenz ivní</w>
hod lá
ho b
hier arch
he ter
h mat
govern ance</w>
gol den</w>
go od
gl aci
genet icky</w>
fot ku</w>
form ation</w>
fol ding</w>
f ed</w>
et í</w>
et ings</w>
emocion ální</w>
e go</w>
důvě ru</w>
dě jí</w>
dá ním</w>
drž el</w>
dospě lí</w>
dokon č
dobrodruž ství</w>
dne me</w>
di str
descri bes</w>
depre se</w>
dark ness</w>
cour age</w>
contin ent</w>
con veni
cir cles</w>
chov ají</w>
cho sen</w>
ch urch</w>
ch as
cep tions</w>
c ka</w>
c ash</w>
bá sní
bu ďte</w>
biolog ické</w>
bezpeč nostní</w>
bar va</w>
bar v
au t
antic ip
ander th
an tro
an th
Washing tonu</w>
W om
U S</w>
Sput nik</w>
Sci ence</w>
S to
S p
Nan opat
Mar k</w>
K y
J up
H on
H av
C re
Bu sh</w>
Bro wn</w>
Ben j
Ale x</w>
7 6</w>
3 4</w>
2 5
ž ela</w>
šťast nější</w>
šílen é</w>
ště né</w>
řel o</w>
čtver eč
člen ů</w>
č nou</w>
č il
č ata</w>
zů stane</w>
získ ala</w>
znamen ají</w>
zn ys</w>
zaměstnan ci</w>
zalo žené</w>
z ů</w>
z účast
y ours</w>
we igh
wat er
vědě ní</w>
váš ni
vá t
vytvoř ily</w>
vteř in</w>
veče ři</w>
uhlí ku</w>
u ply
trans plant
to ps</w>
ti p</w>
th eless</w>
t wi
systé mem</w>
surr ounded</w>
studi u</w>
student ům</w>
stru ck</w>
strategi i</w>
ste in</w>
sil nice</w>
si on-
shir t</w>
sek ven
se at</w>
s ce</w>
rov ou</w>
restaur ace</w>
recor ds</w>
reas on
reag ovat</w>
r ar
předví dat
pře vážně</w>
pá dně</w>
pro káz
pr as
poku sím</w>
poko je</w>
podí vám</w>
podmín kách</w>
po vede</w>
plan ted</w>
pick ing</w>
pat ná
ov ému</w>
ot est
ohrom ný</w>
ograph ic</w>
od raz
oce ans</w>
obliče j</w>
ob vin
ob ra
ob lé
ně t</w>
návr há
ná rod
nu kle
nov ými</w>
nov ém</w>
nen ul
nech ám</w>
ne řekl</w>
naps ali</w>
na jde</w>
mož ných</w>
mobi l</w>
mis er
mil ují</w>
metr u</w>
mas ivní</w>
ma je
lo m
liv á</w>
ligh ting</w>
la id</w>
ká lně</w>
kt or</w>
krá su</w>
kov ým</w>
každo pádně</w>
jin ému</w>
it em</w>
inv ent
inter ru
im plant
ide al</w>
ick ing</w>
i est</w>
hear ts</w>
h no
h ali</w>
gr ab</w>
gh ted</w>
geni us</w>
g ent</w>
g ate</w>
fran kly</w>
fotogra fi
form ou</w>
flu id</w>
fi shing</w>
fascin ated</w>
farmá ři</w>
far mer</w>
f rá
f ou
extr act</w>
expect ations</w>
ex tin
enter tainment</w>
eng agement</w>
emo cí</w>
elec tion</w>
dět ské</w>
dě l</w>
divi de</w>
di ss
di sk
di kt
deser t</w>
de p
de j</w>
dar ies</w>
d ka</w>
curr ency</w>
continu ed</w>
con trac
con stitu
commit ment</w>
com pos
col um
co ast</w>
chytr ý</w>
che ese</w>
ch er</w>
celebr ate</w>
cat s</w>
bru sh</w>
bro jen
bre ad</w>
boun daries</w>
bole st
be ars</w>
bal í
at eri
appe ars</w>
an ým</w>
ag er</w>
a z</w>
Syl via</w>
Sch war
S ud
R am
Proje ct</w>
Ox ford</w>
New ton</w>
Musli ms</w>
L ED</w>
J ac
Izra el
He j</w>
H el
G en
For d</w>
De partment</w>
D on</w>
D el
Bri an</w>
Bost on</w>
An drew</w>
A i
- like</w>
žen ím</w>
žen ám</w>
ť me</w>
š ka</w>
řek neme</w>
ře těz
ě né</w>
čist ě</w>
čel í</w>
č nosti</w>
é r</w>
á ž</w>
á ni</w>
základ em</w>
zvu kem</w>
zn ak</w>
zdrav ější</w>
zan ed
za žít</w>
z práv</w>
z pochyb
z bra
y ho</w>
vět ví</w>
vě ty</w>
ví cem
vícem éně</w>
vz ory</w>
vyšet ř
vyu žit
vyso ko
vyrá bí</w>
vy mě
vy bu
vr at
vr ací</w>
vlast ností</w>
vi ry</w>
ur us</w>
unexpe cted</w>
un believ
ud y
tvůr ci</w>
tvrd ím</w>
tu jeme</w>
troj rozměr
to al
ta x</w>
svěd ky</w>
surge ons</w>
stár nutí</w>
stej ném</w>
staro sti</w>
spor ts</w>
sou bor</w>
son gs</w>
sl ík</w>
sl oup
shoot ing</w>
se men
se ason</w>
sch é
rá m</w>
rov nou</w>
rov no
ric u
re kor
re du
re con
ra j
r o</w>
quar ter</w>
přine jmen
přinejmen ším</w>
předví dat</w>
představ il</w>
přednáš ka</w>
pře kro
pře jít</w>
publi c
pro šel</w>
princi pu</w>
predic ted</w>
predic table</w>
pre mi
pr ices</w>
poč tem</w>
pouh ým</w>
posto j</w>
popul ations</w>
poh ledem</w>
po nor
pl í
p lot</w>
p a</w>
ovlá dání</w>
ovan ě</w>
olog ists</w>
ol ympi
o šk
o svo
o ka</w>
o id
ně ných</w>
nád or</w>
nu ly</w>
noh ama</w>
ni komu</w>
nelí bí</w>
největš ím</w>
ne obyčej
naživ u</w>
naš emu</w>
nan e
nad ace</w>
n ition</w>
mo ckrát</w>
miliar da</w>
m ice</w>
lov ely</w>
len s</w>
law yer</w>
kro ky</w>
kr ve</w>
kilo gram
každo den
k ne</w>
ji had</w>
je v</w>
invol ves</w>
inter akce</w>
ignor ance</w>
hypothe sis</w>
hydro gen</w>
hol č
hod not</w>
hel p
hal f-
gran ted</w>
gra fi
gr ay</w>
glob álního</w>
galax ií</w>
fil ling</w>
fe ature</w>
fal ls</w>
ek s</w>
e ous</w>
dy nami
dv aná
dri vers</w>
dra h
domov </w>
dome stic</w>
disor ders</w>
dig it</w>
di oxide</w>
dea ths</w>
de va
de dic
dat y</w>
dat ing</w>
dat .</w>
cur ricu
crimin al</w>
cour t</w>
control ling</w>
consci ously</w>
clo thes</w>
class ic</w>
chá me</w>
char ges</w>
cap ture</w>
c ry</w>
by znys</w>
bav í</w>
ballo on</w>
b ené</w>
av </w>
atmosfé ry</w>
an ů</w>
amer ický</w>
aliz ovat</w>
al ists</w>
al ga
ak or
ag en</w>
ad ing</w>
ac qui
ab s</w>
S im
Rwan da</w>
R oz
R ay</w>
P la
Ne anderth
Nanopat ch</w>
Londý ně</w>
Isl and</w>
Inter national</w>
E thi
Congre ss</w>
C I
B ell</w>
Asi e</w>
Amaz on</w>
Afri ku</w>
9 9
7 0s</w>
5 8</w>
5 5</w>
- based</w>
ň uji</w>
ň oval</w>
Írá nu</w>
zá zrak
zá sa
změ řit</w>
zdán livě</w>
zavol al</w>
zapoj ení</w>
zaměst nání</w>
zajímav ého</w>
zabý vá</w>
zab r
z ul
z mr
y ou
y o</w>
wel come</w>
wash ing</w>
vý bu
vyzkouš et</w>
vy sl
vy plý
vy mysleli</w>
vy le
vy hrál</w>
vlák na</w>
veřej nosti</w>
vezmě me</w>
veget ables</w>
ved ly</w>
ve čí
v ané</w>
uživatel ů</w>
univerz itu</w>
um ím</w>
uli cích</w>
u te</w>
u krad
u bi
tě l</w>
tre ating</w>
tr vat</w>
to ys</w>
tiv ní</w>
ti le</w>
ti ed</w>
ten ds</w>
ta jící</w>
t ill</w>
sí te</w>
svět ových</w>
stráv ila</w>
st un
st ac
spiritu al</w>
sou pe
sm ýš
skup inou</w>
sil ly</w>
sekt oru</w>
scho ol
s ní</w>
s le</w>
rů ž
roz pad
resi stant</w>
repe at</w>
reduc tion</w>
recog nition</w>
real itou</w>
pů vod</w>
pří ště</w>
pře su
pís ni
pá dem</w>
ps ala</w>
průměr né</w>
produk ovat</w>
pro šli</w>
pro posed</w>
pre dá
prak ticky</w>
pos lu
pos es</w>
polit ických</w>
pod porov
po jetí</w>
ph y
pengu ins</w>
pe st
pe ch</w>
p ál
otáz ce</w>
os ví
off ered</w>
od had</w>
o su
ně ny</w>
náro čné</w>
nu tím</w>
nech áte</w>
ne mohu</w>
nad ále</w>
mí ra</w>
má n
myš i</w>
musc les</w>
mus ician</w>
mimo řádně</w>
mil ovat</w>
mid -
men ším</w>
me etings</w>
mat ku</w>
m koliv</w>
lé to</w>
lá skou</w>
lik es</w>
leh ce</w>
l ing
ky slík</w>
ku ř
kmen ové</w>
klid ně</w>
k ý
jí c</w>
je dete</w>
inter acting</w>
inspir ation</w>
in tri
in stantly</w>
ick ed</w>
i o
i ans</w>
hmy zu</w>
hl ad</w>
hist ori
hand le</w>
go als</w>
fru it</w>
fotogra fii</w>
for em</w>
filoz of
fa iling</w>
ez peč
exist enci</w>
exist ed</w>
ex ce
ev ening</w>
eleph ant</w>
dě lo</w>
dí t</w>
dél ku</w>
dél ka</w>
dá vám</w>
drá ze</w>
dolar y</w>
dol ar</w>
dokáz ala</w>
dní mi</w>
dneš ních</w>
dec line</w>
dan ou</w>
cro ps</w>
conduc tor</w>
clas ses</w>
chy bu</w>
chlap ci</w>
chann el</w>
certain ty</w>
c od
budov </w>
ber u</w>
ban ky</w>
b ak
automat ically</w>
au tor</w>
au lt</w>
as pir
ar a
an ém</w>
allo wing</w>
al ty</w>
affe cts</w>
adap t</w>
achiev ed</w>
abstr act</w>
TED Talks</w>
T as
Su b
R ed</w>
Qu e
Mon tan
M ay</w>
Leon ardo</w>
L ou
K en</w>
Jup it
I .
H im
D ec
Cas sin
CAPTCH A</w>
A ch</w>
6 4</w>
19 80</w>
ž ší</w>
č oč
ze ch</w>
zač něme</w>
zalo žil</w>
za žili</w>
z přístup
z lé</w>
z dát</w>
z bý
windo ws</w>
wi re</w>
wheel chair</w>
vá ží</w>
vyš lo</w>
vypad ala</w>
vyjád ření</w>
vy jedná
vlá dě</w>
vlá dou</w>
vlast nost</w>
v i</w>
určit ým</w>
under water</w>
u měli</w>
trag é
tr u</w>
toler ance</w>
ti red</w>
th u
ter ing</w>
tem né</w>
televi zní</w>
t un</w>
sy l
sustain ability</w>
suggest ed</w>
stupu jí</w>
strate gie</w>
sp her
souč tem</w>
souvislo sti</w>
so- called</w>
sní žení</w>
sna žíte</w>
sk en
see ds</w>
se stry</w>
se ssion</w>
scor es</w>
sc ore</w>
sandwi ch</w>
san it
sac rif
s mu</w>
s che
rozší ření</w>
ri bat
ribat i</w>
resc ue</w>
read s</w>
re view</w>
re venue</w>
re son
r ating</w>
připrav it</w>
překá žky</w>
před vádě
pě ti
pí seň</w>
psy chop
průzku m</w>
pron á
pro vádí</w>
prezent aci</w>
pres ented</w>
preg nant</w>
poč kat</w>
pouh ých</w>
potřeb né</w>
podporu je</w>
po ol</w>
plá nu
peri od
per pe
pacient ům</w>
ov </w>
organ ize</w>
orang e</w>
opravdov ý</w>
omez ené</w>
od por
nor th</w>
nejlep ším</w>
ne dokáže</w>
ne chtěli</w>
naslou chat</w>
naraz il</w>
nak r
my th</w>
muse jí</w>
multi p
moleku l</w>
mix ed</w>
minu lost</w>
minist er
main tain</w>
mag ical</w>
ma xim
m lou
lí p</w>
léč ba</w>
lá tku</w>
lob ou
life -
li ft</w>
letě l</w>
len ni
le x
lan ded</w>
kru hu</w>
kon čet
kon ec
kamar ád</w>
k é
k g</w>
jmen oval</w>
jedno mu</w>
itel ů</w>
intr ins
inter active</w>
inov ací</w>
innov ative</w>
infra strukturu</w>
in sur
ic a</w>
i ště</w>
ho st</w>
hmot nost</w>
hledi ště</w>
hlas u</w>
he ight</w>
green house</w>
gra fie</w>
glob alization</w>
ge o
g ru
fyzi ka</w>
ful l-
fo sil
fin ds</w>
fenom én</w>
expon ential</w>
ex tent</w>
et ro
er u</w>
em ail
element ary</w>
ekonom ové</w>
ekonom ického</w>
educ ated</w>
e ka</w>
du chu</w>
drop ping</w>
doz en</w>
dovol í</w>
doporu č
don ut
dokonal é</w>
do od
do jít</w>
distribu ted</w>
disappe ared</w>
dis ap
di č
desig ners</w>
demo graf
de cre
ct ic</w>
cor al</w>
conne cto
chá pu</w>
chlap í
c uje</w>
c al</w>
brea the</w>
br ali</w>
bohat é</w>
bo že</w>
bicy cle</w>
bat tery</w>
bar ev</w>
b old</w>
audi o</w>
at ul
astoni shing</w>
ast s</w>
as sum
as ide</w>
as i
ar d
an na</w>
al y
al koho
ak y</w>
accu mul
acce pt
TED Talk</w>
T im</w>
T en
S har
R evolution</w>
Pro č</w>
P R
Mo on</w>
Minist er
Ma h
M oh
Kon gre
Ki ribati</w>
Juli an</w>
I n</w>
G and
Flor ida</w>
FO X
En cel
DV D</w>
D is
Cassin i</w>
An der
Abra ham</w>
A no</w>
A la
1 30</w>
žen ami</w>
špat nou</w>
š oku
ř en</w>
č ných</w>
č iny</w>
úspěš ný</w>
ú hlu</w>
ú hel
á ním</w>
závě ru</w>
zákon a</w>
zábě r</w>
zou fal
zku sil</w>
zi i</w>
zbra ň</w>
zan e
zak lad
zab ezpeč
za ř
z važ
z ní
z ma
z ie</w>
z ev
y n</w>
větš ím</w>
vědo mo
vý šky</w>
vzor ec</w>
vyso ká</w>
vy růst
vti p</w>
vrá tíme</w>
vi zi</w>
veřej ných</w>
vaccin es</w>
ut voř
un known</w>
ul u</w>
u ši</w>
tý kající</w>
tá me</w>
transpor t</w>
transl ation</w>
tr žní</w>
tr ap
thro po
th al
teror ist
ter énu</w>
ter -
t z</w>
t anc
t ac
stráv ili</w>
stop y</w>
stat ement</w>
stan u</w>
spo dní</w>
soutě ž</w>
sou těž
sm iling</w>
si mu
sestr a</w>
sedě li</w>
sch ol
sc ales</w>
s now</w>
s ak
rozsa hu</w>
rod inou</w>
ro of
rez erv
repor ted</w>
re vol
re actor</w>
re act</w>
rar ely</w>
ran k</w>
rakov inou</w>
ra ft</w>
r ní</w>
qu ant
přiv ést</w>
představ ili</w>
přednáš ek</w>
pře dem</w>
píš u</w>
py l</w>
pt ám</w>
proce sy</w>
prezid ent</w>
prezent ace</w>
prav dou</w>
počí tat</w>
poku sy</w>
poko ji</w>
poh rom
po vedlo</w>
pl át
pis ů</w>
phenom ena</w>
ou ter</w>
orchest ra</w>
odhal uje</w>
ochot ni</w>
occu r</w>
occas ion
occasion ally</w>
objev ují</w>
obje v</w>
ně čí</w>
ně ho</w>
ná vy
ne skutečně</w>
ne dokážeme</w>
naznač uje</w>
na hlí
měří tko</w>
my slete</w>
moz em
moun tains</w>
modr á</w>
mikro f
mi mozem
mani fe
mal á
léč by</w>
lu s</w>
lin ked</w>
le gra
las er</w>
lad u</w>
la ční</w>
kře sť
kval itní</w>
konec konců</w>
ka ch
jist í</w>
jedin ého</w>
jaký koli</w>
j oke</w>
j ar
iz ace</w>
it ous</w>
inov aci</w>
inj ury</w>
in ch</w>
im pres
hon ey</w>
hodnot it</w>
hodn ých</w>
hlubo ké</w>
hlou bě
hloubě ji</w>
hlav a</w>
he mis
h áz
h ové</w>
genet ické</w>
fron t
fli p</w>
fig uring</w>
fi kovat</w>
fem ales</w>
f it
extré mní</w>
expect ancy</w>
ex </w>
et a</w>
engine ered</w>
en dly</w>
en cy
en ci
en able</w>
eg gs</w>
ef ly</w>
econom ist</w>
eb ast
důvě ry</w>
dět skou</w>
děku ju</w>
dáv ali</w>
dra wn</w>
dol í</w>
disor der</w>
dinosau r</w>
di rty</w>
destro y</w>
den sity</w>
demonstr ate</w>
dam n</w>
cí tě
cu te</w>
contr ary</w>
contr act</w>
consum ers</w>
con tains</w>
compar ison</w>
clim b</w>
ci zí</w>
ci fer
chu dí</w>
chlap ce</w>
chi ps</w>
che jte</w>
ch ovali</w>
cest ování</w>
cer em
cel ku</w>
cap </w>
c ave</w>
bro wn</w>
bom bar
bakter i
b o</w>
b li</w>
au tem</w>
atom ů</w>
at om</w>
ar med</w>
amer ického</w>
am eri
alga e</w>
acce s
Z ip
Vietna m</w>
U V</w>
U N
TED x</w>
Stan ford</w>
S qu
S in
S ebast
S am</w>
Pod í
P ře
Mar su</w>
M oun
L .A.</w>
Joshu a</w>
John ny</w>
J aze
J ack</w>
Indu s</w>
Holly wood</w>
E astern</w>
D ut
Christ mas</w>
Chic ag
Char lie</w>
Centr al</w>
C el
C ap
C N
B A</w>
20 30</w>
špat ným</w>
špat ného</w>
ši f
š ok
ře ky</w>
ř ela</w>
ú prav
záv az
zákon ů</w>
změ nou</w>
zmi zí</w>
zab ere</w>
za to</w>
za ost
z řejmé</w>
wi rel
všim nout</w>
vše obec
vš udy
věd i</w>
výraz ně</w>
vý raz</w>
vý mi</w>
vý hodu</w>
ví ch</w>
vá hu</w>
vzni ku</w>
vz ru
vytvo říte</w>
vyrost l</w>
vynále z
vynalez l</w>
vyh nout</w>
vy pí
vel ko
uvědom ovat</w>
uděl alo</w>
u věřit</w>
tý mem</w>
tvoř iv
tumor s</w>
transm it
tr icks</w>
tot ož
th ri
t ická</w>
sí d
super -
sub tle</w>
stro j
stor ms</w>
stop s</w>
stej ného</w>
spe akers</w>
sou l</w>
sou d
smě r</w>
složit ý</w>
skon čit</w>
sk ů</w>
set t
serv ing</w>
sen dvi
sekt or</w>
se min
se ek</w>
se -
scul p
s ý
s mu
s can</w>
roz umíte</w>
ro cks</w>
re turned</w>
re ments</w>
radi kální</w>
při šly</w>
přest áv
přes né</w>
prů kop
provádě t</w>
proved l</w>
prou du</w>
produc es</w>
practic es</w>
pozor ujeme</w>
pozná te</w>
považ uji</w>
pod stoup
pleas ant</w>
pig ment
philosop h
ph as
person ality</w>
pat ent
par ties</w>
pal ivo</w>
p uni
p at</w>
ostro v</w>
ordin arily</w>
open s</w>
observ ation</w>
ob stac
o znám
o heň</w>
ni čí</w>
neu vědo
ne potřebujeme</w>
ne musím</w>
naš tv
nazv ali</w>
nar uš
naps áno</w>
nabí dnout</w>
na cházejí</w>
n ó
n ka</w>
mus icians</w>
mu zi
mp tions</w>
moleku lární</w>
moder ni
mer ely</w>
me al</w>
mar i
mar at
m ac
lov ání</w>
libr ary</w>
li c</w>
let ého</w>
let á</w>
ledov ce</w>
ky sel
kor por
kombin ace</w>
ko mod
ko le</w>
klid u</w>
k lobou
jíd le</w>
jist ém</w>
jezd it</w>
jak si</w>
j ším</w>
iti vely</w>
ist i</w>
islá m
ir on</w>
intri gu
intelig entní</w>
ingredi ents</w>
in zul
in ici
ilu ze</w>
ili con</w>
id es</w>
ic ists</w>
i ds</w>
histor ical</w>
hez ké</w>
hemis fé
health ier</w>
h ý
h az
gen oci
ga ther</w>
for d
fing er</w>
fik ace</w>
fale š
fa ste
f oun
f ear
exter nal</w>
expres sions</w>
expla ining</w>
ex pos
ess ence</w>
epidemi e</w>
entreprene ur
enter ed</w>
en á
en h
ef f</w>
dů věř
děsiv é</w>
dí l
dr ill</w>
dospě lých</w>
dospě lé</w>
domov a</w>
dom ně
dob </w>
discu ss</w>
dire ctions</w>
destro yed</w>
desig ns</w>
demonstr ation</w>
deci sion-
de pressed</w>
custom ers</w>
curricu lum</w>
cru cial</w>
cro ws</w>
cre ature</w>
contin ues</w>
consu me</w>
conflic ts</w>
compe te</w>
co ho
chy tří</w>
c and
bub bles</w>
brá ní</w>
bo o</w>
bezpeč nosti</w>
bar s</w>
bam boo</w>
back wards</w>
b át</w>
av at
attr act</w>
as ive</w>
ar mo</w>
an atom
algorit my</w>
al ph
al coho
agricul tural</w>
ad voc
ad emi
Yem en</w>
Tit an
Squ are</w>
S ilicon</w>
R ed
Par kin
Nig eria</w>
N G
Micro soft</w>
M oz
Le ban
Kel ly</w>
K o
Jeff er
J une</w>
J eff</w>
Har ry</w>
H aw
G ran
F il
D .C.</w>
Chi le</w>
C oke</w>
Bl ack
A s
A le</w>
A ha</w>
20 ,000</w>
žral ok
živ í</w>
že te</w>
že h
ř ad</w>
ď á
čí cí</w>
čá ra</w>
čte te</w>
čist é</w>
čin ění</w>
če kají</w>
č tu</w>
ú ře
zů stal</w>
zře tel
zásad ně</w>
zá stup
zvíř at
zvykl í</w>
zran ění</w>
způsob it</w>
znám ky</w>
zad armo</w>
work er</w>
what so
whatso ever</w>
wan dering</w>
větr u</w>
vzpo meňte</w>
vyu žili</w>
vysvět lil</w>
vyrů stal</w>
vybr al</w>
vra ťme</w>
vol bu</w>
veřej ného</w>
ver si
ved lejší</w>
ve deme</w>
vari ation</w>
v sad
urč uje</w>
up per</w>
univerzá lní</w>
under lying</w>
un likely</w>
un k</w>
třetí ho</w>
tě lem</w>
tvůr čí</w>
traje ct
trag edy</w>
tr ends</w>
tox ic</w>
tisí ců</w>
teror ismu</w>
tenden cy</w>
te oret
t our</w>
t oru</w>
t ilo</w>
swi mming</w>
stud ovali</w>
stu peň</w>
strugg ling</w>
staveb ní</w>
stat ic</w>
st on
st ig
st ability</w>
ss el</w>
softw aru</w>
smo ke</w>
sm an</w>
sil ent</w>
shromá žd
shoul der</w>
shor e</w>
shar p</w>
sh ine</w>
sh a
sezna mu</w>
sen ior</w>
sdí líme</w>
s nak
rů m</w>
rozvin ut
rozto mil
rozsa h</w>
rhy th
reve al</w>
ra ising</w>
r ný</w>
r h
půj č
pří prav
přemýšl ela</w>
překvapiv é</w>
představiv osti</w>
propojen é</w>
program ming</w>
produ kuje</w>
produ kov
pro pu
požá dali</w>
pozná m
pou žijeme</w>
potk ala</w>
posledn ího</w>
polit ici</w>
poin ting</w>
podmí nek</w>
po tá
pi one
pi le</w>
par lam
p ause</w>
ot ou</w>
ot on
organis my</w>
onemoc nění</w>
on stage</w>
omlou vám</w>
okou z
off icial</w>
obsa hují</w>
objev ily</w>
ob zvlášť</w>
o cel
nechce te</w>
ne vi
ne potřebujete</w>
ne měly</w>
n ské</w>
n alo
mys lit
moudro sti</w>
moc ný</w>
mlá ď
mis sed</w>
minist er</w>
mimin ka</w>
ment ální</w>
medicí ny</w>
mechan ismus</w>
mat ure</w>
mat u</w>
mar ine</w>
mal aria</w>
m ar</w>
lin ear</w>
li ví</w>
letad el</w>
let ting</w>
lau gh</w>
l ation</w>
kře h
káv u</w>
ky slí
kru h</w>
kou le</w>
konflik tu</w>
ko ordin
klu ci</w>
ka ční</w>
k el
k cí</w>
jed li</w>
jaz z</w>
it ého</w>
inv ite</w>
institu tion</w>
inform ed</w>
incre ases</w>
incenti ve</w>
in no
in ami</w>
imag ing</w>
ident itu</w>
ici ent</w>
hra čky</w>
hous ing</w>
hor se</w>
hom eless</w>
heav en</w>
han g</w>
halucin ace</w>
gr ace</w>
fri endly</w>
flo ating</w>
fix ed</w>
fil ms</w>
fil mov
ferti liz
fantast ické</w>
ey e
experi encing</w>
excu se</w>
eri i</w>
en ém</w>
effor ts</w>
důležit ým</w>
dě le
dí vají</w>
du st</w>
doprav y</w>
do spí
div né</w>
dire ctor</w>
di verse</w>
di sp
dent ally</w>
deliver ed</w>
de priv
d ated</w>
ctiv ity</w>
cro ssing</w>
copy right</w>
co ck
clou ds</w>
cir cul
che aper</w>
budov u</w>
bu st</w>
bre aks</w>
bor u</w>
bor ders</w>
bla me</w>
bili ty</w>
ba th
b ky</w>
auth ent
assu mptions</w>
aspe cts</w>
armá da</w>
ar ran
apart ment</w>
anglič tiny</w>
aliz ing</w>
aer od
a u</w>
Wom en</w>
V ol
T om
T am
S R</w>
R A</w>
P ep
Manhat tan</w>
L ov
Ev an</w>
Eli zab
Ch il
Bron xu</w>
Bo že</w>
Be eth
B ra
B or
B M</w>
5 2</w>
3 0-
199 8</w>
199 0s</w>
ž kou</w>
člán ky</w>
ú ch
úch vat
á ti</w>
získ áme</w>
zá pas
ztrá cí</w>
zpí vat</w>
zmí nit</w>
zi on
ze c</w>
zajímav ou</w>
z rad
y e</w>
writ ers</w>
web ové</w>
věř il</w>
vědeck ý</w>
vě d</w>
výjim kou</w>
ví ru</w>
vá n</w>
vzájem né</w>
vznik nout</w>
vznik la</w>
vy střel
vy spě
vy chov
vní má
vit am
virtu ally</w>
vidě ní</w>
un able</w>
uměl ci</w>
ubi qu
u um</w>
u la</w>
u jícího</w>
ty -
tich o</w>
tic ally</w>
thro wn</w>
th ick</w>
terrori sts</w>
ter ies</w>
tepl otu</w>
t ap
t ale</w>
sí ch</w>
sum mar
suff ered</w>
st u</w>
spoust ě</w>
společen ských</w>
soukro mé</w>
so bec
sk ří
sk rom
sk ok</w>
sil nou</w>
she ets</w>
sh er</w>
sen sing</w>
s its</w>
ry b</w>
rozho du
roz umí</w>
rov ná</w>
ri i</w>
ri ght-
replic ate</w>
rel ations</w>
recogni zed</w>
reak cí</w>
re stor
re put
re moved</w>
re fri
refri ger
qu alities</w>
příj mu</w>
pří no
překvap ující</w>
předcho zí</w>
př .</w>
ptá ků</w>
průměr ná</w>
procent ní</w>
pro vides</w>
pro té
prin ts</w>
preci se</w>
pr ud
považ ujeme</w>
potí že</w>
postup y</w>
posl al</w>
porov ná
polov iny</w>
podstat ou</w>
po řízen
po em</w>
pli c</w>
plan kt
pit ch</w>
pi g</w>
phys ician</w>
photograp hy</w>
ph ony</w>
par as
pamat ovat</w>
pain ted</w>
p it</w>
oz brojen
ovan ým</w>
ov lad
ot rav
orang ut
oper ations</w>
op posed</w>
op ar
okra ji</w>
ohrom ně</w>
ohrom nou</w>
odhal it</w>
ode jít</w>
od pu
od kaz
obr ny</w>
oblíben ých</w>
obje ven
ob oh
ob l
o logist</w>
ně ním</w>
ně ni</w>
nu ts</w>
nor thern</w>
nev lá
neuvěřitel ný</w>
neu stál
nená vi
nej menší</w>
ne vidíme</w>
ne souhlas
ne dělá</w>
nane štěstí</w>
nak ed</w>
nak až
na sad
mr av
množ stvím</w>
mikro by</w>
meth ods</w>
mar ath
man žel</w>
mag nific
lá sce</w>
lou ri
livo sti</w>
lev né</w>
les k</w>
lep šímu</w>
le f
le ep</w>
lan du</w>
kyber -
krát ko
kon centr
klí č</w>
kl on
k in</w>
jádr o</w>
jedin ci</w>
jedin ce</w>
jazy ce</w>
jakou koliv</w>
iti ous</w>
inžený r</w>
insul in</w>
institu cí</w>
inspi rová
in i</w>
improvi z
il la</w>
i k</w>
hru b
hra jete</w>
hon ey
homo sexu
hod l
hmot nosti</w>
hi re</w>
her self</w>
hambur ger</w>
gu ide</w>
glas ses</w>
gh ai</w>
fron tal</w>
formu la</w>
fo ods</w>
fir m
fil m.</w>
fi sh
f louri
et te</w>
ent ary</w>
embr ac
echno logy</w>
e mise</w>
e aten</w>
dě vč
dá no</w>
dvac eti</w>
dramat ically</w>
dovol uje</w>
do se</w>
do main</w>
deví ti</w>
der ly</w>
def ense</w>
dcer y</w>
cr ying</w>
conduc ted</w>
con tain</w>
communic ations</w>
colleag ue</w>
cent ů</w>
c up</w>
c ous
c lar
c ement</w>
c ake</w>
by t</w>
bri efly</w>
bo ards</w>
biom ateri
b low</w>
b en</w>
b ags</w>
at tribu
as sign
armá dy</w>
argu ing</w>
ar re
ar ity</w>
appe ared</w>
analy z
ag ent</w>
ag ency</w>
advent ure</w>
ad ding</w>
acces sible</w>
Virg in</w>
Te sla</w>
T uni
Sus an</w>
Sun day</w>
Shan ghai</w>
R omo</w>
P ři
O s</w>
Nig éri
Mo ore</w>
Mi ke</w>
McDon ald</w>
L ad
Kor an</w>
K anad
Je wish</w>
H al
Gr and</w>
E l</w>
Car l</w>
C lin
Blu e</w>
Benj amin</w>
B M
Američ ané</w>
Afgh an</w>
A my</w>
5 0-
3 0
1 40</w>
život ním</w>
ž ce</w>
šťast né</w>
šé f
šen á</w>
řed itel</w>
ře ší</w>
účin ky</w>
úč el</w>
úsmě v</w>
ú dolí</w>
í nu</w>
á š</w>
Írá n</w>
zážit ky</w>
závislo st</w>
způso bují</w>
zmá č
zkouš ky</w>
zen a</w>
zaměstnanc ů</w>
zahran iční</w>
zad ní</w>
weal thy</w>
wan ting</w>
všudy přítom
vědeck ých</w>
věd ce</w>
vč el</w>
východ ě</w>
vý ro
ví no</w>
vá lek</w>
vz adu</w>
vytvo říme</w>
vyrob ili</w>
vy tisk
vy ho
vy dat</w>
vojá ků</w>
vojá ci</w>
vlá ken</w>
vlá dní</w>
vill ages</w>
va ření</w>
use um</w>
un its</w>
umíst it</w>
uli c</w>
u prch
u plo
u c
tě sně</w>
tvo říme</w>
tré nov
thro wing</w>
t less</w>
syn d
super market</w>
suggest ing</w>
stv u</w>
strav ování</w>
stav bu</w>
sta rost
st á</w>
st ly</w>
spe ct
součas ný</w>
sou du</w>
sou dce</w>
služe b</w>
slov em</w>
sle ch</w>
sklad by</w>
sil nici</w>
schů z
schizophren ia</w>
sam ých</w>
sa har
s al</w>
ru kama</w>
roz sví
rel ax
regi onu</w>
recom men
re ž
re tro
re cover
r ings</w>
quar ters</w>
pů jdete</w>
příčin ou</w>
přizpůsob it</w>
připo mín
přines l</w>
přine sla</w>
přen os
před vádí</w>
před sud
pře de</w>
psycholog ists</w>
prototy pe</w>
prostře dek</w>
pro pad
pro mluvit</w>
pro li
pro bud
pre tend</w>
prav ý</w>
prac ujete</w>
potřeb ovala</w>
potře b</w>
pos il
polo žil</w>
poli cies</w>
podob ná</w>
po stu
po myslela</w>
po jem</w>
pe t
paral lel</w>
p acked</w>
of ici
oc to
obyv atele</w>
o stech</w>
o kl
o do
ně ný</w>
ná hodně</w>
nov inách</w>
no sit</w>
nejs il
nej nov
nej bliž
neigh bor</w>
ne existují</w>
ne ander
na mí
na jevo</w>
mí me</w>
mysl íš</w>
mys lem</w>
model ů</w>
moc né</w>
mo ři</w>
miliar du</w>
matemat ické</w>
mar sh
mal ými</w>
ma xi
lo op</w>
li ve
le tos</w>
l eli</w>
ká zání</w>
kval ita</w>
koleg ové</w>
kav ár
kamer u</w>
k ome
k ick</w>
judg ment</w>
jmen uji</w>
jin am</w>
jednoduch ou</w>
jaký si</w>
jak koliv</w>
itel ná</w>
it ost</w>
it al
inter akci</w>
insi ghts</w>
inse ct</w>
inform acím</w>
in mates</w>
in ku</w>
in ci</w>
ic ation</w>
i ses</w>
hor eč
homo sexuální</w>
hol ka</w>
hmot u</w>
hled á</w>
hi p
heter o
hemi sphere</w>
head ed</w>
he slo</w>
har m</w>
h rob
gravit ace</w>
gar et</w>
fot ek</w>
focu sing</w>
flexi ble</w>
fir m</w>
fil ter</w>
fan to
fac tor
explor ing</w>
expe d
eri ous</w>
electr onics</w>
eko systém</w>
e my</w>
dů chodu</w>
dí vek</w>
dro g
doz věděl</w>
dov ě
dosáh ne</w>
dost aly</w>
disku ze</w>
din bur
dic tionary</w>
daugh ters</w>
cy kl
cvi č
comfor t</w>
collabor ative</w>
class rooms</w>
ck ou</w>
civiliz ations</w>
cest ovat</w>
cen ě</w>
c ové</w>
byto st</w>
boj ov
bo om</w>
bez domov
bask et
autor it
ativ ních</w>
ar ro
ang les</w>
analy ze</w>
amer ická</w>
ag no
adap t
X L</w>
Wh it
T ed</w>
Sahar an</w>
S MS</w>
R G</w>
Ne ws</w>
N ev
N et
M useum</w>
J ak
Him al
G il
G ener
Ethi opia</w>
E dinbur
De velop
D AR
Con ne
Col um
Col lege</w>
Col a</w>
B a
4 3</w>
197 0s</w>
19 00</w>
žá rov
žen i</w>
ž ity</w>
šťast ná</w>
šoku jící</w>
šimpan zi</w>
š ilo</w>
Švéd sko</w>
čokol á
ý t</w>
úč et</w>
úspěš ně</w>
át ko</w>
zv ané</w>
ztr atil</w>
znač ně</w>
zloč inu</w>
zkou šíme</w>
zdro ji</w>
za há
z pracov
z dají</w>
z bývá</w>
win d
we ak
war ri
war ning</w>
všech nu</w>
vý kon</w>
vypad aly</w>
vyni kající</w>
vy ro
vy nalé
vy myslel</w>
vozí k</w>
va řit</w>
v in</w>
un av
uměle cké</w>
uměl ce</w>
umož nit</w>
ukáz ku</w>
uhlí k</w>
udržitel né</w>
u dělejte</w>
tře tím</w>
tý dně</w>
transpar ency</w>
tran scen
ton gue</w>
tlačí tko</w>
titu l</w>
ti me-
thre sho
teč ky</w>
test ování</w>
ten ing</w>
tele scope</w>
te ars</w>
tan eč
t ap</w>
synd rom</w>
sympto ms</w>
sy ne
stráv it</w>
str ý
stor es</w>
stav íme</w>
star ají</w>
st é</w>
st ní</w>
ss ors</w>
squ ar
sp át</w>
sp let
sou p</w>
some day</w>
smo oth</w>
sho cking</w>
sh room</w>
sh it</w>
sh i</w>
sen i
sekun dy</w>
seh nat</w>
se where</w>
se ed</w>
samot ná</w>
sam ém</w>
sal es</w>
s né</w>
s my
rozví jet</w>
roz dělit</w>
rovnová hu</w>
ro ční</w>
rez ist
refu ge
recor ding</w>
re stric
re mix</w>
ran dom
racion ální</w>
přelo žit</w>
předpoklá dám</w>
předpo klád
před nost</w>
pře tvá
pře hrá
prů měr</w>
prv ot
proje kt
profesion ální</w>
pres entation</w>
pravid ly</w>
pr am
poz nali</w>
považ ovat</w>
potřebu ju</w>
poku su</w>
pohrom adě</w>
podí vala</w>
po mohlo</w>
po cházejí</w>
planet ary</w>
photograp her</w>
perce ive</w>
par ku</w>
pan els</w>
oček ávat</w>
oun dly</w>
ot ické</w>
org án</w>
or g</w>
oper ací</w>
op u
oh ledem</w>
od mí
oblí bené</w>
ob serve</w>
o sam
ná cti
nu cle
nic í</w>
ni čemu</w>
ni kde</w>
nejspí še</w>
nedostat ku</w>
ne ú
ne viditelné</w>
ne stane</w>
ne při
ne pat
nazv at</w>
napo do
na sa
n is</w>
musel o</w>
mlé ko</w>
me zi
m ace
lim b</w>
li í</w>
li ament</w>
le ather</w>
law yers</w>
l ým</w>
kval it
ku předu</w>
krás y</w>
konverz aci</w>
kontro ly</w>
komplet ní</w>
jí ždě
jí z
jedin ců</w>
jab l
j ské</w>
instru ctions</w>
infe ction</w>
in k
hu b
hor ní</w>
hez ky</w>
hel lo</w>
h il
got ta</w>
glob ally</w>
geome tr
genet ically</w>
gal l
ga ined</w>
fun ded</w>
fri end
frequ ency</w>
form ing</w>
flo wing</w>
flas h
fir ma</w>
fi bers</w>
faste st</w>
facili ty</w>
extra ordinarily</w>
evol ve</w>
ent ag
encoun ter</w>
empati e</w>
em phas
el sewhere</w>
ekonom ice</w>
e pi
dře vě
dá n</w>
di ve</w>
determin ed</w>
dest iny</w>
desig né
decision- making</w>
dea f</w>
dal eka</w>
cy cles</w>
corpor ations</w>
conserv ation</w>
conclu de</w>
ch ase</w>
car ried</w>
c ování</w>
c is</w>
by tí</w>
buň kami</w>
bur den</w>
bud ování</w>
brý le</w>
brea thing</w>
brat r</w>
bot tles</w>
bo w</w>
believ es</w>
bel on
beg un</w>
bav íme</w>
ba i</w>
b ř
b ell</w>
b at</w>
att itude</w>
aster oid</w>
aplik ovat</w>
announ ced</w>
an no
an der</w>
am in
al th</w>
al ismu</w>
ak a</w>
afr ické</w>
absolut ní</w>
Y ves</w>
V ě
V an</w>
Ugan da</w>
S ur
Or gan
Ni ke</w>
Nel son</w>
Ne j
N ic
M om</w>
L et</w>
K ur
Japon sku</w>
Isra eli</w>
I van</w>
Encel ad
E di
Christi an</w>
C our
C an
Bro okl
Brazí lii</w>
Banglad é
B ir
Au gu
Angli i</w>
Alzheim er
A M</w>
9 0.</w>
3 50</w>
199 4</w>
žlu tá</w>
ži jících</w>
žen ě</w>
ň me</w>
červ enou</w>
čer nou</w>
čel it</w>
ú ni
é ru</w>
é ni
át ory</w>
á tu</w>
získ ávají</w>
zá dech</w>
zvlá dnout</w>
zprac ování</w>
zná sil
zhr ou
zd rát
zastav í</w>
zak on
zak lá
za star
za cház
z ování</w>
z ation</w>
wor thy</w>
wit ness</w>
wid ely</w>
vždy ť</w>
vš emu</w>
výzv u</w>
výbor ně</w>
vý roby</w>
ví ra</w>
váž né</w>
vrá tím</w>
vesmí rem</w>
určit ých</w>
ul trav
ultrav io
ultravio let</w>
u slyšíte</w>
tr ash</w>
továr ny</w>
tká ň</w>
ti al</w>
the oret
ter ror</w>
technologi emi</w>
syndro me</w>
sy nap
svět le</w>
sur faces</w>
success fully</w>
stě ž
studi um</w>
stu dia</w>
strategi es</w>
star ších</w>
star ého</w>
sta ying</w>
spravedl nost</w>
spo ts</w>
sp a
so lid
sklad bu</w>
signific antly</w>
sh ment</w>
ser oton
scrat ch</w>
schop ny</w>
sch vá
sc rap
sc apes</w>
růz ná</w>
ráme c</w>
rá na</w>
rozvo ji</w>
roz en</w>
ri sky</w>
resi li
research er</w>
reklam y</w>
rece ive</w>
raz í</w>
r ku</w>
přizn at</w>
pust ím</w>
pu je</w>
pt áte</w>
prostřed ků</w>
prost itu
prof oundly</w>
pro per</w>
pro dat</w>
privi lege</w>
pres erv
pracov ních</w>
prac ující</w>
požá dat</w>
pozo rová
povz bu
pou ští</w>
post ed</w>
posky tují</w>
poku sů</w>
poh ání</w>
podstat né</w>
podstat a</w>
pod vod
pobí dky</w>
po lé
po krý
po chyby</w>
pi x
per mission</w>
pal m</w>
orig in</w>
or an
opravdov á</w>
op ou
op e</w>
off ices</w>
odpo věděli</w>
odmě nu</w>
od kaz</w>
obě d</w>
obje ctive</w>
obchod ě</w>
ob ý
o živ
ná po
nur ses</w>
nic ky</w>
nev in
nejrůz nější</w>
nejoblíben ější</w>
nech ala</w>
ne říkám</w>
ne zvlá
ne vědí</w>
ne vypadá</w>
ne vidí</w>
ne stojí</w>
ne hod
nar row</w>
naprav it</w>
nak az
n ku</w>
měst ských</w>
mrtv é</w>
mou chy</w>
mlad á</w>
miser able</w>
minim álně</w>
mini mum</w>
mind set</w>
mar g
manag ers</w>
mam mal
mal í</w>
m ing
lot tery</w>
lo ž
lid ským</w>
less ly</w>
len ím</w>
le ver
kvant ové</w>
kre v</w>
kre ativity</w>
každo denní</w>
kan di
kam eny</w>
jour nal
jednotliv ce</w>
j ně</w>
iv ně</w>
ist er</w>
intervie ws</w>
innov ations</w>
inev itable</w>
in kou
impro ved</w>
imag ined</w>
il ling</w>
hu mili
hi a</w>
hel ic
hang ing</w>
hab it</w>
h itting</w>
h ala</w>
grand children</w>
gen eti
gather ed</w>
g on
for mul
fire flies</w>
fav or</w>
fak tory</w>
f are</w>
expan ding</w>
excel lent</w>
er ve</w>
er o</w>
en ství</w>
en abled</w>
el ů</w>
důkaz ů</w>
dokon ale</w>
div or
dimen ze</w>
dev ot
deta iled</w>
demo graphic</w>
de vil</w>
de partment</w>
de ch
de ce
da ň
d it
cítě ní</w>
cí me</w>
cu kr
cov ství</w>
constru ct</w>
conne cting</w>
confu sed</w>
confi dent</w>
concer n</w>
comp elling</w>
comm and</w>
col laborat
ck ého</w>
chá te</w>
chystá m</w>
carto on</w>
bu ried</w>
bor der</w>
blá z
bio logist</w>
bezpeč ně</w>
be zdrát
bar ely</w>
auti st
attrac tive</w>
atel é</w>
ash ed</w>
ar ts</w>
aplik ací</w>
ap ple</w>
an thropo
an gh
after wards</w>
aerod ynam
ad es
achie vement</w>
a ř
a x</w>
Zip car</w>
Virgin ia</w>
V o
Tur key</w>
T ri
T reas
Spe ech</w>
S pi
Paci fi
Něme cku</w>
Mat t</w>
Mah mou
M ot
M ag
L ab</w>
L HC</w>
Ken ne
K ri
K eni</w>
Je ží
Je sus</w>
Japon sko</w>
J ack
I BM</w>
H ele</w>
Gener al</w>
G o</w>
Fri day</w>
E ti
Dut ch</w>
D ave</w>
C u
199 6</w>
šir ší</w>
šest i
č in</w>
úh el</w>
ú mr
é ry</w>
án ské</w>
ztrá ty</w>
zlat é</w>
zkouš eli</w>
zen ím</w>
zam í
zabrá nit</w>
za pojen
z ru
z po
yi eld</w>
wor rying</w>
wi der</w>
was h</w>
všim nete</w>
vět a</w>
význam né</w>
výzkum níci</w>
vý chov
vý car
váž it</w>
vá z
vz dát</w>
vysoko škol
vyso ký</w>
vole b</w>
vojen ské</w>
vit amin</w>
videoh ry</w>
ve ssel</w>
vaz by</w>
v nou
v ice</w>
v av
uvědo míte</w>
uskuteč nit</w>
unbeliev able</w>
u gly</w>
u chop
těž ká</w>
tý dnu</w>
typ ů</w>
tu ally</w>
treat ments</w>
transpar ent</w>
tomu hle</w>
to k</w>
thir ds</w>
ter min
tepl o</w>
te en</w>
t ó
suppor ted</w>
sub sahar
su es</w>
su ch
stá tě</w>
stop u</w>
staro vě
st ání</w>
squ id</w>
správ ným</w>
spo jují</w>
spa ghet
soukro mý</w>
soci ally</w>
sniž uje</w>
smar ter</w>
sm el
složit ost</w>
skuteč ností</w>
skoč it</w>
skon čím</w>
skon čila</w>
sk vr
situ acích</w>
si zed</w>
shi fting</w>
separ ated</w>
sent ences</w>
sch ov
s ran
s prav
s no
s jedno
s bur
roz pozná
roz ez
respe kt
rent gen
reklam u</w>
refle ct</w>
re mix
r ala</w>
qu is
qu ir
přiroz en
přes ný</w>
pře hlí
psycho logist</w>
prozkou mat</w>
prote st</w>
prote cted</w>
prostřed ím</w>
pre hen
podí vá</w>
podstat u</w>
podiv né</w>
po měr</w>
ply n</w>
phy si
peč livě</w>
pev né</w>
perfekt ně</w>
partici pants</w>
p ta
p m</w>
p in</w>
ot ě</w>
ong st</w>
ol a</w>
off ici
ochran y</w>
och r
ob jas
o th
nějak ém</w>
ně ná</w>
návr hu</w>
nástro jem</w>
ná v
nutri ents</w>
nukle ární</w>
now ad
nowad ays</w>
non- zero-sum</w>
nevi dom
neander tál
ne umí</w>
ne musel</w>
ne at</w>
navští vil</w>
nar ů
napos ledy</w>
nak a
na stoup
na př.</w>
mě rem</w>
mě k
mou dr
motiv ace</w>
mobil ních</w>
mo de</w>
min ing</w>
mil oval</w>
micro scop
mechan ics</w>
me e</w>
ma č
m ill</w>
m acy</w>
lé tě</w>
ly n</w>
lu jící</w>
lu ck</w>
lev nější</w>
leh ké</w>
lef t-
la yers</w>
kři ž
kou li</w>
kamará dy</w>
k en
ju jící</w>
ju jeme</w>
jo y
jin dy</w>
jednot ku</w>
j a</w>
itel i</w>
invest ovat</w>
ine quality</w>
imp acts</w>
im per
ili an</w>
i kon
hud bě</w>
hlub ší</w>
har dly</w>
glob álním</w>
gi g
gener ous</w>
gener ací</w>
gen u
gen om</w>
galax ii</w>
funk cí</w>
fun d</w>
fre k
foot ball</w>
fan ou
factor ies</w>
ez ie</w>
exten ded</w>
expe cting</w>
excit ement</w>
ex tend</w>
el derly</w>
e ded</w>
dělá š</w>
dá na</w>
dr ag</w>
douf áme</w>
dot az
dost ávat</w>
don or</w>
domin ated</w>
dobr o</w>
dneš ním</w>
dist ur
discover ing</w>
diplo mat
dinosa ury</w>
dimen sion</w>
dile m
dev ades
descri ption</w>
deb t</w>
de mo</w>
cé vy</w>
cu be</w>
cor respon
comple ted</w>
col li
co smo
co ol
clas si
civi li
chři p
chytře jší</w>
chan ces</w>
carto ons</w>
cap abilities</w>
c ují</w>
běž ný</w>
byto stí</w>
byd lení</w>
bu ji</w>
bel ong</w>
be ch</w>
bat erie</w>
b ami</w>
b ag
auth or
ati vy</w>
arri ve</w>
argum ent
appe ar
ap ers</w>
an nu
an gry</w>
am ongst</w>
ali en</w>
aktiv itu</w>
activ ate</w>
accoun ts</w>
accep ted</w>
a qu
Wikipe die</w>
W ol
Tem pest</w>
St age</w>
S w
S il
S ec
S S</w>
R id
Phili p</w>
Ph .D.</w>
P entag
P an
O ce
Li ban
La w</w>
Kaliforni e</w>
K ans
K al
J em
I r
Ha wa
G race</w>
G las
Fran cis</w>
FOX O</w>
Elizab eth</w>
E conom
Coca- Cola</w>
Ch er
CN N</w>
CI A</w>
C amer
Banglad esh</w>
B run
Aristot le</w>
Ai mee</w>
A ll</w>
A ir</w>
4 7</w>
3 0s</w>
. 5</w>
- ti</w>
- 2</w>
š á
š en</w>
Š angh
ří še</w>
ře me</w>
čtvr ti</w>
č ků</w>
ú va
ú c
é r
ál ové</w>
á řů</w>
zů stala</w>
záj mů</w>
zved něte</w>
zve dnout</w>
ztrá ta</w>
zpomal it</w>
zní t</w>
zn ali</w>
zn al</w>
změ níme</w>
zloč in</w>
zku sím</w>
zen y</w>
zav á
zap lav
zachy tit</w>
z nal
z krá
y an</w>
wirel ess</w>
wh o
význam ný</w>
vý voj
ví na</w>
vzpo men
vzor ců</w>
vznik ne</w>
vz lét
využí váme</w>
vysvět lím</w>
vyprávě l</w>
vy slov
vy lou
vozid la</w>
vla j
vir al</w>
vidí š</w>
video her</w>
vešker ou</w>
ver tical</w>
v iny</w>
v ale</w>
v ad
ultr as
ubiqu itous</w>
u j</w>
u d</w>
typ ické</w>
tu ber
tráv í</w>
tri vi
transpar ent
traject ory</w>
tr žit
tou gh
tor em</w>
tem po</w>
telefon ní</w>
te sto
testo ster
stu d</w>
str un</w>
stej ných</w>
ste al</w>
stav y</w>
standar dní</w>
st ři
spoust ou</w>
spo třeba</w>
speci aliz
spe aks</w>
spaghet ti</w>
soustře dě
sou thern</w>
sof ist
služ bu</w>
sledu jeme</w>
sl ums</w>
skuteč ných</w>
sk ull</w>
sk et
sk e
shado w</w>
sha hi
serv er</w>
secre ts</w>
sear ching</w>
se díte</w>
samot nou</w>
s sions</w>
rozhov ory</w>
roz poznat</w>
rol ling</w>
rodič ov
ri st</w>
remember ed</w>
reduc ed</w>
re store</w>
re s
re pair</w>
re cover</w>
rakov ině</w>
ra jící</w>
přítom nosti</w>
přátel ství</w>
přij el</w>
pře sou
pěst ování</w>
py lu</w>
ptá ky</w>
propag anda</w>
promi ňte</w>
problé mům</w>
problé mech</w>
pro dává</w>
pre p
prep are</w>
pr ask
počíta čem</w>
poznat ky</w>
pou žijete</w>
pou hé</w>
poně tí</w>
pohod ě</w>
po vali</w>
po ta
po li</w>
po ezie</w>
plýt vání</w>
pher d</w>
parado x
par tly</w>
par az
par an
pa ste</w>
ov i
os nov
os ing</w>
organ ické</w>
opat ření</w>
op a
om y</w>
ohro ž
ograp hy</w>
off ering</w>
od lo
občan ské</w>
obč ané</w>
obil í</w>
o str
návr at
náro č
nád ory</w>
nu t</w>
ni i</w>
nesmí te</w>
ner ve</w>
ner ship</w>
ner e
neobvykl é</w>
nen ech
nej </w>
ne top
nav áz
nahrad it</w>
má lní</w>
mož ný</w>
micro -
mi mic</w>
meto du</w>
marsh mal
m ří
m in</w>
lí k</w>
lov al</w>
lo ň
limit ations</w>
lik eli
likeli hood</w>
letad le</w>
lap ping</w>
laborato ř</w>
káv y</w>
krás ně</w>
krajin y</w>
korup ce</w>
její ch</w>
jednoduch ým</w>
it t
interpret ation</w>
inter vention</w>
inten sive</w>
inteligen ci</w>
inspi rovat</w>
ing er</w>
industri es</w>
in t
imun itní</w>
ill ance</w>
il le</w>
hun ting</w>
ho ods</w>
ho hle</w>
hlad inu</w>
helic op
he v</w>
hallucin ations</w>
h acking</w>
grand father</w>
gl ad</w>
gather ing</w>
fyzi k</w>
fot bal
flo ws</w>
finan cí</w>
experiment ů</w>
expan sion</w>
et ed</w>
er ra</w>
entreprene ur</w>
em power
ei ght-
e j</w>
du ší</w>
du ši</w>
du še</w>
druh ých</w>
dr on</w>
do g
dis abled</w>
dic t
di g</w>
deva stat
del icious</w>
defin ici</w>
de al
dan á</w>
curr ing</w>
cukr u</w>
cuk r</w>
cro ss-
consi der
con vic
con sul
con doms</w>
com .</w>
collap sed</w>
claim s</w>
character istics</w>
ch or
cen i</w>
ce st</w>
car di
canc ers</w>
c tu
bý val</w>
bur st</w>
budouc na</w>
bri ef</w>
bo jují</w>
blí ží</w>
biolum ine
bi op
believ ing</w>
beauti fully</w>
b ám</w>
b our
b ill</w>
b i</w>
b arié
au g
ate ful</w>
assem bly</w>
artic les</w>
architec ts</w>
angiogen esis</w>
an k
amy g
am put
ace ful</w>
ab un
Západ ě</w>
Y u
Wh en</w>
War ren</w>
Ver me
Uni verz
U shahi
Tu re
Tas man
Tan zan
Scot t</w>
S pace</w>
Rus sia</w>
R a
Podí vej</w>
N ature</w>
Mel in
Mar co</w>
Mahmou d</w>
M ul
M G</w>
Lor d</w>
Lin col
K ong</w>
K olum
Jer ry</w>
I P
H m</w>
H it
H as
Free Speech</w>
Fi bon
Encelad us</w>
E s
D í
D ur
C oh
Be at
B ul
B at
A ir
A V</w>
40 4</w>
3 9</w>
20 s</w>
20 20</w>
198 9</w>
19 45</w>
11 .</w>
. com.</w>
živ iny</w>
škol ství</w>
šk ody</w>
še jící</w>
š kr
š ily</w>
ř ád</w>
č ip
úžas ného</w>
úto ků</w>
úspě chy</w>
úmr tí</w>
í ny</w>
át ka</w>
á nem</w>
zásob y</w>
záchran u</w>
zá le
zve dne</w>
zmr z
zku síme</w>
zastav ili</w>
zastar al
zas a
zapoj ili</w>
zalo žili</w>
wor ms</w>
weapo n</w>
wat ts</w>
vědo mi</w>
vzor ek</w>
vze stup</w>
vzdál ené</w>
vyro bil</w>
vyplý vá</w>
vynále z</w>
vy šel</w>
vy v
vy tr
visu ally</w>
visit ed</w>
vi ru</w>
venkov ě</w>
vel cí</w>
učitel i</w>
určit á</w>
umož nil</w>
udá lostí</w>
u vidí</w>
těž ký</w>
tí cí</w>
témat em</w>
tá n
tá mhle</w>
tru cks</w>
troj úhel
transl ated</w>
tradič ních</w>
tou hu</w>
to hohle</w>
tl aku</w>
tl ak
tin ou</w>
ti se</w>
tepl ota</w>
tem pem</w>
tan ts</w>
ta st
t mě</w>
sá le</w>
symbo ly</w>
sy ring
svobod a</w>
sv aly</w>
surve illance</w>
stá la</w>
stran gers</w>
stra igh
story telling</w>
stan eme</w>
sta ňte</w>
sta irs</w>
st ach
sp í</w>
son a</w>
sl áv
skvěl ých</w>
skuteč ného</w>
sk op</w>
simul taneously</w>
simil arly</w>
si sters</w>
sho ps</w>
she et</w>
sh ots</w>
sh ell</w>
sens ation</w>
sekun du</w>
se te</w>
sacrif ice</w>
s om
s mus</w>
rych lý</w>
ru sh</w>
rozvo je</w>
rou te</w>
rodi či</w>
rez on
repres ent
repor ts</w>
rema ined</w>
re vie
re solution</w>
re build</w>
rak ety</w>
rak et
radi o
rac ing</w>
qu it</w>
qu ali
půj du</w>
příležit ost
přine se</w>
při hod
předpo klad
před ní</w>
pře tr
př ál</w>
pur suit</w>
pu shed</w>
psycholog ové</w>
prototy p</w>
promot e</w>
pro fi
pro boha</w>
prax i</w>
pravdiv é</w>
povr chem</w>
pot lač
posto je</w>
post eli</w>
post ele</w>
poslou chejte</w>
popu lár
poku sili</w>
pokrač oval</w>
poh ád
po x</w>
po mohla</w>
po et</w>
pil ls</w>
pic ky</w>
perform ed</w>
partner y</w>
pa že</w>
p ound</w>
ox idu</w>
ox id</w>
ow ner</w>
ovo ce</w>
over -
ov ské</w>
ot ře
osvět lení</w>
osob ou</w>
optimis mu</w>
on to
on er</w>
ok s</w>
off ic
odpověd nost</w>
odliš ných</w>
od vahu</w>
od ds</w>
obraz ů</w>
obo jí</w>
o svobod
o se
o od</w>
národ ů</w>
náro dy</w>
ná kla
ná hrad
nu d
nov i</w>
ni ght
netop ý
nepře tržit
nenul ovým</w>
nej as
ne známe</w>
naz pět</w>
nalé hav
na jdou</w>
na hlas</w>
n ine
měst ské</w>
mí ře</w>
moz kových</w>
mot ions</w>
mi m
ment ally</w>
me te
mar ks</w>
map y</w>
magnific ent</w>
m ové</w>
lí bit</w>
lé ze</w>
lu lar</w>
loc ated</w>
liv ých</w>
lin ky</w>
leti ště</w>
len é</w>
le hl
kur z</w>
kreativ itu</w>
kou sku</w>
kou k
konstruk ci</w>
konflik t</w>
komplik ované</w>
klu s</w>
key board</w>
kap al
kamer ou</w>
kal ku
jí ce</w>
ju ice</w>
ji štění</w>
invest ing</w>
intu ition</w>
inte g
ing o</w>
in n
in fikov
illu min
ig n
identi fied</w>
i kov
hy gi
hod inách</w>
ho p</w>
h ád</w>
gi i</w>
gentle man</w>
frag ile</w>
fir mu</w>
fi res</w>
fak tor</w>
fab ulous</w>
f áze</w>
exper tise</w>
ex posed</w>
ex clu
estim ated</w>
establi shed</w>
enc ry
en e</w>
en cies</w>
electr on</w>
el ný</w>
e- mail</w>
důležit ých</w>
dějin ách</w>
dum b</w>
du mp
don u
domní váme</w>
dob ách</w>
do drž
do cí
distin ct</w>
diffic ulty</w>
di stor
di stances</w>
di sper
determin es</w>
deman ds</w>
de ad
dal šímu</w>
cé v</w>
cy klus</w>
cu ts</w>
ctiv es</w>
contro versi
connecto me</w>
concer t</w>
con tem
com pla
com ment</w>
col ored</w>
ci ť
chtě lo</w>
ch ová</w>
cel ek</w>
blíz ké</w>
blu e
bi oti
bi al</w>
ben eath</w>
be sides</w>
ban ké
b illi
attrac ted</w>
atel ů</w>
as y
ar da</w>
ap ps</w>
ang až
analo gy</w>
an ě</w>
alcoho l</w>
al tru
al bum</w>
ad el
absol v
ab ys</w>
a či</w>
Z e
Vel ký</w>
Ushahi di</w>
Treas ure</w>
T w
T a
Sar ah</w>
S wi
S pan
Pá ni</w>
Po wer
Ph il
Pep si</w>
P M</w>
O cto
Nor thern</w>
N e</w>
Mich ig
Li fe</w>
Lar ry</w>
L ang
J H</w>
Ital y</w>
Hi gh</w>
H mm</w>
H all</w>
Ge ographic</w>
G a
Franci sc
E r
E lec
Develop ment</w>
Con go</w>
Bri g
At lan
A sh
A re</w>
6 0s</w>
6 0
1 60</w>
- year-olds</w>
+ </w>
že jí</w>
š te</w>
š pag
řen a</w>
řek lo</w>
ř ily</w>
čtvr té</w>
čas y</w>
ča j</w>
č est</w>
č en
úžas ně</w>
úře dní
úmrt nosti</w>
át or
á toři</w>
zázna my</w>
znač né</w>
zločin ci</w>
zim ě</w>
zdravot n
zav ést</w>
zaslou ží</w>
zak řiv
zajímav ých</w>
zad u</w>
zabr alo</w>
zab al
za žil</w>
z říd
z počátku</w>
z ot
z daleka</w>
w oke</w>
vědom é</w>
vě zd
výzv ou</w>
výbě ru</w>
vý še</w>
vý chod</w>
vyrá b
vyhled áv
volunte er</w>
vesmír né</w>
ve ments</w>
ve den</w>
v ital</w>
v ic</w>
uží vají</w>
určit ého</w>
urych lov
ur ity</w>
uply nul
uni ká
une mp
umě lé</w>
u žít</w>
u vést</w>
u viděl</w>
u le</w>
tvor bu</w>
tru ck</w>
tri ky</w>
tri i</w>
trac ks</w>
tra ins</w>
tr ž
thu si
teč ka</w>
terri fying</w>
ten krát</w>
te bou</w>
t su
tsu nami</w>
t one</w>
sí ť
sí ti</w>
sí t
syn thetic</w>
surr ounding</w>
sur f
stře chy</w>
stup ně</w>
strán kách</w>
struk tuře</w>
stri p</w>
ste k</w>
spect ac
souvi se
sou dní</w>
smal l
sly šíme</w>
skvěl ým</w>
simul ation</w>
sho pping</w>
sh -
se st</w>
se kvence</w>
sc aff
s ake</w>
s ab
ru č
ru s</w>
ru kop
rozvoj ové</w>
roz umíme</w>
roz počet</w>
roz lu
rov ané</w>
rost l</w>
rodič ům</w>
ro pe</w>
reci pe</w>
realiz ing</w>
re quest</w>
re minds</w>
re cept</w>
r ent</w>
r ation
příro dních</w>
příj mů</w>
pří buz
přil á
při pojen
přesvědč en</w>
přemýš lí</w>
předpo vě
pře klad
pře h
pí me</w>
pur sue</w>
prozkou má
provo zu</w>
prou dí</w>
prost o
proje ktech</w>
produk tu</w>
produ ktivní</w>
pro position</w>
pro pose</w>
pro jde</w>
pro dávají</w>
prison ers</w>
prezident a</w>
počítač ový</w>
poč ty</w>
poz nal</w>
pos un</w>
poku sil</w>
pokro čil
poh nout</w>
podpor y</w>
po tom
po mohou</w>
po ckets</w>
plu g</w>
plo d
ph ar
pengu in</w>
pen is</w>
pas sive</w>
partici pat
par ach
p led</w>
p ink</w>
oč ích</w>
ow nership</w>
ov ač</w>
ostrov ě</w>
opust il</w>
opravdov ou</w>
op er</w>
om y
odpo ví</w>
od větví</w>
od stra
obstac les</w>
obrazov ky</w>
obran y</w>
nějak ých</w>
ní cí</w>
nápad em</w>
náklad ů</w>
not y</w>
neuro scientist</w>
nerv ové</w>
nej úžas
ne štov
ne šlo</w>
ne zaměstnan
ne příjem
ne jedná</w>
ne dává</w>
navig ate</w>
narr atives</w>
nale zení</w>
na stane</w>
na pětí</w>
na jící</w>
n ů
motiv aci</w>
mirac le</w>
mil ujeme</w>
mil uje</w>
mel o
mag ician</w>
m ons</w>
lá tka</w>
log ické</w>
lo kál
lo aded</w>
lin ks</w>
le ase</w>
le an
ká men</w>
kval i
kter é
kre v
kon cem</w>
ko leč
klá st</w>
kin der
kinder gar
kil ls</w>
karié ry</w>
kapac itu</w>
kamer a</w>
ka jících</w>
jednotliv ci</w>
jednoduch ých</w>
jaké si</w>
iz es</w>
itel ných</w>
inžený ři</w>
intu itivní</w>
inclu des</w>
impro ving</w>
im plant</w>
ignor ed</w>
iP od</w>
hou by</w>
hod ině</w>
histor ic</w>
hack ers</w>
h ř
h vězd
h ady</w>
gun s</w>
grad es</w>
gra fy</w>
gr ounds</w>
gir l
ght ful</w>
gg ed</w>
gar den
gar age</w>
fun dra
fre ely</w>
for gotten</w>
fil mů</w>
far ming</w>
f rozen</w>
er ec
enjo yed</w>
emer ged</w>
elec tions</w>
e ter
e ku</w>
děl aly</w>
děj ství</w>
dě lo
dí ch</w>
dáv al</w>
dá váte</w>
dro ve</w>
dra žší</w>
dr av
dosa žení</w>
doprav a</w>
diagnosti kov
di ver
di strict</w>
di ble</w>
desper ately</w>
de sky</w>
de sk
de serve</w>
d ur
cru ci
crit ic
consequ ence</w>
compet itive</w>
chápe me</w>
cho osing</w>
che at</w>
ch lo
cer e
cen ou</w>
celo světové</w>
by z
bud ovat</w>
brat ran
bon us</w>
bom bs</w>
blo wing</w>
biot ics</w>
biolog ists</w>
bi bli
b ound</w>
b lou
astron au
assign ment</w>
appro xim
am pli
al ismus</w>
al es
ak tní</w>
ak ed</w>
ag on
add itional</w>
ad equ
ac re</w>
a is
a f</w>
Willi ams</w>
Wikipe dii</w>
Wh ite</w>
T ay
St .</w>
S um
S pr
S ovi
R om
R NA</w>
Por tu
PI SA</w>
P E
Octo ber</w>
Mur ray</w>
M R</w>
L ád
K ir
Jaze era</w>
J ust
Gu ine
For ce</w>
F BI</w>
Evrop a</w>
Eti op
Egyp ti
D imit
CE O</w>
B y
7 7</w>
6 0.</w>
198 0s</w>
19 70</w>
1 25</w>
žá dá</w>
živočich ů</w>
že me</w>
š ování</w>
Šangh a
řad it</w>
čí ho</w>
če muž</w>
časop is</w>
č ily</w>
č at
úda jů</w>
ú čet
é ra</w>
zázna m</w>
zá chod</w>
zá c
zvlášt ního</w>
zodpově dný</w>
změ nám</w>
zkou má</w>
zjist í</w>
zap l
zam ýš
zabý val</w>
zab il</w>
z vě
wre st
wit nes
wat t</w>
vědeck á</w>
význa mu</w>
výrob ce</w>
výpoč etní</w>
výda je</w>
vý cho
vzni kají</w>
vze stupu</w>
vz dal
vyvinu ly</w>
vyvin out</w>
vyrov nat</w>
vyh az
vybu ch
vy no
vy jde</w>
vy dali</w>
vrá ny</w>
victi m</w>
va z</w>
v em</w>
un g
un certainty</w>
ultra fial
tře tina</w>
témat a</w>
tá bor
typ ing</w>
tro ops</w>
trest u</w>
tis sues</w>
ti les</w>
than e</w>
th us</w>
tex ts</w>
technolog ické</w>
tech nicky</w>
t ali</w>
séri e</w>
systé mech</w>
svěd kem</w>
suppor ting</w>
sub- Saharan</w>
sub stan
středo škol
stru je</w>
stron gly</w>
st ones</w>
st ain</w>
spočí tat</w>
spoj ili</w>
spid ers</w>
spek tra</w>
soused ství</w>
sním ků</w>
small pox</w>
smal lest</w>
slov ník</w>
slou žit</w>
slid es</w>
sled ovala</w>
skry té</w>
shor tly</w>
set ká
sel ess</w>
seem ingly</w>
scen ario</w>
s ó
s nů</w>
s enti
ro ck
ri ers</w>
restaur aci</w>
respon ses</w>
repres ented</w>
reduc ing</w>
recover y</w>
real istic</w>
re actions</w>
rap id</w>
ra ys</w>
ra infor
ra el
pří zniv
přiroz ený</w>
při rov
při pev
přest ali</w>
přen osu</w>
před at</w>
pře měnit</w>
pís ně</w>
pust il</w>
ptá k</w>
ps y</w>
prote cting</w>
propos al</w>
propoj it</w>
proje vu</w>
profes sion
proced ure</w>
pro t
pro file</w>
pro be</w>
pres ents</w>
prak tické</w>
pr vek</w>
počí tání</w>
povol ení</w>
považ ovali</w>
potk ali</w>
potenci ální</w>
polo žili</w>
podpoř it</w>
podob u</w>
po vání</w>
po strá
po plat
po nauč
pl ates</w>
pen etr
ped ag
parado x</w>
paradig ma</w>
pan el</w>
pamat uju</w>
p tejte</w>
p au
ovan ém</w>
ov ol
out put</w>
origin ally</w>
oran ž
or n</w>
opin ions</w>
oper ační</w>
on y
odpo r</w>
od cház
obě tí</w>
obě ma</w>
objev uje</w>
obec en
ob ot
o sphere</w>
něko likrát</w>
ně kterým</w>
ná ší</w>
nov o
ni čení</w>
newsp apers</w>
nes mysl
nerv ózní</w>
nej starší</w>
ne děje</w>
nazv aný</w>
n iny</w>
mě ř
myst erious</w>
moudro st</w>
mosqu i
mosqui to</w>
moment álně</w>
moment u</w>
moleku lu</w>
moleku la</w>
moder ního</w>
mobili ty</w>
minul ého</w>
min er
miliar dami</w>
mikrof on</w>
mikrob ů</w>
mi zer
me als</w>
mat e
map s</w>
lí ků</w>
lékař ské</w>
liter acy</w>
le sy</w>
le se</w>
land scapes</w>
lab eled</w>
la to</w>
kříd la</w>
kultur ou</w>
ku b
kre vní</w>
kořen y</w>
kouz lo</w>
kor el
kon text</w>
kon domy</w>
kindergar ten</w>
kateg orie</w>
kapit ál</w>
kancelá ř</w>
k ř
jíd el
jist otu</w>
jedn alo</w>
je vi
jak ými</w>
iz rael
intervie wed</w>
inno cent</w>
initi al</w>
ine c</w>
in ches</w>
illu sions</w>
ik i</w>
ide ální</w>
hy b
hrom adu</w>
hrdin ové</w>
hot elu</w>
hormon es</w>
honest ly</w>
hlé dli</w>
hlé dl</w>
high- tech</w>
high way</w>
hear t
h all</w>
h ající</w>
gr ateful</w>
glob alizace</w>
gg ing</w>
genet ics</w>
fyz ice</w>
fu r</w>
frustr ated</w>
flas h</w>
fin ed</w>
fil ma
fe jme</w>
fak tem</w>
f ound
f its</w>
f ale</w>
extin ct</w>
exp lic
ex ception</w>
en ční</w>
en ými</w>
emp ir
embarras sing</w>
em powered</w>
elektr oni
electro des</w>
ei gh
e ční</w>
dře vo</w>
dře va</w>
dě de
dí ru</w>
duc k</w>
dro ps</w>
dou fejme</w>
dolph in</w>
dn u
dlouhodob é</w>
deser ti
def end</w>
de fic
de e
d h
d af
cover ing</w>
corre ctly</w>
cop ied</w>
consist ent</w>
cond iti
commit ted</w>
comb at</w>
com prehen
col or
col ony</w>
cli ents</w>
ci vic</w>
cháp ou</w>
chud ých</w>
chod ní</w>
chod ili</w>
chláp ka</w>
chi ef</w>
chas ing</w>
ch lu
ce jí</w>
categ ories</w>
car ing</w>
ca ine</w>
bá seň</w>
by e</w>
budov ě</w>
bubl iny</w>
bu du
br a</w>
bohat í</w>
bil ls</w>
bar rier</w>
b len
b end</w>
atom ic</w>
ast -
as th
appl ying</w>
anc ou
ak ademi
air port</w>
ag resi
ae da</w>
ac tic</w>
Západ u</w>
Zá pad</w>
Zim bab
Z a
Wor l
W a
Tran script</w>
Sub titles</w>
Star bucks</w>
St one</w>
St ar</w>
Sebast ian</w>
Rob er
R ick</w>
R ez
Q aeda</w>
Pákist ánu</w>
Prin ce
PR I
P C</w>
Od ys
O ak
Montan a</w>
Mex iku</w>
Mar garet</w>
M C
Leban on</w>
Jeffer son</w>
J im
Isl ands</w>
I .</w>
Harv ardu</w>
Gre ek</w>
G ro
Fo x</w>
Dec ember</w>
D ob
C ochran
Braz ilian</w>
= </w>
9 7</w>
7 1</w>
2. 0</w>
18 0</w>
) </w>
živ á</w>
ž te</w>
š ovat</w>
řík alo</w>
řen ých</w>
ř ky</w>
ď me</w>
člen y</w>
čer ný</w>
časop isu</w>
čas ně</w>
í rán
áz í</w>
získ ají</w>
znač ku</w>
zelen inu</w>
zdrav ý</w>
zaplat ili</w>
zamě řili</w>
z kombin
z ené</w>
wil d
wi de
wast ed</w>
věde cky</w>
výrob ní</w>
vý sky
vý let</w>
vznik lo</w>
vzni k</w>
vyvol ává</w>
vyvinu la</w>
vy dělat</w>
vní máme</w>
ver bal</w>
vent il
velko lep
velk or
val ent</w>
v ší</w>
v ary</w>
uží vat</w>
užiteč ný</w>
učitel ům</w>
učitel ka</w>
uvědo mění</w>
uspořád ání</w>
under ground</w>
un happy</w>
un cle</w>
umož nilo</w>
ujist it</w>
u klid
u bí
u a</w>
těž kých</w>
tý kají</w>
tvr dit</w>
transform ative</w>
trans plant</w>
trans fer</w>
to ma
toma to</w>
to lika</w>
the ories</w>
tet ování</w>
ter apie</w>
tan u</w>
sub way</w>
su rov
su its</w>
studi em</w>
struk tur</w>
straš né</w>
stran ger</w>
story tel
stol en</w>
stan ici</w>
st res</w>
spat řit</w>
sou d</w>
sofist ikov
smě š
skuteč ném</w>
skon čili</w>
sk lon
sk i
shor t
shor a</w>
shel f</w>
se ctions</w>
se al</w>
scrip ts</w>
sad ly</w>
s ot
s ale</w>
repor té
reag uje</w>
re placed</w>
r é
qu ad
přítel em</w>
příro du</w>
případ u</w>
při dal</w>
představ </w>
pěst ovat</w>
píše te</w>
pul se</w>
pul ling</w>
publi sh</w>
pt ic</w>
prost ate</w>
proce sem</w>
pro ven</w>
pro mít
pro mí
pro mis
pro dlou
privi leg
prin ted</w>
pres ent
potrav y</w>
pot la
pot ent</w>
postav a</w>
poli ce
pohod l
poh ov
po ster</w>
po ran
po ky
po doby</w>
po ciť
po ch
ply ne</w>
plo ch
perspektiv y</w>
peně zi</w>
pamat uje</w>
pa ži</w>
pa ir
ot v
osob ních</w>
os mi
or ech</w>
open ness</w>
om lu
ol dest</w>
ok ed</w>
ogra f
och rá
oblíben ý</w>
obje ktů</w>
o svob
ně kterými</w>
níz ké</w>
níz kou</w>
násled ov
note book</w>
no hu</w>
net t</w>
nejnov ější</w>
nej hor
ne věděla</w>
ne vidíte</w>
ne přij
ne mluví</w>
ne ck</w>
navštív it</w>
narod ila</w>
na č</w>
n ative</w>
muž em</w>
mu stach
mu shroom</w>
moz kovou</w>
modr ou</w>
min es</w>
mid d
micro bial</w>
men ších</w>
mean while</w>
mathemat ician</w>
marshmal low</w>
mar vel
main stream</w>
magnet ické</w>
mace ut
lo kální</w>
list y</w>
list ened</w>
lin ed</w>
life span</w>
lid er</w>
li stop
lep šího</w>
legra ční</w>
lec ture</w>
le ap</w>
laugh ing</w>
l ak
kyslí ku</w>
kupu jí</w>
králov ství</w>
korup ci</w>
kontro lou</w>
komer ční</w>
ko l</w>
ko ka
klá dají</w>
kli ma</w>
kid ney</w>
kaž dič
k řič
k ční</w>
k ingdom</w>
judg ments</w>
jem né</w>
inter aktivní</w>
intelig ent
instal led</w>
inev it
inci dentally</w>
in struk
impres sive</w>
illustr ate</w>
i red</w>
i re</w>
i hned</w>
hů ř</w>
human it
hrd ina</w>
hodin ky</w>
ho ly</w>
ho j
hled ají</w>
har vest</w>
h ře
h ám</w>
h nou</w>
guil ty</w>
guaran tee</w>
gras p</w>
gr ant</w>
gli mp
gl ori
g as
fung oval</w>
fot o
for got</w>
fol ds</w>
fl ag</w>
fir st-
fi ber</w>
fac tion</w>
f ó
f ounded</w>
f ant
ez u
explo sion</w>
experiment al</w>
exper ti</w>
exhi b
et t</w>
en thusi
en ec</w>
en de
elec ted</w>
ekonom ickou</w>
e ast</w>
důvě ra</w>
dů klad
dě li</w>
dru m</w>
dre ss</w>
dramat icky</w>
dr ama</w>
dopam ine</w>
domác nosti</w>
dokonal ý</w>
docum ent</w>
do pisy</w>
do pady</w>
do j
dn i</w>
dist ingu
dig iti
di verz
desp air</w>
demokrat ické</w>
deli ber
defin ing</w>
dedic ated</w>
dan ém</w>
daf -2</w>
d ím</w>
d enti
cí r
cre am</w>
continu ing</w>
constru cted</w>
commod ity</w>
com edy</w>
co operate</w>
co in</w>
co caine</w>
clo sing</w>
circu it</w>
ci gar
chů ze</w>
chro mo
chorob </w>
chann els</w>
ch obot
ch ment</w>
ch im
ch e</w>
cel kově</w>
cel kové</w>
car ro
cap ability</w>
cam pus</w>
c ab
bě lo
br il
br al</w>
bomb sight</w>
bom by</w>
blíz ka</w>
ber ry</w>
base bal
b ound
b lad
b asking</w>
b and
awk ins</w>
av or</w>
auth ors</w>
auth orit
at ury</w>
at rak
assu mption</w>
arti stic</w>
ap i
anonym ous</w>
annu al</w>
an du</w>
amer ickou</w>
am bas
algorith m</w>
aktiv ita</w>
ac id</w>
a im
a a
W ill</w>
Va še</w>
V ancou
Tit us</w>
Ti me</w>
Th ank</w>
T here</w>
Span ish</w>
Si erra</w>
S ol
S el
Re search</w>
R od
R ic
R en
Pro fe
Por t
Po int</w>
Phoeni x</w>
Neanderth als</w>
Na than</w>
N ovember</w>
N ations</w>
N aj
M ari
Le one</w>
L im
K aro
J ay</w>
Izra el</w>
Ital ian</w>
In tel
Haw king</w>
H um
Gand hi</w>
F DA</w>
Ever y
E du
E G</w>
D ef
D am
Cochran e</w>
CE R
C S
Bu il
B ruce</w>
B ren
B as
B ali</w>
Austrá lii</w>
Arch ie</w>
Ar ctic</w>
Angli e</w>
An dy</w>
Al an</w>
9 0s</w>
6 ,000</w>
5 0s</w>
4 4</w>
4 2</w>
4 ,000</w>
3 000</w>
198 4</w>
18 .</w>
. org</w>
&apos; clock</w>
žádn ém</w>
ži ju</w>
ť ák</w>
ře tě
ř ství</w>
čtyř ic
čtvr t
če ho
č tou</w>
Čí nu</w>
úto ku</w>
ú se
í n
získ áváme</w>
závisl í</w>
západ ním</w>
zvlá dli</w>
zv aný</w>
zni čit</w>
znak ů</w>
zemř ou</w>
zem ře</w>
zel enou</w>
zdro j
zatrac eně</w>
zastav il</w>
zapomně li</w>
zap ál
zabý vají</w>
za úto
za potře
zapotře bí</w>
z ím</w>
z lato</w>
z blízka</w>
y ourselves</w>
work force</w>
win ner</w>
whe els</w>
wh ales</w>
vůd covství</w>
věnov ali</w>
výhod a</w>
vý hod</w>
vz bu
vy lu
vy kop
vteř inu</w>
vol bách</w>
vojá ky</w>
vl h
vi sc
v stup
ur ge</w>
umí rají</w>
u pad
u bo
tvo je</w>
tro ver
trad ing</w>
tle sk
tick et</w>
ti er</w>
thresho ld</w>
test u</w>
terri bly</w>
termí n</w>
tepl oty</w>
telef onů</w>
teach es</w>
tal s</w>
tal ent
tab les</w>
ta h</w>
t ón</w>
t as
t ack
sv ol
succe eded</w>
su šen
su spect</w>
stě h
stret ch</w>
stor m</w>
star ing</w>
sta ir
st eri
ss y</w>
společen ská</w>
so bek</w>
smo king</w>
smart phone</w>
slov .</w>
slo žky</w>
situ ací</w>
simp li
sho cked</w>
sh y</w>
sendvi č</w>
sen sus</w>
self- interest</w>
sebevra že
se cular</w>
se cu
sche du
samoz řejmé</w>
samostat ně</w>
sak ra</w>
sad u</w>
s wal
s ma
s log
růz ným</w>
rozdíl ných</w>
roz um</w>
roz tr
roz p
roz množ
ritu als</w>
reve als</w>
remin ded</w>
regi me</w>
reg ard</w>
refle ction</w>
recyc ling</w>
recept or</w>
reason able</w>
re fer</w>
rati o</w>
rad a</w>
r el</w>
quest ion
působ it</w>
pů vodu</w>
pří sluš
připrav en</w>
při dali</w>
před se
před nost
pěk ný</w>
pu mp</w>
průmysl ové</w>
práz d
prost é</w>
propor tion</w>
prison er</w>
prece d
pr ales
poř adí</w>
pozor ně</w>
povr ch
pou žity</w>
poslu cha
pos se
poru chy</w>
popu lační</w>
podob nou</w>
podni ky</w>
pochop ila</w>
po pí
plo chu</w>
plast ů</w>
plast u</w>
plan ting</w>
pi an
phil anth
par king</w>
p per</w>
ově t
over e
ou cích</w>
otevř eli</w>
osob ě</w>
opust it</w>
opar dy</w>
opak ovaně</w>
olog ické</w>
ol ly</w>
ok r
odhad uje</w>
ode šel</w>
occu p
obč any</w>
ob ál
ob á
náro d</w>
nápad u</w>
nábo je</w>
ná ku
ná dr
nu té</w>
noviná ř</w>
nov in</w>
never theless</w>
nejchud ších</w>
ne vě
ne mluvím</w>
ne děláme</w>
ne chtěla</w>
nav az
narozen iny</w>
napad ne</w>
na proti</w>
míst ních</w>
mí ň</w>
mí chy</w>
myšlen kách</w>
muze um</w>
mul tit
mrtv ých</w>
mot ory</w>
micro phone</w>
mi z
metr ic</w>
meas ures</w>
mat ce</w>
market ingu</w>
mar ry</w>
mal í
ma il
m koli</w>
lí to</w>
lí ky</w>
lé tání</w>
lu ck
logi í</w>
log o</w>
liv ou</w>
lin ing</w>
lin ii</w>
li ly</w>
let ých</w>
le kci</w>
l ky</w>
l ingu
l ina</w>
kó du</w>
kyber net
květ iny</w>
kv é
ku jící</w>
krá vy</w>
krá l</w>
kro ků</w>
kon zu
komuni kují</w>
komun it</w>
kom pon
klimat ické</w>
kapit álu</w>
já tra</w>
jun k</w>
jeh ly</w>
jakou si</w>
jak ého</w>
jak koli</w>
j am
invest ments</w>
inve stu
inv enting</w>
interpre t</w>
inter ven
integr ated</w>
ing a</w>
infra struktura</w>
individu ální</w>
inde x</w>
in hi
immedi ate</w>
há ček</w>
hyper -
house hold</w>
hle dáte</w>
hal y</w>
hack er</w>
hab its</w>
h ill</w>
gu ards</w>
gr ave</w>
gon na</w>
gest ure</w>
geome try</w>
genom u</w>
gar bage</w>
fortun e</w>
fing er
fil o
far ms</w>
fal len</w>
fab ric</w>
f ought</w>
exten sion</w>
ex trover
est s</w>
es l</w>
equ ations</w>
equ ality</w>
eng ines</w>
en ables</w>
emo ční</w>
emer gency</w>
emer ge</w>
electr ons</w>
el l
el it
ekonom ických</w>
eco logy</w>
eco logical</w>
ear n</w>
dži hád</w>
dynam ics</w>
duchov ní</w>
du ty</w>
down load</w>
dostup ná</w>
domin antní</w>
do la
do c
dimen zí</w>
di am
dete ctor</w>
deplo yed</w>
dep th</w>
dent al</w>
da y
cí li</w>
cyber criminals</w>
custom er</w>
cov ers</w>
contribu tion</w>
continu ous</w>
cont ag
comm ents</w>
colum n</w>
co at</w>
clu e</w>
ck hol
ck er</w>
chu ť</w>
che ss</w>
cham pi
ch nout</w>
ce stá
ce iling</w>
categ ory</w>
c ovat</w>
byz ny
bus u</w>
buně čné</w>
bu mp
bri d
br amb
bou ře</w>
bor ed</w>
bole stí</w>
bol í</w>
behavior ální</w>
be ating</w>
awk ward</w>
aw r
author ities</w>
ati e</w>
atel ný</w>
at ý</w>
at é</w>
as leep</w>
ar ded</w>
ar -
amat e
al it
agent ury</w>
ag ue</w>
adv ance</w>
adolesc ence</w>
adequ ate</w>
activi st</w>
ack er</w>
achiev ing</w>
accoun t
ac í
a we</w>
Zimbab we</w>
Y ale</w>
X- ray</w>
T re
Ste ven
Sovi et</w>
Sing apo
S op
R ory</w>
O liver</w>
O L
Minist er</w>
Me dia</w>
M ovember</w>
M ill
M au
M P
I tá
H om
Franci i</w>
Egyp tě</w>
D il
Chri stop
C y
C lau
Beeth oven</w>
B .</w>
Antar kti
Američ an</w>
Al ber
9 00</w>
5 7</w>
4 9</w>
00 0-
, 5</w>
žá dní</w>
žralok ů</w>
živ ý</w>
že bří
šk atul
š paněl
řízen ím</w>
řen y</w>
čá ry</w>
ček al</w>
č kami</w>
Číň ané</w>
úspěš ní</w>
ú te
át ky</w>
ár ním</w>
ál nímu</w>
á tech</w>
zó ny</w>
získ á</w>
závi sle</w>
záv od</w>
západ ních</w>
zákaz níci</w>
zá zrak</w>
zvíř aty</w>
zvu ků</w>
zranitel nost</w>
zou fale</w>
zodpověd nosti</w>
zná mo</w>
zna čí</w>
zku sme</w>
zen i</w>
zelen iny</w>
zak o
zab ud
z prostřed
z organiz
z ones</w>
z il
wr ap</w>
wood en</w>
wi res</w>
wh ale</w>
web sites</w>
we i
warri or</w>
w ound</w>
w ill
věz nice</w>
věnov al</w>
výzv y</w>
výzku my</w>
vý š</w>
vý razy</w>
vý cvi
ví tě
vzru šení</w>
vzpo mně
vzor ky</w>
vyso kých</w>
vylep šit</w>
vyh ýb
vy vá
vy raz
vy mýš
vteř iny</w>
vrac et</w>
vol ný</w>
vní mají</w>
vlák no</w>
vlast ními</w>
vide í</w>
vešker á</w>
ver zí</w>
ver i
vaš imi</w>
vaš emu</w>
vac ation</w>
v livu</w>
v je
v hodné</w>
v as</w>
učitel em</w>
udrž uje</w>
u sion</w>
těž it</w>
těž ce</w>
tý my</w>
tvor bě</w>
tv é</w>
tu bes</w>
troj násob
trig ger</w>
tren dy</w>
tr vale</w>
ti ps</w>
thum b</w>
the sia</w>
th or
teč ní</w>
ter ly</w>
techni ku</w>
techni ka</w>
t z
t itude</w>
t ing
svě dom
suggest ion</w>
sub stance</w>
su res</w>
su ck</w>
stě ny</w>
stí n</w>
stá hnout</w>
stre su</w>
stre ams</w>
stran ách</w>
str avy</w>
str a</w>
stor ed</w>
star ou</w>
st rov
st mi</w>
st at</w>
srd cem</w>
squar es</w>
squ ared</w>
správ ném</w>
spotře bu</w>
společ nou</w>
spis ovatel</w>
spe cul
soustře dí</w>
sot va</w>
slu ch</w>
slov ně</w>
sli b</w>
sledu jete</w>
skuteč ným</w>
skup inách</w>
sklad ba</w>
sk la</w>
simul ace</w>
ser ver
senz ory</w>
sel h
sel fish</w>
scan ning</w>
san itation</w>
sam eč
s overe
s ni
s ation</w>
s age</w>
s ady</w>
rozum ím</w>
rop u</w>
robot ické</w>
robot em</w>
ro ž
reve aled</w>
reti rement</w>
remark ably</w>
refu se</w>
rece ssion</w>
rece iving</w>
realiz ation</w>
real- time</w>
re wards</w>
re think</w>
pů da</w>
přírod ou</w>
přit ah
přiroz eného</w>
přer u
přen ést</w>
přemýš lejí</w>
předstí rat</w>
předpově ď</w>
předpo kladu</w>
předmě tů</w>
pá tek</w>
pá du</w>
pyram id</w>
průměr ně</w>
prost aty</w>
prohlá sil</w>
prof its</w>
produ kují</w>
prode j</w>
procent y</w>
proce ssed</w>
pro p
prim arily</w>
pri or</w>
pres erve</w>
predic tion</w>
preci ous</w>
pre vention</w>
pre ssing</w>
pre ference</w>
pr ý</w>
požadav ky</w>
pozoru hodný</w>
pozorov ali</w>
posti žení</w>
pos lá
podě kovat</w>
podí vá
podstat y</w>
podporu jí</w>
podez řel
po to
po rá
ply nů</w>
plat forms</w>
pla st</w>
pl ing</w>
pis u</w>
pen alty</w>
pas sen
particip ation</w>
par ame
pamat ujte</w>
p as</w>
ově řit</w>
over head</w>
otoč il</w>
otev řete</w>
organiz ing</w>
organ ism</w>
organ i
opak ovat</w>
olog ové</w>
ol as</w>
ok rát</w>
odliš ná</w>
octo pus</w>
oboh ac
obnov it</w>
obe se</w>
ob rat
ob av
nástro ji</w>
následu je</w>
ná mě
nu kl
neu spě
nerv es</w>
nech od
ne znají</w>
ne ys</w>
ne věřím</w>
ne vidím</w>
ne pochop
ne je
ne hody</w>
ne dělají</w>
nazv anou</w>
nan ome
nam ely</w>
na rozdíl</w>
n oucí</w>
mě jte</w>
mu jí</w>
mrtv ý</w>
mož ným</w>
mot ors</w>
mo od</w>
mist rov
midd le-
medicí ně</w>
medic ation</w>
med ú
me my</w>
mas ses</w>
marath on</w>
mar t</w>
man n</w>
man d
m one</w>
m ere</w>
m ble</w>
ly fish</w>
lo ws</w>
lo k
lo dí</w>
li fted</w>
li bov
libov ol
li ar</w>
lev ou</w>
legisl ation</w>
leg acy</w>
lab s</w>
lab el</w>
ku kuř
kter ý
kreativ ita</w>
kov ém</w>
konek tom</w>
kom á
knih ách</w>
klin ické</w>
k it</w>
k ins</w>
k er
ji st</w>
ji hu</w>
jel lyfish</w>
jednot ek</w>
jas ný</w>
it í</w>
intrigu ing</w>
integr ate</w>
inst ant</w>
infra struktury</w>
inform acemi</w>
inf ant</w>
inclu ded</w>
inci dent</w>
inci dence</w>
in o
in i
ich a</w>
ic e
iP ad</w>
hy bri
hun t</w>
hrá čů</w>
hra ju</w>
hoř č
hor mone</w>
hlubo ký</w>
hi ding</w>
happ ily</w>
h ac
gu t</w>
gra fii</w>
go d</w>
ge -
g éni
fli ghts</w>
filozo fie</w>
fer om
fail ures</w>
f lat
ez ing</w>
et ické</w>
enz y
enjo ying</w>
encour aging</w>
en cí</w>
eleg ant</w>
el is</w>
ekonom ie</w>
ek e
eg g</w>
efektiv ně</w>
dítě tem</w>
dáv ku</w>
dá ny</w>
drá ha</w>
dotý ká</w>
dobr ými</w>
do zens</w>
do ws</w>
do kaz
dneš ního</w>
dn ého</w>
dlouho době</w>
discipl ine</w>
disc rimin
dis ability</w>
dig nity</w>
di v</w>
di rig
defin ovat</w>
de ception</w>
dav </w>
dam aged</w>
d are</w>
d am</w>
cri mes</w>
con vey</w>
con temporary</w>
con du
comm it</w>
colle ctively</w>
clean ing</w>
cit át</w>
chlap </w>
chemiká lie</w>
chemi e</w>
challen ged</w>
ch est</w>
cest oval</w>
cen né</w>
carto on
car t</w>
cap tured</w>
campa ig
cad emy</w>
běž et</w>
bě h</w>
by tku</w>
bo om
bo ats</w>
bl ack
ber a</w>
bab ičky</w>
ba th</w>
b ory</w>
b el</w>
authorit arian</w>
as ist
armá du</w>
ara hum
ar che
ar bit
appear ance</w>
answer ed</w>
anim ation</w>
an e
amb itious</w>
altern atives</w>
ali le
al ge
al arm</w>
akor át</w>
affe cting</w>
af ford
ado pted</w>
ado pt</w>
ac tively</w>
ab s
V inci</w>
T arahum
T ah
T D</w>
T .</w>
Su per
Sto ckhol
Sou thern</w>
Singapo re</w>
Sh a
Sec urity</w>
Se an</w>
Schwar z
SO PA</w>
Que en</w>
Pe ace</w>
P ap
Ox fordu</w>
Olymp ic</w>
Oce an</w>
N ow</w>
N at
Měsí c</w>
Minister stvo</w>
Me chan
M ez
Lincol n</w>
Kh an</w>
Kans as</w>
Kanad ě</w>
K dy
Jupit er</w>
Juli e</w>
Higgs ova</w>
Hawa ii</w>
H ere</w>
G or
G alile
E 8</w>
Del hi</w>
Def ense</w>
De moc
D ick
Coun cil</w>
Conne ctic
Co oper</w>
Christop her</w>
Bost onu</w>
Bon nie</w>
Bi bli</w>
Bab bage</w>
B an
Atl anti
Afric ans</w>
Afghánistá n</w>
A ust
A cademy</w>
A bu</w>
9 8</w>
4 50</w>
4 0,000</w>
3 0,000</w>
20 -
10 0
1 500</w>
‚ </w>
žen ého</w>
žel o</w>
ť te</w>
š u
řidi č</w>
řen o</w>
řek ly</w>
ře š
čís ly</w>
čín ské</w>
če b
č má
úspěš né</w>
ú tě
ú pl
ár ně</w>
zů stanou</w>
zv en
ztr át
zrak u</w>
způsob il</w>
zpět né</w>
zkou ší</w>
zev nitř</w>
zen o</w>
zem ím</w>
zem ní</w>
zas ad
zapo men
zap í
zabý vám</w>
z mín
z la</w>
z dě
you th</w>
we dding</w>
výrob ky</w>
výpoč ty</w>
vý stup
vý hrad
váš ně</w>
vytvoř ené</w>
vyso kým</w>
vy hy
vy hrát</w>
vy dav
vtip né</w>
vo st</w>
veřej nost</w>
vent ure</w>
ve čer
val ley</w>
va rování</w>
uží vání</w>
uz al
us al
usal em</w>
ur á
univer ses</w>
un t</w>
un seen</w>
umíst ě
ultras ound</w>
ukáz aly</w>
udrž ovat</w>
u ps</w>
u měl</w>
tře sku</w>
tvar ů</w>
tu l
tráv y</w>
trval é</w>
transm it</w>
trag ic</w>
text book</w>
terrori st</w>
ter rain</w>
tem ná</w>
te dly</w>
tan ec</w>
takov ými</w>
t ům</w>
t ily</w>
t ent
sy nes
svět ovou</w>
supp lies</w>
stro jem</w>
stri al</w>
straigh t
stimul ation</w>
sti sk
statist ical</w>
stal etí</w>
sta čilo</w>
sque eze</w>
spotře by</w>
spo t
spi rá
sp reads</w>
sou cit
so c
smysl ové</w>
sm ic</w>
skr ý
sk ot
sil ver</w>
shor t-
shi fted</w>
sh a</w>
sexu ally</w>
sever u</w>
set kal</w>
selec ted</w>
se duc
scé nu</w>
scho di
sc ar</w>
samot ného</w>
sac red</w>
s mysly</w>
s mi
ryt mus</w>
ry sy</w>
rub ber</w>
rozmanit ost</w>
rozez nat</w>
rostl ina</w>
romá n</w>
ro se</w>
ro ckets</w>
ri sku
rež im
reál né</w>
rel ativity</w>
recyc led</w>
reas oning</w>
real ist
reag ují</w>
re y</w>
rad ically</w>
ra dosti</w>
pů dě</w>
přítel i</w>
přispě t</w>
při mělo</w>
při kázání</w>
představ íte</w>
předpo vědět</w>
předpo kládá</w>
písk ání</w>
pyram idy</w>
pu ls</w>
ps at</w>
prů lo
práv ně</w>
prv ků</w>
prostře dní</w>
proje ctions</w>
program mers</w>
proble mat
pro ved</w>
pris ons</w>
prior ities</w>
pre scri
prax e</w>
pravděpodob nější</w>
pravděpodob nosti</w>
prav á</w>
požá dala</w>
pos léze</w>
por traits</w>
pomal e
pok le
pojď te</w>
poe zii</w>
pocház ím</w>
po věděl</w>
po t</w>
po raz
po pis</w>
plan ned</w>
pl um
phys icists</w>
phys icians</w>
pher om
person alized</w>
perce ived</w>
par kov
p ivo</w>
očeká váme</w>
oček ávali</w>
ov z
ostrov y</w>
orgas m</w>
oper ated</w>
oper a</w>
on going</w>
on en</w>
off -
och ut
oc curring</w>
občan ů</w>
obyčej né</w>
observ ed</w>
obrazov ku</w>
oblíben á</w>
obje ktu</w>
ob ří</w>
ob or</w>
ná hled</w>
ná chyl
no min
ni ghts</w>
neutr al</w>
nes praved
neo pr
nena jdete</w>
nejrůz nějších</w>
nejdůležit ějších</w>
ne závisle</w>
ne um
ne spo
ne sm
ne příjemné</w>
ne potřebuje</w>
ne dot
ne dokázali</w>
nav rá
naraz ili</w>
na učíte</w>
na půl</w>
na je</w>
n el</w>
měsí ční</w>
mí le</w>
muž ům</w>
muze u</w>
mu je</w>
moř ských</w>
minim ální</w>
min ority</w>
milli meter</w>
mi ze</w>
mezináro dních</w>
met ic</w>
med itation</w>
me zer
mat ing</w>
mas sively</w>
map ě</w>
manipul ate</w>
mammo graphy</w>
mammal s</w>
ma ster
m mm</w>
m g</w>
líto sti</w>
lé čení</w>
lov ý</w>
lov ing</w>
loc ally</w>
lob by</w>
lo ads</w>
live stock</w>
lim ity</w>
lever age</w>
lenni um</w>
legitim ate</w>
leg ální</w>
le šení</w>
le grace</w>
las er
lam p</w>
lah ví</w>
laborat or
křiv ky</w>
kresl ení</w>
kre sli
kov ými</w>
kom i
koleg a</w>
kne e</w>
klíč ová</w>
kles á</w>
k nutí</w>
k able</w>
jádr a</w>
její ž</w>
jednot ky</w>
jednoducho sti</w>
jedine c</w>
je deme</w>
jazy cích</w>
jaký ch
jak ém</w>
jader né</w>
j šího</w>
j ď</w>
j ok
ič ek</w>
ič ce</w>
ist y</w>
is a</w>
intervie wer</w>
inter gal
inter faces</w>
inten sity</w>
inten ded</w>
insur ance</w>
initi ally</w>
ing en
influ enced</w>
inevit ably</w>
indepen dence</w>
in son</w>
im men
i o</w>
há me</w>
hrá č</w>
hodnot ě</w>
ho ří</w>
ho ok</w>
help ful</w>
han ded</w>
habit at</w>
gor ge
gorge ous</w>
glu e</w>
girl friend</w>
friend ship</w>
frac tion</w>
for bi
film maker</w>
fantast ický</w>
f ancy</w>
expos ure</w>
explo it</w>
ex hau
ex am</w>
ev al</w>
eth ical</w>
er rors</w>
er ies</w>
entro pie</w>
ent i</w>
ene mies</w>
en ligh
en ce
elektř ina</w>
electro magnetic</w>
el ite</w>
ekolog ické</w>
ed ges</w>
ec tví</w>
ec raft</w>
důsled kem</w>
důležit ost</w>
dý chat</w>
dél ky</w>
dvoj násob
drž eli</w>
dre ssed</w>
doz věděli</w>
dosáh l</w>
dospě li</w>
docum ents</w>
do leva</w>
do dat</w>
dne m</w>
disru p
dis gu
dilem ma</w>
di vá</w>
detail ů</w>
deli very</w>
delfí ni</w>
de jší</w>
de cent</w>
cí mi</w>
cu lus</w>
ctic a</w>
cro ssed</w>
cour ses</w>
cop ying</w>
controversi al</w>
con qu
compe ting</w>
compas sionate</w>
co si</w>
clo thing</w>
clo pe
clim bing</w>
civiliz ací</w>
civiliz aci</w>
chu dobu</w>
chrá ní</w>
chro moz
che ating</w>
char ged</w>
cen ý</w>
cat tle</w>
can vas</w>
c m</w>
c el</w>
bud it</w>
brz o</w>
break fast</w>
brat ři</w>
bran ches</w>
br at</w>
bo ther</w>
bo died</w>
bo dem</w>
blaho bytu</w>
biolog icky</w>
bil ní</w>
ben zí
be half</w>
be ef</w>
be am</w>
ban king</w>
bal ls</w>
bac ks</w>
b ázi</w>
autonom y</w>
ativ ním</w>
arre sted</w>
argum enty</w>
an dr
aktiv ně</w>
ak u
accompli shed</w>
accept able</w>
Wil son</w>
W hole</w>
TED M
T ric
Swi ss</w>
St átech</w>
Sing ap
Si ou
Secre tary</w>
S B</w>
R ou
R os
R eg
Pau la</w>
P ří
P y
P ur
P ole</w>
P hot
Ob am
Nigéri i</w>
Mel lon</w>
Med ic
Lu ther</w>
Londý na</w>
La ur
L es
L e</w>
L an
John son</w>
Jer usalem</w>
J ason</w>
Izra eli</w>
Iran ian</w>
I nu</w>
He alth</w>
H ad
H P</w>
Gal va
Eu ropa</w>
E S
DAR PA</w>
Clin ton</w>
C ath
C an</w>
Brun o</w>
Ber lin</w>
B et
Austrá lie</w>
Antar ctica</w>
8 4</w>
7 ,000</w>
6 2</w>
5 9</w>
198 2</w>
197 8</w>
- by-
žralo ci</w>
žid le</w>
ž ování</w>
ž eli</w>
šká lu</w>
šen a</w>
šed é</w>
š uje</w>
š eli</w>
ří j
řidi če</w>
čtvereč ních</w>
člen em</w>
čist ou</w>
če káte</w>
č en</w>
úmysl ně</w>
úkol u</w>
ú ro
ó ó
ó z
áv aly</w>
zůst ávají</w>
záležit osti</w>
zábav u</w>
zá lo
ztrat í</w>
ztrat it</w>
zpě vá
zná mě
zlepš uje</w>
zkou mali</w>
zen ých</w>
zemř ela</w>
ze ň</w>
zdrav ím</w>
začí nal</w>
zalo žit</w>
zalo žila</w>
zalo žená</w>
zako řen
zabí jí</w>
zabí jení</w>
z prá
yl an</w>
y al</w>
wat tů</w>
wa ited</w>
vše obecně</w>
vš í
vědeck ou</w>
výu ku</w>
východ u</w>
vý vojá
vý mluv
ví ry</w>
váž ný</w>
váš ní</w>
vá žíme</w>
vzpomín ku</w>
vyzkouš eli</w>
vypěst ovat</w>
vy čerp
vy stu
vy jí
vy bran
visu alization</w>
vir ů</w>
vi z
ver b
veli ké</w>
veget able</w>
vakcí ny</w>
vac uum</w>
v on</w>
v leč
v ka</w>
učin ili</w>
us nad
up set</w>
under stands</w>
umož nila</w>
udrž ují</w>
u seless</w>
u de
trad itions</w>
to pi
to oth</w>
ti čtí</w>
thre w</w>
theoret ical</w>
th ia</w>
ter ape
techn ické</w>
techn ically</w>
te ar</w>
tas mán
tar get
tal ents</w>
takový chto</w>
takov í</w>
t t</w>
t ar</w>
svě ty</w>
sur re
su stain</w>
stun ning</w>
strateg ic</w>
straight forward</w>
stig ma</w>
ste v</w>
staro st</w>
st vích</w>
st ages</w>
st ack</w>
ssi vely</w>
spravedl nosti</w>
[...]
