n g
i </w>
ng </w>
n </w>
a </w>
, </w>
e </w>
t </w>
n h
o </w>
c h
. </w>
u </w>
c </w>
y </w>
t h
m </w>
à </w>
í </w>
ó </w>
t r
nh </w>
s t
k h
ô i</w>
p o
ch </w>
ữ ng</w>
nh ững</w>
ộ t</w>
v à</w>
t ôi</w>
r o
m ột</w>
c ó</w>
ờ i</w>
n e
c á
l à</w>
p h
t e
é </w>
g i
ể </w>
a k
t o</w>
a l
ú ng</w>
ô ng</w>
i ệ
ng ư
á </w>
ch úng</w>
j e</w>
q u
ngư ời</w>
ê n</w>
c ủ
củ a</w>
o v
n í</w>
t i
ě </w>
ấ t</w>
ớ i</w>
p </w>
t a</w>
s e</w>
t o
l e
ž e</w>
ạ n</w>
j e
ý </w>
ř e
- </w>
l i
tr o
j s
n a</w>
n o
e m</w>
cá c</w>
d o
th ể</w>
b ạn</w>
n a
đ ó</w>
ạ i</w>
m e</w>
ự </w>
ì </w>
n à
h o
k o
tro ng</w>
nh ư
ư ợ
l </w>
r a
h ọ
ng h
ề u</w>
ch o</w>
v </w>
ở </w>
ế t</w>
v ới</w>
kh ông</w>
v ě
n ó</w>
p ro
m o
l a
n i
l o
â n</w>
v i
i ều</w>
s </w>
ế </w>
s ự</w>
b y
ì nh</w>
l à
ã </w>
e n
là m</w>
r a</w>
h o</w>
ượ c</w>
ề </w>
o t
đ ược</w>
ak </w>
k te
; </w>
nà y</w>
l i</w>
? </w>
đ ã</w>
d ě
ž </w>
u y
t e</w>
â y</w>
ấ y</w>
ả </w>
m à</w>
d </w>
ằ ng</w>
n ě</w>
k </w>
c o
đ ể</w>
p r
ế n</w>
v y
í m</w>
z a
p ř
c e</w>
ầ n</w>
n á
í ch</w>
k d
v e
á c</w>
như </w>
s k
b i
s a
v o
kte r
n ě
qu ot
quot ;</w>
& quot;</w>
họ </w>
t a
ậ t</w>
l a</w>
m ě
co n</w>
v ề</w>
d e
a n</w>
i n
p ře
o b
à o</w>
m i</w>
ị </w>
ầ u</w>
js em</w>
v á
m u
m a
đ iều</w>
ự c</w>
ó i</w>
ố ng</w>
j í</w>
th ế</w>
ứ c</w>
: </w>
iệ n</w>
ů </w>
c o</w>
r ằng</w>
n ói</w>
ẽ </w>
ố </w>
ơ n</w>
t ừ
đ ộ
ả i</w>
z </w>
i ể
í nh</w>
m á
d i
à nh</w>
n é</w>
ž i
ngh ĩ
l e</w>
b u
s i</w>
i nh</w>
st a
v ào</w>
kh i</w>
v a
c i</w>
cá ch</w>
ả n</w>
k y</w>
k a
j ak
0 </w>
o u</w>
a y</w>
g ì</w>
ư ờ
v ì</w>
ố i</w>
p a
ườ ng</w>
r á
như ng</w>
s ẽ</w>
a nh</w>
ệ </w>
c ả</w>
ạ o</w>
al e</w>
ư ớ
l u
a ng</w>
đ ây</w>
từ </w>
iệ c</w>
ý ch</w>
th ấy</w>
l o</w>
à i</w>
t ak
v iệc</w>
c u
b y</w>
r i
n ă
d o</w>
họ c</w>
c e
k u
š e
ẻ </w>
ỉ </w>
ứ </w>
l á
m i
t ě
đ ầu</w>
ử </w>
r ất</w>
ế u</w>
đ ến</w>
t u
ô </w>
ơ </w>
à n</w>
kh ác</w>
l ại</w>
ậ n</w>
š í</w>
ù ng</w>
s t</w>
á t</w>
d y</w>
ư ơ
h ơn</w>
c ông</w>
v í
s e
ươ ng</w>
nh à</w>
k u</w>
p ra
o r
př í
đ ang</w>
kd y
m e
đ ồ
li d
ướ c</w>
ch ỉ</w>
z e
d í
ch uy
ộ c</w>
bi ết</w>
j ak</w>
độ ng</w>
ắ t</w>
m ů
d ụ
nh ân</w>
th ực</w>
js me</w>
t ạo</w>
t ất</w>
c ơ</w>
s ố</w>
ph ải</w>
al </w>
th ành</w>
j i
ř í
m í
ov a
je d
ž e
ổ i</w>
cá i</w>
nà o</w>
â u</w>
nh iều</w>
a i</w>
j í
é ho</w>
r u
iệ u</w>
js ou</w>
ch o
m u</w>
ọ i</w>
t ak</w>
m y
ở i</w>
ố n</w>
t y</w>
ă n</w>
i ên</w>
v e</w>
ro z
ặ c</w>
s o
kdy ž</w>
tr ên</w>
ơ i</w>
c k
qu an</w>
b ởi</w>
c í</w>
ch ính</w>
jak o</w>
ậ y</w>
ậ p</w>
st i</w>
ả m</w>
z á
à ng</w>
a o</w>
h iện</w>
n ếu</w>
n í
d u</w>
ờ </w>
th ứ</w>
kter é</w>
b ắt</w>
ộ </w>
al i</w>
ề n</w>
č e
př i
nghĩ </w>
ê u</w>
v ý
đồ ng</w>
b o
r e
c ũ
s l
s po
e o</w>
iệ t</w>
s á
v ậy</w>
a n
ch i
ph ân</w>
no u</w>
k á
a u</w>
nh ất</w>
b ị</w>
d u
é m</w>
cũ ng</w>
th eo</w>
h ình</w>
nă m</w>
do b
đ i</w>
d á
d e</w>
ụ </w>
ỏ </w>
s vě
r </w>
n y</w>
ư ở
t ě</w>
ưở ng</w>
ú </w>
á n</w>
t u</w>
l y</w>
th u
gi ới</w>
m ình</w>
n á</w>
v ật</w>
b ản</w>
k a</w>
ặ t</w>
č i
t ại</w>
pr o</w>
mu ốn</w>
ủ </w>
ữ </w>
lo ại</w>
o d
v í</w>
n ên</w>
cu ộc</w>
l ớ
nh au</w>
â m</w>
j i</w>
a r
ố c</w>
kh o
ả o</w>
p e
ti ế
ú c</w>
ổ </w>
u ng</w>
s inh</w>
s i
ý m</w>
ệ n</w>
ượ ng</w>
c ảm</w>
n e</w>
b iệt</w>
p i
s ống</w>
ho á</w>
š i
nghĩ a</w>
iể m</w>
c i
- -</w>
th ích</w>
nh ận</w>
ova t</w>
n ý</w>
d a
u je</w>
b ộ</w>
s tr
ấ n</w>
lớ n</w>
dụ ng</w>
pr á
tak že</w>
s le
ve l
t ự</w>
ko n
t ế</w>
gi ờ</w>
s í
m ě</w>
ne b
z e</w>
l ý</w>
s u
ò n</w>
1 </w>
ố t</w>
ph át</w>
ř i
v z
th ời</w>
gi a</w>
sa u</w>
ả nh</w>
b ằng</w>
st e</w>
ữ a</w>
đ ị
ti nh</w>
t í</w>
chuy ện</w>
vi ên</w>
t ính</w>
pra v
n ov
ứ ng</w>
đ ề</w>
ắ c</w>
z a</w>
th ần</w>
m ọi</w>
pře d
ř í</w>
iể n</w>
ne j
c ần</w>
ư </w>
b e
ợ p</w>
mů že
t i</w>
c âu</w>
v še
s ử</w>
h ợp</w>
c òn</w>
pro to
ho d
c ùng</w>
tr ường</w>
neb o</w>
k inh</w>
j </w>
t ře
th ật</w>
qu a</w>
m en
no sti</w>
proto že</w>
tr ở</w>
ì n</w>
ạ t</w>
ộ i</w>
á o</w>
n ơi</w>
th i
th ú</w>
đ ối</w>
ngh iệ
s v
st u
n u</w>
k i
t ưởng</w>
ov á
th ường</w>
b ě
nh ìn</w>
nă ng</w>
má y</w>
ọ ng</w>
al a</w>
vá m</w>
ô n</w>
b ảo</w>
t y
nh iên</w>
n u
h le</w>
ỏ i</w>
s ob
ồ i</w>
p ů
th ức</w>
a s
n ím</w>
ti n</w>
st á
à y</w>
th ông</w>
b ất</w>
č í
t ím</w>
á i</w>
kter ý</w>
po d
st i
st e
á nh</w>
v ị</w>
gi an</w>
n i</w>
p ě
po u
sa o</w>
sk u
z i
đ ại</w>
ấ u</w>
v ấn</w>
n o</w>
ì m</w>
ž í
t uy
tr ẻ</w>
t ìm</w>
l é
b ý
po ku
mo ž
m no
ře k
š e</w>
n ước</w>
đ ặc</w>
by l</w>
my sl
k la
by lo</w>
mo h
0 0</w>
m y</w>
to àn</w>
d ů
ư a</w>
so u
to m</w>
v i</w>
a by</w>
h ệ</w>
th ì</w>
te l
ò ng</w>
th ay</w>
no st</w>
đị nh</w>
gi ống</w>
h àng</w>
d a</w>
đ ổi</w>
thi ết</w>
tr ước</w>
c ầu</w>
l iệu</w>
y êu</w>
ả ng</w>
t á
je n</w>
ụ c</w>
ph ần</w>
st o
ng ày</w>
k ết</w>
t ốt</w>
d al
tr ình</w>
m ặt</w>
l ên</w>
k ẻ</w>
ro v
h ã
ov é</w>
qu y
l í
te č
b a</w>
t âm</w>
ệ t</w>
ch ất</w>
x u
h u
č </w>
ne ž</w>
ắ n</w>
ạ c</w>
ể n</w>
f i
n ích</w>
p o</w>
cá </w>
ẫ n</w>
kd y</w>
z na
ấ p</w>
pro st
đ ều</w>
poku d</w>
ka ž
v ní</w>
vše ch
ko u</w>
n ých</w>
5 </w>
ch á
h ành</w>
th ống</w>
ạ nh</w>
ó ng</w>
g ọi</w>
ắ ng</w>
ď </w>
ch ức</w>
ỗ i</w>
tuy ệt</w>
r u</w>
m á</w>
st í</w>
l ní</w>
h ội</w>
š </w>
l ượng</w>
bý t</w>
á ng</w>
ả y</w>
o d</w>
m ới</w>
ně co</w>
ti ên</w>
b ình</w>
h ai</w>
l ập</w>
h ay</w>
to ho</w>
tr ung</w>
c ô</w>
t ử</w>
te n
by la</w>
j á</w>
h </w>
t ổ</w>
by ch</w>
ng o
kter á</w>
tiế p</w>
de n</w>
t é</w>
hã y</w>
ho ặc</w>
tr iển</w>
r y</w>
ứ a</w>
e x
la st
iể u</w>
za č
d ru
tr ọng</w>
dě la
" </w>
vel mi</w>
ỹ </w>
to to</w>
ne ní</w>
ồ n</w>
nh ỏ</w>
lid é</w>
á d
b ao</w>
ngh ệ</w>
h a
tiế ng</w>
le t</w>
đ iểm</w>
z d
2 </w>
kaž d
h ỏi</w>
j in
prá v
ko li
t ới</w>
pa d
v á</w>
ệ nh</w>
ř e</w>
t é
t í
p ak</w>
p u
vě t
lo ài</w>
v last
jed no
s y
chi ế
j ste</w>
th ân</w>
ph ụ</w>
cho m</w>
by chom</w>
p á
lo u
ạ ng</w>
v ô</w>
ová ní</w>
d ùng</w>
b ệnh</w>
b ỏ</w>
ă ng</w>
ù </w>
dě l
sá ng</w>
sku teč
gi áo</w>
c en
d í</w>
t ác</w>
p í
ú t</w>
d ní</w>
uy ên</w>
chiế c</w>
m al
tr í</w>
to hle</w>
t vo
r y
je me</w>
z pů
đ ứa</w>
v r
đ úng</w>
kd o</w>
p l
c í
từ ng</w>
ph ương</w>
á p</w>
j ší</w>
nghiệ m</w>
ỷ </w>
ứ u</w>
x em</w>
c ứu</w>
kd e</w>
d ov
độ </w>
m a</w>
ck é</w>
v ệ</w>
jí cí</w>
va t</w>
ř i</w>
č a
b a
f or
u ž</w>
ta dy</w>
kte ří</w>
C h
ý mi</w>
l ov
ĩ </w>
ji ch</w>
b ây</w>
ko u
u t</w>
ho àn</w>
t ương</w>
h la
h le
tak é</w>
pro b
e n</w>
ch ủ</w>
ọ n</w>
má me</w>
z mě
gi ải</w>
te ď</w>
o prav
může te</w>
à u</w>
t ượng</w>
li ên</w>
mí st
ị ch</w>
thu ật</w>
ži vo
ná m</w>
al o</w>
způ sob
c ao</w>
v ời</w>
x ảy</w>
do u</w>
n ữa</w>
al i
na y</w>
lo gi
ch ơi</w>
ng ay</w>
qu ả</w>
ộ ng</w>
le č
ta y</w>
chuy ển</w>
ho ạt</w>
b ên</w>
lid í</w>
đ ặt</w>
é p</w>
uy ền</w>
ž en
l u</w>
po tře
po z
xu ất</w>
ná s</w>
ro u</w>
k rá
m ỗi</w>
č á
c ứ</w>
ta m</w>
ví ce</w>
r ů
á m</w>
vi dě
ỳ </w>
d ự
v a</w>
h em</w>
může me</w>
ẩ n</w>
děla t</w>
m é
d ân</w>
h iệu</w>
te n</w>
l ần</w>
p la
ty to</w>
d ne
a m</w>
đ ất</w>
đ ơn</w>
bu de</w>
h iểu</w>
đ ưa</w>
š í
dě lá
spo leč
m lu
kh ả</w>
n ữ</w>
k ế</w>
g ra
ten to</w>
ch u
d i</w>
ạ </w>
t ình</w>
s ản</w>
je jich</w>
z i</w>
ễ n</w>
mů že</w>
mo z
m inh</w>
t ập</w>
vi dí
pře d</w>
ngh iên</w>
tr ị</w>
tr uyền</w>
v é</w>
ch tě
š tě</w>
le p
vá s</w>
sk é</w>
qu á</w>
ng uyên</w>
st ví</w>
pro č</w>
dru h
ma jí</w>
đ ường</w>
su y</w>
ạ m</w>
3 </w>
ch ọn</w>
t ư</w>
ce l
tr anh</w>
z v
sta v
t ên</w>
quy ết</w>
ò </w>
v š
svě t
c ố</w>
l ực</w>
ẩ m</w>
ste j
le ži
ngh e</w>
e r
ch ứng</w>
đồ </w>
v ài</w>
b ào</w>
kho ảng</w>
T ôi</w>
ê m</w>
ướ ng</w>
á ch</w>
l ấy</w>
oprav du</w>
ợ </w>
mysl ím</w>
ồ </w>
k á</w>
x e</w>
ã o</w>
n ổi</w>
a u
đ o
ne u
vi t</w>
d en
đ iện</w>
h ra
ử a</w>
s na
ch u</w>
ph ẩm</w>
ho u</w>
to mu</w>
kho a</w>
by ste</w>
ng u
no ut</w>
độ c</w>
1 0</w>
t ní</w>
v ů
h i</w>
gi ả</w>
vo u</w>
1 9
ž í</w>
te r
k ů</w>
ní ho</w>
ti êu</w>
ú p</w>
í t</w>
vě ci</w>
po dí
gi úp</w>
cu ối</w>
mě li</w>
č í</w>
v ši
mi li
e ne
ẫ u</w>
ph òng</w>
ủ ng</w>
š le
dụ </w>
š ko
2 0
sá ch</w>
u či
nghiệ p</w>
ê </w>
g ây</w>
ex i
l ời</w>
x ã</w>
gi á</w>
le m</w>
n ão</w>
d iện</w>
h y</w>
iệ m</w>
x ác</w>
n ého</w>
ă m</w>
v y</w>
c ích</w>
đ ánh</w>
sle d
l úc</w>
ph ép</w>
ph áp</w>
th anh</w>
k é</w>
do sta
o n
k ý</w>
ni t</w>
h u</w>
ch y
mu sí
z í
tu ổi</w>
sv é</w>
r ồi</w>
je ho</w>
k em</w>
th o
b ài</w>
všech ny</w>
N e
ž ád
je den</w>
4 </w>
m ô</w>
l í</w>
M ỹ</w>
qu ốc</w>
v ot
řek l</w>
g a
te dy</w>
gi ữa</w>
a ž</w>
t ích</w>
k ỳ</w>
tr a
po dob
v ăn</w>
kh i
vy tvo
ti ền</w>
ma ng</w>
z í</w>
te ch
k ov
s ở</w>
ř </w>
z ku
ầ m</w>
é mu</w>
kte rou</w>
m ạnh</w>
ch í</w>
s tro
str a
od po
d ư
b é</w>
v ực</w>
chi ến</w>
h ướng</w>
k ra
d ẫn</w>
dal ší</w>
u jí</w>
ngo ài</w>
ře j
na še</w>
ũ </w>
ři t</w>
je ště</w>
k ro
dob r
v ě</w>
A </w>
di ễn</w>
ể u</w>
vě dě
z de</w>
sl ov
th ị</w>
ph á</w>
ó c</w>
d r
đ ạo</w>
u ká
th ương</w>
ti ến</w>
ọ c</w>
b ức</w>
s cho
c ây</w>
n ền</w>
ạ y</w>
đ áng</w>
b í
dụ c</w>
thu ốc</w>
% </w>
m àu</w>
D </w>
u r
nh ạc</w>
h i
ph ố</w>
č i</w>
ê ng</w>
pou ží
s át</w>
g ắng</w>
kh u</w>
pra c
ậ m</w>
du y</w>
mož ná</w>
č ní</w>
h ạn</w>
í a</w>
ạ ch</w>
to án</w>
ph i
co ž</w>
pří kla
gi ản</w>
uy ết</w>
d ě</w>
m to</w>
svě tě</w>
ki ến</w>
č as
ph ạm</w>
thu ộc</w>
f u
t ài</w>
j de</w>
d ữ</w>
ů m</w>
ú i</w>
k iểm</w>
đ ời</w>
tak ov
ạ p</w>
ch ết</w>
dů leži
ry ch
ch ni</w>
bi ến</w>
ot á
dne s</w>
vši chni</w>
by li</w>
f e
h ết</w>
v ím</w>
t ý
j a
tr iệu</w>
h ro
! </w>
d ự</w>
m in
s pě
pří bě
b à</w>
ợ i</w>
mu s
c ực</w>
đ àn</w>
ně jak
sy st
bu de
2 0</w>
v ẫn</w>
ắ p</w>
š ích</w>
vidí te</w>
va jí</w>
jí t</w>
z ná
s ức</w>
pr vní</w>
do u
c ấp</w>
ỗ </w>
tr ả</w>
ch a
mí t</w>
moh li</w>
h e
ch to</w>
potře bu
mo c</w>
tr a</w>
ặ p</w>
õ </w>
s o</w>
ň </w>
f o
– </w>
té to</w>
m ý
má m</w>
my sle
g ần</w>
scho p
me zi</w>
kh í</w>
y ếu</w>
tě chto</w>
nh i
b ay</w>
ve li
8 </w>
vi ết</w>
ph ía</w>
6 </w>
ẹ </w>
á lní</w>
ve d
c ộng</w>
za jí
každ ý</w>
t vá
ně jší</w>
5 0</w>
kh ó</w>
j te</w>
vě do
m ất</w>
vlast ně</w>
ẹ p</w>
ob je
mě l</w>
ka z
by ly</w>
s u</w>
prost ře
t ů</w>
h a</w>
n ým</w>
al y</w>
na š
pa t
l á</w>
an i</w>
ve r
po h
ch ế</w>
r õ</w>
c ky</w>
th am</w>
ế m</w>
in y</w>
do ká
mo hou</w>
da t</w>
my šle
p en
m ôi</w>
ừ ng</w>
0 00</w>
á l
se b
ov al</w>
ó m</w>
i n</w>
T E
m é</w>
c ụ</w>
tech no
x ây</w>
zna men
h rá
th ậm</w>
pr ů
k ích</w>
t ức</w>
t ăng</w>
dě ku
đ ấy</w>
u mě
t ục</w>
otá z
ni ch</w>
k o</w>
ži vot
m í</w>
mno ho</w>
h iểm</w>
al e
a si</w>
z ji
v ũ</w>
t úi</w>
techno logi
7 </w>
ch ân</w>
še l</w>
rů z
ch ú</w>
po s
e ko
tr ò</w>
roz hod
st ře
gi ác</w>
všech no</w>
ví te</w>
dự ng</w>
koli k</w>
vi de
ri êng</w>
ni c</w>
r ů</w>
ph ủ</w>
m ối</w>
n ak
Q u
n y
bi ểu</w>
th ử</w>
st o</w>
š tě
ř a
k e</w>
lu ôn</w>
b u</w>
ro bo
m ẹ</w>
th uyết</w>
te ch</w>
pě t</w>
s mí
v en
w </w>
ta to</w>
ví c</w>
m ů</w>
khi ến</w>
ch ce
v ùng</w>
m r
b </w>
ch ci</w>
ví me</w>
ji m</w>
đ ẹp</w>
jedno du
o ng</w>
ck ý</w>
do kon
I n
ze ní</w>
dě ti</w>
stá le</w>
th ư</w>
vá me</w>
děku ji</w>
o s
h ồ</w>
l ệ</w>
t ồn</w>
ov ali</w>
th áng</w>
ỡ </w>
d ịch</w>
v ẻ</w>
. .</w>
exi st
ề m</w>
x a</w>
lid i</w>
te m</w>
me ri
vá ní</w>
e le
příkla d</w>
stu p
je te</w>
vě c</w>
lu ận</w>
a bychom</w>
ổ ng</w>
s ĩ</w>
živo t</w>
l ém</w>
lep ší</w>
chuy ên</w>
ự a</w>
č e</w>
bě hem</w>
x úc</w>
ph ản</w>
d ù</w>
pro to</w>
st a</w>
h ầu</w>
al o
Qu ốc</w>
s lu
u dělat</w>
ô m</w>
t ạp</w>
ng ữ</w>
má te</w>
th u</w>
lá i</w>
prob lé
ữ u</w>
u děl
quy ền</w>
h ữu</w>
3 0</w>
ỉ nh</w>
ngu ồn</w>
kh á</w>
m ục</w>
š ím</w>
dob ře</w>
tr ời</w>
ớ </w>
nh anh</w>
ť </w>
n ém</w>
ni kdy</w>
še ní</w>
o n</w>
to u</w>
te k</w>
m ặc</w>
ma ti
h ưởng</w>
ru ng</w>
po čí
s ắc</w>
qu anh</w>
. ..</w>
mů j</w>
m ở</w>
svě t</w>
d ấu</w>
skuteč nosti</w>
dư ới</w>
c t</w>
g e
př i</w>
k ì</w>
před stav
ra n
v ụ</w>
in u</w>
in for
pro je
b áo</w>
gi ao</w>
m o</w>
lu ật</w>
vě cí</w>
đ ình</w>
c ăn</w>
kh u
prob lém</w>
tr ái</w>
g ặp</w>
hod ně</w>
h ôm</w>
vo l
k ể</w>
str á
chi a</w>
če r
no stí</w>
kh iển</w>
qu ay</w>
la i</w>
đ ô</w>
ze k</w>
vidě t</w>
koli v</w>
d ài</w>
A nh</w>
ma te
T rung</w>
ậ u</w>
ny ní</w>
tro chu</w>
st u</w>
nh óm</w>
d lou
v u
c ů</w>
znamen á</w>
zd ra
nh ớ</w>
jed na</w>
be z</w>
tr i
vět ši
ti vní</w>
t ku</w>
jed nou</w>
ễ </w>
m ức</w>
ch ắc</w>
tr ăm</w>
dự a</w>
pr e
míst o</w>
ch út</w>
m ạng</w>
v ọng</w>
z en
ro di
ter ne
r àng</w>
musí me</w>
ph ận</w>
bu dou</w>
đ ôi</w>
v u</w>
je st
lov ě
práv ě</w>
é t</w>
h ạt</w>
kh ỏi</w>
â ng</w>
ne c</w>
d em</w>
di t</w>
č lově
tr ải</w>
po mo
ž as
vy u
tr úc</w>
nh iệm</w>
dů vo
zí sk
sa i</w>
đị a</w>
ế p</w>
T h
ck ých</w>
l é</w>
zají ma
sta r
th ủ</w>
kho ẻ</w>
stej ně</w>
infor ma
ene r
ti t</w>
gi ảm</w>
o sta
řej mě</w>
pře mý
ị u</w>
t án</w>
z kou
ú žas
ro b
u k
ob ra
ch ịu</w>
mu se
b li
N h
do st
ce la</w>
20 0
sa moz
po je
o u
za čí
o te
õ i</w>
ro ce</w>
ch ắn</w>
t ov
h á
spo u
mé ně</w>
9 </w>
t ři</w>
tho ại</w>
ấ m</w>
pře s
b ra
đ óng</w>
mus í</w>
pá r</w>
vi l</w>
lo ạn</w>
myšle n
x ung</w>
phi m</w>
d á</w>
ư ng</w>
ří ká</w>
or </w>
nov é</w>
moh l</w>
ře ní</w>
th í</w>
k ni
m ẫu</w>
b í</w>
po ř
ngo ại</w>
ne s
l ịch</w>
d ạng</w>
cu ốn</w>
an o</w>
ẳ ng</w>
v ž
ni ce</w>
veli ce</w>
v lá
tě ch</w>
s vo
s lo
po li
pro cen
k iện</w>
z u
to ho
počí ta
pod le</w>
nu tí</w>
a bych</w>
A f
o ri
sk ý</w>
ó n</w>
ki ếm</w>
i l
ne te</w>
gi ữ</w>
b ố</w>
d va</w>
vět ší</w>
do la
ch ương</w>
š pat
tu to</w>
způsob </w>
ng ôn</w>
my s
si l
robo t</w>
mo de
c ảnh</w>
cá nh</w>
samoz řejmě</w>
před sta
fu ng
ti v
ob rá
dí ky</w>
M a
ừ a</w>
w e
d õi</w>
t ky</w>
seb e</w>
s âu</w>
o l
be z
ž u</w>
ph ức</w>
zji sti
r ní</w>
d vě</w>
ch ưa</w>
če ní</w>
toho to</w>
to mto</w>
th êm</w>
pl ně</w>
mě r
sl y
pou ze</w>
ch ung</w>
ří ct</w>
zá kla
tr ưởng</w>
v âng</w>
ch a</w>
th iên</w>
ng ôi</w>
mu ni
živo ta</w>
th úc</w>
sk vě
eko no
l ư
N o</w>
ổ n</w>
lo u</w>
č ím</w>
cu ng</w>
t vr
tr ang</w>
ob la
l ã
mu a</w>
mno hem</w>
l ợi</w>
ck á</w>
na ši
vy pad
ve smí
jest li</w>
ze m
ph ục</w>
ko m
svě ta</w>
odpo vě
c ấu</w>
tr ụ</w>
s ợ</w>
TE D</w>
zv lá
đo ạn</w>
ng ạc</w>
r ối</w>
k ỷ</w>
h ạnh</w>
ur či
do anh</w>
d ễ</w>
bu dou
r ộng</w>
ří ká
t á</w>
te le
n ů</w>
pod sta
tě ž
jed in
exist uje</w>
Ne w</w>
a g
vše ch</w>
ga ni
pro du
ắ m</w>
ů j</w>
vy tvá
v rá
ně kdo</w>
kh ủng</w>
prá ce</w>
tr á
o sob
m ật</w>
s práv
ỡ ng</w>
đ en</w>
z nov
tře ba</w>
t ối</w>
p s
đo án</w>
chá ze
ener gi
ne m</w>
hod no
c ửa</w>
ụ p</w>
pe r
P hi</w>
t ôn</w>
na ší</w>
na d</w>
tr ông</w>
ngh ị</w>
pou ži
mě sí
hu ỷ</w>
dokon ce</w>
s ư</w>
ph úc</w>
l ựa</w>
do st</w>
bude me</w>
qu y</w>
ele k
ti ết</w>
poh y
ng ồi</w>
sv ůj</w>
ko lem</w>
chtě l</w>
mo je</w>
ko muni
k li
prá ci</w>
la d
1 00</w>
ro d
na příklad</w>
h ov
te l</w>
v ẽ</w>
ti sí
chá zí</w>
příbě h</w>
g hi</w>
t iện</w>
ho à</w>
pra cu
n ối</w>
č ty
prost ě</w>
s ko
o p
min u
proje k
l òng</w>
sk ých</w>
g ái</w>
uká z
li v
r ak
no m</w>
le ty</w>
l ắng</w>
v òng</w>
sk á</w>
kh ám</w>
g ene
đ ủ</w>
u kaz
d la</w>
or gani
krá t</w>
č ně</w>
ú plně</w>
x u</w>
đ âu</w>
skuteč ně</w>
s pe
dě je</w>
o ko
th iện</w>
t ỉ</w>
li t</w>
dá v
sá h
n ými</w>
bi ển</w>
đ ọc</w>
xu ống</w>
kter ých</w>
kh ắp</w>
d ương</w>
ầ y</w>
Ấ n</w>
s vou</w>
g </w>
ni t
ekono mi
va ž
c ổ</w>
e l
b óng</w>
za mě
poz or
vlast ní</w>
kh ăn</w>
c kou</w>
d ạy</w>
su ốt</w>
ží t</w>
k r
vš ak</w>
pře s</w>
p lá
č en
l ẽ</w>
ná š</w>
moz ku</w>
d ů</w>
ča s</w>
s y</w>
č ky</w>
po cho
mož né</w>
k re
mě la</w>
le tí</w>
ku l
th ái</w>
stu den
ro k</w>
ji st
ho ạ</w>
đ au</w>
roz dí
i .</w>
je nom</w>
je jí</w>
sta ne</w>
ph út</w>
budou c
ze mě</w>
vy š
š ť
ne mo
b r
s ẻ</w>
ch ạy</w>
ỏ ng</w>
tr ưng</w>
t ně</w>
str uk
ste ch</w>
dola rů</w>
b àn</w>
t ệ</w>
H o
Đ ộ</w>
vi li</w>
tr ợ</w>
s ní
o h
ja z
s vý
o o
vide o</w>
tr ai</w>
bu du</w>
ngh i</w>
M i
či t</w>
př á
le ní</w>
a t
a byste</w>
ří k
tu ần</w>
ní mi</w>
ồ ng</w>
mili ar
fi l
h r
ó .</w>
syst ém</w>
g h
ằ m</w>
st alo</w>
d lo</w>
u vědo
g en
1 5</w>
musí te</w>
ng ủ</w>
ne jsou</w>
dě ji</w>
větši na</w>
v še</w>
ro st
ko li</w>
způsob em</w>
bi o
se d
pa r
na uči
lớ p</w>
da jí</w>
nh ập</w>
Y or
ồ m</w>
é o</w>
je m
b ại</w>
au to
tr ách</w>
je m</w>
vý zku
ph ù</w>
d y
A meri
poli ti
du ng</w>
š en
znov u</w>
j de
b án</w>
t ý</w>
k y
ni ên</w>
mlu vit</w>
kh ối</w>
g ồm</w>
ch âu</w>
rá d</w>
p le
khu ẩn</w>
b ác</w>
pa d</w>
p lo
na z
ch ứ</w>
vypad á</w>
p t
b lí
d ành</w>
hro ma
1 2</w>
vz dělá
sk ého</w>
přes ně</w>
l ů</w>
še ho</w>
z ví
pro ti</w>
p y</w>
ki a</w>
ch ủng</w>
uy ện</w>
po sle
stu di
so át</w>
produ k
pe č
nhi ễ
ce st
č em</w>
& a
m ắt</w>
l âu</w>
naši ch</w>
x ử</w>
technologi e</w>
mysl í
v ali</w>
s kou</w>
gi ết</w>
x ấu</w>
b ước</w>
po hle
t ắc</w>
ov ala</w>
nak o
jednodu ch
ượ t</w>
ně kolik</w>
žen y</w>
ã i</w>
vidí me</w>
ú spě
iệ p</w>
sto u
b ánh</w>
ta kh
takh le</w>
ni c
ck ého</w>
sa mo
to li
pa ci
kul tu
ka m
c àng</w>
ně kdy</w>
ži t</w>
vů li</w>
sv ého</w>
ch i</w>
x </w>
vytvo ři
th ất</w>
tel né</w>
po sta
pla ne
đ a</w>
h át</w>
le tech</w>
jaz y
ch e
è o</w>
l ạ</w>
k e
ch ụp</w>
č in
k iểu</w>
bu ổi</w>
v al</w>
ně j
x anh</w>
terne t</w>
h ộ</w>
f ak
zd ro
vá te</w>
sk u</w>
p li
s em</w>
procen t</w>
pos ;</w>
b ăng</w>
&a pos;</w>
li nh</w>
každ é</w>
bu ộc</w>
m ẽ</w>
đ ột</w>
pr vé</w>
ph ong</w>
a ng
po ci
nhiễ m</w>
nako nec</w>
na n
J a
ĩ nh</w>
čá st</w>
prav dě
k to
d ří
dob ě</w>
pravdě podob
f y
děla jí</w>
ne k</w>
důleži té</w>
ně ní</w>
ọ </w>
š li</w>
vy so
nu ôi</w>
t ố</w>
s mě
k va
jedno ho</w>
ch ví
t ỷ</w>
đ ầy</w>
k lá
dělá me</w>
b á
zv u
si êu</w>
prostře dí</w>
potřebu jeme</w>
ž i</w>
tr ực</w>
pr v
ob rov
vo j
ž ně</w>
th ai</w>
vel ké</w>
r o</w>
ne me</w>
fy zi
řek la</w>
z ní</w>
u mož
š lo</w>
ně které</w>
k ỹ</w>
k vůli</w>
t ộc</w>
T ây</w>
tr ùng</w>
s pí
pří li
be c</w>
t ốc</w>
qu en</w>
te r</w>
ri e</w>
ma y</w>
4 0</w>
v ượt</w>
thi ếu</w>
ob e
lã nh</w>
l ầm</w>
vů bec</w>
m em</w>
ši t</w>
vě ři
l ạc</w>
ho r
ch ấp</w>
přemý š
m ạo</w>
chu ẩn</w>
ặ ng</w>
tak to</w>
po d</w>
o de
ne po
cel é</w>
ří ka
vy svět
v o</w>
sk y
pro gra
ov ých</w>
k ê</w>
đ ạt</w>
ng ành</w>
vž dy</w>
jí cích</w>
u ži
o ni</w>
ni l</w>
j mé
ro ku</w>
pří pad
za ce</w>
za po
v ře
na d
fe k
č ka</w>
p u</w>
v nit
spo lu
g ắn</w>
ča sto</w>
ov á</w>
m ně</w>
chce te</w>
be r
ư ời</w>
vidě li</w>
t ội</w>
fung uje</w>
dư ỡng</w>
cá o</w>
c ím</w>
C o
zač al</w>
bude te</w>
th ập</w>
sle du
ni kdo</w>
lid em</w>
kh ai</w>
j as
příli š</w>
ko ho</w>
kh ắc</w>
x i
toli k</w>
sou čas
poř á
n ky</w>
m ù
nhi êu</w>
l ồ</w>
kh ổng</w>
ngu y</w>
ne z
vu i</w>
pro ce
n ằm</w>
kter ým</w>
h ồi</w>
dobr é</w>
ú a</w>
va še</w>
gi àu</w>
ce lý</w>
é st</w>
ph í</w>
mno ž
vá l
qu ý</w>
n ông</w>
6 0</w>
svě d
dě tí</w>
ži li</w>
u jící</w>
pomo cí</w>
roz u
ni ci</w>
d ně</w>
čí s
n ội</w>
dal ších</w>
sa mi</w>
ng ắn</w>
ho di
c ạnh</w>
đ ứng</w>
Ch âu</w>
st át</w>
k ính</w>
dí tě</w>
v ra
jed nu</w>
S A</w>
jak é</w>
chce me</w>
c ử</w>
đ ức</w>
y .</w>
v iện</w>
t ka</w>
n ạn</w>
p e</w>
d al</w>
ị t</w>
z y</w>
te le</w>
podsta tě</w>
đ á</w>
t ấn</w>
sk y</w>
V </w>
ợ c</w>
žád né</w>
za t</w>
vz ta
ob cho
m ê</w>
hi sto
8 0</w>
ch la
me tr
ze mi</w>
v ní
t ái</w>
si g
po tom</w>
gra fi
c ư</w>
M ar
leži to
ko ne
jin é</w>
de ch</w>
bu ň
u jeme</w>
před po
ph i</w>
mys l</w>
vo lu
h lu
do cela</w>
ži l</w>
ž á
đ u
u ni
t né</w>
r em</w>
d ali</w>
b ar
ná ro
de mo
K </w>
í ze</w>
so ci
or u</w>
sv ých</w>
sob ě</w>
nej lepší</w>
h ấp</w>
a m
vy pa
tr ì</w>
pi t</w>
ni ềm</w>
n ửa</w>
j men
đ ỡ</w>
ti vi
posle dní</w>
pen íze</w>
paci en
po sled
kdy by</w>
d ne</w>
vytvo řit</w>
to u
na prost
2 5</w>
đ ó.</w>
člově k</w>
vy k
vel k
ti l</w>
ra zi
š i</w>
ne ch
e l</w>
druh é</w>
do sáh
v če
podí ve
po té</w>
krá s
dá m</w>
vědě t</w>
ve řej
l iệt</w>
dá ní</w>
C </w>
tr ừ
to à</w>
s pi
u dr
společ nosti</w>
h ại</w>
ẵ n</w>
stu p</w>
st í
s ẵn</w>
mal é</w>
i t
ch ăm</w>
zač ali</w>
z o
ov ý</w>
ngư ợc</w>
l ĩnh</w>
ká ch</w>
ň uje</w>
č ku</w>
st ě
vý sled
so n</w>
slov a</w>
pod po
mno ha</w>
m ého</w>
f </w>
energi e</w>
x ếp</w>
na vr
mate ri
dá l</w>
řek li</w>
Z e
ó p</w>
změ nit</w>
lo b
ji ž</w>
qu ản</w>
děl á</w>
ná stro
do by</w>
Af ri
struk tu
n iệm</w>
vz ni
th ao</w>
s í</w>
ro ve
o hro
je j</w>
z ra
s la
s r
mů žu</w>
mo zek</w>
l ọc</w>
ẩ u</w>
đ ảm</w>
x ét</w>
tr ạng</w>
sto letí</w>
ova né</w>
ngh èo</w>
ti m</w>
th ịt</w>
h ứng</w>
c ậu</w>
Yor k</w>
nh iệt</w>
ngh i
ší ho</w>
t k
hu d
ch ỉnh</w>
va i</w>
n d
moh la</w>
ukaz uje</w>
th iệu</w>
me n</w>
ku d</w>
S </w>
tak y</w>
D a
svý m</w>
d àng</w>
đ ấu</w>
z ů
s lou
prac ovat</w>
chu ột</w>
po pu
d ce</w>
osta t
pří ro
oo g
tá ch</w>
t ří
růz ných</w>
rych le</w>
ph ẫu</w>
m ềm</w>
T i
ấ c</w>
D N
Ch úng</w>
ti cké</w>
sly še
s mr
c a
b ạo</w>
P a
L e
ta i</w>
t ổn</w>
p tá
ná ní</w>
na t</w>
k ri
ch rá
nějak é</w>
& #
&# 9
zá vi
tr ắng</w>
g ốc</w>
de se
v ận</w>
v ně</w>
o by
množ ství</w>
z práv
s óc</w>
gi ấc</w>
chuy ến</w>
uděl ali</w>
nov ý</w>
Č í
ov ou</w>
ně j</w>
h y
ch ống</w>
R i
G oog
ně koli
kam ži
d ím</w>
a meri
w ar
ng àn</w>
dosta t</w>
pe ri
o kamži
ní k</w>
poz ději</w>
h á</w>
ử i</w>
če k</w>
z u</w>
ph ổ</w>
o ny</w>
chi m</w>
b ầu</w>
ště stí</w>
đ ắn</w>
čá stí</w>
čas u</w>
t ká
sku pi
nghi êm</w>
jed né</w>
d anh</w>
chví li</w>
ự ng</w>
vě z
h ậu</w>
h mo
tě jší</w>
spo je
kter ém</w>
trừ </w>
prac ov
li š
d vou</w>
chtě li</w>
čty ři</w>
osta tní</w>
TE D
že ní</w>
če t</w>
x uyên</w>
tel é</w>
dá le</w>
říká m</w>
tí m
tu ệ</w>
obla sti</w>
ng ẫu</w>
l ně</w>
v zá
s dí
ka mi</w>
ch ữa</w>
ch iều</w>
j me</w>
so bi
b an</w>
v ú</w>
na šeho</w>
ma n
B o
vel ký</w>
rove ň</w>
d ĩ</w>
In di
th ụ</w>
tak ové</w>
sk a</w>
o me
naz ý
gi ấy</w>
chtě jí</w>
tu a
th ôi</w>
neu ro
g óp</w>
před ná
informa ce</w>
h lí
vý zna
případ ě</w>
pod ni
mate mati
ře šení</w>
tí mto</w>
nh ảy</w>
g ửi</w>
ch óng</w>
umě ní</w>
problé my</w>
pa ma
dě t
K ỳ</w>
đ ựng</w>
kon tro
důvo d</w>
čá sti</w>
z ak
po mí
mysl í</w>
kra č
v ý</w>
v ân</w>
t àng</w>
mě ní</w>
g lob
do m
qu ảng</w>
ob sa
hã i</w>
h út</w>
t ổng</w>
po j
j u</w>
jin ého</w>
cha t</w>
c em</w>
ó t</w>
vesmí ru</w>
dal e
è </w>
we b</w>
sk r
pra vi
lid ské</w>
ve ní</w>
t ồi</w>
pře kva
d át</w>
In ternet</w>
vě de
lid mi</w>
H ồi</w>
po č
dá vá</w>
zví řa
u m</w>
pořá d</w>
po lo
neu věři
h ơi</w>
a st
S poje
že na</w>
si tua
ni li</w>
naš i</w>
n ku</w>
h ru
a b
ří zení</w>
th ách</w>
ph óng</w>
obrá z
na jít</w>
m nou</w>
a ť</w>
z pět</w>
s óng</w>
ra to
pen ě
on ů</w>
jed no</w>
hroma dy</w>
dob u</w>
da ta</w>
F ran
19 9
đ iển</w>
zajíma vé</w>
ne vy
Â u</w>
pří mo</w>
pu bli
několi ka</w>
lé pe</w>
l ửa</w>
b ữa</w>
naprost o</w>
kh ách</w>
j ů</w>
fo to
d ừng</w>
t ých</w>
potře b
N g
đ êm</w>
s mu
rak ov
ob ě
S i
té mě
ri i</w>
g en</w>
co i</w>
život ě</w>
ti li</w>
th ù</w>
od liš
b ốn</w>
v ừa</w>
m ại</w>
m ých</w>
ce lou</w>
S e
z cela</w>
vá š</w>
vo ng</w>
témě ř</w>
jedno t
ná ch</w>
mo u</w>
le ží</w>
če ho</w>
zá sa
ze mí</w>
u li
t ovat</w>
p sy
n ce</w>
n .</w>
mi mo
B </w>
st y</w>
st al</w>
o ná
ng ờ</w>
ra ce</w>
po zi
po krač
ně kteří</w>
ka m</w>
k ové</w>
exi stu
cũ </w>
cel ém</w>
če ká
společ en
ư u</w>
o pe
de k</w>
sá m</w>
slo ži
s àng</w>
posled ních</w>
no r
d ra
độ i</w>
u ống</w>
t ật</w>
syst é
oko lo</w>
o ce
mi kro
ko le
c a</w>
bo ha
al a
ro p
o ch
ex peri
do hromady</w>
ná bo
H a
la n
jde te</w>
če mu</w>
ve z
uvědo mi
schop ni</w>
s ót</w>
pře svěd
pu sti
experi men
N a
ško ly</w>
ř ím</w>
zvlá š
z lo
z alo
sto jí</w>
nemo c
d ậy</w>
b or
D e
lư u</w>
V à</w>
P o
t ấm</w>
ps al</w>
kho ảnh</w>
đ ổ</w>
zač á
to m
phi ếu</w>
o hle
na bí
n ale
materi á
ch ování</w>
P </w>
t va
ro vat</w>
má i</w>
m ắn</w>
bu dov
ří me</w>
te h
m lad
d vě
či l</w>
mus ím</w>
mo ng</w>
m ón</w>
c ận</w>
vědě li</w>
nic t
le s
dne š
spou stu</w>
s ân</w>
pří ležito
đ ỏ</w>
v ĩ</w>
u b
stej né</w>
š la</w>
zku še
stá vá</w>
otáz ka</w>
ne jen</w>
šť ast
rá t</w>
dov o
vidě l</w>
v ết</w>
roz en
poci t</w>
jin ý</w>
c ắt</w>
ž a
vy prá
tí n</w>
ty hle</w>
s ím</w>
qu ân</w>
jin ak</w>
g u
prostře d
or g
o na</w>
m ắc</w>
i m
g ấp</w>
dobr á</w>
Goog le</w>
zdra vot
z n
vi nu
přemý šle
mysle l</w>
e fek
ov liv
nej větší</w>
la ce</w>
k lí
h ề</w>
J e
to r</w>
myslí te</w>
dří ve</w>
d ây</w>
ộ p</w>
dobr ý</w>
di l</w>
d ầu</w>
d ro
DN A</w>
te ori
při šel</w>
před tím</w>
po prvé</w>
mož nost</w>
lư ới</w>
žád ný</w>
úžas né</w>
ve n</w>
đị ch</w>
sku p
gi à</w>
ak te
O K</w>
N ó</w>
ẩ y</w>
vš u
đ ông</w>
společ nost</w>
ote vře
lo sti</w>
S te
ží me</w>
vědě l</w>
v ést</w>
uděl al</w>
tu y</w>
la bo
khu ôn</w>
Af g
vnit ř</w>
th ác</w>
t ảng</w>
sa ng</w>
qu ang</w>
na ho
kh án</w>
k éo</w>
h ộp</w>
doká že
a t</w>
za tím
x o
růz né</w>
lu je</w>
dru h</w>
c ải</w>
c ười</w>
tel ně</w>
ng ăn</w>
jed ním</w>
že n</w>
říka jí</w>
teh dy</w>
představ te</w>
po má
k v
zatím co</w>
spo lu</w>
pů l</w>
mě lo</w>
lo g
ze le
s kon
p sa
l y
demo kra
1 1</w>
đ ào</w>
te nh
tenh le</w>
d ci</w>
ti ểu</w>
th ắng</w>
použí t</w>
po tra
po sky
otáz ku</w>
m ơ</w>
kh ẩu</w>
dlou ho</w>
z ni
vš em</w>
tech ni
sá nh</w>
in te
h ạ</w>
2 00</w>
odpově ď</w>
ní ky</w>
ka t</w>
dale ko</w>
ck ým</w>
S a
C a
A l
Đ ại</w>
v l
si t</w>
mi ni
dá me</w>
bez peč
č an
to n</w>
th ấp</w>
poř ád
pe ní</w>
obrá zek</w>
J o
t ù</w>
re ali
předsta vit</w>
p í</w>
je n
ho ạch</w>
h ảo</w>
š em</w>
ra di
ph ê</w>
nh ắc</w>
le h
hrá t</w>
ho a</w>
gi ây</w>
existu jí</w>
ụ t</w>
z da</w>
ní ci</w>
no st
h roz
f er
b en
T </w>
vá dě
uni ver
těž ké</w>
t ầm</w>
st ala</w>
r ời</w>
po lov
ně koho</w>
de r
ch y</w>
bo j
rozdí l</w>
R o
č né</w>
dělá te</w>
dou f
N i
Ch úa</w>
- li</w>
u ji</w>
tě la</w>
tr an
t àn</w>
syst ému</w>
ng .</w>
na m</w>
kh ái</w>
K a
z or
th ải</w>
t ým</w>
ro ky</w>
moh lo</w>
mo ci</w>
jak ý</w>
cí ho</w>
c ơn</w>
ặ n</w>
js i</w>
h er
v ala</w>
podí vat</w>
ni mi</w>
na jednou</w>
mo bi
labo rato
k ů
tr é
ne chá
mal ý</w>
ang li
v àng</w>
ta n
ro ze
obra z
mù a</w>
muse li</w>
ộ n</w>
z lep
vyu ží
sna d
j dou</w>
ầ ng</w>
zd á</w>
vž dy
vě t</w>
vz or
tr e
t ầng</w>
rů st</w>
n ỗi</w>
mr t
e mo
do spě
ớ n</w>
to ti
projek t</w>
mili onů</w>
7 0</w>
đ ợi</w>
pos lou
bio logi
rob ot
kom ple
jak ým</w>
fi nan
že t</w>
r ně</w>
d é
začí t</w>
vz ít</w>
t ờ</w>
ně te</w>
míst a</w>
f a
ch ước</w>
zač ala</w>
rost li
nějak ý</w>
ne bylo</w>
mu ž
doká z
buň ky</w>
ze pt
toti ž</w>
seb ou</w>
rá di</w>
pomo ci</w>
me di
in ter
gi ọng</w>
B ro
ž ní</w>
zjisti li</w>
uká zat</w>
u vnitř</w>
podíve jte</w>
f é
J oh
đ ẩy</w>
đ ảo</w>
zamě st
takov ý</w>
U SA</w>
đ ích</w>
t ả</w>
st ov
ph ỏng</w>
ob vyk
ma t</w>
m àn</w>
s ăn</w>
o čeká
dost ali</w>
ce ní</w>
K o
x in</w>
po mal
nov i
ni e</w>
zdra ví</w>
t ải</w>
mě sta</w>
lé ka
chtě la</w>
ch ẳng</w>
đ ớn</w>
za bý
vá mi</w>
vz dá
vi la</w>
ni la</w>
ma r
ú ko
vý vo
str an
r út</w>
předná š
neb e
in terne
ce mi</w>
E v
s mysl
s ch
pří stup</w>
po važ
lí me</w>
g óc</w>
che mi
ar má
ž ou</w>
z pá
vši m
vytvá ře
vo i</w>
vo du</w>
ve de</w>
spo ň</w>
peně z</w>
k ým</w>
dost al</w>
ch ỗ</w>
čís lo</w>
pl y
c ập</w>
đ o</w>
ú rov
zá leží</w>
vel ká</w>
ra t</w>
o pět</w>
mysle li</w>
kv ali
vá žně</w>
vo dy</w>
th ơ</w>
krá t
hla vní</w>
f ot
b ày</w>
Ho a</w>
ší mi</w>
đ ỉnh</w>
sv ém</w>
pravděpodob ně</w>
la o</w>
c ân</w>
c y
b ě</w>
P h
1 8</w>
zpá tky</w>
všu de</w>
m ã</w>
ji t</w>
vi dí</w>
tr ao</w>
schop nost</w>
po su
pama tu
k ovat</w>
c ờ</w>
đ ói</w>
v né</w>
mysle t</w>
m ập</w>
d ị</w>
X </w>
B ri
5 00</w>
w it
vyš ší</w>
t àu</w>
s pá
ná kla
kh ích</w>
jed ná</w>
in ova
d ny</w>
b ề</w>
š tí</w>
vytvoři li</w>
th ẳng</w>
re ak
kh áng</w>
Nh ật</w>
č ních</w>
z ovat</w>
sk ém</w>
in ve
elek tro
de sig
I ra
svět lo</w>
svo bo
skvě lé</w>
po vr
n ổ</w>
min ut</w>
ka n
dělá m</w>
ž né</w>
tře tí</w>
th ước</w>
spou sta</w>
ov ého</w>
mys li</w>
mu ž</w>
ki m</w>
budouc nosti</w>
a ni
A r
pře sto</w>
poz o
podí váte</w>
n k
moh u</w>
z by
ti to</w>
pro fe
ph ối</w>
ov lá
ng uyện</w>
ne byl</w>
hru ba</w>
h é</w>
h ài</w>
b an
G e
C ác</w>
z hruba</w>
l ze</w>
i g
dá te</w>
zá ko
navr h
l uyện</w>
gi ai</w>
bo m</w>
B ắc</w>
1 6</w>
ặ m</w>
ži la</w>
ř á
vědo mí</w>
společ ně</w>
mi ễn</w>
k iệm</w>
ch ữ</w>
se l
se k</w>
s a</w>
jí dlo</w>
hlu bo
ce p
získ á
ta t</w>
ní ků</w>
ng ân</w>
de l
c ầm</w>
bu ồn</w>
N am</w>
vždy cky</w>
u mí
psy cho
jednodu še</w>
ch ar
B u
Đ ông</w>
vš ím</w>
th i</w>
příbě hy</w>
ma ni
W i
9 0</w>
za řízení</w>
x ương</w>
slov o</w>
po ru
nábo žen
ng u</w>
mě st
kh uy
druh ý</w>
za sta
sna ží</w>
ně jak</w>
d rá
vy ře
tuy ến</w>
sou částí</w>
s mu</w>
po čet</w>
po r
n ặng</w>
l ừa</w>
l ky</w>
u vidíte</w>
tá h
te li</w>
s ů</w>
má lo</w>
mo le
me zi
e r</w>
b rá
vět š
tisí ce</w>
s ạch</w>
mole ku
m ạch</w>
M </w>
I V</w>
ze mě
po roz
ko sti</w>
dvě ma</w>
ck ém</w>
že l</w>
zákla dní</w>
vzni k
tr ồng</w>
t la
ne má</w>
ne mají</w>
mé di
mo men
lo st</w>
j ád
h lou
T wit
či li</w>
s mysl</w>
ni i</w>
ne r
m ém</w>
k ĩ</w>
je di
di li</w>
ří ci</w>
zá roveň</w>
ta hle</w>
smu s</w>
si l</w>
s ơ</w>
přemýš let</w>
jin ých</w>
h ne
ch ờ</w>
z r
umě t</w>
u čí</w>
tra di
sk ým</w>
pro te
pod mí
in spi
stra ně</w>
ph ấn</w>
otáz ky</w>
obe c
fi r
d ặm</w>
d òng</w>
žád ná</w>
ž ím</w>
ve s
soci ální</w>
se be
rych le
pře de
miliar d</w>
ch àng</w>
a pli
L o
z tra
tá lní</w>
tel ný</w>
počíta č
mi le</w>
le ta
hne d</w>
vy vinu
v al
spe ci
při rozen
pocho pi
ne dáv
kon ci</w>
h lá
dí v
đu ổi</w>
vzdá le
th ảm</w>
te x
t ường</w>
pr i
má u</w>
do stá
do lů</w>
V i
H IV</w>
za se</w>
vo st</w>
v ak
p y
ně m</w>
hodi n</w>
zá ba
th </w>
t ého</w>
r ơi</w>
ne byla</w>
mě ly</w>
mo c
mi lu
m ảnh</w>
l ku</w>
i l</w>
důleži tější</w>
dru hou</w>
do mů</w>
A ng
člově ka</w>
tr u
tele fo
t ům</w>
m ým</w>
k lu
dě le
do kto
blí z
b ní</w>
t úc</w>
st an</w>
spe k
pa pí
p al
ní mu</w>
me s</w>
h ry</w>
e volu
b ri
P e
K i
z rov
ta ce</w>
s en
pr ve</w>
ne js
míst nosti</w>
jak mile</w>
fu nk
dov e
řík al</w>
v ững</w>
t ốn</w>
t ři
problé mů</w>
ná sledu
nov ou</w>
n ému</w>
má ní</w>
mo rá
m ž</w>
b akte
uká žu</w>
ob lí
nor má
k ru
B e
ň ují</w>
za hra
roz ší
při šli</w>
prav da</w>
pohle d</w>
nebe z
mode l</w>
l ých</w>
kter ými</w>
j o</w>
c à</w>
F a
0 .</w>
đ ám</w>
zrov na</w>
změ ny</w>
v alo</w>
d ovat</w>
d ala</w>
ch ứa</w>
b ền</w>
ško le</w>
univer zi
pí s
po ví
op ak
lo ạt</w>
la n</w>
c é
b lo
Da vi
Ch ri
B ản</w>
ú ča
za ci</w>
vz du
spo tře
náro dní</w>
M o
M e
špat ně</w>
zem ích</w>
tisí c</w>
th ảo</w>
tel ů</w>
samo t
qu ỹ</w>
pa dy</w>
metr ů</w>
ch ce</w>
b è</w>
ali for
T o
đ iệp</w>
če t
ob dob
dal o</w>
vě řím</w>
ov aly</w>
ne na
li l</w>
děl ali</w>
ch ép</w>
bo le
výsled ky</w>
vy ro
sá u</w>
ná sled
nov ých</w>
mlu ví</w>
mi mo</w>
l ovat</w>
kro k</w>
dob ro
d an
bo o
b ảng</w>
b éo</w>
č tvr
ve de
t ří</w>
sk lá
ru ce</w>
při jít</w>
před mě
prost oru</w>
ne můžete</w>
k ova
h věz
K h
H ar
B a
ži tí</w>
zá vě
vytvá ří</w>
ti la</w>
sko ro</w>
s ắp</w>
při jde</w>
ová ním</w>
o pi
nh .</w>
ne dosta
jak é
do kud</w>
ch ạm</w>
T e
získ at</w>
z trá
sle dov
ni lo</w>
ne vím</w>
měr em</w>
budouc nost</w>
B ạn</w>
vy rá
ti sti
so f
ni a</w>
myšlen ka</w>
d le</w>
vel kou</w>
va ší</w>
tě lo</w>
t .</w>
ná pad</w>
k lo
h ů</w>
c vi
b al
vě ku</w>
poj ď
na jí</w>
l ních</w>
jednoduch é</w>
Spoje ných</w>
B il
B i
zna č
začí ná</w>
vý rob
rodi če</w>
mili ó
kh ứ</w>
informa cí</w>
in di
foto grafi
čer ven
úspě š
z ova
pre zen
pohle du</w>
myšlen ky</w>
là ng</w>
k ům</w>
s rov
ov alo</w>
ne bude</w>
Th ái</w>
R e
L i
Ả </w>
z vý
vz pomí
sna d</w>
prost or</w>
potře ba</w>
odpově d
mlu vil</w>
k le
do má
ch ào</w>
I </w>
đ iên</w>
tr ánh</w>
ta n</w>
nà y.</w>
ng ừng</w>
mu ži</w>
ch ó</w>
. 000</w>
ži jeme</w>
ště ní</w>
ča se</w>
to sti</w>
tho ải</w>
rá da</w>
ra z
pozor nost</w>
p é
ka me
en ce</w>
ci t
ci e</w>
t ô</w>
potra vi
l ỗi</w>
ka ce</w>
i na</w>
h ạng</w>
cháze jí</w>
č te
tr òn</w>
tele vi
n óng</w>
dů vě
dá vat</w>
cel kem</w>
vzdělá ní</w>
spí še</w>
sa mé</w>
podob ně</w>
ná d
nej více</w>
h al
doká že</w>
ce stu</w>
c in
ũ i</w>
špat né</w>
z bra
tran s
naš em</w>
c k</w>
ži jí</w>
è n</w>
ál ně</w>
tí te</w>
re volu
r ừng</w>
použí vat</w>
nov á</w>
m ne</w>
kre a
hla s</w>
h uje</w>
d iệu</w>
Nh ững</w>
L a
1 4</w>
1 0
způsob y</w>
vý cho
th ờ</w>
se xu
sa ma</w>
proce s</w>
oblí ben
khuy ến</w>
jmen uje</w>
h ỗ</w>
di nh</w>
au ta</w>
způ sobi
sti tu
si lí</w>
pů vo
prů měr
ná mi</w>
na mi</w>
n ắm</w>
j ím</w>
bu r
ủ i</w>
z va
vi dím</w>
uči t</w>
urči tě</w>
u čení</w>
thu ỷ</w>
sy m
rozhod nutí</w>
pě ti</w>
nov á
jí cím</w>
jde me</w>
hu de
du je</w>
Ze mi</w>
vzdělá vání</w>
r e</w>
pe di
obje k
ngo ái</w>
m an</w>
každ á</w>
k ry
fak t</w>
bu ně
au to</w>
č le
u važ
stav u</w>
slyše li</w>
rá i</w>
ra ci</w>
poz ná
m la
k ịch</w>
h ổ</w>
h ôn</w>
T rái</w>
čí me</w>
začá tku</w>
slu ž
qu ên</w>
li e</w>
Ch ar
v ợ</w>
v ỡ</w>
to st</w>
st y
pr in
nh ựa</w>
ne chat</w>
míst ě</w>
ho ảng</w>
gi ỏi</w>
druh y</w>
do šlo</w>
d ường</w>
ch ậm</w>
ú to
vyu žít</w>
tí me</w>
kni hy</w>
ak tivi
svo je</w>
re ál
po n
pa du</w>
ov ě</w>
něj ších</w>
moh ly</w>
cho dem</w>
cen tr
P ro
ọ t</w>
đ am</w>
větši nou</w>
to mu
t ř
svět la</w>
studi e</w>
prostře d</w>
potřebu jete</w>
o k
A n
ří te</w>
řek nu</w>
tvo ří</w>
tu je</w>
takov á</w>
správ ně</w>
sou ci
s li
ne měli</w>
glob ální</w>
děl al</w>
b i</w>
G </w>
3 ;</w>
1 ;</w>
&#9 3;</w>
&#9 1;</w>
ì nh.</w>
zvu k</w>
te k
pro poje
o pa
o nu</w>
ne jsem</w>
nauči t</w>
kr é
dosta nete</w>
d ần</w>
ar chi
M exi
Fran ci
vě jší</w>
ve če
pla tí</w>
nějak ou</w>
ná vr
mi to</w>
ch ặt</w>
še st</w>
čá sti
u dá
takov ého</w>
po stup
op ti
oce á
n al
měsí ců</w>
li vé</w>
h iển</w>
život y</w>
v li
te m
sou vi
s fé
m ời</w>
jazy k</w>
hov o
douf ám</w>
d ối</w>
d ních</w>
N </w>
đ èn</w>
ng ón</w>
n úi</w>
lá rní</w>
f an
e t</w>
d ý
říká me</w>
tě mito</w>
tě mi</w>
sta t</w>
ri zi
ph iên</w>
ová na</w>
nád her
ngh ỉ</w>
ne za
m ôn</w>
k ři
d va
cel ého</w>
b ật</w>
b ang</w>
D i
1 8
1 3</w>
žen ý
če j
va z
ti ny</w>
svo ji</w>
sou stře
se dě
quy ển</w>
m ì</w>
každ ého</w>
chu d
3 00</w>
za tím</w>
z ved
z mí
svět ové</w>
rozhod l</w>
po zna
ov i</w>
ni ž
muse l</w>
mili ony</w>
lé č
l ého</w>
dosáh nout</w>
ch ối</w>
ři l</w>
při prav
pro u
potřebu je</w>
popu lace</w>
pa mě
na psal</w>
l ắp</w>
kone čně</w>
kon kré
hra ní</w>
dneš ní</w>
boha t
u l
po ten
ně me</w>
na pad
mo u
k êu</w>
jedin ý</w>
L on
G i
výzku m</w>
u prostřed</w>
pojď me</w>
naho ru</w>
me ch</w>
m ci</w>
energi i</w>
život ní</w>
zdro je</w>
vr cho
ukáz alo</w>
ta ci</w>
su ất</w>
s měrem</w>
or e
ne máme</w>
ne bo
m ý</w>
kh ấu</w>
h à</w>
bo u
ỵ </w>
řek ne</w>
ve š
teori e</w>
st é</w>
při bli
pohy bu
in žený
h lé
d nout</w>
c an</w>
b ře
b ou</w>
ak ti
V ám</w>
Davi d</w>
Ch i
Ameri ce</w>
čí st</w>
xo á</w>
vše ho</w>
s ông</w>
ri a</w>
po každé</w>
ní z
ka pi
k ých</w>
ci oná
C ar
ř ád
ukáz al</w>
t ové</w>
se ku
s ỹ</w>
ov a</w>
ostat ních</w>
oby va
o str
n ka</w>
myslí me</w>
li ne</w>
kter ého</w>
elek tri
c ôn</w>
S u
H e
úča st
všech na</w>
vesmí r</w>
pří stup
neu stále</w>
naš li</w>
mi l</w>
me to
d ním</w>
š ky</w>
t vů
mù i</w>
mno ho
mimo chodem</w>
men ší</w>
gi ó</w>
g ori
dokáže me</w>
do prav
chi ếu</w>
ch ra
bi li
ale spoň</w>
Afri ce</w>
ô i.</w>
tu hle</w>
t ận</w>
sta tisti
sl í
s ốt</w>
pro sím</w>
po pi
po di
l ỗ</w>
kho án</w>
hod iny</w>
h eo</w>
di gi
bi ên</w>
1 7</w>
žen é</w>
ň te</w>
zá pad
zkou še
tuy ên</w>
t ỉnh</w>
sle dek</w>
rá no</w>
pořád ku</w>
počíta če</w>
obdob í</w>
nh u</w>
ne smí
ne mám</w>
mož nosti</w>
druh á</w>
chy b
bě ž
I s
ři lo</w>
zjisti t</w>
vědě la</w>
vá dí</w>
smr ti</w>
ro va
myšle ní</w>
m ực</w>
m ừng</w>
T a
20 00</w>
ři li</w>
č lá
ã n</w>
u ží
sou kro
s ổ</w>
po ko
nict ví</w>
ne do
ma tu</w>
li gen
jak ý
š ku</w>
vrá tit</w>
tý den</w>
ru s</w>
oby čej
ně kde</w>
l ặp</w>
ku r
kole g
cel á</w>
Twit ter</w>
ž ky</w>
či la</w>
č ů</w>
stro je</w>
po moc</w>
organi zace</w>
odpo ví
ob tí
me ta
kh ởi</w>
k ém</w>
i den
ho u
gi ận</w>
R ập</w>
R </w>
19 8
Đ ức</w>
tr ắc</w>
tou to</w>
ri é
prav du</w>
pohy b
ov šem</w>
od ha
m ní</w>
l ẻ</w>
ka ma
ci vi
ch ặn</w>
bi t</w>
S an</w>
K e
vě dci</w>
to ry</w>
t al
sk á
prů mysl
ne můžeme</w>
di sku
zná te</w>
zná me</w>
z uje</w>
vál ky</w>
tri ết</w>
te ra
str u
sk o</w>
qu ần</w>
překva pi
použí vají</w>
ná z
na víc</w>
mu že</w>
ka jí</w>
interne tu</w>
h ùng</w>
h ào</w>
chá zí
cha ni
ị p</w>
ži je</w>
ú čin
vytvo ře
sr dce</w>
prac oval</w>
nu l</w>
miliar dy</w>
ki êng</w>
hla v
c .</w>
th ạch</w>
technologi í</w>
s k</w>
s ho
rod iny</w>
počíta č</w>
poten ci
pocho pit</w>
ová ny</w>
ob li
l ova
hu ống</w>
dů sled
dí me</w>
b ro
va šeho</w>
te ro
spo ko
s bí
ru š
prob í
obje v
kdy bychom</w>
jmé na</w>
an al
D ar
đ ạp</w>
ved le</w>
stá ty</w>
pro vo
posky t
mů žou</w>
mo ř
l ạnh</w>
in f
chu ỗi</w>
Ph áp</w>
řík ali</w>
zá j
v la
st va</w>
rozhod li</w>
při j
prin ci
mal á</w>
le y</w>
l ka</w>
gra f
de mi
ce sta</w>
c ỡ</w>
L u
D P</w>
čen o</w>
zpráv y</w>
zn alo
za bi
va jící</w>
tiv ně</w>
th ưởng</w>
tel ná</w>
technologi i</w>
skupi na</w>
re k</w>
re ag
obráz ky</w>
m ình.</w>
l ním</w>
ká m</w>
jak ou</w>
inte ligen
ha ni
g an
Z á
vnit ř
th iệp</w>
pě k
potřebu jí</w>
nh u
lid ského</w>
l ương</w>
k ří
dí te</w>
do ma</w>
co koliv</w>
ce boo
T hu
N A
L an</w>
J i
ál ních</w>
zem ře
výzku mu</w>
tomu to</w>
th ận</w>
spoje ní</w>
rov é</w>
po dě
ob čan
o pak</w>
mě sto</w>
mlu vím</w>
me chani
jednot liv
dá vají</w>
d ao</w>
C O
zač ne</w>
svý mi</w>
se zna
po sí
par t
ne ch</w>
le s</w>
l ím</w>
je t</w>
ho ại</w>
ch ảy</w>
ce lá
R u
Indi i</w>
ží te</w>
đ em</w>
zjisti l</w>
z ích</w>
v ých</w>
spo j
skup iny</w>
razi l</w>
prů bě
projek tu</w>
pravi dla</w>
p ali
nástro je</w>
le k</w>
jmé nem</w>
histo rii</w>
g ala
dů m</w>
cí tit</w>
Afg hani
zá ži
za pla
vzta h</w>
tu ý</w>
su d</w>
m pa
k ỉ</w>
e t
do slova</w>
voj á
v ky</w>
umě le
th an</w>
stro j</w>
situa ci</w>
ru ku</w>
ov ém</w>
ob čas</w>
n ấm</w>
kan celá
ka r
họ p</w>
gala xi
dří v</w>
dov ol
do stup
ani ž</w>
z pě
vi zu
vi di
t áo</w>
stra š
ro n</w>
r ãi</w>
příležito st</w>
po da
ně kterých</w>
nábožen ství</w>
kh ung</w>
iden ti
ha t</w>
K en
za chrá
sta ro
představ uje</w>
ně ji</w>
lo stí</w>
kon cep
ka z</w>
hla vně</w>
h ar
gh ế</w>
fu ngu
ří dit</w>
x ôi</w>
vi n
smysl u</w>
seku n
pří jem
podob né</w>
pla t
ote c</w>
o či
ma il</w>
m ky</w>
la t</w>
l ặng</w>
ko mu</w>
h my
c ar
b ò</w>
W il
TED u</w>
Afghani stan</w>
đ ằng</w>
čís la</w>
z ne
tr ích</w>
stře dní</w>
sig ná
se k
rá mci</w>
ra jí</w>
při tom</w>
pracu jí</w>
n ỗ</w>
ko st</w>
jak á</w>
hor ší</w>
e k</w>
den ně</w>
civi li
b lá
Fa ceboo
Ev rop
2 1</w>
đ ăng</w>
ál ního</w>
vý ji
vzá jem
sta čí</w>
sof t
obvyk le</w>
ná rod
nh ật</w>
n ovat</w>
m lou
kh uyết</w>
fil m</w>
su per
příbě hu</w>
předpo klá
použi tí</w>
po čá
pi l</w>
ph ú</w>
nebez peč
lã ng</w>
in ternet</w>
i de
f as
ck ými</w>
ce t</w>
c t
Joh n</w>
2 4</w>
zvláš tní</w>
ved l</w>
ve k</w>
uži teč
tr ầm</w>
sti t</w>
rychle ji</w>
pro mě
plane tě</w>
nov ého</w>
no ci</w>
mlu víme</w>
me k</w>
jí dla</w>
druh ů</w>
dlou ho
a te
Indi e</w>
3 D</w>
ž r
ũ ng</w>
še k</w>
đ ẳng</w>
ã y</w>
vý m</w>
spo čí
při chází</w>
neuvěři telně</w>
ne n
každ ém</w>
ch ž</w>
ỡ i</w>
ý t</w>
z mi
vě dy</w>
vez me
v ti
u jete</w>
ti na</w>
sou hla
s ấu</w>
p ó
od stra
o či</w>
nej vět
nal é
man že
ka ci</w>
dovol te</w>
de ta
d vo
d in
chla p
c ụt</w>
c ăng</w>
I D
Bil l</w>
7 5</w>
Đ ất</w>
č ního</w>
změ ní</w>
zept al</w>
ti êm</w>
t ních</w>
stra ch</w>
st ali</w>
slov y</w>
roz voj
problé mu</w>
p last
oprav dov
ngh ìn</w>
mě ří
ma tka</w>
m óc</w>
m ãi</w>
m .</w>
li k
k men
in stitu
dě tem</w>
CO 2</w>
úrov ni</w>
z vo
vi ễn</w>
pů j
po rov
ov ým</w>
obrov ské</w>
ki lo
jas ně</w>
gi e</w>
en ci</w>
dosta teč
ce lo
Ze mě</w>
H ọ</w>
4 00</w>
žr alo
ù a</w>
ì a</w>
zákla dě</w>
zdravot ní</w>
vli v</w>
u pří
st vo
správ né</w>
pří j
pě st
pracu je</w>
ná silí</w>
nh ở</w>
klí č
kho ản</w>
kh ổ</w>
k er
jin ými</w>
histo rie</w>
důvo dů</w>
de sá
d né</w>
d ce
cest ě</w>
A l</w>
/ </w>
živo či
ší me</w>
zvířa ta</w>
vz al</w>
uži va
umož ňuje</w>
t ò</w>
sna žíme</w>
skuteč né</w>
rů stu</w>
pr y
pi s</w>
nej lep
mar ke
m ò</w>
l né</w>
ho ang</w>
dě lení</w>
angli č
Dar w
ờ i.</w>
đ ốc</w>
za chy
větš inu</w>
tr ống</w>
tr ại</w>
ti ně</w>
stav en
skr ze</w>
s ụp</w>
ro vá
r á</w>
při šla</w>
podíve jme</w>
po kro
ná ší</w>
mí stech</w>
l ỏng</w>
je l</w>
do sa
Wi ki
P ho
Lo s</w>
1 50</w>
změ nu</w>
vý ro
vá ž
tr i</w>
systé my</w>
přede vším</w>
obla st</w>
mnoho krát</w>
kaž do
jí cího</w>
gi ám</w>
fas cin
vý sledek</w>
v ého</w>
uvědomi l</w>
tě m</w>
t ôi.</w>
studen ti</w>
sled ovat</w>
prv ním</w>
podni ka
ná sob
nic méně</w>
ne může</w>
ne měl</w>
nale z
lá ch</w>
ká ní</w>
kon fer
kaž dou</w>
jedno m</w>
jas né</w>
hod né</w>
d iệt</w>
cest y</w>
b ông</w>
V á
Is ra
ID S</w>
H ig
úko l</w>
Á </w>
za hr
z ba
vy ví
vy jád
vo sti</w>
u m
te st
sed m</w>
ro li</w>
pracov ní</w>
plane ty</w>
lí bí</w>
j ších</w>
bez pe
archi tek
Th ổ</w>
Isra el</w>
ượ u</w>
vě řit</w>
ved li</w>
v lo
r ượu</w>
podí váme</w>
okamži tě</w>
no u
muž ů</w>
ma g
kov ý</w>
komple x
kom bi
kni hu</w>
druh ého</w>
b ắn</w>
Thu ỵ</w>
A IDS</w>
4 5</w>
200 8</w>
žád nou</w>
ší mu</w>
za ji
vyře šit</w>
va ši
ty p</w>
th iểu</w>
stá nu</w>
psa t</w>
osob ní</w>
nhu ận</w>
nedáv no</w>
m né</w>
k ó
fi lo
dů kaz
dese ti
chy tr
b ụ
O </w>
A u
19 </w>
ú da
á l</w>
zvířa t</w>
zač nou</w>
z odpověd
vě da</w>
vz ali</w>
vypa dat</w>
vlá dy</w>
u h
tr ữ</w>
t ová
se tká
schop nosti</w>
s h</w>
ra b
r né</w>
pry č</w>
pe v
pa t</w>
o x
ni cké</w>
nej důležitější</w>
naš ím</w>
kon f
gene ti
c ỗ</w>
buně k</w>
as hi
Y ou
R ob
L </w>
Ira n</w>
č ný</w>
ú če
vě ří</w>
vě dí</w>
vidě la</w>
veš ker
va ši</w>
tho át</w>
takov ou</w>
stov ky</w>
po ra
obraz ov
ná pady</w>
n uje</w>
le d
l ược</w>
l ính</w>
kter ému</w>
jin á</w>
hodno ty</w>
ch ov
b ạch</w>
NA SA</w>
ỗ n</w>
š ti</w>
š pi
zna me
tě mto</w>
tu jí</w>
stá tech</w>
s ví
roz vo
obra z</w>
obli če
ná me</w>
ner v
li li</w>
kou sek</w>
kdy bych</w>
hra nice</w>
h ỗn</w>
g ỗ</w>
V el
Kh ông</w>
E </w>
u za
t l
sí lu</w>
st vo</w>
ru kou</w>
při pra
od mě
ní me</w>
na pří
měr ně</w>
mo dr
dě ní</w>
bě h
říka t</w>
ĩ a</w>
úspě ch</w>
zji stí
význa m</w>
vyrá bě
umě l
udr ži
tý ká</w>
t ko</w>
r ác</w>
použí váme</w>
použí vá</w>
ph ì</w>
ni ly</w>
la ci</w>
dal ším</w>
bu d
W ashi
W al
1 000</w>
š an
Đ ó</w>
y a</w>
vzá jem</w>
vytvoři l</w>
té ma</w>
tr ận</w>
sí ly</w>
slu ne
skr z</w>
něj ším</w>
ní ku</w>
nh ờ</w>
na vš
na vzájem</w>
na slou
měsí c</w>
mí st</w>
mé t</w>
logi e</w>
l ního</w>
kh ỉ</w>
i lu
do z
di la</w>
cí tí</w>
c ti
b ùng</w>
Washi ng
P au
Ng ười</w>
čí te</w>
ál ním</w>
závi sl
z bo
vývo j</w>
vý bě
sí la</w>
str e
st ří
součas nosti</w>
sk lad
progra m</w>
ně čeho</w>
napří č</w>
kov ých</w>
je ní</w>
hra je</w>
ha jí</w>
d ře
ch em</w>
ce ch</w>
đ iệu</w>
ò i</w>
x ách</w>
tr h</w>
th uyền</w>
ta jem
sti cké</w>
pla n
nauči l</w>
mysle la</w>
lo ng</w>
ko la</w>
k ře
inter ak
cí tím</w>
bra t</w>
br zy</w>
M c
ší te</w>
đ e</w>
zač alo</w>
vu ông</w>
ti tu
t ắt</w>
ste r
představ u</w>
ph ạt</w>
ome zen
ná še
nd ar
je k
do ạ</w>
b e</w>
ab so
a f
D ương</w>
Chri s</w>
$ </w>
ško lu</w>
ň ovat</w>
Đ ây</w>
u z
ti ềm</w>
soft war
ro vání</w>
re kla
r ủi</w>
on line</w>
od bor
nict vím</w>
nej de</w>
ne existuje</w>
h ů
h nutí</w>
gene race</w>
ch ấm</w>
z rak
z la
vše mi</w>
star ší</w>
st aly</w>
skvě lý</w>
při po
n ó.</w>
n ské</w>
mal ou</w>
m ové</w>
lá ní</w>
le k
l ộ</w>
je ž</w>
ha ck
ex tré
cen u</w>
V y
ř ů</w>
vý ho
tvů r
ru r
ro py</w>
r ẻ</w>
r ư
přibli žně</w>
poroz umět</w>
po tk
na hra
mo ji</w>
men tá
materiá l</w>
ko r
cí l</w>
ch ová
bakte rie</w>
a d
Wiki pedi
I T</w>
ů h</w>
země děl
za bí
vypa dají</w>
vy ba
stá tů</w>
ro n
r ny</w>
průbě hu</w>
pra ved
och ra
kdy byste</w>
hud bu</w>
ele s</w>
chi rur
ch ồng</w>
Ang eles</w>
úžas ný</w>
zají má</w>
ver ní</w>
tý če</w>
t nou</w>
sto že</w>
se n</w>
pře stože</w>
na šel</w>
mode rní</w>
lí te</w>
li ko
l ắm</w>
kra bi
jist ě</w>
ch ị</w>
c ẩn</w>
Yor ku</w>
N ha</w>
đ ốt</w>
či st
ú roveň</w>
we b
ved lo</w>
th ói</w>
stej ný</w>
spí š</w>
si li</w>
roz hov
re ch</w>
obrov ský</w>
ná le
ne při
měsí ce</w>
ko nec</w>
ji nou</w>
jedin é</w>
hud ba</w>
h ý
dí vat</w>
dom ní
do n</w>
di spo
cháze t</w>
chá y</w>
ří zen
ře čeno</w>
đ ĩa</w>
vz bu
vlá da</w>
v nější</w>
th ọ</w>
t kem</w>
prá zd
prv ních</w>
ne chci</w>
na pl
mlu vili</w>
hu ấn</w>
histo ri
h è</w>
g ọn</w>
dosta ne</w>
d ve
ci i</w>
bu ď</w>
Ri char
I rá
Afg há
đ ùa</w>
velk ých</w>
th ở</w>
st vím</w>
s é
s va
s cé
připrav en
předsta vi
pusti t</w>
posta vit</w>
opti mi
ně né</w>
mag ne
li ền</w>
jí me</w>
inf ra
há ní</w>
h òn</w>
f re
dí tě
dom ov
dokon al
d nů</w>
cá t</w>
D o
B er
đu a</w>
č tí</w>
změ na</w>
vyprá vě
vede ní</w>
tr ào</w>
t nost</w>
situa ce</w>
pře ce</w>
part ne
os m</w>
obje vil</w>
nástro j</w>
nh ịp</w>
nh ẹ</w>
na mi
mal ých</w>
m ưa</w>
khi ếp</w>
k do
h ụt</w>
c ấy</w>
M on
G u
ů v</w>
ve den
va cí</w>
tro j
tero ri
su b
st in
rozu mí
pad á</w>
ná pad
ni nh</w>
ngh iện</w>
krás né</w>
kh ía</w>
ka rié
h ỏng</w>
f in
důleži tá</w>
dost ala</w>
da né</w>
d li</w>
ch ay</w>
đ áo</w>
ze r
ze p
ze jména</w>
veli kosti</w>
tí t</w>
th ưa</w>
te plo
struktu ru</w>
stran u</w>
sta v</w>
s ộ</w>
s lá
pro ti
pracu jeme</w>
pozor u
ová no</w>
ova cí</w>
or y</w>
na hrá
le tě
ku s</w>
jedin á</w>
he z
gi ành</w>
g e</w>
e mail</w>
dokáz ali</w>
d ky</w>
Z a
Mi cha
zvlá ště</w>
zi den
vě cech</w>
v ị
u mí</w>
t ním</w>
sym bo
sou tě
pře ko
pou h
ne musí</w>
ne mohl</w>
mě r</w>
minu losti</w>
là nh</w>
li že</w>
li i</w>
kom pli
k al
gh ét</w>
f á
dá ch</w>
c ặp</w>
c ãi</w>
b ốt</w>
Nh ĩ</w>
D o</w>
řek něme</w>
ča so
tá m</w>
th ăm</w>
t ná</w>
strá nku</w>
stra te
sta nou</w>
společ ností</w>
pře su
proce su</w>
pra vide
ode hrá
na opak</w>
n ali</w>
n al</w>
mož ností</w>
li vě</w>
le ch</w>
kro mě</w>
fotografi e</w>
f armá
ener ge
bo hu
3 5</w>
če k
z vě
vy ža
va r
té ž</w>
sí tě</w>
souci t</w>
sk ými</w>
r tu
prostřed nictvím</w>
prav o</w>
prac ovali</w>
po chází</w>
p ů</w>
org á
ohle dně</w>
ná do
nh ắn</w>
mě nit</w>
míst ní</w>
l ẫn</w>
k vě
jest liže</w>
hle dat</w>
g ol
dobro vol
chází me</w>
c ỏ</w>
b ó</w>
W e
F i
1 ,
šen ím</w>
zdro jů</w>
vy vo
thu ê</w>
ru je</w>
r ô</w>
při pomí
ně ž</w>
na to
k lid
j n</w>
i m</w>
hu jí</w>
gra f</w>
de pre
še sti</w>
vi rus</w>
ty pi
ste r</w>
sta ndar
slov </w>
prote in</w>
pokrač ovat</w>
po žád
po sl
oprav dy</w>
o to
nej prve</w>
ne možné</w>
na rodi
na místo</w>
kon struk
hle di
hle d</w>
h nout</w>
de fi
d ního</w>
cí lem</w>
bo m
R a
ší le
ď te</w>
č t
č ním</w>
zpráv a</w>
v te
u s</w>
th ợ</w>
te lem</w>
sv ému</w>
strá nky</w>
sna žím</w>
sk le
s ửa</w>
pro vádě
p le</w>
no stech</w>
m ù</w>
laborato ři</w>
k í</w>
jin ým</w>
h ối</w>
gh ép</w>
fan ta
elek tř
bohu žel</w>
bo n</w>
M IT</w>
Franci s
vě tr
vče tně</w>
vy sí
vy br
urči té</w>
tá ní</w>
tr ăng</w>
tho ả</w>
studen ty</w>
sa u
s úng</w>
r ních</w>
r en
při jí
os la
nejs pí
morá lní</w>
m ný</w>
jmé no</w>
do opravdy</w>
ch ẽ</w>
cen y</w>
c ům</w>
b ạc</w>
Hig g
Ge org
ře di
čty ř
zása dní</w>
ta jí</w>
star é</w>
re gi
po l
pl né</w>
otáz kou</w>
or e</w>
ne mohou</w>
měst ě</w>
myšlen ku</w>
muse t</w>
m ovat</w>
ha m</w>
fil mu</w>
cu k
A p
zkuše nosti</w>
vů či</w>
vytváře t</w>
vyso ké</w>
vi nh</w>
tr valo</w>
ti cká</w>
th ánh</w>
pre ziden
p a</w>
nauči li</w>
n ướng</w>
momen t</w>
konf lik
fungu jí</w>
dove d
ch ro
ẻ o</w>
Čí ně</w>
za prvé</w>
za cí</w>
ti cký</w>
stá r
pohy bu</w>
nemo ci</w>
ne jsme</w>
m ồi</w>
m ạc</w>
lu jí</w>
kou pit</w>
h ru</w>
e ch</w>
c ư
N or
H an
ẹ n</w>
đ ực</w>
změ nil</w>
z dá
vý z
tvr dí</w>
tr </w>
rư ỡi</w>
pří pad</w>
po za
p sát</w>
ng ại</w>
ng ang</w>
naho ře</w>
n ấu</w>
mo to
mal i
kov ou</w>
je jí
du jí</w>
dosta nou</w>
budov y</w>
S h
I zra
B an</w>
ši li</w>
š o
Čí na</w>
zby tek</w>
zaměst nan
v ze
stej nou</w>
s ắm</w>
pro zkou
pr akti
poč tu</w>
pl ý
ov ě
obec ně</w>
o zna
o h</w>
ní ka</w>
ne byly</w>
m ně
lo n</w>
khi ếm</w>
j du</w>
b ơi</w>
alifor nia</w>
T ho
M u
C alifornia</w>
đ ương</w>
získ ali</w>
závi slo
vz po
tý dny</w>
t ování</w>
t ali
sna žil</w>
si ce</w>
robo ta</w>
ro čně</w>
q </w>
oceá nu</w>
na r
má t</w>
m ỏ</w>
léka ř
g y
e pi
dá n</w>
cho dit</w>
ce na</w>
an ti
ag en
H u
Afghá ni
z pí
vzdu chu</w>
vo da</w>
vní mání</w>
u děláme</w>
tr ưa</w>
spo r
rozdí ly</w>
ro ste</w>
pů sob
pří tom
pro spě
pl ný</w>
ne ná
mo ti
kh uyên</w>
je z
hu y</w>
hodno tu</w>
fa jn</w>
do le</w>
b ờ</w>
at mo
S c
Ira q</w>
Bro w
u hlí
stu dov
s ova
pře du</w>
ob o
normá lní</w>
ni tel
l ým</w>
ko mi
k ého</w>
jen že</w>
dob rou</w>
dlou h
de jte</w>
ch lá
ba re
Ja mes</w>
Georg e</w>
Faceboo k</w>
B ůh</w>
š né</w>
změ nilo</w>
ze n</w>
za u
vrá til</w>
struktu ry</w>
sta ve
rov něž</w>
profe s
po žá
pe n</w>
ostat ními</w>
ng ọn</w>
ng ũ</w>
ne myslím</w>
ne byli</w>
n é
mí t
milió nů</w>
m ây</w>
li n
kon ver
g ũi</w>
fung ovat</w>
druh u</w>
di no
d ové</w>
ch ọc</w>
atmo sfé
L in
J u
… </w>
Ồ </w>
takov ých</w>
se l</w>
po ško
po sti
pi li</w>
pe r</w>
pat ří</w>
ob a
nad šen
hod inu</w>
do pad</w>
de l</w>
d vak
ch ovat</w>
6 00</w>
20 .</w>
đ ẽ</w>
w a
vě zení</w>
vol by</w>
ven ku</w>
ve změ
tvá ř</w>
ti sk
snad no</w>
slyše t</w>
s ť
robot y</w>
ra ději</w>
qu à</w>
při nes
ob a</w>
ne pře
medi cí
l ové</w>
ka men
inve sti
i me
dvak rát</w>
dr ží</w>
dokáže te</w>
do jde</w>
dlouho dob
dal y</w>
bi nh</w>
Ti mes</w>
19 7
řa du</w>
ú va
z krá
vytvo ření</w>
vy nále
vlá k
rá ní</w>
rych lost</w>
problé mem</w>
podmí nky</w>
p em</w>
ostr ov
on ne
ni ny</w>
ne o
na ce</w>
materiá ly</w>
ho ž</w>
hla vu</w>
h ước</w>
h ra</w>
chy by</w>
bar vy</w>
b á</w>
B ra
ế ng</w>
žen u</w>
sí ť</w>
práv o</w>
po vat</w>
po tě
ot y</w>
ná zor
ngh ề</w>
ne ví</w>
mo jí</w>
minu lý</w>
mi lov
i t</w>
he r</w>
du še
do ku
by d
a rab
Micha el</w>
Mexi co</w>
L iên</w>
H ãy</w>
á y</w>
zá ležito
z vyš
z je
vi rtu
ved la</w>
ve re
u děláte</w>
ti nu</w>
thu ần</w>
te prve</w>
sy n
s ně
ps ali</w>
poh á
p lu
od hal
ně čím</w>
nákla dy</w>
ni m</w>
nesmí rně</w>
mimo řád
lan d</w>
l ận</w>
kla si
k ní
ge r</w>
g ương</w>
g o</w>
g an</w>
f ar
eko logi
dy nami
d ã</w>
cy k
A i</w>
ố m</w>
zá bě
vá š
t ém</w>
t ního</w>
spo ji
součas né</w>
slu nce</w>
pohy b</w>
pi e</w>
pamě ti</w>
nějak á</w>
na u
ma s</w>
m pi
lid ských</w>
li n</w>
li la</w>
kultu ry</w>
ku je</w>
kama rá
k ẹ
in ten
hra jí</w>
h nu
gi ảng</w>
filo zo
cí til</w>
c ốc</w>
c ản</w>
T V</w>
Evrop ě</w>
Bri tá
že nou</w>
ří t</w>
č kou</w>
zá kaz
zkuše nost</w>
výzku m
vy brat</w>
ve dou</w>
udr ž
t óc</w>
stá vají</w>
společ ného</w>
po měrně</w>
p sá
ote v
nit ř</w>
ng ốc</w>
médi a</w>
muse la</w>
mi t</w>
m ấy</w>
la da
ká lní</w>
jednoduch ý</w>
g ợi</w>
fir my</w>
experimen t</w>
dov nitř</w>
dese t</w>
ch tít</w>
Spoje né</w>
ň á
zahra ni
z ují</w>
vo d</w>
uči telé</w>
tom hle</w>
ti ckých</w>
t ây</w>
sly šel</w>
složi té</w>
ri í</w>
pro pa
ova ný</w>
ov án</w>
nost mi</w>
ne budu</w>
mí ru</w>
liko ž</w>
ku m</w>
krea tivi
kon tex
kon tak
je likož</w>
i Pho
hude b
hi ếm</w>
g à</w>
důvo du</w>
dět ství</w>
ber e</w>
S y
S o
Lon don</w>
H </w>
F or
ča stě
zku sit</w>
vysvět lit</w>
va šem</w>
v aly</w>
ter na
stran y</w>
str i
ste in</w>
ru jí</w>
roz ví
rov nová
r ào</w>
přá tel
pomá há</w>
ová ni</w>
obsa huje</w>
obráz ku</w>
ná ho
no hy</w>
nak a
na zv
n út</w>
lé ky</w>
je li</w>
inve st
hrá l</w>
hle dání</w>
hla vě</w>
ga me</w>
dob a</w>
d ẻo</w>
cí mi</w>
chiế m</w>
c ậy</w>
blo g</w>
af ri
K alifor
E in
Darw in</w>
A si
ž lu
vy rob
vy bí
ukaz ují</w>
u vol
u vidíme</w>
smr t</w>
sa n</w>
r .</w>
pa ra
p ád
od kud</w>
ob ě</w>
nej víc</w>
mati cky</w>
l ường</w>
ka te
jí st</w>
h ồn</w>
for my</w>
evolu ce</w>
důvo dem</w>
ak tiv
S ta
A t
A ri
1 .</w>
Đ iển</w>
č ná</w>
zpráv u</w>
z vyk
y to
x ưa</w>
w an
vz ruš
vi n</w>
veče r</w>
ve r</w>
ti ckou</w>
snad né</w>
skuteč nost</w>
ra cí</w>
práv a</w>
povr chu</w>
polov ina</w>
ova ná</w>
od pad
och ot
náz or</w>
na da</w>
m bi
kon zu
ka jící</w>
jist ý</w>
g é
dostateč ně</w>
chá pe
T u
Har var
části ce</w>
úspě chu</w>
závě r</w>
zá jem</w>
zač neme</w>
z nám</w>
vě d
vá ním</w>
ub e</w>
sou r
s p
rostli ny</w>
prů zku
pracu ji</w>
poda řilo</w>
ohle du</w>
no c</w>
ngo n</w>
ne víme</w>
mi n</w>
ků že</w>
kou z
konkré tní</w>
kli mati
kh ảo</w>
hmy z</w>
h ố</w>
h uyết</w>
gu men
dá r
de fin
ch ai</w>
ar gumen
ak tivní</w>
Nh ưng</w>
Le o
G o
Char les</w>
zá zna
začí nají</w>
w o
vý kon
vi ta
u skuteč
t iệc</w>
stav y</w>
st ů</w>
so ng</w>
služ by</w>
s ợi</w>
s praved
rych lostí</w>
roz ho
po ža
nabí zí</w>
n ést</w>
l ễ</w>
k nout</w>
důleži tý</w>
dr ž
di men
desig n</w>
cho ro
ch án</w>
ba bi
Vá s</w>
S mi
C ập</w>
6 5</w>
0 .000</w>
ři la</w>
ř uje</w>
đ ới</w>
Í rá
vyu žití</w>
vy stou
tru y</w>
sku tku</w>
příro dní</w>
při mě
před ví
po va
po bře
ova ných</w>
obje vili</w>
ná zv
ne musíte</w>
mu l
mo ut</w>
m l
hude bní</w>
dispo zi
demokra cie</w>
bi n</w>
b or</w>
abso lu
Richar d</w>
C ực</w>
ớ m</w>
ško l
ň ování</w>
čí n
z pomal
vy bu
studen tů</w>
sdí le
rodi na</w>
pomal u</w>
po kou
po de
nez by
nepo ko
nazý váme</w>
n ci</w>
mus li
jí te</w>
ja der
dě si
d ku</w>
cho d</w>
ch ů</w>
blíz ko</w>
T r
Ste ve</w>
Ma t
H à</w>
žen ý</w>
řa dě</w>
vy rů
v é
tr en
telefo n</w>
strá vil</w>
rá lní</w>
rozhod ně</w>
pu jí</w>
pra vo
o no</w>
o do
ne kone
mysle te</w>
m ộ</w>
m ẻ</w>
h ương</w>
finan ční</w>
dět mi</w>
dou cí</w>
dlou hou</w>
d lem</w>
d l</w>
d .</w>
an der
T ube</w>
Ap ple</w>
200 9</w>
š ly</w>
řek nou</w>
ře č</w>
č uje</w>
úžas ná</w>
zra nitel
z prá
vče ly</w>
vo le
vnitř ní</w>
ven kov
v ờ</w>
v skutku</w>
sta u
sil né</w>
se str
sdí let</w>
ro kem</w>
re stau
přemýš líme</w>
ps ala</w>
pravděpodob nost</w>
pra vit</w>
ox yto
odliš né</w>
o kra
ng ọt</w>
ne máte</w>
naz va
n ô</w>
kho á</w>
k les
en é</w>
b la
You Tube</w>
20 10</w>
, 000</w>
ši l</w>
č ce</w>
zlep š
vál ce</w>
vaši ch</w>
tr hu</w>
si vní</w>
re n</w>
rak e
pří či
ní ž</w>
ní te</w>
ngư ỡng</w>
navš tí
m ũi</w>
lid ská</w>
kva n
ko ru
emo ce</w>
druh ým</w>
do chází</w>
de ba
d ar
cho dí</w>
c ov
c am</w>
bụ ng</w>
by tosti</w>
Ja pon
ě jší</w>
ú mrt
západ ní</w>
z nak
w i
vide a</w>
v ku</w>
uči tele</w>
u spo
tvá ří</w>
tvo r
softwar e</w>
sk a
se kto
s h
reak ce</w>
příkla dů</w>
publi kum</w>
po ně
po le</w>
po hod
po chyb
pacien tů</w>
otá zek</w>
os vo
ná hod
ng ầm</w>
nech al</w>
nazý vá</w>
mla dí</w>
m ím</w>
m lá
log ové</w>
lid ský</w>
le o</w>
l l</w>
kni ha</w>
jen ž</w>
doku men
dispozi ci</w>
de sí
d ò</w>
chla pí
bu bli
M ột</w>
G re
' </w>
život ů</w>
ří dí</w>
řek nete</w>
ča né</w>
zvu ky</w>
z veřej
z prac
vz do
uděl ala</w>
u tra
th ang</w>
teori i</w>
tel ných</w>
t ụ</w>
t lu
slune ční</w>
skuteč ný</w>
revolu ce</w>
r ồ</w>
při ta
pře ká
po u</w>
okamži ku</w>
ně čem</w>
nov ým</w>
neuvěři telné</w>
ne budou</w>
mě ru</w>
mezi národní</w>
le dov
ko s
ko p
kh óc</w>
inova ce</w>
i ně</w>
dív ka</w>
dokáz al</w>
dese ti</w>
d nu</w>
cioná lní</w>
chví le</w>
c ắp</w>
be r</w>
at d.</w>
V a
P á
D an</w>
žen o</w>
řík ala</w>
đo an</w>
đ òi</w>
đ â
čer né</w>
è m</w>
zá ří</w>
zne či
vyro bit</w>
vy p
vr st
v ốn</w>
tě z
s la</w>
roz dě
re la
rakov iny</w>
pu l
po vím</w>
myšle nek</w>
mi êu</w>
marke ti
k ování</w>
inten zi
ex per
dr žet</w>
deta i
de r</w>
cí títe</w>
b ắc</w>
al terna
a však</w>
W o
R os
N obe
š tích</w>
đ i
zač nete</w>
zač aly</w>
vě du</w>
uči tel</w>
ty pu</w>
s ớm</w>
roz měr
rov ali</w>
ro u
re spek
přá telé</w>
předpo kla
pro de
pr u
od h
nu lov
nhi ếp</w>
nej dříve</w>
ne zapo
l ộn</w>
ku jí</w>
kilo metrů</w>
ka ta
ho àng</w>
for d</w>
f í
dino sau
d rob
ch ẩn</w>
c ột</w>
as tro
a č
J uli
Francis co</w>
200 6</w>
ự u</w>
đo àn</w>
záko n</w>
vy lep
vo dní</w>
v ỏ</w>
u dělám</w>
tří dě</w>
tiv ních</w>
ti a</w>
th ám</w>
tajem ství</w>
svě tem</w>
spoko je
si mu
reál ném</w>
radi o</w>
pozi tivní</w>
použi li</w>
p ky</w>
ostat ním</w>
no s
nh ện</w>
ne se</w>
ne ga
mo d
mi ếng</w>
l ục</w>
kri ti
hle dem</w>
for mu</w>
b ột</w>
ak a
@ </w>
ško l</w>
war d</w>
velk ým</w>
v em</w>
tře mi</w>
tře ch</w>
té hle</w>
televi zi</w>
ta .</w>
sv á</w>
ra dost</w>
přemýšle l</w>
pt át</w>
pozna t</w>
postup ně</w>
ph iện</w>
ne ho
nauči la</w>
mu ze
m èo</w>
komuni ty</w>
ko lo
hy po
hud by</w>
f on
do mu</w>
da m</w>
ch ằm</w>
an d</w>
ameri cké</w>
O ba
2 3</w>
ši mpa
šan ci</w>
ř te</w>
đ ắt</w>
če n</w>
zdro j</w>
zasta vit</w>
z ím</w>
xo ay</w>
vzta hy</w>
v stou
uděl á</w>
tva r</w>
tr pě
te -li</w>
ta bu
sti cký</w>
se dí</w>
rozhod la</w>
přá tel</w>
pro hlá
poroz umění</w>
pi n</w>
ph ó</w>
obla stí</w>
nh ạy</w>
nej lépe</w>
mě st</w>
li dech</w>
kultu ra</w>
kon ce</w>
ko pí
kh ôn</w>
jednodu š
di vo
c ag
P hi
N ě
Ca nada</w>
C ha
19 80</w>
ớ p</w>
ž ku</w>
šimpa n
zá sob
vý u
vzta hu</w>
vyvinu li</w>
vyprá vět</w>
tr ov
t ný</w>
star á</w>
sek ven
roz lo
r ắn</w>
pů sobi
pře žití</w>
pře lo
po nen
ob ou</w>
na jdete</w>
mode r
lid stva</w>
kri ze</w>
kov á</w>
kontro lu</w>
kli ni
kam pa
k èm</w>
gori t
ga mi</w>
g a</w>
děl ala</w>
dá váme</w>
domá cí</w>
di ag
co koli</w>
c ối</w>
blí ž</w>
al gorit
Washing ton</w>
Tho mas</w>
S lu
P i
200 4</w>
čá ste
č ích</w>
zr ak</w>
zjisti la</w>
začá tek</w>
x óm</w>
vytvá ření</w>
vyso ce</w>
vy z
vo u
umož ní</w>
tu s</w>
tu ry</w>
tro šku</w>
ti lo</w>
tel nou</w>
spi sova
skup inu</w>
sexu ální</w>
s hr
růz nými</w>
rakov inu</w>
při náší</w>
probí há</w>
podí val</w>
po ho
okamži k</w>
novi ná
ne moc</w>
ma tky</w>
lo g</w>
kou ze
kni h</w>
k iên</w>
jist é</w>
jedi ne
jed ná
jak o
gi ường</w>
gi ày</w>
e ní</w>
e li
dé le</w>
d âm</w>
ct ví</w>
b ối</w>
b ếp</w>
b ảy</w>
auto ri
Ne w
Chi cag
C am
ž ka</w>
říká te</w>
zvláš ť</w>
za znamen
ves nici</w>
v le
th ôn</w>
t nosti</w>
svě tu</w>
sta vě
skvě lá</w>
setká ní</w>
příro dy</w>
pé če</w>
pá ní</w>
pocho pení</w>
po sto
ně n</w>
nejspí š</w>
ma t
ky ně</w>
en tro
dal šími</w>
dal šího</w>
chá ní</w>
b ãi</w>
anal ý
a to
a spoň</w>
Co la</w>
B razil</w>
200 7</w>
ơ n.</w>
ři di
člá nek</w>
člově kem</w>
za p
vo zí
vide o
veli kost</w>
v ời.</w>
tý dnů</w>
tvo ře
strate gi
srov nání</w>
sr de
sil ný</w>
si oná
s ạn</w>
s ně</w>
rov al</w>
r ét</w>
pusti li</w>
počá tku</w>
potřebu ji</w>
po sed
plá n</w>
pa dech</w>
ne věděli</w>
ne měla</w>
ne mohli</w>
na ro
mě stech</w>
má lní</w>
mul ti
m úa</w>
le té</w>
doká ží</w>
da ří</w>
d é</w>
ci n</w>
ch ốt</w>
ch e</w>
b ão</w>
ak ce</w>
a nebo</w>
P A</w>
O S
Afgháni stánu</w>
ứ t</w>
đ ạn</w>
ú z
Ô i</w>
zr ca
zjistí te</w>
zd ar
z em</w>
výji me
vá ch</w>
vyu ži
vlast ních</w>
v ắc</w>
uči tel
to rů</w>
rů m</w>
re cep
ra z</w>
pro vá
posta vili</w>
pe k
obla stech</w>
ob novi
nemo cí</w>
nech ali</w>
li ng</w>
kli matu</w>
de vět</w>
bi l</w>
b ů</w>
ak e
a s</w>
Ameri čan
200 5</w>
ườ n</w>
đâ y.</w>
zvu ku</w>
způsob uje</w>
znalo sti</w>
z ma
x ướng</w>
vě c
vysvět luje</w>
tr vá</w>
thu ận</w>
ten den
systé mů</w>
scho pen</w>
r ky</w>
pó di
progra mu</w>
per fek
osob a</w>
oko lí</w>
obje ví</w>
no sti
ne funguje</w>
naši m</w>
m ra
l ũ</w>
kultu rní</w>
kon čí</w>
ge o
efek tivní</w>
e mi
dá l
dovo lit</w>
be re
S tan
S an
De rek</w>
život u</w>
ž dě
đ ập</w>
ô ng.</w>
zna jí</w>
zi sk
za sa
vě novat</w>
výsled kem</w>
vy rov
vo dou</w>
vlast ním</w>
v ný</w>
tě le</w>
tu r
spou sty</w>
spolu práce</w>
sk ry
s ữa</w>
roz sa
re ži
ra y</w>
pomá hají</w>
po ste
obcho d</w>
nějak ého</w>
nu jí</w>
ngo an</w>
ng re
n kách</w>
ji ní</w>
he d
g ấu</w>
fe et</w>
důsled ky</w>
digi tální</w>
demokra cii</w>
ch ů
car bon</w>
anal y
Rob er
Lon dý
G ate
C D</w>
@ @</w>
199 0</w>
čas em</w>
zá li
zji šť
za sáh
věc mi</w>
vzdo ry</w>
vy hle
vesmí r
vak cí
v ka</w>
to nu</w>
stu dovat</w>
sna žili</w>
slou ží</w>
s ưu</w>
qu ái</w>
při šlo</w>
přesvěd čit</w>
přednáš ky</w>
pé či</w>
pra cí</w>
počíta či</w>
potenci ál</w>
popi s
podí vali</w>
pod ně
po vo
po kry
ob á
na děje</w>
na chází</w>
mu s</w>
manže l
m ali</w>
le g
ků ži</w>
ky ber
kata stro
ka paci
h ư</w>
gol f</w>
galaxi e</w>
e mi</w>
dí váte</w>
do kola</w>
d ka</w>
by s</w>
U ni
Th ế</w>
R wan
OS N</w>
D u
ť á
ško lách</w>
ško la</w>
Ú c</w>
změ ně</w>
z t</w>
z ně
vzpo me
vi ny</w>
v an</w>
tě stí</w>
te ru</w>
te ku
takov é
ta j
stá tu</w>
souvi sí</w>
sou se
s niž
s lid
roz to
progra m
pe c</w>
papí ru</w>
odpově di</w>
ná sledov
no mi
největ ších</w>
ne vidi
ne s</w>
na j
mikro sko
men ším</w>
iPho ne</w>
hod in
hed vá
g ạch</w>
for mu
fe no
ekonomi ky</w>
den ní</w>
d ge</w>
cho du</w>
ch ìa</w>
bi lní</w>
ak u</w>
Se verní</w>
Ein stein</w>
C oo
B ang
čte ní</w>
če b
záko ny</w>
zu jící</w>
zep tat</w>
zdar ma</w>
začí náme</w>
z ře
z ó
vysvět lení</w>
vypad al</w>
vy táh
vy rost
vlast nosti</w>
udr žet</w>
tvo řit</w>
tuy ết</w>
t ướng</w>
sti mu
star ý</w>
sní mek</w>
sle p
se r
razi t</w>
pravide l</w>
poku s</w>
pobře ží</w>
po staven
oči ma</w>
ot ce</w>
osob ně</w>
oko l
obtí žné</w>
ob klo
ne tu
naš těstí</w>
n ala</w>
měří tku</w>
mí r</w>
mo st</w>
mili onu</w>
me -li</w>
m ẩu</w>
l ây</w>
kni ze</w>
kapi tá
ig no
ho spo
h iệp</w>
g o
f le
doká žu</w>
do pad
desig nu</w>
da jící</w>
d àn</w>
d nou</w>
cí le</w>
char akte
b ọ</w>
Y e
P ar
M an
Bro n
19 60</w>
čen é</w>
ê nh</w>
ál ů</w>
zů stat</w>
z rych
x í
vytvá říme</w>
velk ého</w>
tě les
t ků</w>
svo jí</w>
studi i</w>
st em</w>
slu š
samo sta
r ý
qu án</w>
příležito sti</w>
příkla dy</w>
příbě hů</w>
prac ovala</w>
poz or</w>
povr ch</w>
potřeb ovali</w>
pe k</w>
o xi
následu jících</w>
ni chž</w>
na vzdory</w>
mé mu</w>
myšlen kou</w>
moz ky</w>
mno zí</w>
minu ty</w>
le n</w>
konfer enci</w>
jednoduch á</w>
jak ou
ja d
j ích</w>
hro má
hr din
dosta tek</w>
dob ří</w>
d ội</w>
ch í
ch vi
c ứng</w>
bole st</w>
bo j</w>
bo d</w>
DN </w>
A le
špat ný</w>
ří cí</w>
ř ích</w>
ř ské</w>
či lo</w>
záži tek</w>
zná mé</w>
zmi ze
ze ptá
zapo jit</w>
x ứng</w>
vé d
v ườn</w>
u še
t ovali</w>
t oval</w>
sta vět</w>
sezna m</w>
s pad
s my
při jdou</w>
psy chi
produk ty</w>
procen ta</w>
prav di
poz nání</w>
podni kání</w>
pochopi li</w>
ov ými</w>
obyva tel</w>
ně mu</w>
nápad ů</w>
ni cích</w>
ne můžu</w>
na po
měsí ci</w>
mode ly</w>
lé t
lá ska</w>
la p
kov ali</w>
koncep t</w>
komplex ní</w>
kd e
in tu
g ỡ</w>
dosta neme</w>
dne ch</w>
cư ỡng</w>
ck a</w>
ce r
X in</w>
T rời</w>
Jo e</w>
A DN</w>
2 2</w>
ẳ n</w>
ž al
š tí
č iny</w>
získ al</w>
zá ha
znamen alo</w>
změ nila</w>
zamě ř
věde cké</w>
vytváře jí</w>
vy jad
vo dě</w>
vi ly</w>
spo jit</w>
sdí lení</w>
r ăng</w>
r ku</w>
pro vi
oxyto cin</w>
obrov ská</w>
ně no</w>
ně komu</w>
nh ắm</w>
ne záleží</w>
n ơ</w>
mů m</w>
meta fo
me ra</w>
ma na
lu ỹ</w>
leta dla</w>
kultu ru</w>
khi êu</w>
k m</w>
ji li</w>
j ším</w>
intu i
in tele
hu st
ho l
hmo ty</w>
ha m
h ẳn</w>
h ầm</w>
efek t</w>
dlou hé</w>
d voj
cest ou</w>
bohat ství</w>
ba t</w>
b ạ
an e</w>
ak i
Pau l</w>
Ng a</w>
E D</w>
Co ca</w>
ž to</w>
čas .</w>
zá kon
zachrá nit</w>
z ování</w>
x inh</w>
vů d
vzruš ující</w>
vyprá ví</w>
vy ko
uza vře
uli ci</w>
ti cky</w>
thu ng</w>
th ùng</w>
tel nost</w>
t ỏ</w>
stře du</w>
struktu ra</w>
stej ná</w>
spo n
so n
s àn</w>
s pa
rozhod nout</w>
ri s</w>
pří ští</w>
při způsobi
projek ty</w>
pozo rovat</w>
politi cké</w>
po t
plane tu</w>
pa ne</w>
p lí
odpo věděl</w>
obliče je</w>
obcho d
ob nov
náho dou</w>
ni koho</w>
nej vyšší</w>
nej dřív</w>
le r</w>
l ũng</w>
ky slí
komuni kace</w>
j á
informa ci</w>
hvěz dy</w>
hrá li</w>
hla vy</w>
h ád
gi án</w>
epi demi
důkaz y</w>
dov ě
deseti letí</w>
d ly</w>
co ng</w>
chá u</w>
Irá ku</w>
Afri ky</w>
ươ i</w>
že k</w>
ň ů</w>
ň a
častě ji</w>
í me</w>
způsob ů</w>
zd i</w>
zbra ně</w>
věde c</w>
vy zkouše
vo jen
vezme te</w>
ve na</w>
u trá
ty py</w>
trov er
ti hle</w>
s s</w>
ro stou
ri sk
revolu ci</w>
r ka</w>
příro dě</w>
pí te</w>
pro ni
polov inu</w>
po zem
po vzbu
ote pl
obcho dní</w>
ob y</w>
ob le
o nemoc
ní kem</w>
názv em</w>
nej horší</w>
na znač
mí ry</w>
li ší</w>
komuni kaci</w>
kate gori
k ované</w>
jin de</w>
jedi nou</w>
je jím</w>
i slá
děl í</w>
dru ž
dosta nu</w>
da mi</w>
d ắt</w>
d ày</w>
cha jí</w>
bạ n.</w>
bý vá</w>
bri t
ali zace</w>
Ji žní</w>
C i
19 6
š ka</w>
ře m</w>
čin nosti</w>
č ných</w>
 </w>
zaměst na
zajíma vá</w>
z nepoko
vě říme</w>
vz hledem</w>
tr pí</w>
ti ckého</w>
tho ảng</w>
th ừa</w>
te st</w>
stup u</w>
ste ro
roz hraní</w>
r ali</w>
qu ặc</w>
příro da</w>
případ ů</w>
přá ní</w>
přednáš ce</w>
prá vní</w>
prv ního</w>
profe sioná
prav dě</w>
po bí
obcho du</w>
ná c
ni k</w>
nech te</w>
naši mi</w>
na pravo</w>
n ẹp</w>
mo ře</w>
ma i</w>
každ ému</w>
k in
je hož</w>
intele k
dí ry</w>
desá tých</w>
del fí
cá m</w>
c ục</w>
c ương</w>
aka demi
O x
M ặt</w>
F re
E ri
Ch e
đ áy</w>
čet l</w>
če na</w>
zajíma t</w>
z he
zhe ime
vý bor
vá leč
vytvo ří</w>
vti p
vo zi
ve du</w>
tří dy</w>
tradi ční</w>
tr ạm</w>
th ỉnh</w>
speci fi
sou část</w>
se x</w>
rost ou</w>
pozi ci</w>
pohyb ovat</w>
po zd
pi z
ph ổi</w>
pamatu ji</w>
pa ten
pa ne
ori gami</w>
ně kým</w>
nh ẫn</w>
ne se
mě řit</w>
mu jící</w>
m m</w>
le tý</w>
le tu</w>
le gra
kon kur
kompli kova
ko re
ko ho
k ênh</w>
je h
h ô</w>
gen y</w>
e -
dve ře</w>
dosáh li</w>
cí tíme</w>
cí tila</w>
c ú</w>
c ku</w>
Wil li
T al
O r
Nor den</w>
F lo
Ameri ky</w>
Al zheime
, 5</w>
žen á</w>
đ ạc</w>
čt vere
závi sí</w>
zví ře</w>
zkrá tka</w>
z obra
vyža duje</w>
vra ž
upří mně</w>
těž ší</w>
tr ấn</w>
tiv ním</w>
t ắm</w>
stě h
studi í</w>
stro my</w>
spolu práci</w>
skvě le</w>
samo tné</w>
sa my</w>
s in
roz li
rod inu</w>
razi li</w>
pří padech</w>
při cházejí</w>
pá nové</w>
pozor nosti</w>
podě lit</w>
po š
po tí
pi sy</w>
od dělení</w>
moleku ly</w>
mo n
mlad é</w>
matemati ky</w>
kouze l
kdy koliv</w>
ji chž</w>
jednot livé</w>
elektro ni
ekonomi cké</w>
e ra</w>
dí váme</w>
do poru
d ný</w>
W at
P or
H ol
9 5</w>
špat ná</w>
še mu</w>
š ká
č inu</w>
úda je</w>
ze na</w>
za poje
z ou
y ên</w>
vš tě
ví š</w>
vz ala</w>
vešker é</w>
ve jte</w>
tu č
tov ou</w>
techni ky</w>
te kto
rá p</w>
rá di
ri tu
ri gh
re gu
r ồ
průmysl u</w>
pravi dlo</w>
ovliv ňuje</w>
odh ali
obsa h</w>
následu jící</w>
nh ãn</w>
ng ừa</w>
nebez pe
ne znamená</w>
napad lo</w>
na da
má š</w>
moti va
mlu vila</w>
mi ền</w>
m ỏi</w>
m ệt</w>
lá sky</w>
logi cké</w>
kẹ t</w>
in st
ho mo
fascin ující</w>
civili zace</w>
bezpe čí</w>
Y </w>
T ex
M ě
Ken ya</w>
H DP</w>
F </w>
2 50</w>
š pa
ú h
zása dě</w>
zá pa
zlo čin
zemře l</w>
za brá
z ovali</w>
vě nov
vče ra</w>
vý raz
vý mi</w>
vál ka</w>
vyso kou</w>
veřej né</w>
ves nice</w>
tá lně</w>
tov i</w>
ti vy</w>
th ép</w>
te p
tal en
t ạm</w>
sní žit</w>
sly šíte</w>
skupi ně</w>
si la</w>
sed mi</w>
s vi
s pl
s hromá
qu át</w>
pusti l</w>
pu st
propoje ní</w>
pro po
po tvr
po no
pi s
p ě</w>
ov o
oba vy</w>
návr h</w>
ná te</w>
nu li</w>
no s</w>
niž ší</w>
nebezpeč né</w>
ne pří
nale vo</w>
n âng</w>
lá r
le jší</w>
l ặn</w>
l ạm</w>
l ò</w>
koru p
jí cími</w>
h ang</w>
doká zat</w>
ck ému</w>
cha ri
bě žné</w>
blá zni
Wikipedi a</w>
S tre
S ou
K inh</w>
B ộ</w>
1 20</w>
. co
š é
ře či</w>
ú he
á rní</w>
zvě da
způsob u</w>
změ nili</w>
zi e</w>
za vol
z neu
vy še
vy dělá
vy chází</w>
vezmě te</w>
vezme me</w>
vel ko
uvědo mu
ukáz ala</w>
tr ộn</w>
ta mi</w>
stej ným</w>
souvi slo
roz mani
ra d
působ í</w>
pře kla
produk t</w>
poza dí</w>
ot u</w>
nová ní</w>
me tri
ma s
m iệ
miệ ng</w>
kov i</w>
ko g
je jichž</w>
jazy ka</w>
h ổng</w>
gy p
fot ky</w>
f ale
e s</w>
dív ky</w>
dá vání</w>
do stává</w>
ca mera</w>
c ường</w>
br z
Gate s</w>
Bo sto
A li
9 9</w>
2 7</w>
život ního</w>
š a
ří z
đ eo</w>
ó zní</w>
à m</w>
záj mu</w>
zá chra
zna t</w>
změ n</w>
zeměděl ství</w>
zajíma vý</w>
zabý vat</w>
za ne
va mi</w>
uvědomi li</w>
ul tra
tře ní</w>
tr ần</w>
to ru</w>
sy n</w>
stá tní</w>
studen t</w>
společen ské</w>
slid e</w>
sa mi
rozhod ování</w>
ro man
ra n</w>
příkla dem</w>
přirozen ě</w>
při spě
pře mě
pozi ce</w>
pohybu jí</w>
ply nu
pacien ta</w>
ně na</w>
nh é</w>
nemoc nice</w>
nej růz
nebo ť</w>
ne obvyk
ne jenom</w>
má ma</w>
ma z
l nost</w>
kh ô</w>
kdy si</w>
k al</w>
j ní</w>
hro u
hlav ním</w>
hedvá bí</w>
gi ơ</w>
ge no
f a</w>
důvo dy</w>
do sud</w>
del ší</w>
cen é</w>
bli ž
auto mobi
apli kace</w>
ameri ckých</w>
Slu nce</w>
Sc ot
S to
Mar tin</w>
Harvar d</w>
C ảm</w>
ši ro
đ ón</w>
č te</w>
Ô ng</w>
zbra ní</w>
z ny
x i</w>
význa m
vzá c
vy pořá
vy mý
vi lo</w>
u míst
tl ak</w>
th ầy</w>
takov ým</w>
t ê</w>
stá l</w>
spá nku</w>
sekun d</w>
se ň</w>
s ốc</w>
s lad
rồ i.</w>
rostli n</w>
připraven i</w>
předmě t</w>
před stí
př in
prostřed ky</w>
pro vést</w>
potravi n</w>
poslou ch
pohybu je</w>
po ří
po tká
p al</w>
osob u</w>
or ů</w>
o my
ně čemu</w>
nà ng</w>
nh ấn</w>
na sa
mo ni
me dvě
m al</w>
le v
laborato ře</w>
kontex tu</w>
kh ông.</w>
je la</w>
hodno cení</w>
hla d
feno mé
dů raz
dů kaz</w>
dá my</w>
dr že
b ách</w>
V ý
P ře
P aki
Joh n
E n
At lan
ớ t</w>
že le
še ň</w>
či ní</w>
či n</w>
červen é</w>
ú lo
zi t</w>
zdravot nictví</w>
z men
vá šeň</w>
vrá tí</w>
vrcho lu</w>
uspo řá
udá losti</w>
u lo
té ma
tov ých</w>
stro jů</w>
straš ně</w>
sto lu</w>
sna žit</w>
sa mo</w>
s úc</w>
rá me</w>
rá ch</w>
roz ši
roz vinu
rov á</w>
rod in
robot ů</w>
ra g
při blí
pro cháze
prav é</w>
politi ku</w>
poci ty</w>
pl ak
pi lo
od mít
nu že</w>
nost ní</w>
ng ựa</w>
nad šení</w>
na no
mou dro
mlad ých</w>
mi str
logi i</w>
kte m</w>
krát ké</w>
kov ého</w>
kog ni
ko stí</w>
k ti
js ké</w>
jak oby</w>
hvěz d</w>
gene raci</w>
g ậy</w>
for ma
f ran
dost alo</w>
dne ska</w>
di s
de te</w>
d ọc</w>
d lu
chu t
centr um</w>
by zny
ar e</w>
angli cky</w>
W righ
Smi th</w>
L ạp</w>
K el
8 5</w>
7 00</w>
20 50</w>
ši la</w>
zu jeme</w>
zlep šit</w>
zer va
x ạ</w>
věd ců</w>
výz va</w>
vý zv
v ậ
u číme</w>
ti sk</w>
svobo du</w>
su r
spou st
ry by</w>
roz umět</w>
rodi ně</w>
re prezen
před cho
použí vání</w>
potře by</w>
politi ky</w>
podob ě</w>
po e
pi la</w>
otepl ování</w>
ope ra
ni koli</w>
nej méně</w>
ne pro
ne chtěl</w>
na ději</w>
může š</w>
mno st</w>
matemati ka</w>
mal in
lã m</w>
ká z
krá lov
ko st
i ro
hypo té
hodno ta</w>
g õ</w>
elektř iny</w>
ekonomi ka</w>
d nutí</w>
celo svět
c ování</w>
bur g
b log
an d
Uni ver
Ně me
H y</w>
Flo ri
E gyp
Brow n</w>
2 6</w>
čí mž</w>
č nou</w>
Ý </w>
zná t</w>
zi st
za b
vậ y.</w>
výbě r</w>
vý ži
vní mat</w>
velk ém</w>
ve doucí</w>
v za
tím hle</w>
tva ru</w>
tr ứng</w>
tr ú</w>
tov ý</w>
th ổi</w>
tel nosti</w>
t óm</w>
strá nka</w>
sta bili
spočí vá</w>
sled ování</w>
sl y</w>
rozvoj ových</w>
robot i</w>
ro hu</w>
ra mi
pří štích</w>
předmě ty</w>
průměr ný</w>
prů mysl</w>
podpo ru</w>
po stup</w>
ph án</w>
per spek
pa tr
p ale
očeká vání</w>
ovliv nit</w>
os mi</w>
ope raci</w>
o le
ná vště
nejlep ších</w>
ne rov
na psat</w>
mode lu</w>
mili on</w>
ma gi
leta dlo</w>
le te
la se
ko ře
ko me
kho ai</w>
ka ná
hledi ska</w>
hla s
g al
fung ovalo</w>
filozo fi
dí vá</w>
do my</w>
di n</w>
de ví
chy bí</w>
b l
Sh ake
R I</w>
P S</w>
G ore</w>
ơ m</w>
živo tem</w>
řej mé</w>
ř ka</w>
đ ừng</w>
đ óm</w>
ý vá</w>
á lu</w>
závislo sti</w>
zou f
zná mý</w>
zlep šení</w>
zkuše ností</w>
zau j
wo od</w>
ví ce
vu a</w>
vte ř
ver zi</w>
v ẹn</w>
univerzi tě</w>
u tr
u pozor
u .</w>
to rem</w>
tla čí
ti ka</w>
ti e</w>
th ấu</w>
th ạo</w>
t ma
sti cká</w>
spolu pracovat</w>
soci álních</w>
slyše la</w>
signá l</w>
schop ný</w>
samot ný</w>
s pat
ru ky</w>
roz mě
pří jem</w>
překvapi vě</w>
použi l</w>
potě šení</w>
po mohli</w>
obra zy</w>
objek ty</w>
ně mž</w>
nov i</w>
nh ỉ</w>
ng a
nemoc nici</w>
naš la</w>
médi í</w>
metr </w>
m ými</w>
kni hov
jednoduš ší</w>
in e</w>
i ni
h ně
fak ta</w>
e mpa
dlou há</w>
da va
cvi čení</w>
co uz
chu doby</w>
bri dge</w>
bo dy</w>
b ọn</w>
b iện</w>
ak o
a na</w>
Th e</w>
Paki stan</w>
Oba ma</w>
Ho ward</w>
H en
B ob
19 50</w>
Š véd
đo m</w>
č ování</w>
í te</w>
zví ře
zku ste</w>
zkou mat</w>
zač nu</w>
všim li</w>
vě říte</w>
vý mě
využí vá</w>
vypa dalo</w>
uči telů</w>
u spě
tvá ře</w>
tr val
tov á</w>
to s</w>
to krát</w>
ti on</w>
ten tokrát</w>
su per</w>
statisti ky</w>
star ých</w>
st ři
s má
rov ý</w>
ra zí</w>
r al</w>
pů dy</w>
pří to
předpo ví
pt ali</w>
pozoru hod
osob y</w>
ob lo
o čí</w>
ní kům</w>
ne víte</w>
ne budeme</w>
m ạn</w>
m hle</w>
li con</w>
le ti
komi k
jako žto</w>
hlav ních</w>
h ưu</w>
h na
graf u</w>
gra m</w>
dě j
dostá váme</w>
domá c
do sti</w>
do nu
di plo
demo n
d ná</w>
ci ální</w>
chápe te</w>
chro ni
cha o
bo ng</w>
Ni ge
M il
Leo nar
J </w>
C la
200 3</w>
2 8</w>
ẹ o</w>
ậ c</w>
ško lní</w>
ře šením</w>
đ ếm</w>
đ ậu</w>
zept ala</w>
ze v</w>
zamě ře
z kra
x âm</w>
větši ně</w>
vytvoři la</w>
vez me</w>
v dě
užiteč né</w>
uvědomi t</w>
u zná
takové to</w>
stá lo</w>
společen ství</w>
smě ř
si a</w>
se ní</w>
rodi č
r gi
půvo dní</w>
při cháze
předsta va</w>
pu ště
projek tů</w>
popu la
po sou
po může</w>
po le
pi su</w>
p ka</w>
ova ní</w>
ova nou</w>
ome zení</w>
ohro mující</w>
odpově dí</w>
od děle
oble čení</w>
ob vi
ob di
o proti</w>
něj šího</w>
ngư ời.</w>
ng ã</w>
ne závisl
nd ro
na sta
moz kové</w>
modr é</w>
mobi lní</w>
mo tiv
men u</w>
m p
lid skou</w>
ku chy
ko mo
ji žní</w>
jed e</w>
hovo ří</w>
gi ấu</w>
dě te</w>
dvo u
doká žou</w>
dan ý</w>
cí tili</w>
ck rát</w>
ch ục</w>
ce ti</w>
c ro
budouc nu</w>
b ậc</w>
auto bu
a .</w>
T ali
Rober t</w>
M RI</w>
Je f
H àn</w>
H iệp</w>
G a
D on
B ình</w>
B ar
ži ly</w>
ži jete</w>
ší ří</w>
ši r
čty ř</w>
člově ku</w>
če kat</w>
Čí ny</w>
zá ní</w>
zname nat</w>
zamě řit</w>
z ná</w>
xí u</w>
vyrob en
vy nalez
vl ny</w>
ver ze</w>
va né</w>
tr ốn</w>
t ĩnh</w>
t ông</w>
stá ní</w>
stvo ření</w>
spotře bi
sk ému</w>
se t</w>
se sta
s ắt</w>
s bě
psa ní</w>
pro ží
pro vedli</w>
poslou chat</w>
posky tuje</w>
pohy by</w>
po krok</w>
pi i</w>
papí r</w>
pa vou
ope race</w>
obtí ž
o z
nějak ým</w>
násled ně</w>
nu tím</w>
no hou</w>
ne od
mana že
la ng</w>
l âm</w>
l ování</w>
krás ný</w>
ko mentá
kni h
ki e</w>
kdo koliv</w>
jist á</w>
jed nat</w>
inter pre
identi fi
dokto r</w>
dob ou</w>
budou cí</w>
blí že</w>
bi li</w>
b le</w>
ak ci</w>
a no
Twit teru</w>
Shake spe
L ong</w>
K ore
G PS</w>
B el
A dam</w>
20 11</w>
ỗ ng</w>
šťast ný</w>
š ť</w>
řa dy</w>
čen ím</w>
ú spo
zje vně</w>
zbo ží</w>
zají mal
za myslíte</w>
z řejmě</w>
we bu</w>
vě řte</w>
vzdu ch</w>
vyjád řit</w>
vybr ali</w>
vrá tili</w>
vlá dní</w>
vizu ální</w>
ve nou</w>
va jí
u rych
u ji
u děle
tá l
th ả</w>
strá nce</w>
správ ná</w>
spor tov
sil ně</w>
se t
schop na</w>
s mlou
rá m</w>
rych losti</w>
rozší ře
rozu mí</w>
roz sáh
rizi ko</w>
příjem né</w>
pří spě
přá teli</w>
při jdete</w>
pro hlí
potk al</w>
po sa
po hla
pa pr
pa n
o svět
ng ắm</w>
nej ste</w>
mini str
materi álů</w>
krá tk
kre sle
jedin ým</w>
jed nání</w>
jaké koliv</w>
i muni
h ứa</w>
g ốm</w>
f ron
exist ovat</w>
dí cí</w>
dáv ali</w>
dostup né</w>
di va
charakte ri
cen ě</w>
c ovat</w>
bi a</w>
b rát</w>
a ch</w>
Vi rgi
TED x
Higg s</w>
Ha w
Ha i
G DP</w>
Cam bridge</w>
A bra
3 000</w>
žen ých</w>
ško d
ň ujeme</w>
é nu</w>
znov a</w>
zele né</w>
zd voj
zbo ž
zapo me
zajíma vější</w>
výrob ě</w>
vle vo</w>
virtu ální</w>
urči tý</w>
univerzi ty</w>
tuč ňá
to ři</w>
to stí</w>
th ô</w>
t ủ</w>
sti li</w>
správ ný</w>
speci ali
součas ně</w>
sch ů
s le</w>
s chi
rozvo j</w>
rozdí lné</w>
ra u</w>
přá tele</w>
přimě t</w>
pře stat</w>
pu stí</w>
pro bu
pri ori
pr su</w>
pořád ně</w>
popu laci</w>
ph o</w>
pacien t</w>
os m
obje vila</w>
něj šími</w>
ne mohla</w>
narodi l</w>
na cházíme</w>
n ốt</w>
n ề</w>
mi min
m ãn</w>
lá m</w>
lu mbi
lo di</w>
la h
l ối</w>
l ými</w>
l ông</w>
l nosti</w>
intelek tu
hospo dá
hlou p
h ơn.</w>
fran couz
fil my</w>
er ry</w>
ch ấn</w>
ch va
bě žně</w>
bu ýt</w>
be rou</w>
a e
Zá pad
Wal l</w>
U gan
Ste war
Fran k</w>
Bi g</w>
3 7</w>
200 1</w>
19 .</w>
ži vé</w>
ře šit</w>
đ áp</w>
čin nost</w>
ča ta</w>
č tější</w>
úrov ně</w>
úmrt nost</w>
ú mysl
zá ření</w>
zá vo
zept ali</w>
za myslete</w>
vě k</w>
vi du
ukáz ali</w>
uh lí</w>
tý mu</w>
tá ta</w>
tenden ci</w>
sub jek
stra chu</w>
st á</w>
spo leh
souci tu</w>
sledov ali</w>
skvě lou</w>
sil nější</w>
shromá ž
se ch</w>
s ny</w>
s ce</w>
rozumí me</w>
pů l
publi ku</w>
produk ce</w>
pra vě
pou ště
podob ného</w>
po myslel</w>
po mohl</w>
po jmen
oči vi
opa tr
odpoví dá</w>
ob zvláště</w>
názor y</w>
nástro jů</w>
ni n</w>
nh au
nhau .</w>
neuro nů</w>
na jdeme</w>
milu ji</w>
milió ny</w>
me ní</w>
mani pu
m ộng</w>
lé čit</w>
ku cha
kou pil</w>
komuni tě</w>
jazy kem</w>
inžený r
in jek
hlubo ce</w>
dě jí</w>
dí vali</w>
dí val</w>
duše vní</w>
dra mati
do mě</w>
diag nosti
chy b</w>
chrá nit</w>
chla pec</w>
ch ý
ch ou</w>
be n</w>
ak u
R B</w>
Ca ro
Afri ka</w>
A pol
ži lo</w>
části c</w>
ú m</w>
á c.</w>
země tře
zak á
za vře
vě cem</w>
vý ko
vy ni
vol ba</w>
vi ze</w>
v uje</w>
tvá ře
tvo ři
su s</w>
st mi</w>
spá nek</w>
sou sed
s ồi</w>
s ét</w>
s ov
při pa
přemýšle li</w>
pře číst</w>
pu t
pu jící</w>
pro mi
pravo da
použi tím</w>
potřeb ovat</w>
potravi ny</w>
pokrač uje</w>
pamě ť</w>
osvo bo
ori en
organi s
opi ce</w>
odliš ný</w>
obrov skou</w>
obe zi
ná hle</w>
ni cí</w>
nh àng</w>
ng o</w>
nedosta tek</w>
na roze
mě ření</w>
men tální</w>
lé tat</w>
l ăn</w>
l vi
kvali tu</w>
ku jící</w>
kra jin
kou sky</w>
ko lo</w>
každ ým</w>
indi vidu
hod a</w>
hla sy</w>
h an
h al</w>
gen ů</w>
for mě</w>
for m
důleži tou</w>
dě ji
dítě te</w>
dí lo</w>
dra hé</w>
do předu</w>
dlouh ý</w>
di stri
di k
di a
chy stá
chemi ká
bo du</w>
architek tu
V ậy</w>
S hi
Q </w>
Pe ter</w>
P ale
P M</w>
Ho ả</w>
2 1.</w>
ž li
šen é</w>
Đ ỏ</w>
čer st
ček ali</w>
úva hu</w>
z ří
z pravoda
z jednodu
x ong</w>
vědo mě</w>
vzpomí nky</w>
vzdělá vací</w>
vyrábě t</w>
vyba vení</w>
vy fo
vol ně</w>
vez mu</w>
ve s</w>
uvaž ovat</w>
umož ňují</w>
tu ỳ</w>
tu d</w>
to r
tisí ci</w>
ti ly</w>
th er</w>
takov ý
sí me</w>
svobo dy</w>
sní mky</w>
smě ru</w>
skuteč ná</w>
skup in
skon čil</w>
rozhov or</w>
rizi ka</w>
re t</w>
pří stroj</w>
přemýš lím</w>
pře žít</w>
pí š
po vě
po tla
ohro mné</w>
odpo vědět</w>
ně kam</w>
nádher né</w>
ná sobi
nov ém</w>
nov iny</w>
nov in
normá lně</w>
nej oblíben
n ský</w>
mu ỗi</w>
lé ta</w>
lo ď</w>
li tera
le né</w>
kte ch</w>
kon ti
kon cer
kde koliv</w>
jednotliv ých</w>
im provi
i d</w>
for má
elek trá
e c</w>
du jeme</w>
do pl
distri bu
detai ly</w>
da r</w>
cen tra</w>
c ừ
biologi e</w>
bezpeč né</w>
V e
Th ượng</w>
Stre et</w>
S he
Hol ly
Goog lu</w>
ộ m</w>
č ují</w>
č tu</w>
z obraz
z důraz
vzájem ně</w>
vte ři
ven ci</w>
v hod
univer zá
uká že</w>
u d</w>
tr à</w>
to též</w>
signá ly</w>
si lou</w>
se s</w>
s si
ru jící</w>
r ắc</w>
r na</w>
qu ạ</w>
pří rod
přirozen é</w>
přednáš ku</w>
pí še</w>
procen to</w>
pri má
pr sty</w>
posta vil</w>
popis uje</w>
poně kud</w>
pochopi telně</w>
po vin
po klá
pla tit</w>
pacien ty</w>
ote ví
organi zaci</w>
oprav dové</w>
obrazov ce</w>
o zná
ni nu</w>
nej chud
nak re
na rá
na ru
mno hé</w>
mal á
ma pa</w>
léč bu</w>
là n</w>
le du</w>
krát ký</w>
kontro lovat</w>
klu k</w>
kaz uje</w>
ka cí</w>
ja pon
inteligen ce</w>
hor mo
h ét</w>
h ovat</w>
for du</w>
ex ponen
e la</w>
dobro druž
do tk
di vá
dal eko
da ta
cu je</w>
ce n</w>
c óc</w>
bole sti</w>
boj ovat</w>
be k</w>
bal í
absolu tně</w>
Ye men</w>
W or
P ra
N á
Le go</w>
L ED</w>
D r.</w>
Coo kie</w>
Bra zí
1 5
- ti</w>
ợ n</w>
ị nh</w>
ướ p</w>
řa d</w>
ň ující</w>
độ n</w>
đ ống</w>
Đ an</w>
ď á
zkou mání</w>
zemětře sení</w>
zdro jem</w>
zají mají</w>
z ované</w>
vị n</w>
využí vat</w>
vyjad ř
u čeb
tu šení</w>
te be</w>
t ce</w>
sí tí</w>
sá o</w>
sty l</w>
stou p
srov ná
srde ční</w>
sour ce</w>
sní m
sla v
sk e
sel hání</w>
sdí lí</w>
schop ností</w>
s ní</w>
ry l</w>
ru ồi</w>
rakov ina</w>
přístup u</w>
pří tel</w>
přij mout</w>
přemýš líte</w>
pěk ně</w>
prv ky</w>
pr ale
požád al</w>
pod la
pali va</w>
ob oru</w>
o cit
ná cti
ná ct</w>
nu jeme</w>
nov ě</w>
nost em</w>
no ční</w>
nh at
nebezpe čí</w>
ne zisk
ne viděli</w>
napo do
nalé zt</w>
mlad ý</w>
mezi národ
m lé
lov al</w>
letě t</w>
kri zi</w>
ki ng</w>
katastro f
kampa ň</w>
ji l</w>
j o
i o
h ře</w>
h ung</w>
g y</w>
funk ční</w>
extré mně</w>
ekonomi cký</w>
desí tky</w>
chvi lku</w>
chlapí k</w>
ch lad
c ướp</w>
bude š</w>
bud ování</w>
biologi i</w>
bar vu</w>
b ấy</w>
as pek
T ro
S tá
S pe
S O
Ma nhat
M ạch</w>
Ka na
G ha
C o</w>
C A
Britá nii</w>
Apol lo</w>
4 0
3 2</w>
ụ m</w>
ši lo</w>
š á
š tině</w>
đi êu</w>
čtyř mi</w>
č ko</w>
způsob en
zná zor
zjistí me</w>
zahrani čí</w>
vývo je</w>
vá n</w>
vzni ká</w>
vz hů
vzhů ru</w>
vyvo lá
vy sky
vide u</w>
va ri
v ovat</w>
uli ce</w>
ti ská
t ị</w>
t ặng</w>
t ných</w>
stře do
speci ální</w>
sna ze</w>
skuteč nou</w>
sa te
rychle jší</w>
rostou cí</w>
rop a</w>
ro vi
ro má
rad ši</w>
představ ují</w>
pomo ct</w>
polov ině</w>
podob ný</w>
pod vádě
po v
pamatu jete</w>
pama tovat</w>
od vo
od sou
o .</w>
nác ti</w>
ná sil
ni koliv</w>
ni jak</w>
nej menším</w>
ne štěstí</w>
ne y</w>
ne sta
ne budete</w>
naro zení</w>
na tolik</w>
n ụ</w>
n ní</w>
n né</w>
men t</w>
me na</w>
mal ého</w>
ma so</w>
li mi
ku p
kov ě</w>
komuni kovat</w>
kome r
ko rá
jed n
in fek
hovo řit</w>
hmo ta</w>
hlu b
hlou b
hla vou</w>
h ồng</w>
fyzi ky</w>
f ú
f f
elektř inu</w>
dě v
dáv no</w>
druh ém</w>
doprav ní</w>
do pa
dce ra</w>
chlá pek</w>
ch ové</w>
ch ova
c ụm</w>
bezpeč nost</w>
ba te
a ut</w>
Wo w</w>
Pa ris</w>
P T
Nige ria</w>
In terne
G ol
C ó</w>
200 2</w>
19 5
š ný</w>
čí sel</w>
čen ý</w>
če mž</w>
če ká</w>
č ovat</w>
č oko
zů stává</w>
zí tra</w>
zába va</w>
zen é</w>
zajímal o</w>
zaji stit</w>
zahr nuje</w>
za ží
xu ân</w>
všim něte</w>
vět šího</w>
vznik l</w>
vz or</w>
vy hra
vy ho
urči tou</w>
u prav
tva ry</w>
te jte</w>
tak zva
ta cí</w>
t ými</w>
sy ndro
stup uje</w>
studov al</w>
sto p</w>
správ nou</w>
spotře b
společ né</w>
sklá dá</w>
se y</w>
schop né</w>
růz no
rov ých</w>
ro vi</w>
re a
ra nh</w>
pří še
pí me</w>
pro chází</w>
poč ty</w>
použí vám</w>
pl ná</w>
odehrá vá</w>
o má
o bi
ně ných</w>
ně ny</w>
náz oru</w>
neuro ny</w>
ne chtějí</w>
nak u
nak lá
na psá
míst nost</w>
mi ná
metr u</w>
lí z
lid stvo</w>
la jí</w>
l ům</w>
l ão</w>
kultu ře</w>
ku la
kh ớp</w>
kh át</w>
karié ru</w>
k lou
hu ýt</w>
hod í</w>
fo s
f ru
energi í</w>
e v
dí la</w>
dáv al</w>
druh ému</w>
dobr ých</w>
cừ u</w>
chce š</w>
c ốt</w>
bý val
ate i
W K</w>
T as
Mě sí
Mon ster</w>
K an
H ội</w>
Da ni
Ci ty</w>
.co m</w>
šen ý</w>
ře ch</w>
ř ství</w>
čoko lá
čer no
čen á</w>
čen i</w>
če líme</w>
ú silí</w>
ztra tili</w>
zaznamen á
věři li</w>
výcho dní</w>
vzor ce</w>
vy pěst
va n
v ního</w>
uh li
uhli či
u smí
to ả</w>
sí te</w>
stu jeme</w>
sto j
sna žila</w>
rozumí te</w>
r ũ</w>
r nu</w>
quy ến</w>
přesvěd čení</w>
předpo vě
pě ti
pu stí
pro sa
posle ch
pos lat</w>
poli cie</w>
poda ří</w>
po če
po ly
ou n
orgá ny</w>
or em</w>
obráz ků</w>
o pen
o f</w>
nu la</w>
ne viděl</w>
na učí</w>
mě ří</w>
mno h
m ưu</w>
lé k</w>
lá tky</w>
lá sku</w>
lek ce</w>
krát ce</w>
krás ná</w>
kre s
kh ác.</w>
kame ry</w>
k ými</w>
jí dlem</w>
jin ém</w>
jazy ky</w>
im plan
h ma
funk ce</w>
fre k
experimen tu</w>
e na</w>
doved nosti</w>
dobr ým</w>
do pis</w>
cí me</w>
cu ồng</w>
ch ăng</w>
c úm</w>
bu je</w>
b oty</w>
b le
al l</w>
Si nga
S tře
Mar k</w>
Ma ya</w>
Le e</w>
Kel ly</w>
Kalifor nii</w>
Jo se
J os
Izra e
Hai ti</w>
C ơ</w>
Au strá
3 3</w>
2 9</w>
ži jící</w>
ž ď
č ným</w>
úžas ných</w>
získá te</w>
záli vu</w>
zna čky</w>
zmí nil</w>
zkou šel</w>
zi sk</w>
ze ď</w>
ze t</w>
zdá lo</w>
za druhé</w>
za chra
z opak
z hrou
všim l</w>
všech en</w>
výro bu</w>
vlá du</w>
ve j</w>
va ším</w>
uy ệt</w>
u ju</w>
u ci
tuy ển</w>
tká ně</w>
tiv ního</w>
televi ze</w>
telefo nu</w>
t nější</w>
sí le</w>
stup ňů</w>
sti h
soustře dit</w>
so fi
sil ná</w>
sa mý</w>
rá me
ru ka
ro le</w>
re pli
re cyk
příbě hem</w>
při poje
překo nat</w>
pě tí</w>
prů měru</w>
pro jít</w>
pro běh
popu lární</w>
po sel
pl nou</w>
p tají</w>
op y
od va
od dě
obra zu</w>
ně ný</w>
no su</w>
ng ực</w>
nebo li</w>
na ci</w>
n ạ</w>
měsí cích</w>
míst em</w>
manžel ství</w>
mal ém</w>
le gi
l ân</w>
l kov
krea tivní</w>
kou k
kon ců</w>
komple tně</w>
kdo koli</w>
k é
k g</w>
hý bat</w>
hra nici</w>
hlubo ko</w>
gra vi
evolu ční</w>
ekonomi ku</w>
do ty
defi nice</w>
d ư</w>
cit li
chá pat</w>
ca r</w>
by tek</w>
bi ếm</w>
ba vit</w>
Ste ph
S vět
S put
Rwan da</w>
Pá ki
J á</w>
Ev ropy</w>
D V
B en
Ar chi
ů l</w>
ší řit</w>
š u
č nost</w>
úžas nou</w>
ú smě
ú kolem</w>
znov u
zby teč
zapo mně
z ů</w>
vů dci</w>
vě dě</w>
výsled ků</w>
ví těz
vybu dovat</w>
vo dí
ve ch</w>
v ce</w>
u plat
těž ko</w>
thu a</w>
tel ným</w>
ta ne
t s</w>
t le
t al</w>
strá nek</w>
stro mů</w>
sta rat</w>
společ ný</w>
so lární</w>
smy slu
sledu je</w>
sedě l</w>
se tk
sa y</w>
s al
ry t
rov nice</w>
ro vou</w>
re g
pů jde</w>
připomí ná</w>
přibli ž
při vádí</w>
při padá</w>
při dat</w>
představ y</w>
pt al</w>
počítač ů</w>
po ro
par en
p tá</w>
odstra nit</w>
odpo věděla</w>
od padu</w>
oce án</w>
o ko</w>
no n</w>
nh ũng</w>
nevy hnu
nadšen ý</w>
na ži
n ọ</w>
mlu v
materiá lu</w>
m ó
la du</w>
ku jeme</w>
konti nen
ko mu
kh ơi</w>
ke r</w>
ka p
hlé dnout</w>
gra mo
ex plo
důleži tě
domní vám</w>
di na</w>
di lo</w>
chemi cké</w>
bá je
by tu</w>
br ý
bo ha</w>
bere me</w>
b ướ
b ón</w>
W ar
Nobe lov
Ke vin</w>
Ja ze
B líz
B an
Ameri ka</w>
A maz
1 .
ế .</w>
šťast ní</w>
č an</w>
ù i</w>
zába vné</w>
zvý šit</w>
zodpověd nost</w>
zná má</w>
zba vit</w>
z hor
y n
vzta hů</w>
vystou pení</w>
vyso ko
uči nit</w>
udá lost</w>
u spoko
u dělají</w>
tři krát</w>
trans plan
te da</w>
svět ový</w>
stra nou</w>
str an</w>
sto jím</w>
sr dci</w>
sr d
společ nostech</w>
spo lé
se verní</w>
se h
schi zo
pódi u</w>
produk ci</w>
prob le
prav dy</w>
pra vou</w>
pozo rování</w>
politi ka</w>
pohla ví</w>
podpo rovat</w>
podob ných</w>
podnika tel
pod é
plá nu</w>
p s</w>
očivi dně</w>
ov i
or che
open -
ochra nu</w>
nu tně</w>
nov y</w>
ne věděl</w>
ne chceme</w>
mý š
mí te</w>
myšlen kami</w>
mi lova
ma pu</w>
m koliv</w>
léka ři</w>
léka ř</w>
lo ni</w>
l õi</w>
investi ce</w>
hov ě
he sla</w>
hal uci
h óc</w>
foto graf
for ma</w>
fi rem</w>
ev rop
elektri cké</w>
do mi
dne te</w>
di ly</w>
di e</w>
demo grafi
d ži
cu a</w>
ch ày</w>
bí lkov
budov a</w>
bo dů</w>
ba mi</w>
b ơm</w>
b ří
ab str
Vel ké</w>
T o</w>
Si licon</w>
S ự</w>
P r
P la
J en
H i
Asi i</w>
Američan ů</w>
A R
7 0.</w>
řa da</w>
đ ai</w>
čty řech</w>
čer ná</w>
če l</w>
če ka
úče lem</w>
záležito st</w>
větš iny</w>
výji m
vál ku</w>
vzpomí nám</w>
vzdále nost</w>
vy myslet</w>
vy dal</w>
vrá tila</w>
v před</w>
v ování</w>
uvědomi la</w>
urči t</w>
uká ži</w>
u si
u jících</w>
tu jeme</w>
tiv nější</w>
ti k</w>
ta r</w>
t ó
sta ví</w>
sta n
spoj uje</w>
sly ší</w>
sledu jí</w>
skon čí</w>
sk em</w>
se xu</w>
rych lé</w>
rozdí l
r i</w>
qu ét</w>
příkla du</w>
při spí
pře sta
pře prav
pís mo</w>
psycho logie</w>
progra my</w>
pr vo
poh l
podi v
ph a</w>
ph </w>
pacien ti</w>
ovliv ňují</w>
orgá nů</w>
ok na</w>
o t</w>
nega tivní</w>
nazv al</w>
navrh nout</w>
navr hu
na vždy</w>
na podob
n d</w>
mí n</w>
musli m
meto dy</w>
lé ků</w>
la ska
l d</w>
kro kem</w>
kaz y</w>
ka za
jednodu cho
jak á
hrá la</w>
hroz né</w>
hle dáme</w>
ha ma</w>
h án</w>
gi ọt</w>
dostá vají</w>
dobr ého</w>
d ž
d ính</w>
co l
chá pání</w>
chy tře
cel ých</w>
bụ i</w>
buň ka</w>
anglič tině</w>
ang io
an alo
am p</w>
am bi
U </w>
Tro ng</w>
Tali ban</w>
S ch
Nh à</w>
Ng ân</w>
Mi cro
M el
Jo na
Je ru
Holly wood</w>
DV D</w>
Chicag o</w>
Bu sh</w>
Be ach</w>
199 9</w>
1 7
1 4
ř ou</w>
zákla d</w>
zv .</w>
změ nily</w>
zen y</w>
za tra
za stá
za r
z on
z má
vývo ji</w>
ví tr</w>
vyvinu l</w>
v ỗ</w>
trừ u</w>
tr y
tiế c</w>
ti on
ti ng
t ăm</w>
t zv.</w>
sy na</w>
stu pu
st ky</w>
spoje né</w>
sed m
se ve
se ri
ru čně</w>
rozší řit</w>
rozu měli</w>
rov ala</w>
překva pení</w>
předsta vení</w>
proble mati
poža da
počítač ové</w>
použí vali</w>
porov nání</w>
pomá hat</w>
pokro ku</w>
pod rob
po čas
po psal</w>
pi sů</w>
ph ốt</w>
ol y
odpo le
obsa hu</w>
objev ovat</w>
obje vit</w>
o sa
o l</w>
ně ním</w>
ně ni</w>
ná vra
nu tné</w>
nov ými</w>
ni čeho</w>
nes l</w>
nech ce</w>
nazý vám</w>
mr z
mlad ší</w>
minu tu</w>
mi zí</w>
medi ální</w>
marketi ng</w>
m ỳ</w>
lo w</w>
le d</w>
l ợn</w>
ky se
krás a</w>
kru hu</w>
konver zace</w>
koleg y</w>
kogni tivní</w>
klíč ové</w>
každ ých</w>
její ho</w>
jaké koli</w>
informa ční</w>
i e</w>
hr d
he ň</w>
ham bur
h ệt</w>
h ận</w>
g ói</w>
funk ci</w>
dí vám</w>
dé l
dokto ři</w>
do ta
d la
ck s</w>
chy t
cen ý</w>
by tí</w>
b óp</w>
auto r
a h</w>
We b</w>
Wat son</w>
T an
Pa ci
P ři
P en
P I
M ur
M as
Hen ry</w>
Han s</w>
8 00</w>
4 8</w>
19 70</w>
19 00</w>
ạ i.</w>
ře č
částe čně</w>
čte ná
červen á</w>
ál ními</w>
způsob í</w>
zapla tit</w>
z ou</w>
vědo mo
vy pravě
v ů</w>
uči li</w>
tvů j</w>
tré ni
to le
thu ế</w>
th al</w>
tel ného</w>
svět lem</w>
sta ří</w>
st ní</w>
scé ná
s lo</w>
s hod
rozši ř
roz pí
reali ta</w>
reak ci</w>
re w</w>
re por
při čemž</w>
při hlá
pí še
progra má
produk tivi
princi py</w>
pravděpodob né</w>
poví dá</w>
poví dat</w>
poskyt nout</w>
podí l</w>
plu s</w>
plane ta</w>
p ta
ovlá dat</w>
otev řít</w>
orche str
ob í
ná t</w>
nh ại</w>
ng a</w>
nechá te</w>
nechá m</w>
neb e</w>
na c
n ských</w>
mu ối</w>
men o</w>
ma xi
li ber</w>
la mi</w>
kó d</w>
kvali ty</w>
kro u
kov al</w>
kos mi
kon stru
ko lá
kli k
kh ao</w>
jednot li
je tí</w>
jaké ho
inte rag
in stin
i zo
hu jící</w>
ho j</w>
hle du</w>
hle dali</w>
he re
gene rá
g ové</w>
fá zi</w>
experimen ty</w>
exist ence</w>
dí ra</w>
dá ním</w>
du chov
de va
de jme</w>
da nou</w>
chy bě
chud é</w>
choro by</w>
cho dil</w>
ch ři
cen ě
ce le
c ựu</w>
c ọ</w>
bo ji</w>
bo je</w>
ban kov
ač koliv</w>
ak y</w>
ak tu
Wrigh t</w>
W </w>
V in
Stewar t</w>
Ri o</w>
O E
Micro sof
M ĩ</w>
K á
K u
J e</w>
Gha na</w>
Bro ok
Bob </w>
B os
8 0.</w>
ữ a.</w>
ší ření</w>
ši ly</w>
čet li</w>
č ními</w>
ú zemí</w>
záj my</w>
zvyš uje</w>
zneči štění</w>
zname nají</w>
zdra vé</w>
zab ít</w>
za myslet</w>
za h
z vy
z oval</w>
w at
vá na</w>
vzdále nosti</w>
vz děla
vypořá dat</w>
vy chová
vla sy</w>
vaz bu</w>
v ují</w>
uži tí</w>
umíst ě
táh nout</w>
tvr zení</w>
tr h
ti va</w>
th ản</w>
te rá
te ore
t át</w>
svět ová</w>
sv al
sty lu</w>
stro ji</w>
sly ším</w>
složi tější</w>
sledu jte</w>
skupi n</w>
s me</w>
s me
s ha
rodi čů</w>
reali ty</w>
pří stroje</w>
pust ím</w>
pro dávat</w>
princi p</w>
posel ství</w>
polo žit</w>
podé l</w>
po psat</w>
p si</w>
ov í</w>
ov y</w>
od tud</w>
od rá
obě ti</w>
o znač
o st
ně která</w>
násled ovat</w>
násled ky</w>
neu vědo
ne va
ne stačí</w>
ne mělo</w>
ne musíme</w>
n ữa.</w>
moz kem</w>
minu tách</w>
mal ým</w>
ma mo
lé ta
lov ý</w>
lep ším</w>
l le</w>
konfer ence</w>
komuni tu</w>
je sky
inženýr ství</w>
i nou</w>
hol či
h ẹn</w>
g ối</w>
fyzi cké</w>
fi kova
f rá
důsled ku</w>
de j</w>
chá zím</w>
chytr é</w>
chy ba</w>
ch ovali</w>
cel ým</w>
ce jí</w>
bohat ší</w>
bla ho
babi čka</w>
b ři
b út</w>
ander thal</w>
Tex as</w>
Shakespe are</w>
Sa ra
OE CD</w>
Ne anderthal</w>
I Q</w>
For d</w>
F e
C E
Britá nie</w>
B ang</w>
A i
2 .
še sti
še st
Đ iều</w>
či ly</w>
č ného</w>
zor y</w>
zeptá te</w>
zen ím</w>
zd í</w>
výho dy</w>
vá žné</w>
využí vají</w>
vrcho l</w>
vlast ního</w>
velk ými</w>
ved ly</w>
uvaž ování</w>
utr pení</w>
uměle c</w>
tu ji</w>
ti vu</w>
tho ái</w>
th ế.</w>
sé rii</w>
syn chroni
svět lu
super marke
sle ch
sl ý
schop ná</w>
s rá
s m
roz p
ri p
ren t
reali tu</w>
re d</w>
ra mi</w>
ra dy</w>
pů du</w>
přemýšle ní</w>
pře stá
pu štění</w>
ps y</w>
profes or</w>
pro dá
počas í</w>
pozoru hodné</w>
pozd ě</w>
poku sit</w>
pochopi l</w>
po pravdě</w>
po kle
plá nování</w>
plast y</w>
perfek tní</w>
organi zací</w>
odpole dne</w>
o č
o ni
ně me
nh o</w>
ne exist
nazý vají</w>
navrh l</w>
na tá
na mal
mý šle
moř ské</w>
mi e</w>
le vé</w>
l ật</w>
krabi ce</w>
khi êm</w>
kancelá ři</w>
kancelá ře</w>
jaký koliv</w>
indi cké</w>
hrá či</w>
hi ến</w>
hack er</w>
ga ngu</w>
fos for
evolu ci</w>
dítě ti</w>
dva cet</w>
drá hy</w>
dr žel</w>
do r
de sát</w>
cu ộn</w>
ck o</w>
ch le
centr u</w>
ce stu
c ové</w>
bí lé</w>
a ri
Th ánh</w>
Tas mani
Sput nik</w>
Sa tur
S ha
N o
La den</w>
Interne tu</w>
Hu n
C H
B en</w>
An der
A nd
5 0.000</w>
živo tech</w>
šan ce</w>
řa dí</w>
čá stech</w>
čen y</w>
úko ly</w>
ê n.</w>
á ly</w>
zábě ry</w>
zpě tnou</w>
zneu ží
znalo stí</w>
znak y</w>
zku sili</w>
zji štění</w>
zby tku</w>
zač ní</w>
za pá
z kla
vị nh</w>
vů dce</w>
vá za
vra cí</w>
vide oh
v ni
urči tém</w>
ukáz ka</w>
tu ộc</w>
tu ng</w>
tro u
trans paren
tr hy</w>
ti sku</w>
th ẩm</w>
th e
t we
t s
stro m</w>
ste re
st án</w>
soukro mí</w>
sk lon</w>
se stro
s ứ</w>
s ové</w>
roz dělení</w>
rost la</w>
rodi n</w>
razi la</w>
ra j
půvo dně</w>
příj my</w>
pří pady</w>
pěk né</w>
produk tů</w>
potřeb oval</w>
po vědomí</w>
po stavy</w>
po ptá
po blíž</w>
plá ny</w>
piz za</w>
pa ní</w>
p an</w>
osob nosti</w>
od pad</w>
o sud</w>
o su
o slov
nádher ný</w>
ná zev</w>
nu kle
nezby tné</w>
nejlep ším</w>
nej důležitě
ne stalo</w>
ne r</w>
ne lze</w>
ne gie</w>
na posle
n ům</w>
n ského</w>
mo tor</w>
mlu víte</w>
me r</w>
ma sa</w>
m ấu</w>
lu jeme</w>
lid sko
l ưng</w>
l ly</w>
komuni ta</w>
kole k
ko ste
klí čem</w>
kdy koli</w>
kd eko
kapi to
je š</w>
in ch</w>
hu ma
hla si
h ři
fyzi cky</w>
er ra</w>
e ti
e m
dělá š</w>
děku jeme</w>
do mo
do dnes</w>
dne me</w>
deta il
de ká
d ứt</w>
cho d
cen ti
bướ m</w>
bě ží</w>
bra tr
bi e</w>
ač koli</w>
auto maticky</w>
au tě</w>
aktivi ty</w>
a né</w>
a da
U S
Phi li
Jos hu
J ak</w>
In do
I I</w>
H ải</w>
Faceboo ku</w>
Car negie</w>
3 6</w>
3 0
1 2
ží cí</w>
č nosti</w>
zele ná</w>
zdá n
za vo
za s</w>
vyví jí</w>
vo d
ven é</w>
v ém</w>
v pravo</w>
u kon
té matu</w>
tri k</w>
tr àn</w>
tr v
tion al</w>
tera pie</w>
telefo ny</w>
tele fon
t ựu</w>
stra na</w>
spolu pracov
sou č
sledov al</w>
sedě t</w>
schop ní</w>
schizo fre
samo u</w>
s ẹo</w>
s ma
s hroma
ru ka</w>
rela tivně</w>
reag ovat</w>
re fle
r nou</w>
r ala</w>
příležito stí</w>
přemýšle jte</w>
překva pen
představi vost</w>
před lo
pí sku</w>
py rami
potře bu</w>
posu d</w>
posl ali</w>
politi ce</w>
pokou še
poh ř
poci tu</w>
po vědět</w>
po tá
po si
po cháze
pi ano</w>
pe ň</w>
pe ch</w>
pa radi
ov ol
ot ře
ohro m
ohle dech</w>
od sud</w>
o š
ně t</w>
ně l
ná růst</w>
nech ala</w>
ne dá</w>
naslou chání</w>
na psala</w>
na no</w>
n ắng</w>
myšlen ce</w>
mo n</w>
mi lovat</w>
mezi tím</w>
meto da</w>
matemati ku</w>
ma min
liv ý</w>
lid ském</w>
li cen
letě l</w>
le va</w>
le n
l ại.</w>
krabi ci</w>
inte g
institu ce</w>
infor m
hy per
hroz ně</w>
ho ry</w>
fot ka</w>
fi al
elektri cký</w>
e ro
dů stoj
drá hu</w>
dru hem</w>
do posud</w>
do jem</w>
digi tá
di ri
co u
ch ạp</w>
cen tů</w>
br ali</w>
bakte rií</w>
b ắp</w>
apli kaci</w>
a d</w>
T ony</w>
Sy lvi
Ros ling</w>
Pr in
Pa ří
Ki ng</w>
E d
Bo ha</w>
Amaz on</w>
A hoj</w>
3 1</w>
20 12</w>
špi na
š ka
řek něte</w>
čet la</w>
zákla dy</w>
zákla dních</w>
zá važ
zu by</w>
z ve
x y</w>
výsled ku</w>
vý da
vyprávě ní</w>
vy vá
vy vi
vy le
vlast nictví</w>
vi ce</w>
va y</w>
v ší
v sa
v ních</w>
tře tí
tě ho
tvr dě</w>
tu dí
tudí ž</w>
tradi ce</w>
th er
tal í
takov ém</w>
t krát</w>
stu pují</w>
stov ek</w>
sti ckých</w>
stav bu</w>
sta nice</w>
st ůl</w>
slu že
sk en
shroma žď
sedě la</w>
sate li
sa me
s dě
rá nu</w>
ry bá
rozu mím</w>
ra zí
r ập</w>
příto mnost</w>
pří bu
přin ést</w>
při roze
předví da
pu ber
ptá ci</w>
prospě ch</w>
poško zení</w>
poč tem</w>
posu nout</w>
posta vení</w>
posled ním</w>
pe vně</w>
paradi g
p ti
otevře né</w>
okol ností</w>
objek t</w>
náše jí</w>
náro čné</w>
nu ly</w>
no te
ng ài</w>
navš tě
my š</w>
musí š</w>
milu ju</w>
milov al</w>
metafo ra</w>
men tu</w>
matemati ce</w>
m ươi</w>
lov ali</w>
lo ká
kra ji
kov ým</w>
kou pili</w>
kontak tu</w>
konstruk ce</w>
konkré tně</w>
kla d</w>
kdeko li</w>
ka be
ji mi</w>
jazy ků</w>
intenzi vní</w>
instin k
h uyền</w>
gi ặt</w>
geneti cky</w>
g he
fot ku</w>
fil tr
emo cionální</w>
elek tři
ele gan
důvě ru</w>
dospě lí</w>
dobrodruž ství</w>
depre se</w>
data bá
chí p</w>
chova jí</w>
ch âm</w>
cen t</w>
c y</w>
bě že
bá sní
bu ďte</w>
biologi cké</w>
bezpeč nostní</w>
bar va</w>
b ru
b oru</w>
b al</w>
abstr ak
Washing tonu</w>
Jose ph</w>
Haw king</w>
G al
D ou
D onne
C u
Bosto n</w>
10 .000</w>
1 6
ử ng</w>
šťast nější</w>
šíle né</w>
đu ối</w>
čle nů</w>
ò m</w>
zů stane</w>
získ ala</w>
zákla d
zi i</w>
zaměstnan ci</w>
zalo žené</w>
z vá
x ám</w>
vědě ní</w>
váš ni
vytvoři ly</w>
vy sta
vy plý
vy dě
vu jeme</w>
vteři n</w>
vi o
veče ři</w>
v na
uhlí ku</w>
ty pů</w>
thu ẫn</w>
ta nu</w>
systé mem</w>
studi u</w>
studen tům</w>
strategi i</w>
sto le</w>
sla b
sk ro
sil nice</w>
s jedno
s ak
ru ko
rov no
ro pu</w>
restau race</w>
ra cionální</w>
r ửa</w>
r ễ</w>
pře vážně</w>
pád ně</w>
psychi a
pr ch
pozo rova
pou ští</w>
poku sím</w>
poko je</w>
podí vám</w>
podmí nkách</w>
po vede</w>
po to
po st
ph ím</w>
pe s</w>
p lou
ov ství</w>
ohro mný</w>
obyva tel
obliče j</w>
o se</w>
o mlou
návr há
ná vat</w>
ng ơi</w>
ne řekl</w>
ne nulov
na psali</w>
na jde</w>
n ó
mož ných</w>
milu jí</w>
mali č
ma sivní</w>
m âu</w>
krá su</w>
kru h</w>
ko má
klid ně</w>
každo pádně</w>
ka ční</w>
k ý
jin ému</w>
ji ž
j šího</w>
ho ả</w>
h no
gi ná
g ạt</w>
for mou</w>
fer en
fe r</w>
farmá ři</w>
f lu
entro py</w>
emo cí</w>
dět ské</w>
dé lka</w>
do dáv
de vil</w>
de ch
cí mu</w>
cuk rov
chytr ý</w>
cen i</w>
bu jí</w>
bra m
ber t</w>
be ní</w>
ban ky</w>
b át</w>
b ám</w>
b re
ali zova
a do
Willi am</w>
V al
T ri
Sta r
S tu
S al
N ếu</w>
Mi ni
M y
Jaze era</w>
He j</w>
C en
C an
B a</w>
A la
ợ t</w>
ẳ m</w>
žen ám</w>
ť me</w>
řek neme</w>
ře těz
čist ě</w>
če lí</w>
ú c
ù m</w>
zákla dem</w>
zvu kem</w>
zprá v</w>
zn ak</w>
zdra vější</w>
za žít</w>
za stav
z účast
z ru
vět ším</w>
vět ví</w>
více méně</w>
vá ny</w>
vzor y</w>
vyše tř
vyrá bí</w>
vy mě
vlast ností</w>
ven ce</w>
uči l</w>
um ře
u kra
tvůr ci</w>
tvr dím</w>
troj rozměr
tr ục</w>
tr ân</w>
tr uyện</w>
to to
to ale
th ẳm</w>
tex t</w>
te sty</w>
ta m
t ần</w>
svěd ky</w>
stár nutí</w>
sti ckou</w>
stej ném</w>
staro sti</w>
sou bor</w>
skle ní
sk ů</w>
sk lo
sch é
rů ž
roz děle
rov nou</w>
ri zon
ri ng</w>
ra tivní</w>
při nejmenším</w>
předví dat</w>
předsta vil</w>
přednáš ka</w>
pře kro
pře jít</w>
pís ni
pád em</w>
pro šel</w>
pro poj
princi pu</w>
pouh ým</w>
posto j</w>
pokro či
pohle dem</w>
ph ẳng</w>
oš kli
ovlá dání</w>
ote st
organi zova
oly mpi
ob lé
náše t</w>
nádo r</w>
ná hra
no hama</w>
ni í</w>
ni komu</w>
ng ập</w>
největ ším</w>
ne obyčej
ne líbí</w>
naži vu</w>
nada ce</w>
na šemu</w>
n ská</w>
mo du
mo ckrát</w>
miliar da</w>
mi se</w>
metr y</w>
me ze
ma je
m bu
ly n</w>
lu jící</w>
kro ky</w>
kr ve</w>
kon zerva
ko t
každo den
k en
ji stí</w>
interak ce</w>
hodno t</w>
ho rizon
hi st
glob álního</w>
galaxi í</w>
g ánh</w>
er ů</w>
e ni
dí t</w>
douf á
domov </w>
domi nan
de tekto
de me</w>
da ty</w>
da t.</w>
d vi
cu jí</w>
chází te</w>
chu ộng</w>
ch é</w>
cen o</w>
byzny s</w>
brá ní</w>
bro je
bi t
ba ví</w>
atmosfé ry</w>
as u</w>
ameri cký</w>
Tal k</w>
S ĩ</w>
P ri
P re
Londý ně</w>
Dani el</w>
Che ryl</w>
Char lie</w>
C as
B M</w>
Asi e</w>
Afri ku</w>
5 0
20 30</w>
ẽ n</w>
ẫ y</w>
ượ c.</w>
žen ím</w>
žele z
Ř e
ň uji</w>
ň oval</w>
č kami</w>
Írá nu</w>
zába v
zá zrak
zá ch
zprac ová
změ řit</w>
zdán livě</w>
zapoje ní</w>
zaměst nání</w>
zajíma vého</w>
zabý vá</w>
z da
z al
vý bu
vz ru
vyzkouše t</w>
vy čer
vy mysleli</w>
vy hrál</w>
vlák na</w>
veřej nosti</w>
vezmě me</w>
vede me</w>
ve čí
v òm</w>
v àn</w>
uživa telů</w>
ur ba
univerzi tu</w>
uli cích</w>
tá me</w>
tr ôi</w>
tr vat</w>
tov ala</w>
to p</w>
th áp</w>
ta r
t ạng</w>
t ské</w>
svět ových</w>
strá vila</w>
stave b
st né</w>
sou d</w>
skupi nou</w>
sekto ru</w>
s ple
s mem</w>
s cen
reali tou</w>
re kor
re d
půvo d</w>
pří ště</w>
při ja
píš u</w>
průměr né</w>
produk ovat</w>
pro šli</w>
pro sto
pro fi
pre dá
prakti cky</w>
pos lu
politi ckých</w>
poje tí</w>
po kr
p lní</w>
otáz ce</w>
os ví
ori giná
open- source</w>
odha d</w>
o ře
o li
nov al</w>
note boo
ni čí</w>
nh ặt</w>
ngh ẽn</w>
ng ủi</w>
ne mohu</w>
na je
na dále</w>
n ản</w>
n ý
mí ra</w>
má lně</w>
my ši</w>
mu zi
mimořád ně</w>
ma tku</w>
ma i
lé to</w>
lá skou</w>
lov ých</w>
lo ž
li ều</w>
leh ce</w>
kyslí k</w>
kon če
kmen ové</w>
je v</w>
in du
ho ub
hmy zu</w>
hla d</w>
h ải</w>
fotografi i</w>
exist enci</w>
dži há
dě lo</w>
dé lku</w>
drá ze</w>
dola ry</w>
dola r</w>
dokáz ala</w>
dneš ních</w>
d s</w>
ci z
chy bu</w>
chlap ci</w>
bě ji</w>
budov </w>
bor y</w>
be ru</w>
b ớt</w>
auto r</w>
ale ní</w>
al koho
a si
Tasmani an</w>
Nobe l</w>
Ng hệ</w>
Na no
K al
Ji m</w>
H er
Gu i
G lob
Fre e
Donne lly</w>
Don al
C ol
B C</w>
A ch</w>
A be
ž ší</w>
đ ược.</w>
đ ài</w>
čt ver
č ující</w>
č tě
č ků</w>
zn al</w>
zd át</w>
zač něme</w>
zalo žil</w>
za žili</w>
z větš
z přístup
z pochyb
z ol
z ní
z bý
vá ží</w>
vyš lo</w>
vypad ala</w>
vyjád ření</w>
vy pl
vy jedná
vlá dě</w>
vlá dou</w>
vlast nost</w>
vi ry</w>
veš ke
urči tým</w>
urba ni
tý kající</w>
tí cí</w>
tu ra</w>
tu n</w>
tra gé
ti fi
tem né</w>
televi zní</w>
te s</w>
sy ste
strate gie</w>
ster stvo</w>
sta novi
st en
spá n
souč tem</w>
souvislo sti</w>
sou pe
sob e
sní žení</w>
sna žíte</w>
sestr y</w>
se da
sa m
s ơn</w>
s ova</w>
s ou</w>
rozší ření</w>
re du
r ný</w>
pří tele</w>
přita žli
připra vit</w>
překá žky</w>
pí seň</w>
průzku m</w>
pro vádí</w>
pro spe
prezen taci</w>
poč kat</w>
pouh ých</w>
pou š
potřeb né</w>
podpo ruje</w>
plý tvá
phi êu</w>
pacien tům</w>
opravdov ý</w>
omezen é</w>
od mí
o de</w>
ni s</w>
neu stá
ne dokáže</w>
ne chtěli</w>
naslou chat</w>
nak r
na razil</w>
n ků</w>
n alo
mys li
muse jí</w>
moleku l</w>
mo r
minu lost</w>
medicí ny</w>
m ồ</w>
m pe
lí p</w>
léč ba</w>
lá tku</w>
kone c
khuy nh</w>
kama rád</w>
k ịp</w>
jmen oval</w>
jedno mu</w>
je ze
inova cí</w>
infra strukturu</w>
hroz i
hmo tnost</w>
hledi ště</w>
hla su</w>
gi am</w>
fyzi ka</w>
fil m
fenomé n</w>
et na
en vi
ekonomi ckého</w>
ekono mové</w>
du chu</w>
dr o</w>
dovo lí</w>
dokonal é</w>
do jít</w>
do ho
di č
d lu</w>
chá pu</w>
ch úa</w>
ce nou</w>
c ược</w>
c u</w>
bu m</w>
boha té</w>
bare v</w>
ba seb
as y</w>
ano ny
a pa
Z im
V en
Th ật</w>
R .
Pro č</w>
Paci fi
Leonar do</w>
Ko ngre
K le
K ar
I sla
H y
Gi ai</w>
F O
Bron x</w>
B I</w>
Ar thu
Ali ce</w>
A no</w>
5 000</w>
že nami</w>
šé f
špat nou</w>
šen á</w>
ř ský</w>
úspěš ný</w>
úhe l
úh lu</w>
zů sta
závě ru</w>
záko na</w>
zábě r</w>
znepoko j
zmen š
zku sil</w>
ze ch</w>
zd rá
zbra ň</w>
zavol al</w>
zak ři
z važ
z ku</w>
vý šky</w>
ví ru</w>
vzor ec</w>
vyso ká</w>
vti p</w>
vrá tíme</w>
vi zi</w>
vi den
veřej ných</w>
v ích</w>
v ním</w>
u ši</w>
tu ỷ</w>
tr žní</w>
tká ní</w>
th ịnh</w>
ter énu</w>
tel u</w>
t cích</w>
stu povat</w>
strá vili</w>
sto py</w>
spo dní</w>
soutě ž</w>
sestr a</w>
sedě li</w>
se ver
sa s</w>
s ung</w>
s né</w>
rozsa hu</w>
roz po
rodi nou</w>
robo ti
ran d</w>
rakov inou</w>
r ty</w>
při vést</w>
přesvěd či
předsta vili</w>
předná šek</w>
před vádě
před su
před klá
před em</w>
py l</w>
ptá m</w>
proce sy</w>
preziden t</w>
prezen tace</w>
prav dou</w>
počíta t</w>
poslou chá
pomá h
poku sy</w>
poko ji</w>
po vedlo</w>
po vali</w>
po sklá
pa st
p ý
p uje</w>
os fé
or di
odhal uje</w>
od chy
ochot ni</w>
objev ují</w>
obje v</w>
ně čí</w>
ně ho</w>
ngh iệt</w>
ne vě
ne vi
ne skutečně</w>
ne dokážeme</w>
naznač uje</w>
na hlí
n ợ</w>
měří tko</w>
modr á</w>
mno ut</w>
mimo zem
me d
ma rato
m ak
léč by</w>
li ny</w>
li ng
l ệnh</w>
l ními</w>
kře sť
kvali tní</w>
konkur en
konec konců</w>
klid u</w>
ka ch
k la</w>
jí c</w>
jedin ého</w>
jaký koli</w>
j děte</w>
inova ci</w>
hodno tit</w>
ho ř
hlubo ké</w>
hlou běji</w>
hla va</w>
he mi
h ne</w>
grafi e</w>
gene tické</w>
g u</w>
for em</w>
extré mní</w>
důvě ry</w>
dět skou</w>
děku ju</w>
dě l</w>
dva ceti</w>
dra h
do lí</w>
dis ci
cí tě
cy klu
ci zí</w>
chu dí</w>
chlap ce</w>
che jte</w>
ch ý</w>
cest ování</w>
cel ku</w>
bakte ri
b li</w>
ato mů</w>
ato my</w>
ameri ckého</w>
V iệt</w>
Steph en</w>
PT CH
Ox ford</w>
Mar su</w>
H C</w>
Ge o
F o
E M</w>
CA PTCH
Bri an</w>
B ur
Abra ham</w>
5 5</w>
19 75</w>
špat ným</w>
špat ného</w>
řík e
ří dil</w>
ře ky</w>
č o
zákon ů</w>
zá stup
změ nou</w>
zmi zí</w>
zen i</w>
zak lada
za br
za bere</w>
z řejmé</w>
z ky</w>
z hu
všu dy
vši mnout</w>
vše obec
výraz ně</w>
výho du</w>
vý raz</w>
vá hu</w>
vzni ku</w>
vytvo říte</w>
vysí la
vyrost l</w>
vynále z
vynalez l</w>
vy pí
vy hnout</w>
v ší</w>
v òi</w>
uvědo movat</w>
u věřit</w>
tý mem</w>
tvůr čí</w>
tvo říme</w>
tr ži
thi êng</w>
th ăng</w>
th a</w>
t t</w>
t ného</w>
t kou</w>
sé rie</w>
stre ss</w>
stej ného</w>
smě r</w>
složi tý</w>
skon čit</w>
sen dvi
sekto r</w>
sch vá
sa t</w>
s ý
ro č
radi kální</w>
r ó
pří tel
při způsob
přes né</w>
prů kop
provádě t</w>
prou du</w>
pozor ujeme</w>
pozná te</w>
považ uji</w>
pat ch</w>
pali vo</w>
ostrov </w>
o ži
o heň</w>
nov o
nej </w>
ne potřebujeme</w>
ne musím</w>
nazv ali</w>
napsá no</w>
nabí dnout</w>
na stou
na cházejí</w>
moleku lární</w>
logi cky</w>
li ne
ledov ce</w>
le tého</w>
lan du</w>
kombi nace</w>
ko le</w>
klo bou
kame ru</w>
ka pe
k vět
k vá
jí dle</w>
jist ém</w>
jez dit</w>
jaz z</w>
jak si</w>
islá m
inteligen tní</w>
ini ci
in zu
hra ni
hez ké</w>
hemi sfé
gol f
gi ãn</w>
fale š
epidemi e</w>
e u
děsi vé</w>
dí vají</w>
dá vám</w>
dospě lých</w>
dospě lé</w>
dom ova</w>
dom ně
dob </w>
desá ti</w>
chy tří</w>
ch óc</w>
bo li
bezpeč nosti</w>
algorit my</w>
abso l
Vin ci</w>
Sylvi a</w>
S R</w>
Po dí
N a</w>
M al
J ane</w>
E u
Co chra
Chi le</w>
CAPTCH A</w>
B la
A le</w>
3 8</w>
19 4
10 0
0 ,
ướ t</w>
že te</w>
š ce</w>
ře ním</w>
đ ặn</w>
čí cí</w>
čá ra</w>
čty ři
čte te</w>
či sté</w>
či nění</w>
čer venou</w>
če kají</w>
ú ře
zů stal</w>
zása dně</w>
zvyk lí</w>
zra nění</w>
způsobi t</w>
zouf al
zná mky</w>
ze c</w>
za dar
zadar mo</w>
y e
x í</w>
větr u</w>
vzpome ňte</w>
vyu žili</w>
vysvět lil</w>
vyrů stal</w>
vybr al</w>
vra ťme</w>
vol bu</w>
veřej ného</w>
ved lejší</w>
v ần</w>
uy nh</w>
univerzá lní</w>
uděl alo</w>
třetí ho</w>
tě lem</w>
trans forma
tr ộm</w>
tisí ců</w>
terori smu</w>
ta ri
t řit</w>
syn te
su n
stá la</w>
studov ali</w>
stu peň</w>
stave bní</w>
sta va</w>
softwar u</w>
sezna mu</w>
sdí líme</w>
rozto mi
rozsa h</w>
reag uje</w>
radi ká
r ỗng</w>
r ỗi</w>
přemýšle la</w>
překvapi vé</w>
představi vosti</w>
prá v</w>
prou d</w>
propoje né</w>
produ kuje</w>
pro vedl</w>
požád ali</w>
použi jeme</w>
posled ního</w>
politi ci</w>
podmí nek</w>
phi ến</w>
par la
pad la</w>
pa dají</w>
organis my</w>
onemoc nění</w>
omlou vám</w>
od hod
obsa hují</w>
obje vily</w>
ob zvlášť</w>
no sit</w>
no si
ne čeka
ne zná
ne potřebujete</w>
ne měly</w>
ne chcete</w>
n ali
moudro sti</w>
mo č
mimin ka</w>
mi li</w>
mechani smus</w>
m ến</w>
li na</w>
leta del</w>
leg ální</w>
le tá</w>
kře h
ká vu</w>
kou le</w>
kor po
konflik tu</w>
klu ci</w>
kh éo</w>
jí zd
jed li</w>
in su
ilu ze</w>
identi tu</w>
ide o
hroma dě</w>
hra čky</w>
hist or
haluci nace</w>
h ạch</w>
h uynh</w>
h ové</w>
ge ni
fanta stické</w>
en ím</w>
důleži tým</w>
dá no</w>
dovo le
doprav y</w>
do spí
di vné</w>
di e
da řilo</w>
d ược</w>
ch vá
ch an
bí me</w>
budov u</w>
bi n
auto no
au tem</w>
armá da</w>
anglič tiny</w>
ag re
a jí</w>
You tu
Tr iều</w>
T ư</w>
T ran
Ro mo</w>
O ly
Nano patch</w>
Mar y</w>
G ra
FO X
F er
D el
Cochra ne</w>
C lin
Bron xu</w>
Bo že</w>
A ha</w>
ụ n</w>
ề u.</w>
ži ví</w>
Ž i
ši f
ře né</w>
člá nky</w>
ú chva
získá me</w>
ztrá cí</w>
zpí vat</w>
zmí nit</w>
zajíma vou</w>
y o
y ho</w>
web ové</w>
věři l</w>
věde cký</w>
výjim kou</w>
výcho dě</w>
vzájem né</w>
vznik nout</w>
vznik la</w>
vy stře
vy spě
vrá tím</w>
vní má
vidě ní</w>
uživa tel
uměl ci</w>
u plynu
u kaza
tě l</w>
tr u</w>
ti cho</w>
th ốn</w>
teplo tu</w>
t le</w>
st vu</w>
spoust ě</w>
společen ských</w>
soukro mé</w>
so ạn</w>
sko k</w>
sk ří
sil nou</w>
si ty</w>
sel há
se ni
ry b</w>
rozdě lit</w>
roz sví
rová n</w>
rovnová hu</w>
rov ná</w>
reak cí</w>
příj mu</w>
překva pující</w>
předcho zí</w>
př .</w>
ptá ků</w>
průměr ná</w>
procen tní</w>
pro té
pro mí
pri mi
pr ak
považ ujeme</w>
potí že</w>
postup y</w>
posl al</w>
polov iny</w>
podsta tou</w>
po ji
pli c</w>
ph ô</w>
para do
ova ného</w>
ov o</w>
ov lada
okra ji</w>
ohro mně</w>
ohro mnou</w>
odo l
odhali t</w>
ode jít</w>
od kaz
obo ha
oblíben ých</w>
ob rny</w>
o kouz
ně ná</w>
následu je</w>
ng ây</w>
neuvěři telný</w>
nes mysl
nená vi
nej menší</w>
ne š</w>
ne š
ne vidíme</w>
ne to
ne souhla
ne dělá</w>
na vi
na neštěstí</w>
mě jší</w>
moc ný</w>
mo no
množ stvím</w>
mlá ď
mikro by</w>
mi l
man žel</w>
m ala</w>
lí k</w>
lá sce</w>
logi cký</w>
li b
les k</w>
lep šímu</w>
le vné</w>
la m
la de
kyber -
ku ři
ku kuři
krát ko
klí č</w>
kho an</w>
k nutí</w>
jád ro</w>
jist otu</w>
jedin ci</w>
jedin ce</w>
jazy ce</w>
jakou koliv</w>
inžený r</w>
institu cí</w>
inst al
i Pa
hu mani
ho tov
ho re
hmo tnosti</w>
hle dá</w>
gra vita
g á
fo n</w>
fil m.</w>
fi k
emi se</w>
dovo luje</w>
deví ti</w>
dce ry</w>
dan á</w>
cest ovat</w>
c ra
by t</w>
burg h</w>
boj ov
bi lo</w>
ber g</w>
ba mbu
b ali
armá dy</w>
ali zaci</w>
ab sur
a r</w>
Youtu be</w>
V iện</w>
Ugan da</w>
Stan ford</w>
S au
S M
R G</w>
Pale stin
P al
Ni gé
Mur ray</w>
Microsof t</w>
Mi s
Mi ke</w>
Manhat tan</w>
Lu ther</w>
J or
J ak
G il
E le
D .
Ameri čané</w>
A m
199 8</w>
198 4</w>
život ním</w>
ž kou</w>
šťast né</w>
š te</w>
ředi tel</w>
ře ší</w>
ček al</w>
účin ky</w>
úče l</w>
úsmě v</w>
ú dolí</w>
á ty</w>
Írá n</w>
záži tky</w>
závislo st</w>
zmá č
zkou šky</w>
zaměstnan ců</w>
zahrani ční</w>
za dní</w>
z lé</w>
věde ckých</w>
vě dce</w>
vče l</w>
vý ra
ví no</w>
vá lek</w>
vza du</w>
vytvo říme</w>
vyro bili</w>
vy tisk
vy dat</w>
vojá ků</w>
vojá ci</w>
vlák en</w>
ver sus</w>
ve se
va ření</w>
v liv
v hodné</w>
ur čuje</w>
umí stit</w>
u to
u prch
u jte</w>
tě sně</w>
té mu</w>
tru bi
to ra</w>
ti nou</w>
teč ní</w>
tel ka</w>
stě ž
stá di
stra vování</w>
sta di
sta bilní</w>
st ka</w>
součas ný</w>
sou du</w>
sou dce</w>
so na</w>
služe b</w>
slov em</w>
sklad by</w>
sk i
sil nici</w>
sa mých</w>
sa har
ruka ma</w>
ro dí</w>
regi onu</w>
re publi
r é
r ním</w>
pů jdete</w>
příči nou</w>
přítom nosti</w>
přizpůsobi t</w>
přines l</w>
před vádí</w>
pře de</w>
prostře dek</w>
promě n
pro mluvit</w>
prav ý</w>
pracu jete</w>
potřeb ovala</w>
potře b</w>
polo žil</w>
poje m</w>
podob ná</w>
pod stou
po str
po myslela</w>
po in
plane t</w>
os mi
obyva tele</w>
ob al
o tra
ná vy
ná hodně</w>
nukle ární</w>
novi nách</w>
ni ku</w>
nhiễ u</w>
nhi ều.</w>
nejs il
nej nov
nej bliž
ne existují</w>
ne ander
naje vo</w>
na program
na mí
n kou</w>
mě k
mí me</w>
myslí š</w>
mysle m</w>
mode lů</w>
mo ři</w>
miliar du</w>
matemati cké</w>
mal ými</w>
ma ri
m koli</w>
lé o</w>
li êng</w>
le tos</w>
lad é
kẹ o</w>
ká zání</w>
kvali ta</w>
kone k
kon trover
kon cen
koleg ové</w>
ka vá
k ne</w>
jmen uji</w>
ji nam</w>
jednoduch ou</w>
jaký si</w>
jak koliv</w>
interak ci</w>
informa cím</w>
in struk
im pul
i s</w>
homo sexuální</w>
ho lka</w>
hmo tu</w>
hma ta
he slo</w>
hambur ger</w>
h ří
gravi tace</w>
gene rací</w>
fo tek</w>
exponen ci
en á
eko systém</w>
dů chodu</w>
dí vek</w>
dosáh ne</w>
dost aly</w>
disku ze</w>
ci fer
chu a</w>
ch ôn</w>
ch ová</w>
by tost</w>
boj ují</w>
bez domov
au ti
ameri cká</w>
ad re
a tom
a stero
a ce</w>
W hi
V ì</w>
To m</w>
T ha
T ak
Si erra</w>
Ro z
Ma hmo
Lin col
Li za</w>
K en</w>
K am
Jona than</w>
I N
I M
Flori da</w>
Eri c</w>
E li
C N
B onne
Ander son</w>
6 4</w>
5 8</w>
1 1.</w>
žá rov
žen i</w>
že li</w>
ž ova
šťast ná</w>
šo kující</w>
šimpan zi</w>
Švéd sko</w>
Š a
úspěš ně</w>
ú čet</w>
zva né</w>
ztra til</w>
zna čně</w>
zn ali</w>
zlo činu</w>
zkou šíme</w>
zen ých</w>
zdro ji</w>
za há
za bezpe
z mate
z bývá</w>
x ít</w>
web si
websi te</w>
všech nu</w>
výko n</w>
vzdělá va
vypa daly</w>
vyni kající</w>
vy nalé
vy myslel</w>
vozí k</w>
vi zi
ver b
ven ý</w>
va řit</w>
v ụn</w>
v ở</w>
v ịt</w>
v ượng</w>
uměle cké</w>
uměl ce</w>
umož nit</w>
ukáz ku</w>
uk lá
uhlí k</w>
uděle jte</w>
udrži telné</w>
u cho
tře tím</w>
tý kají</w>
tý dně</w>
trá ví</w>
tr án</w>
tole ran
tlačí tko</w>
tl ak
titu l</w>
teč ky</w>
test ování</w>
technologi cké</w>
t ịch</w>
t ón</w>
t ti</w>
sí d
syndro m</w>
sy metri
strá vit</w>
str ý
spoj ují</w>
sp át</w>
souvi se
sk vr
sho w</w>
sekun dy</w>
seh nat</w>
schop ny</w>
samot ná</w>
sa mém</w>
rozví jet</w>
ro ční</w>
rip t</w>
regi str
re mi
radi o
r ního</w>
qu ê</w>
při šly</w>
přelo žit</w>
předpoklá dám</w>
před nost</w>
pře stěh
pře hrá
prů měr</w>
profesioná lní</w>
pravi dly</w>
prav a</w>
pr vot
poz nali</w>
považ ovat</w>
potřebu ju</w>
poku su</w>
podí vala</w>
po řízen
po mohlo</w>
po hromadě</w>
po cházejí</w>
pi í</w>
pe l
par ku</w>
očeká vat</w>
organi za
org án</w>
ope rací</w>
ohle dem</w>
oblíben é</w>
o ne
nu té</w>
ni čemu</w>
ni kde</w>
nevidi telné</w>
nejspí še</w>
nedosta tku</w>
ne stane</w>
ne ra
naz vat</w>
n cem</w>
muse lo</w>
mobi li
mlé ko</w>
men e</w>
lư ỡng</w>
lid ským</w>
le b
l li
l ak
ká zat</w>
ku předu</w>
krá sy</w>
konver zaci</w>
kontro ly</w>
koncen tra
komple tní</w>
kan di
k l</w>
k alo
jí ždě
jedin ců</w>
i zol
hu mo
hez ky</w>
ge ome
fir ma</w>
empa tie</w>
ekonomi ce</w>
dře vě
doz věděl</w>
desig né
demon str
dale ka</w>
d ování</w>
d ného</w>
co r
chá zení</w>
charakteri sti
buň kami</w>
brý le</w>
bra tr</w>
ba víme</w>
auto mati
apli kovat</w>
an tro
afri cké</w>
absolu tní</w>
Y ves</w>
X L</w>
V ě
S am</w>
Leo ne</w>
L ar
Japon sku</w>
G and
E din
E di
D ur
D en
Brazí lii</w>
Bang ladé
B ảo</w>
Ang lii</w>
And rew</w>
A rab
9 0.</w>
1 30</w>
ả .</w>
žlu tá</w>
ži jících</w>
žen ě</w>
ž ce</w>
še n</w>
ři ly</w>
ře k</w>
ň me</w>
čí sle
čer v
čer nou</w>
če lit</w>
če ho
č na</w>
č kách</w>
úře d
získá vají</w>
zá dech</w>
zvlá dnout</w>
způsob ují</w>
zprac ování</w>
ze nou</w>
zasta ví</w>
zak on
zak lá
z mrz
z dají</w>
vždy ť</w>
vše mu</w>
výzv u</w>
výro by</w>
výbor ně</w>
vý car
ví ra</w>
vita min</w>
vesmí rem</w>
ve ge
umí me</w>
u š
u slyšíte</w>
u sa
u jícím</w>
u c
tu ri
tu re</w>
tu l
tová rny</w>
tká ň</w>
th ôi.</w>
th ính</w>
tel nými</w>
technologi emi</w>
svět le</w>
studi um</w>
studi o</w>
studi a</w>
stu du
star ších</w>
star ého</w>
st ale
spraved lnost</w>
sniž uje</w>
sklad bu</w>
se zná
s c
růz ná</w>
ráme c</w>
rozvo ji</w>
rozu mi
roz lu
rekla my</w>
re zist
re y</w>
přines la</w>
pře vra
pře ru
pře kon
ptá te</w>
prostřed ků</w>
pro veden
pro dat</w>
pracu jící</w>
pracov ních</w>
požá dat</w>
potk ala</w>
poku sů</w>
pohá ní</w>
podsta tné</w>
podsta ta</w>
pobí dky</w>
po vání</w>
po st</w>
po lé
po chyby</w>
ply n</w>
plane tá
pamatu jte</w>
pad ne</w>
pad lo</w>
pa dá
ox y</w>
ova ně</w>
opravdov á</w>
on ali
odpo věděli</w>
odmě nu</w>
od lo
od kaz</w>
obě d</w>
obcho dě</w>
ob ý
o ka</w>
o fi
nou cí</w>
ngh a
neu tr
nejrůz nější</w>
nejoblíben ější</w>
ne říkám</w>
ne ú
ne zvlá
ne vědí</w>
ne vypadá</w>
ne vidí</w>
ne stojí</w>
na pravit</w>
měst ských</w>
mrt vé</w>
mou chy</w>
mobi l</w>
mla dá</w>
mini málně</w>
mi ze
me d</w>
mal í</w>
ma č
ma nu
lá tka</w>
lov ou</w>
l ùng</w>
l ích</w>
kvan tové</w>
kreativi ty</w>
kre v</w>
kre slí
kov ala</w>
kh ôi</w>
každo denní</w>
kamen y</w>
jednotliv ce</w>
j ně</w>
j ar
in kou
i p
hov ala</w>
ho rní</w>
hla dově
geome tri
gen e</w>
fak tory</w>
důkaz ů</w>
dáv ala</w>
dvoj násob
dokon ale</w>
dimen ze</w>
di le
da ň
d ơi</w>
cítě ní</w>
cov ství</w>
chystá m</w>
ch ớp</w>
ch ìm</w>
bo t</w>
bezpe čně</w>
be zdrá
b ot
argumen t</w>
apli kací</w>
al and</w>
Ze aland</w>
Univer sity</w>
SO PA</w>
R ay</w>
Prin ce
Oly mpi
Něme cku</w>
Ne l
Ne j
Mon ta
Mc Donal
Mahmo ud</w>
M t</w>
Ki m</w>
Ken i</w>
Joshu a</w>
Je ží
Japon sko</w>
Ho mo</w>
He le</w>
H il
Glob al</w>
FOX O</w>
E ar
De re
Chi ến</w>
Be e
B on
Alzheime r</w>
Ale x
A s
6 0
20 20</w>
1 40</w>
# </w>
ế ch</w>
že h
šir ší</w>
ř ská</w>
đu ôi</w>
úhe l</w>
ú mr
zách ran
ztrá ty</w>
zla té</w>
zkouše li</w>
zen o</w>
zabrá nit</w>
za star
za ru
z po
war e</w>
všim nete</w>
vě ty</w>
vě ta</w>
význa mné</w>
výzkum níci</w>
vý stav
vz dát</w>
vyso ký</w>
vy lé
vole b</w>
vojen ské</w>
vo stí</w>
vní máme</w>
videoh ry</w>
ve terá
vaz by</w>
v nou
uvědo míte</w>
uskuteč nit</w>
urči tých</w>
uli c</w>
u y</w>
u tváře
u s
těž ká</w>
tý dnu</w>
tá bo
typi cké</w>
toto ž
tomu hle</w>
tep lo</w>
sí ť
sva t
sub sahar
stá tě</w>
sto pu</w>
staro vě
st ou</w>
soukro mý</w>
slý chá
složi tost</w>
skuteč ností</w>
skon čím</w>
sk la</w>
situa cích</w>
sch ová
sa v
s vaz
rá na</w>
roz pozná
rekla mu</w>
ran ž
quy ên</w>
qu ỷ</w>
přes ný</w>
pře hlí
píše te</w>
prozkou mat</w>
prostře dím</w>
poče tní</w>
posí l
posky tují</w>
podí vá</w>
podsta tu</w>
podi vné</w>
po ta
po nor
po měr</w>
peč livě</w>
perfek tně</w>
pe vné</w>
pal ub
oz broje
ov u</w>
osa mě
ochra ny</w>
och r
ob jas
o tro
o po
nějak ém</w>
ně mi</w>
návr hu</w>
nástro jem</w>
no ty</w>
no sy</w>
ni cký</w>
neu mí</w>
neander tál
ne zaměstna
ne vin
ne ste
ne musel</w>
navští vil</w>
naposle dy</w>
nakre s
nabí ze
na př.</w>
motiva ce</w>
mobi lních</w>
mi lo
meta boli
ma ji
m ří
lé tě</w>
lár ním</w>
lá me</w>
lu xu
li í</w>
li ly</w>
leh ké</w>
le vnější</w>
la del
kou li</w>
kli en
ke jte</w>
kame rou</w>
kamará dy</w>
k ali</w>
jin dy</w>
jedno tku</w>
invest ovat</w>
inst ala
ime e</w>
hud bě</w>
hodi lo</w>
hlub ší</w>
h ắn</w>
h ít</w>
h ân</w>
gra s</w>
glob álním</w>
ge nom</w>
galaxi i</w>
funk cí</w>
fo ie</w>
fa nou
elektro magne
dá na</w>
du še</w>
doufá me</w>
dostá vat</w>
dobr o</w>
dneš ním</w>
dinosau ry</w>
d ỗ</w>
d hi
cé vy</w>
chytře jší</w>
chirur gi
ch ali</w>
ca c
c to
c m</w>
běž ný</w>
byd lení</w>
by tostí</w>
bu ji</w>
blí ží</w>
blá z
bi la</w>
bate rie</w>
bare v
a ta</w>
Wikipedi e</w>
Vý cho
Ste ven</w>
Scot land</w>
Ro ck
P ot
Na tional</w>
Mel lon</w>
Mar co</w>
Li ba
L ak
Ko ran</w>
Kalifor nie</w>
I BM</w>
H ou
H ong</w>
G race</w>
G ar
E x
E ti
Co lumbi
CN N</w>
Bang lade
B ot
A imee</w>
199 2</w>
1 /
ượ n</w>
ště né</w>
ří še</w>
đ ẻ</w>
čtvr ti</w>
či ni
čen ých</w>
ú č
ô -</w>
é n</w>
â ng.</w>
zů stala</w>
záj mů</w>
zá le
zved něte</w>
zved nout</w>
ztrá ta</w>
zpomal it</w>
zní t</w>
zná sil
zná m
změ níme</w>
zlo čin</w>
zku sím</w>
zdvoj násob
zapo j
zachy tit</w>
y e</w>
vě zd
význa mný</w>
vý voj
ví na</w>
váž ný</w>
vzor ců</w>
vznik ne</w>
využí váme</w>
vysvět lím</w>
vyprávě l</w>
vyhle dá
vy slov
vy lou
vozi dla</w>
vla j
vidí š</w>
video her</w>
vi na</w>
vi ci</w>
veške rou</w>
ve den</w>
v stup
u pra
u na
tr ž
tr au
ti v</w>
telefon ní</w>
t ma</w>
stru n</w>
stej ných</w>
standar dní</w>
sta víme</w>
sta jí</w>
spoust ou</w>
spotřeb ová
spo třeba</w>
soustře dě
služ bu</w>
sledu jeme</w>
skuteč ných</w>
sk li
se díte</w>
sbě ra
samot nou</w>
s se
s ran
s or
rá te</w>
rá n</w>
rych lý</w>
ru jeme</w>
rozhov ory</w>
roz poznat</w>
rova né</w>
re zo
rakov ině</w>
ra r
ra jící</w>
přátel ství</w>
při znat</w>
předná še
pře sou
pře hna
pěst ování</w>
py lu</w>
ptá ky</w>
promi ňte</w>
problé mům</w>
problé mech</w>
pro sta
pro dává</w>
počíta čem</w>
pozo rová
pozna tky</w>
použi jete</w>
pou hé</w>
poně tí</w>
pohod ě</w>
poe zie</w>
po li</w>
plýtvá ní</w>
plá n
p to
ov ému</w>
ot y
opa tření</w>
ohro ž
občan ské</w>
obi lí</w>
ob čané</w>
nádo ry</w>
nu jete</w>
ni ckých</w>
ngư </w>
ng ào</w>
nezapo me
nesmí te</w>
neobvyk lé</w>
nahra dit</w>
mož ný</w>
mi luje</w>
mi la</w>
meto du</w>
meta for
me ga
m ỡ</w>
m ọc</w>
m ệnh</w>
m ũ</w>
lo ň
leta dle</w>
laborato ř</w>
l ụ
l ùi</w>
ká vy</w>
krás ně</w>
krajin y</w>
korup ce</w>
kla dy</w>
kin s</w>
kapi tali
k i</w>
ji sto
jednoduch ým</w>
je jích</w>
ja cí</w>
inteligen ci</w>
inspi rovat</w>
inici a
imuni tní</w>
hlad inu</w>
he v</w>
har d
fyzi k</w>
finan cí</w>
fan tom
experimen tů</w>
en ý</w>
efek tivi
e d
dá ng</w>
du ší</w>
du ši</w>
druh ých</w>
dopa min
di ver
defi nici</w>
cuk ru</w>
cuk r</w>
c ưng</w>
bý val</w>
budouc na</w>
be ha
bal ó
ba rié
ani ma
angio gene
aktivi tu</w>
Západ ě</w>
Z ip
Z </w>
Wor ld</w>
Univer zi
Tu re
Ti m</w>
Podí vej</w>
O d
Ja ck</w>
J H</w>
I van</w>
H m</w>
E co
Di s
D í
D A</w>
Car l</w>
C onne
Banglade sh</w>
B ru
Ari sto
7 2</w>
4 3</w>
199 6</w>
199 4</w>
1 3
ži viny</w>
ž te</w>
škol ství</w>
ško dy</w>
řá d</w>
ř ských</w>
ř skou</w>
ř ky</w>
đ à</w>
č ném</w>
úžas ného</w>
úto ků</w>
úspě chy</w>
úmr tí</w>
ã nh</w>
zásob y</w>
záchra nu</w>
zved ne</w>
zku síme</w>
zastar al
zasta vili</w>
zapo jili</w>
zalo žili</w>
z ována</w>
z ovala</w>
z odpově
všudy přítom
vědo mi</w>
výcho d</w>
vzor ek</w>
vze stup</w>
vzdále né</w>
vyro bil</w>
vyplý vá</w>
vynále z</w>
vy šel</w>
vy ha
vy cháze
vu jící</w>
vra že
vr ste
vní ma
vi ru</w>
vi bra
venkov ě</w>
vel cí</w>
vari an
uči teli</w>
uvědo m
umož nil</w>
udá lostí</w>
u vidí</w>
těž ký</w>
téma tem</w>
tá mhle</w>
tréni n
troj úhel
tradi čních</w>
tr ừng</w>
tou hu</w>
toho hle</w>
tl aku</w>
teplo ta</w>
tem pem</w>
te e
tee na
t ân</w>
t mě</w>
t ali</w>
sá le</w>
symbo ly</w>
svobo da</w>
sv aly</w>
stá h
stup ně</w>
sti l</w>
stere oty
sta nov
sta nete</w>
st ně</w>
správ ným</w>
soci o
ská ní</w>
skvě lých</w>
skuteč ného</w>
sin i</w>
sekun du</w>
s ọ</w>
rozvo je</w>
rozho du
roz ta
rov a</w>
rodi či</w>
rake ty</w>
ra né</w>
půj du</w>
přá l</w>
při jel</w>
před se
před ní</w>
pře klá
psycho logové</w>
psa né</w>
práv ně</w>
proto typ</w>
pro boha</w>
pravdi vé</w>
prav y</w>
pra xi</w>
povr chem</w>
posto je</w>
poste li</w>
poste le</w>
poslou chejte</w>
popi su
poku sili</w>
poh ád
po mohla</w>
phi a</w>
partne ry</w>
part ner
par al
pamatu je</w>
pad l</w>
pa že</w>
pa to
oxi du</w>
ovo ce</w>
osvět lení</w>
osob ou</w>
optimi smu</w>
odva hu</w>
odpověd nost</w>
odliš ných</w>
obraz ů</w>
obo jí</w>
ní cí</w>
národ ů</w>
náro dy</w>
nákla ďá
ná chy
neto pý
nes li</w>
nerv ózní</w>
nepře trži
nenulov ým</w>
nej as
ne známe</w>
naz pět</w>
nalé ha
nale zení</w>
na jící</w>
na jdou</w>
na hlas</w>
měst ské</w>
mě ři
mí ře</w>
moz kových</w>
mo udr
milu jeme</w>
me lo
ma py</w>
m óng</w>
lí ků</w>
lí bit</w>
leti ště</w>
la s</w>
la r
l ấp</w>
kur z</w>
kreativi tu</w>
kou sku</w>
konstruk ci</w>
konflik t</w>
kompli kované</w>
komo di
ko str
je dete</w>
j a</w>
insu lin</w>
hy dro
hodi nách</w>
ho dit</w>
hi ếp</w>
h ře
h ôi</w>
gra mů</w>
gen u</w>
fá ze</w>
fir mu</w>
fak tor</w>
f e</w>
důleži tých</w>
děl aly</w>
ději nách</w>
dvo ji
dva cá
domní váme</w>
dob ách</w>
do cí
diri gen
di i</w>
dal šímu</w>
d ské</w>
cư ới</w>
cé v</w>
cyklu s</w>
chí n</w>
chtě lo</w>
che r</w>
ch ở</w>
ch á</w>
ch al</w>
ce lek</w>
bu ôn</w>
bu dovat</w>
bo že</w>
blíz ké</w>
ban ké
ba ti</w>
b ọc</w>
b o</w>
astro nomi
ang a
a bys</w>
Vel ký</w>
V âng</w>
Tan za
Ta ra
Sou th</w>
S pi
Pá ni</w>
P u
N e</w>
Mar s</w>
Man de
L á
L or
Kan sas</w>
K os
John ny</w>
Gand hi</w>
Columbi a</w>
Cla y</w>
Cas sini</w>
Ben ja
Archi e</w>
Ar du
A V</w>
9 9
5 2</w>
40 4</w>
198 6</w>
1 60</w>
ấ ng</w>
že lo</w>
že jí</w>
špa ge
š kr
Ša ngha
řek lo</w>
ř ům</w>
ř u</w>
čtvr té</w>
če st</w>
čas y</w>
ča j</w>
úžas ně</w>
úmrt nosti</w>
í n</w>
é r</w>
zázna my</w>
zna čné</w>
zločin ci</w>
zi mě</w>
zd r
zane d
zajíma vých</w>
za žil</w>
za vést</w>
za slouží</w>
za du</w>
z počátku</w>
z ka</w>
z daleka</w>
w e</w>
vědo mé</w>
výz vou</w>
výbě ru</w>
vý še</w>
vy budov
vesmí rné</w>
ven ím</w>
ve c</w>
va ná</w>
v nu
v klá
uží vají</w>
urči tá</w>
umě lé</w>
u žít</w>
u vést</w>
u viděl</w>
tvor bu</w>
trv ale</w>
tra p
tra gi
tov ého</w>
tov i
thi opi
th ắc</w>
th ov
teč ka</w>
ten krát</w>
te bou</w>
tane č
sí ti</w>
su re</w>
stře chy</w>
strá nkách</w>
struktu ře</w>
ste ri
sta rají</w>
sta nu</w>
sou dní</w>
sly šíme</w>
skvě lým</w>
skon čila</w>
sha hi
shahi di</w>
sekven ce</w>
různo ro
rozvoj ové</w>
roz počet</w>
rov alo</w>
rost l</w>
rodič ům</w>
recep t</w>
reag ují</w>
rea sure</w>
re gene
přírod ních</w>
příj mů</w>
přesvěd čen</w>
přemýš lí</w>
pře tr
pu m
prů lo
prozkou má
provo zu</w>
prou dí</w>
proje ktech</w>
produk tu</w>
produk tivní</w>
pro káz
pro jde</w>
pro dávají</w>
preziden ta</w>
počítač ový</w>
poz nal</w>
posu n</w>
por tré
poku sil</w>
pokrač oval</w>
poh ov
poh nout</w>
podpo ry</w>
po tom
po mohou</w>
pamatu ju</w>
oxi d</w>
ostr ově</w>
organi cké</w>
opravdov ou</w>
odpo ví</w>
od větví</w>
od pu
od leh
obrazov ky</w>
obra ny</w>
o di
nějak ých</w>
ně nou</w>
nápad em</w>
nákla dů</w>
ni čky</w>
nh ào</w>
neš tovi
nes ou</w>
nerv ové</w>
nej úžas
ne šlo</w>
ne příjem
ne jedná</w>
ne je
ne dává</w>
na stane</w>
na pětí</w>
n ấng</w>
n ů
n ét</w>
mé o</w>
mp ;</w>
motiva ci</w>
ma mi</w>
lụ a</w>
lá t</w>
lov á</w>
li nu</w>
lase r</w>
l ướt</w>
l ôi</w>
l alo
ká men</w>
kter ý
kter é
kon cem</w>
komuni kační</w>
kolo ni
klá st</w>
kh ẳng</w>
karié ry</w>
kapaci tu</w>
kame ra</w>
jednotliv ci</w>
jednoduch ých</w>
jaké si</w>
j mu
inžený ři</w>
intui tivní</w>
identi ty</w>
i r</w>
i ko
hy b
hra jeme</w>
hou by</w>
hodi ně</w>
hodi l</w>
hno ji
hla š
ha jící</w>
ha j
graf y</w>
ga ret</w>
g man</w>
fyzi ce</w>
fil mů</w>
dělá ní</w>
děj ství</w>
dě lo
dě de
dí l
dra žší</w>
dosa žení</w>
doprav a</w>
diver zi
di o
demokra ti
de sky</w>
dan ých</w>
d ải</w>
d âu</w>
d le
ci ty</w>
chápe me</w>
chu ť</w>
chrá ní</w>
cho rob
cho dili</w>
ch úc</w>
celo světové</w>
ce ti
ce st</w>
c tro
bro u
bo nac
beha vio
ba to
b ổ</w>
b lou
au tisti
ad mini
Wikipedi i</w>
Wi red</w>
Vi etna
V an</w>
U shahidi</w>
Th iên</w>
T reasure</w>
Sara h</w>
San ta</w>
Sa ha
Ru s
R N
New ton</w>
Mi chi
Lincol n</w>
L ang
Jef f</w>
Izra el
H am
Fi bonac
Evrop a</w>
E thiopi
E l</w>
E i
C ô</w>
C .</w>
Bee thov
B y
An tar
A my</w>
6 0.</w>
2 ,
19 45</w>
&a mp;</w>
žád á</w>
živoči chů</w>
ži dov
že me</w>
ž dění</w>
š t
ří dili</w>
řa dit</w>
ňa né</w>
đ ố</w>
đ i.</w>
Đ úng</w>
čí ho</w>
če muž</w>
časo pis</w>
úda jů</w>
õ ng</w>
zázna m</w>
zá chod</w>
zá c
zvláš tního</w>
zra el
zodpověd ný</w>
změ nám</w>
zkou má</w>
zji stí</w>
zdvoj násobi
zabý val</w>
za v
z ro
z kombi
x ăm</w>
x e
věde cká</w>
význa mu</w>
výrob ce</w>
výda je</w>
vý početní</w>
ví ken
vzni kají</w>
vze stupu</w>
vz dal
vyvinu ly</w>
vyvi nout</w>
vyrov nat</w>
vy či
vy no
vy jde</w>
vy dali</w>
vrá ny</w>
vede na</w>
v ứt</w>
v õng</w>
urči tého</w>
uni ká
ultra fial
uk lid
tře tina</w>
téma ta</w>
tvr dit</w>
tu le
tren d</w>
tre stu</w>
tr ượt</w>
tov ě</w>
to ri
to k</w>
ti ce</w>
tera pe
techni cky</w>
te ra</w>
t ạc</w>
systé mech</w>
symbo li
svěd kem</w>
stu d</w>
sti an</w>
spočí tat</w>
spoji li</w>
spek tra</w>
soused ství</w>
sním ků</w>
slov ník</w>
slou žit</w>
skry té</w>
ske pti
s ó
s pí</w>
s nů</w>
s .</w>
restau raci</w>
repor té
ra .</w>
qu í</w>
qu e</w>
příbu z
přirozen ý</w>
při lá
pře nosu</w>
pře nos
pře měnit</w>
pře dat</w>
pís ně</w>
pustí te</w>
pusti la</w>
ptá k</w>
propo jit</w>
proje vu</w>
pro zra
pre mi
prak tické</w>
pr vek</w>
počí tání</w>
povo lení</w>
považ ovali</w>
potenci ální</w>
por e</w>
polo žili</w>
poli ci
podpo řit</w>
podob u</w>
poci ť
po doby</w>
po c
ply ne</w>
pla v
pi rá
pi g
paradig ma</w>
par ale
opera ční</w>
odpo r</w>
och ran
obě tí</w>
obě ma</w>
objev uje</w>
obe cen
ob ot
o ranž
o pustil</w>
několi krát</w>
ně kterým</w>
ná la
no i
ni čení</w>
nes ná
nej starší</w>
nej hor
nechá me</w>
ne roz
ne děje</w>
naš tva
nazva ný</w>
narodi la</w>
na vá
mu je</w>
moudro st</w>
momen tálně</w>
momen tu</w>
moleku lu</w>
moleku la</w>
moder ního</w>
moc né</w>
mla dí
minu lého</w>
miliar dami</w>
mili on
mikro fon</w>
mikro bů</w>
lư ỡi</w>
lí ky</w>
lí cí</w>
lékař ské</w>
lov </w>
li vost</w>
li nky</w>
lek ci</w>
lap top</w>
l ều</w>
l nější</w>
l nímu</w>
kří dla</w>
kyber ne
kultu rou</w>
ku li
kre vní</w>
koře ny</w>
kov ém</w>
kov i
kouz lo</w>
kontex t</w>
kon domy</w>
komple xi
kh ói</w>
kategori e</w>
kapitá l</w>
kancelá ř</w>
k ẹp</w>
k li</w>
k ali
jedn alo</w>
je vi
jak ými</w>
j šími</w>
in va
in trover
ide ální</w>
i zrael
họ .</w>
hy dro</w>
hroma du</w>
hrdin ové</w>
homo sexu
hod ě</w>
ho telu</w>
h ám</w>
glob alizace</w>
fyzi o
fru str
fot bal
fil ma
fe ro
fe jme</w>
fak tem</w>
f al
e- mail</w>
důvě ř
dře vo</w>
dře va</w>
dě di
dí ru</w>
dov ali</w>
dou fejme</w>
do by
dlouhodob é</w>
disci plí
digi tali
cioná lně</w>
ci onali
chá pou</w>
chud ých</w>
chlá pka</w>
ch lu
bě lo
bá seň</w>
budov ě</w>
bubli ny</w>
bom bar
boha tí</w>
ba ná
ba b
b ận</w>
an y</w>
ak cí</w>
a tr
a ma
Zá padu</w>
Zá pad</w>
Y R</w>
Te sla</w>
TED x</w>
T ur
Spe ech</w>
Singa pore</w>
S cho
Re ze
Páki stánu</w>
Pho eni
P ol
P er
O li
Mexi ku</w>
M au
Ki ri
K ri
Juli an</w>
Jef fer
J erry</w>
Harvar du</w>
Free Speech</w>
Ethiopi a</w>
E s
Di e
D y
D ob
D AR
Ch ỉ</w>
C e
Bel l</w>
Arthu r</w>
A da
196 2</w>
ớ i.</w>
ệ n.</w>
ấ y.</w>
š kou</w>
řík alo</w>
ě jších</w>
ď me</w>
čle ny</w>
čer ný</w>
časo pisu</w>
čas ně</w>
í rá
získ ají</w>
zí me</w>
zna čku</w>
zi l
zen ý</w>
zele ninu</w>
zdra vý</w>
zamě řili</w>
zabi l</w>
za ř
z vět
z ovány</w>
z dy</w>
x ỉ</w>
x ăng</w>
věde cky</w>
výrob ní</w>
vý stup
vý sky
vý let</w>
ví t</w>
váž nou</w>
vznik lo</w>
vzni k</w>
vz lét
vyvolá vá</w>
vyvinu la</w>
vy vol
vy staven
vy dělat</w>
vo li
velko ry
va jících</w>
uží vat</w>
užiteč ný</w>
učitel ům</w>
učitel ka</w>
uza v
uvědo mění</w>
uspořá dání</w>
urych lova
umož nilo</w>
uji stit</w>
u věz
u di
u bí
těž kých</w>
tri ky</w>
toli ka</w>
ti ễn</w>
thi ền</w>
tem po</w>
tel ům</w>
te tování</w>
te sto
t ným</w>
studi em</w>
struktu r</w>
stre s</w>
straš né</w>
sta nici</w>
st ot
stot le</w>
spat řit</w>
sou d
sofi sti
smě š
skuteč ném</w>
sho ra</w>
sebe vraž
se xy</w>
s ot
s mát</w>
re le
re ha
reha bili
r ẽ</w>
r âu</w>
příro du</w>
pří padu</w>
při rov
při nese</w>
při dal</w>
předsta v</w>
pře stali</w>
pěst ovat</w>
proce sem</w>
pro sin
pro dlou
pro cvi
pro chá
pra sa
potra vy</w>
posta va</w>
poli ce
pod ce
po ky
perspek tivy</w>
peně zi</w>
pa ži</w>
pa má
p ali</w>
osob ních</w>
od star
od ra
oblíben ý</w>
objek tů</w>
o ceně
ně kterými</w>
níz ké</w>
níz kou</w>
ní n</w>
ná ku
ná dr
nà o.</w>
nu ta</w>
no hu</w>
ni cká</w>
ngre di
neuro n</w>
nejnov ější</w>
neho dy</w>
ne věděla</w>
ne vidíte</w>
ne mluví</w>
ne dě
navští vit</w>
na č</w>
na razí
na n</w>
na i
na cí</w>
n skou</w>
muž em</w>
moz kovou</w>
moni to
mod rou</w>
mili o
mi i</w>
men ších</w>
men u
me da
mal í
ma ra
m ỏng</w>
lé či
lá rních</w>
lov u</w>
logi ckých</w>
log ů</w>
lo kální</w>
litera tu
li sto
li lo</w>
lep šího</w>
legra ční</w>
le sy</w>
l ắc</w>
ká te</w>
kyslí ku</w>
kv é
ku rá
ku pují</w>
králov ství</w>
kri miná
kra t
korup ci</w>
kontro lou</w>
kon tra
komer ční</w>
ko l</w>
ko l
ko ka
kli ma</w>
kho ái</w>
khi ết</w>
kaž dič
kal ho
jem né</w>
j ům</w>
interak tivní</w>
inspi rová
i ro</w>
i ngredi
i hned</w>
hů ř</w>
hr dina</w>
hodin ky</w>
hle dají</w>
hla di
gra n
g h</w>
fung oval</w>
fo ťá
finan c
f ó
f onů</w>
f i</w>
exper ti</w>
ex pedi
ekonomi ckou</w>
efek tiv
e di
důvě ra</w>
dů kla
děle jte</w>
dra maticky</w>
domác nosti</w>
dokonal ý</w>
do pisy</w>
do pady</w>
di ště</w>
demokra tické</w>
de tek
dan ém</w>
d lech</w>
cí r
cy klo
ciz in
ci oni
chů ze</w>
choro b</w>
cho áng</w>
cho àng</w>
chirur g
ch obot
cen á</w>
cel kově</w>
cel kové</w>
ce li</w>
c ộ</w>
c ẩu</w>
c ả.</w>
bom by</w>
bole sti
boj ím</w>
blíz ka</w>
be l</w>
baseb al
ba r</w>
b ẫy</w>
b ìa</w>
b ran
ameri ckou</w>
aktivi ta</w>
Va še</w>
Se at
Par kin
Pa pu
O reg
O b
Ni ke</w>
Mat t</w>
Liba no
L au
Ko lumbi
Kiri bati</w>
J ay</w>
Izra el</w>
Gre en
C ông</w>
B al
Austrá lii</w>
Ari stotle</w>
Antar kti
Ang lie</w>
Al -
A S
7 6</w>
18 .</w>
ố t.</w>
žád ném</w>
š vi
ře tě
Đ a</w>
č uji</w>
č tou</w>
Čí nu</w>
úto ku</w>
ú se
získá váme</w>
závisl í</w>
zá va
zvlá dli</w>
zva ný</w>
zv uk
zrak u</w>
zni čit</w>
znak ů</w>
zlo či
zla to</w>
zem řou</w>
zem ře</w>
zele nou</w>
zatra ceně</w>
zasta vil</w>
zapomně li</w>
zabý vají</w>
za úto
za potře
zapotře bí</w>
za pama
za milova
z blízka</w>
vůd covství</w>
věnov ali</w>
výho d</w>
výcho du</w>
vý mlu
vý hra
vý hoda</w>
vysvět le
vy lu
vteř inu</w>
vol bách</w>
vojá ky</w>
vl h
ver zí</w>
va nou</w>
v ải</w>
umí rají</w>
u za</w>
tvr d
tvo ření</w>
tvo je</w>
tr e</w>
ter mín</w>
ter mo
teplo ty</w>
tele fonů</w>
techni ku</w>
te stu</w>
t ốt.</w>
t ované</w>
stře l
stupu jeme</w>
sti čtí</w>
ste k</w>
st ě</w>
společen ská</w>
slov .</w>
slo žky</w>
sledov ala</w>
sk la
situa cí</w>
si lní</w>
sendvi č</w>
sed mi
sebe vraže
samoz řejmé</w>
samosta tně</w>
sal em</w>
sak ra</w>
sa du</w>
růz ným</w>
rozu m</w>
rozdíl ných</w>
roz děl
ri sku
reál né</w>
rent gen
re produk
r ỡ</w>
působi t</w>
pů vodu</w>
pří sluš
pří sa
připra ven</w>
přijí ma
přij ali</w>
při pev
při dali</w>
před nost
pěk ný</w>
průmysl ové</w>
prost é</w>
progra movat</w>
pozor ně</w>
použi ty</w>
poslu cha
poru chy</w>
popula ční</w>
podob nou</w>
podni ky</w>
pode zře
pod zi
pochopi la</w>
po šle
po řadí</w>
po pí
plo chu</w>
plast ů</w>
ph ồng</w>
pen ím</w>
p ím</w>
ova č</w>
ova ným</w>
otevře li</w>
osob ě</w>
opak ovaně</w>
odha duje</w>
ode šel</w>
občan y</w>
ob ál
o pustit</w>
o m
ní kovi</w>
náro d</w>
nábo je</w>
ná padu</w>
noviná ř</w>
nov in</w>
nov ali</w>
nejchud ších</w>
nech á</w>
ne mluvím</w>
ne děláme</w>
ne chtěla</w>
naroze niny</w>
napad ne</w>
na proti</w>
míst ních</w>
mí ň</w>
mí chy</w>
myšlen kách</w>
muze um</w>
mu jí</w>
mrt vých</w>
mo tory</w>
milu jete</w>
mi mi
medicí ně</w>
med ú
mat ce</w>
marketi ngu</w>
mar t
ma nh</w>
lí to</w>
lé tání</w>
lov ého</w>
log o</w>
liv ých</w>
li vá</w>
li st</w>
li nii</w>
le tých</w>
le na</w>
kó du</w>
ká me</w>
kvě tiny</w>
krá vy</w>
krá l</w>
kro ků</w>
kov án</w>
komuni kují</w>
komu nit</w>
kom ponen
klimati cké</w>
kla du</w>
kapitá lu</w>
jí ce</w>
já tra</w>
jeh ly</w>
jakou si</w>
jak ého</w>
jak koli</w>
it al
infra struktura</w>
indu stri
individu ální</w>
i ng</w>
i mi
há ček</w>
hlé dli</w>
hla dov
hla domo
ha si
h ằng</w>
h ř
h ách</w>
grafi i</w>
geno mu</w>
g ã</w>
fo sil
far ma
ex o
en y</w>
en o</w>
emo ční</w>
ekonomi ckých</w>
efek tivně</w>
e k
džihá d</w>
dá váte</w>
duchov ní</w>
dov i</w>
dominan tní</w>
do drž
diplo ma
dimen zí</w>
cí li</w>
char ak
ch ì</w>
cest oval</w>
cen ter</w>
ce stá
c ất</w>
buně čné</w>
bu cks</w>
bou ře</w>
bole stí</w>
bo lí</w>
behavio rální</w>
bab we</w>
ama té
agen tury</w>
Zip car</w>
Zim babwe</w>
Willi am
Virgi nia</w>
V âng.</w>
U y</w>
Th ập</w>
TED Global</w>
Star bucks</w>
S tri
S ky
R A</w>
Ph ượng</w>
P it
McDonal d</w>
Ma ri
L an
Jeru salem</w>
J S</w>
I tá
Gui ne
Franci i</w>
En ce
Egyp tě</w>
Darw in
Ca me
C ro
C al
B ol
Ameri čan</w>
Ale x</w>
A M</w>
9 8</w>
2 ,5</w>
19 30</w>
10 0.000</w>
& </w>
— </w>
žád ní</w>
žralo ků</w>
ži vý</w>
ži v
že bří
špa něl
ško lá
řízen ím</w>
ře ná</w>
čá ry</w>
ček ala</w>
č ům</w>
Čí ňané</w>
úspěš ní</w>
ú te
é ru</w>
zó ny</w>
získ á</w>
závi sle</w>
západ ních</w>
zákaz níci</w>
zá zrak</w>
zá vod</w>
zvířa ty</w>
zvu ků</w>
zranitel nost</w>
zpravoda j
zouf ale</w>
zodpověd nosti</w>
zná mo</w>
zku sme</w>
zele niny</w>
zal é
z prostřed
z organi
we ll</w>
vị .</w>
věz nice</w>
věnov al</w>
výzv y</w>
výzku my</w>
výra zy</w>
vý š</w>
vý cvi
vzru šení</w>
vzpo mně
vzor ky</w>
vyso kých</w>
vylep šit</w>
vybu ch
vy stav
vteř iny</w>
vol ný</w>
vní mají</w>
vlák no</w>
vli vu</w>
vlast ními</w>
vl na</w>
vide í</w>
vešker á</w>
ve dou
vaši mi</w>
val en
va šemu</w>
va ný</w>
v ĩnh</w>
uči telem</w>
udrž uje</w>
u de
těž ce</w>
tě žit</w>
tý my</w>
táh ne</w>
tvor bě</w>
to čí</w>
tel ství</w>
techni ka</w>
t ươi</w>
t vé</w>
t kách</w>
symbo l</w>
stře di
stě ny</w>
stí n</w>
stá li</w>
stá hnout</w>
stre su</w>
stra vy</w>
stra nách</w>
sto krát</w>
sta rou</w>
srd cem</w>
správ ném</w>
spotře bu</w>
společ nou</w>
spisova tel</w>
soustře dí</w>
sot va</w>
slu ch</w>
slov ně</w>
sli b</w>
sledu jete</w>
sl ím</w>
skuteč ným</w>
skupi nách</w>
sklad ba</w>
simu lace</w>
sil ovat</w>
si ro
sen zory</w>
robo tické</w>
robo tem</w>
risk an
ra men
r ực</w>
r ảnh</w>
r ná</w>
pů da</w>
příro dou</w>
přirozen ého</w>
přin u
přes ko
přemýšle jí</w>
překo ná
předstí rat</w>
předpově ď</w>
předpokla du</w>
předmě tů</w>
pře nést</w>
pí skání</w>
pá tek</w>
pá du</w>
průměr ně</w>
prů hle
prosta ty</w>
prohlá sil</w>
produ kují</w>
prode j</w>
procen ty</w>
pro vin
prav u</w>
pra v</w>
pra se
pr ý</w>
požada vky</w>
poč tů</w>
pozoruhod ný</w>
pozo rovali</w>
posti žení</w>
pos lá
pomo c
podě kovat</w>
podí vá
podsta ty</w>
podpo rují</w>
po ži
plý t
ply nů</w>
plast u</w>
partne r</w>
par k</w>
ově řit</w>
oto čil</w>
otevře te</w>
org as
opak ovat</w>
odliš ná</w>
obnovi t</w>
o še
nástro ji</w>
ná mě
nu klá
nov a</w>
ni či
neu spě
nes mr
nes la</w>
ne znají</w>
ne věřím</w>
ne vidím</w>
ne spo
ne dělají</w>
nazva nou</w>
na rozdíl</w>
n du</w>
měsí ční</w>
má ch</w>
mu jeme</w>
mrt vý</w>
mož ným</w>
mini ster
me my</w>
m ượn</w>
m ãnh</w>
lí bilo</w>
lov i</w>
lo dí</w>
l ỡ</w>
l úa</w>
kreativi ta</w>
konek tom</w>
knih ách</w>
kli nické</w>
jist oty</w>
ji st</w>
ji hu</w>
jedno tek</w>
jas ný</w>
infra struktury</w>
informa cemi</w>
in o</w>
hrá čů</w>
hru b
hoř či
hodi li</w>
ho j
hlubo ký</w>
h ẹp</w>
h vězd
grafi cké</w>
g lu
filozofi e</w>
empa ti
ekonomi e</w>
dítě tem</w>
dáv ku</w>
dá ny</w>
drže la</w>
drá ha</w>
dro n</w>
dobr ými</w>
do mí</w>
do kaz
dneš ního</w>
dne m</w>
dlouho době</w>
dik tá
di sk
di ng</w>
da v</w>
d ũng</w>
d uyệt</w>
cit át</w>
chuy ện.</w>
chu tná</w>
chla p</w>
chemiká lie</w>
chemi e</w>
cen né</w>
ce li
cac bon</w>
ca -
c s</w>
bě žet</w>
bě h</w>
be zna
babi čky</w>
armá du</w>
analo gi
ako ta</w>
ako rát</w>
V er
Te d</w>
Tara huma
T ổng</w>
Su san</w>
PI PA</w>
Ox fordu</w>
Měsí c</w>
Mini sterstvo</w>
Me di
Lar ry</w>
Ken ne
Kana dě</w>
K on
K dy
In stitu
I r
Higg sova</w>
Har ry</w>
G an
Eti opi
E vere
Del hi</w>
D á
Clin ton</w>
C ộng</w>
Bosto nu</w>
Bi bli</w>
Bi ble</w>
Ban du
Ba ra
Afgháni stán</w>
A c
199 7</w>
198 9</w>
1 25</w>
+ </w>
‚ </w>
ži vá</w>
ži ju</w>
ť te</w>
š ování</w>
řidi č</w>
řek ly</w>
đ ế</w>
čí sly</w>
čí nské</w>
č nější</w>
č má
Č er
úspěš né</w>
ú tě
é ze</w>
é ry</w>
zů stanou</w>
západ ním</w>
zv ra
zv en
zrca d
způsobi l</w>
zpě tné</w>
zkou ší</w>
zem ím</w>
zem ní</w>
ze ň</w>
ze vnitř</w>
zabý vám</w>
zabr alo</w>
za t
za ni
za mí
za be
z větši
z dě
vě jších</w>
výrob ky</w>
vý počty</w>
ví tě
ví ry</w>
váš ně</w>
vyví je
vytvoře né</w>
vysoko škol
vyso kým</w>
vyko ná
vy sko
vy hy
vy hrát</w>
vy dava
vu l
vtip né</w>
vi lle</w>
vi e
veřej nost</w>
ven á</w>
va z</w>
v je
ur o</w>
ukáz aly</w>
udrž ovat</w>
u rá
tře sku</w>
tva rů</w>
trá vy</w>
trval é</w>
tren dy</w>
tr ů</w>
tr ub
ti ng</w>
ti ku</w>
th ẻ</w>
tem ná</w>
techni cké</w>
talen t</w>
takov ými</w>
ta nec</w>
ta b
svět ovou</w>
stro jem</w>
stra ce</w>
sti sk
ste n</w>
stale tí</w>
st ům</w>
st vích</w>
srov na
spotře by</w>
spa ghe
spaghe tti</w>
smysl y</w>
smysl ové</w>
sle y</w>
skr ý
sk lada
seve ru</w>
scé nu</w>
samot ného</w>
ryt mus</w>
ry sy</w>
rozu m
rozmani tost</w>
roze znat</w>
roz vi
roz ma
roz bi
rova ný</w>
rostli na</w>
romá n</w>
ro dní</w>
ri ká
rele van
re cy
ra dosti</w>
ra da</w>
pů dě</w>
přispě t</w>
při mělo</w>
při kázání</w>
překla da
předsta víte</w>
předpoklá dá</w>
předpo vědět</w>
pí t</w>
pyrami dy</w>
prv ků</w>
prostře dní</w>
profe so
pravo di
pravděpodob nější</w>
pravděpodob nosti</w>
prav á</w>
pra xe</w>
požád ala</w>
potk ali</w>
posl éze</w>
popi s</w>
pomal e
pokr ý
pojď te</w>
poe zii</w>
pod vod
po věděl</w>
po stav
po cházím</w>
plo d
pig men
pi vo</w>
pamatu jí</w>
očeká váme</w>
očeká vali</w>
ov z
ot a
ostrov y</w>
oná lní</w>
občan ů</w>
obyčej né</w>
obrazov ku</w>
oblíben á</w>
objek tu</w>
ob ří</w>
ob or</w>
o su</w>
o stře
ná po
ná moř
ná hled</w>
nu s</w>
no sí</w>
nh ộn</w>
nes praved
nena jdete</w>
nejrůz nějších</w>
nejdůležitě jších</w>
nedosta teč
ne závisle</w>
ne příjemné</w>
ne potřebuje</w>
ne dokázali</w>
ne chají</w>
nau číte</w>
na učení</w>
na ruš
na razili</w>
na půl</w>
na pa
na je</w>
na cháze
n ở</w>
mí le</w>
muž ům</w>
muze u</w>
mpe st</w>
moř ských</w>
mini mální</w>
min ali
milov ala</w>
mezinárod ních</w>
mat kou</w>
ma pě</w>
ma ga
m g</w>
lí tosti</w>
lí d
lé mu</w>
lá tor</w>
log a</w>
lo te
limi ty</w>
lik vi
lib ovol
li á
li sty</w>
legra ce</w>
legi ti
le šení</w>
le vi
le to
le se</w>
lah ví</w>
kři vky</w>
ku povat</w>
ku bá
kresle ní</w>
koleg a</w>
ko medi
ko la
klíč ová</w>
kles á</w>
kho l
kal kula
k s</w>
jád ra</w>
ji la</w>
její ž</w>
jednoducho sti</w>
jedno tky</w>
jedi nec</w>
je zd
jazy cích</w>
jaký ch
jak ém</w>
jader né</w>
j ď</w>
j ové</w>
j ci</w>
ilu str
iPa d</w>
i sla
há ně
há me</w>
hrá č</w>
hodno tě</w>
hod ný</w>
ho p</w>
hlé dnutí</w>
hle dáte</w>
h âm</w>
gene ra
ga rá
g ur
g ale
fyzi kální</w>
fanta stický</w>
f tal
entro pie</w>
elektři na</w>
ekologi cké</w>
e ste
důsled kem</w>
důleži tost</w>
dý chat</w>
dé lky</w>
drže li</w>
doz věděli</w>
dosáh l</w>
dostup ná</w>
dospě li</w>
do leva</w>
do dat</w>
detail ů</w>
delfí ni</w>
de jší</w>
d ri
cu jící</w>
co si</w>
civili zací</w>
civili zaci</w>
chu dobu</w>
chro moz
chlá p
ch ăn</w>
ce l</w>
c khol
bý vají</w>
bá zi</w>
brz o</w>
bra tři</w>
bo st</w>
bo dem</w>
blaho bytu</w>
biologi cky</w>
ben zí
argumen ty</w>
anti bio
W ol
W a
Val ley</w>
V an
Te mpest</w>
T en
Stá tech</w>
Sto ckhol
Singa pu
Se ba
Saha ra</w>
SM S</w>
Prince ton</w>
P ří
O s
Nigé rii</w>
New s</w>
Na than</w>
Me lin
Mat thi
M W</w>
M G</w>
Londý na</w>
Kh an</w>
Ke ple
J er
Izrae li</w>
I nu</w>
D. C.</w>
D ě
Co ngo</w>
Ch ữ</w>
Ch ính</w>
Caro lina</w>
C on
C el
Bonne t</w>
Benja min</w>
Ba x
B ali</w>
Austrá lie</w>
A O</w>
A .</w>
9 3</w>
5 7</w>
4 7</w>
3 9</w>
199 5</w>
197 8</w>
ườ ng.</w>
žralo ci</w>
ži dle</w>
šká lu</w>
šen ých</w>
še dé</w>
ří j
řidi če</w>
ř ským</w>
čtvere čních</w>
čle nem</w>
čist ou</w>
čeká te</w>
č nímu</w>
úmysl ně</w>
úko lu</w>
ú pl
ó z
é ra</w>
zů stávají</w>
záležito sti</w>
zába vu</w>
zá lo
zá cho
ztra tí</w>
ztra tit</w>
zpě vá
zlepš uje</w>
zkou mali</w>
zemře la</w>
zdra vím</w>
začí nal</w>
zapla tili</w>
zalo žit</w>
zalo žila</w>
zalo žená</w>
zak oře
zahr nu
zabí jení</w>
za bra
z la</w>
z kontro
wat tů</w>
w a</w>
vše obecně</w>
věde ckou</w>
vě d</w>
výu ku</w>
vý vojá
váš ní</w>
vzpomí nku</w>
vyzkouše li</w>
vypěst ovat</w>
vy ma
vy klá
vy jí
vie w</w>
vidi tel
vi rů</w>
ves ni
veli ké</w>
ve t
vakcí ny</w>
va č</w>
va ných</w>
v ọt</w>
v iệt</w>
v ali
uží vání</w>
uše tři
umož nila</w>
udrž ují</w>
u číte</w>
u čím</w>
tu c
tr ớ</w>
tr êu</w>
to xi
tla čit</w>
tisí ci
ti n
th e</w>
technologi ích</w>
takový chto</w>
takov í</w>
ta smá
t z</w>
t ními</w>
svě ty</w>
stu duje</w>
sti n</w>
sti cky</w>
staro st</w>
sta tus</w>
spraved lnosti</w>
spolu pracují</w>
spo jí</w>
spo du</w>
specifi cké</w>
souhla sit</w>
sní ží</w>
sna z
sla vný</w>
skr ývá</w>
skon čili</w>
sk an
sebe vědomí</w>
scéná ř</w>
s ói</w>
s pla
s měr
s dělení</w>
rá z
rych lo
rozu měl</w>
rozho dují</w>
rozho duje</w>
ro pou</w>
rezo nan
rekla ma</w>
recy kla
qu ỵ</w>
případ ně</w>
pří strojů</w>
připo me
předsu dky</w>
představ ovat</w>
přede š
pře ží
pře stane</w>
pě šky</w>
pí se
pta čí</w>
ps a</w>
propa st</w>
proje v</w>
prohlá šení</w>
prode je</w>
procháze l</w>
proce du
pro lo
priori ty</w>
pracov i
poří dil</w>
počí naje</w>
povo lání</w>
povin nost</w>
považ ují</w>
posí lat</w>
pos vá
pos lání</w>
porov ná
politi cký</w>
police jní</w>
pokrač ovala</w>
poko j</w>
pokle s</w>
poj my</w>
poh lé
podob ným</w>
po rozuměli</w>
po naučení</w>
pla st</w>
pa razi
ovlá dá</w>
ova cích</w>
ov li
ovli vní</w>
oteví rá</w>
od cháze
obyčej ný</w>
o čích</w>
o ka
níz ko
náhod a</w>
nu tá</w>
noviná ři</w>
no sem</w>
ng e</w>
nez ů
nes práv
ner vy</w>
nej te</w>
nej rychleji</w>
nej krás
ne změní</w>
ne zdá</w>
ne rozumí</w>
ne můžeš</w>
ne dokon
navrhu ji</w>
navrh uje</w>
navrh li</w>
na stal</w>
na rů
mě níme</w>
mě jte</w>
médi ích</w>
muze a</w>
moder ni
mláď ata</w>
manže la</w>
mai ly</w>
m ờ</w>
m te</w>
m ka</w>
lí ně</w>
léč bě</w>
léta jící</w>
lé čeb
lá tek</w>
lo žka</w>
le gen
l s</w>
ká zá
ku pu
krát kou</w>
kri minali
kov ými</w>
kou píte</w>
konflik tů</w>
kní žky</w>
kmen y</w>
kh ùng</w>
ka jících</w>
k ci</w>
k ala</w>
jí del
jedn ak</w>
jakého koliv</w>
jak ých</w>
j ce</w>
in ů</w>
in ové</w>
identifi kovat</w>
họ c.</w>
hvěz da</w>
humo r</w>
hra jete</w>
ho i</w>
hlu k</w>
hloup é</w>
hle dal</w>
h ala</w>
fyzi ká
fung ovala</w>
fosil ních</w>
fle xi
finan cování</w>
f an</w>
er s</w>
er e</w>
envi ron
ekono m</w>
dž u
du s</w>
dru ži
do dava
disku zi</w>
deví ti
deba ty</w>
deba ta</w>
de šť
da ní</w>
d ọn</w>
d ế</w>
d ê</w>
d an</w>
cti cu
chlap ců</w>
ch ti
c ồn</w>
c ấm</w>
c li
buň ku</w>
bubli na</w>
boj uje</w>
blá zen</w>
blo k</w>
biologi cký</w>
be ra</w>
b ỗng</w>
b ê</w>
autori tá
ar k
anglič tina</w>
ambi ci
alterna tivní</w>
algorit mus</w>
al á
ae da</w>
admini stra
ada p
W in
V y</w>
V ol
V ene
To ron
Ti me</w>
Tak že</w>
T y
T ul
Sch war
Q aeda</w>
Pit ts
Mis sour
L akota</w>
Ko rán</w>
K .</w>
H mm</w>
Gol d
Ge or
Ge hry</w>
Ev an</w>
Eli zabe
Edi son</w>
Ear th</w>
E l
Dere ku</w>
D ự</w>
D il
Co ca-
Chri si</w>
Came ron</w>
Bu d
A h
A G</w>
5 0.</w>
žá ci</w>
žralo ka</w>
živoči chové</w>
žen ého</w>
žen ách</w>
že la</w>
š tá
š tina</w>
ň ovali</w>
čle nové</w>
červen ý</w>
častě jší</w>
úžas ným</w>
účast nit</w>
úko lů</w>
získá ní</w>
závě re
záležito stí</w>
zákla dním</w>
zá pla
zvířa tech</w>
zvuk ové</w>
zprá vou</w>
zobraz uje</w>
zobra zení</w>
zni čení</w>
zmí r
zkouše t</w>
zjišť ujeme</w>
ze l</w>
zdůraz nit</w>
zač le
zapome ňte</w>
zapo mí
zabí jí</w>
zabi já
za č</w>
za tel</w>
za nechá
za mysle
za mo
za chovat</w>
z y
z ota
w or
vů m</w>
vědě lo</w>
vě tu</w>
vý ta
vý ch
vzpomí náte</w>
vza to</w>
vz kvé
vyš la</w>
vyvo lat</w>
vytvoře n</w>
vyrob ené</w>
vyp nout</w>
vynález ce</w>
vy sa
vy nale
vy bra
vstou pit</w>
vrst vu</w>
vra cet</w>
vr ch
vnou čata</w>
vl n</w>
vi valen
vešker ý</w>
ven y</w>
vají čka</w>
va rování</w>
v leč
uči nili</w>
uměl kyně</w>
ukaz uji</w>
ukaz oval</w>
uhliči tého</w>
u vedu</w>
u vedl</w>
u n</w>
u j</w>
u bo
tři cet</w>
tvr dil</w>
trá vit</w>
tr pět</w>
tou ha</w>
to že</w>
ti ky</w>
ti chu</w>
th ala
ta mto</w>
t z
t li</w>
su pravodi
stře dním</w>
stu po
stoup á</w>
standar dy</w>
st ím</w>
spek tr
spad ne</w>
součas ná</w>
sou ladu</w>
sou hr
smě řuje</w>
smysl ů</w>
smlou vy</w>
slu chá
sklení kových</w>
sk lo</w>
si vně</w>
se mi</w>
sami čky</w>
sa má</w>
s pustit</w>
s pal
s ný</w>
s mart
smart ph
rů v</w>
rozví je
rozp tý
roz počtu</w>
roz množ
rovnová ha</w>
ro ub
ro sko
risk ovat</w>
reál ná</w>
ra ting
ra i
r ạp</w>
příspě vek</w>
připoje ní</w>
při jetí</w>
překla d</w>
před vést</w>
pře vlá
pó lu</w>
pí ší</w>
pá tra
pustí me</w>
psychia tri
proje vy</w>
pri vi
počí tá</w>
poza du</w>
povr ch
použí váte</w>
potá pě
potká te</w>
pota z</w>
posed lí</w>
poru cha</w>
poru ch</w>
poli cii</w>
pokrač ujeme</w>
podpo ra</w>
poci tů</w>
po stře
po me
ple chov
pla vat</w>
pla tili</w>
pi sem</w>
ph ác</w>
patr ně</w>
pa ží</w>
ov ce</w>
otevře nou</w>
ot ci</w>
ot cem</w>
one n</w>
omy l</w>
odrá ží</w>
odpoví dají</w>
ode šla</w>
ochra ně</w>
obě žné</w>
obě hu</w>
obje vy</w>
obje vení</w>
obje m</w>
ob těž
ob slu
o chut
o chrá
návr hy</w>
nádo ru</w>
nà n</w>
nuklá rní</w>
nov ala</w>
ni čím</w>
ni ckou</w>
neuro vědy</w>
nes s</w>
nej těžší</w>
nej me</w>
ne znáte</w>
ne vládní</w>
ne museli</w>
ne fungují</w>
nd h
naro dí</w>
nakr mit</w>
nak lo
nad měr
na sy
na rozen
na jí
na instal
n ảy</w>
n alo</w>
mý tus</w>
muse ly</w>
mož nostmi</w>
mou cha</w>
mode rních</w>
mimozem šť
mikrosko pi
mi sť
me tan</w>
me m
maga zí
ma gie</w>
m ộc</w>
m ce</w>
lí tost</w>
lékař ství</w>
lá p
lu jete</w>
lov a</w>
litera tury</w>
li nie</w>
le l</w>
kři žova
kvě ti
ku su</w>
krát ká</w>
korpo race</w>
kon ven
koleg ů</w>
ko čka</w>
ko pii</w>
kmen ových</w>
klíč ových</w>
kh e
ke j</w>
jí dlu</w>
již ním</w>
jist ou</w>
jedine čné</w>
jed í</w>
jed u</w>
je deme</w>
je -li</w>
ja b
intelektu ální</w>
i du</w>
i P
há dám</w>
hu jeme</w>
hrá ch</w>
hou sle</w>
he sel</w>
he l
har mo
gra phi
gra mu</w>
fyzi ku</w>
fungu jící</w>
for movat</w>
fe de
far my</w>
fale šné</w>
fak tu</w>
ex tra
en á</w>
ek vivalen
e viden
e u</w>
dět ská</w>
ději n</w>
drob né</w>
dr ži
doz vědět</w>
doved ností</w>
dov ý</w>
dosáh neme</w>
dostá vám</w>
do w
do týká</w>
do da
dneš ka</w>
dinosau ři</w>
di o</w>
den í
dce ru</w>
da jících</w>
da go
d ạo</w>
d nější</w>
cyklo pedi
cit livé</w>
chy stá</w>
chao s</w>
ch lo
ch iên</w>
cestá ch</w>
cen ím</w>
ce re
běž ných</w>
bá l</w>
byzny su</w>
bra zil
bo dě</w>
bio lu
be nou</w>
b ak
autobu s</w>
au ten
armá dě</w>
architek t</w>
ar che
analý zu</w>
an ů</w>
ak tivně</w>
ag en</w>
a nato
War ren</w>
Vene zu
Ti ến</w>
Tex asu</w>
Ta zatel</w>
T uni
T iên</w>
Stan fordu</w>
S ub
S ti
S her
S ao</w>
S B</w>
S A
Reze ro</w>
R ory</w>
R an
Po jď</w>
Paří ži</w>
P op
O dy
O ak
O K.</w>
Nel son</w>
Missour i</w>
Michi gan</w>
Matthi eu</w>
Mar garet</w>
M in
La ti
L ou
Ka ro
Indo né
Ha va
H ợp</w>
H ọc</w>
H od
H it
Go liá
Gi áng</w>
Geo graphi
G ri
F DA</w>
Ence la
Elizabe th</w>
Conne cticu
C P</w>
C I
Ber lin</w>
B ren
A b
7 000</w>
5 9</w>
195 7</w>
živoči chy</w>
ž vý
ž dí</w>
šé f</w>
šimpan ze</w>
šen o</w>
š ní</w>
š am
Š pa
ří ši</w>
ře z</w>
đ âm</w>
úto ky</w>
úto k</w>
úspěš nější</w>
úspě chem</w>
ú vod</w>
zí ho</w>
zvý šení</w>
zvo lit</w>
způsobi lo</w>
zo zem
zně la</w>
změ níte</w>
zkou má
zhor š
zele ný</w>
zasáh nout</w>
zapome nout</w>
zalo žený</w>
zalo ženo</w>
zají mám</w>
zahra dy</w>
za mysleli</w>
za hrát</w>
z ření</w>
z rodi
z l</w>
wa i
vů le</w>
vědomo sti</w>
význa mně</w>
výkon u</w>
výbě rem</w>
ví ře</w>
vz hled</w>
vytvoře ný</w>
vydělá vat</w>
vy v
vy pla
vy dala</w>
vr h
vo lá</w>
vi rem</w>
vi d
veřej ná</w>
veče ře</w>
ver ti
ver né
velko lep
veli ký</w>
vel ry
v čas</w>
užiteč ná</w>
uspo řád
uni knout</w>
uměl ců</w>
umě ním</w>
umě le</w>
ukaz ovat</w>
uhliči tý</w>
u vá
u kaž
u jícího</w>
tře tinu</w>
tře k</w>
tý dnech</w>
tý dne</w>
typi cký</w>
typi cky</w>
tu ku</w>
tu jící</w>
trá víme</w>
tr í
tou hy</w>
ti ckém</w>
tex tu</w>
testo stero
test ů</w>
terape u
te ri
ta mhle</w>
t my</w>
t kami</w>
t ala</w>
sy neste
sy na
su šen
stře dově
stu jí</w>
stu du</w>
stov kami</w>
st říka
společen ského</w>
soutě že</w>
smě s</w>
složi tých</w>
slov níku</w>
slo žení</w>
sexu álně</w>
sed l</w>
sché ma</w>
sbí rat</w>
samoz řej
samot ném</w>
sa chu
s vá
s vit</w>
s pr
s hi</w>
s ci
růz ně</w>
ry ho</w>
ry bo
rozhod ovat</w>
roman tické</w>
rodič ovství</w>
rob i</w>
respek t</w>
recyk lova
re zerva
re zer
ran de</w>
r ộn</w>
r ìa</w>
pů jdou</w>
pří zni
přátel ům</w>
přiroze nou</w>
připome nout</w>
připo mně
při hodilo</w>
představ ím</w>
představ uji</w>
předpově di</w>
předpokla d</w>
pře šli</w>
pře vést</w>
pře tváře
pře sa
pře chod</w>
pě stujeme</w>
pódi um</w>
pís ma</w>
pá rty</w>
pt ala</w>
psycho log</w>
průzku mu</w>
promě nit</w>
prohlí že
proce s
pro šla</w>
prav ém</w>
pořá dek</w>
počítač ových</w>
poz vali</w>
pou ta
pou nd</w>
posta ví</w>
pohá ně
podsta tně</w>
plá ži</w>
ply nu</w>
plo še</w>
phi ền</w>
pe nh
pe dago
partne rů</w>
papr sek</w>
pale c</w>
p ku</w>
p ce</w>
p .</w>
očeká vá</w>
oč kování</w>
otev ření</w>
osob nost</w>
odpoví dající</w>
odpo čí
odpad ní</w>
obě ž
obrov ským</w>
obec né</w>
ně ch</w>
ní cích</w>
nu tý</w>
nu dné</w>
như ợc</w>
ng ớ</w>
nezávisl é</w>
nerov nosti</w>
neo pr
nena padlo</w>
nekone čna</w>
nej moc
ne t</w>
ne sia</w>
ne pravděpodobné</w>
ne mluvíme</w>
ne k
ne h
narazí te</w>
napl no</w>
nalez li</w>
na star
n sku</w>
míst ním</w>
má lem</w>
my ší</w>
muzi kan
mr ak
moz ková</w>
moto ri
mod li
mlad ým</w>
mimořád né</w>
me tra</w>
maxi mální</w>
mamin ka</w>
ma to
léka ře</w>
lé čení</w>
lá nh</w>
lu ji</w>
line ární</w>
lidsko st</w>
li ví</w>
ky ní</w>
krátk ém</w>
kri zí</w>
krajin u</w>
kra ji</w>
kos mo
kopí rovat</w>
konstru ovat</w>
konfer en
koncer t</w>
kolo nie</w>
ko ři
ko leč
kmen e</w>
kles la</w>
kh en</w>
kandi dá
k ému</w>
k nete</w>
k ce</w>
jist ě
jednotliv ců</w>
jednoduch ého</w>
jedi ně</w>
jed ená
ja ter</w>
j u
islá mu</w>
interne tové</w>
ilu zi</w>
igno rovat</w>
i robi</w>
i li</w>
hů ře</w>
hra nic</w>
hospodá řství</w>
hor ské</w>
hodi la</w>
hod lám</w>
ho an</w>
hmo t
hloub ky</w>
he tero
hard ware</w>
h ò</w>
h as
g ãy</w>
fé r</w>
fi re
fak ul
f li
energe tické</w>
en s</w>
emi sí</w>
elektro dy</w>
elegan tní</w>
ekonomi i</w>
ekonomi cky</w>
e uro</w>
důvě ry
dů mysl
dí ly</w>
dro g</w>
dov ou</w>
dosa h</w>
do šel</w>
do č
do tý
do ru
diag nó
di feren
di alo
desí tek</w>
depre si</w>
de s</w>
de ra
da ně</w>
d ở</w>
d ốc</w>
d ných</w>
cto ria</w>
chu době</w>
chle ba</w>
chirur g</w>
chemiká lií</w>
ch ướng</w>
bí lý</w>
bí lá</w>
bro koli
bra tran
bra tra</w>
bom ba</w>
bere te</w>
ban jo</w>
b ồi</w>
b ẻ</w>
b né</w>
atmosfé ru</w>
astro no
aspek ty</w>
archi tekto
ar di
anglič tinu</w>
analý zy</w>
an u</w>
an s</w>
agen tu
ado les
ab sor
a ci</w>
Vi ctoria</w>
Ti tus</w>
Ti ta
T so</w>
Scot t</w>
Phi ladel
Pe psi</w>
Pau la</w>
Palestin e</w>
P R
Oli ver</w>
Ody sse
Na irobi</w>
Mo zar
Mo ore</w>
Mas sachu
Ko ngu</w>
K rá
K hi</w>
Jo nes</w>
Ja me
Izrae le</w>
Indo nesia</w>
I sa
He i
Geographi c</w>
F ar
Ein ste
Da ve</w>
Cel sia</w>
Brazí lie</w>
Abe d</w>
3 4</w>
199 1</w>
. A.</w>
- --</w>
ổ i.</w>
ố ng.</w>
žá ky</w>
ž ování</w>
špat ných</w>
ši na</w>
š tiny</w>
řá du</w>
řetěz ce</w>
ře ný</w>
ň ovala</w>
độ ng.</w>
đ ợt</w>
đ àm</w>
čá stky</w>
člá nků</w>
člá nku</w>
čist á</w>
čin íme</w>
ý cho
úva zek</w>
úrov ní</w>
ú řady</w>
ú ro
í mi</w>
 </w>
získá vá</w>
závě ry</w>
západ ě</w>
zá ři
zá vaz
zá padu</w>
zá měr</w>
zvý ší</w>
ztrá tu</w>
zrych luje</w>
zranitel nosti</w>
zneuží vání</w>
zna čka</w>
zeptá m</w>
zemře lo</w>
zem řít</w>
ze stár
zba vili</w>
zamysle me</w>
zalo žena</w>
zaklada tel</w>
zabý váme</w>
zabý vající</w>
zabi li</w>
za řa
za tí
za slech
za drž
za cházet</w>
z těles
z le
z al</w>
y on</w>
y a
w ay</w>
věz ň
výzku mné</w>
výhra dně</w>
váž ná</w>
vz dal</w>
vyš ších</w>
vyře šili</w>
vyví jet</w>
vyu č
vytvoře ny</w>
vyso ko</w>
vysky tuje</w>
vyrá bíme</w>
vyjad řuje</w>
vy zkoušel</w>
vy m
vy lo
vy hrá
vy budování</w>
vrst vy</w>
vol né</w>
vodí ku</w>
vní má</w>
vlá dních</w>
vi nu</w>
velk ému</w>
veli kostí</w>
veden o</w>
va ng</w>
v ôi</w>
umí te</w>
udá lo
udrži telnosti</w>
u zdra
u snad
u přednost
u chová
u blí
tří du</w>
tří da</w>
tí š</w>
tvůr ce</w>
tvor by</w>
tvo řili</w>
tvo rů</w>
tvo ry</w>
tri na</w>
transparen tnost</w>
tr ệ</w>
tr èo</w>
tr á</w>
tr vala</w>
ti ve</w>
ti cha</w>
teori í</w>
te ple
tabu lky</w>
ta ru</w>
ta bu</w>
t ta</w>
t ský</w>
t ka
sym pto
sym fo
sy l
super masivní</w>
studu ji</w>
stra ši
str al
sti ci
stav by</w>
st ku</w>
st al
spon tá
spolu pracujeme</w>
sou čet</w>
sou stava</w>
so ná
sna ha</w>
smě ry</w>
smě rech</w>
slov ní</w>
sle pí</w>
slad ké</w>
sl zy</w>
skvě lí</w>
sk lí
se r</w>
se mena</w>
sa nd
sa mého</w>
s ôi</w>
s nu</w>
s chrá
s -
rádi o</w>
rozu mu</w>
rozsáh lé</w>
rozmě rech</w>
rozhov oru</w>
roz tří
roz lou
roz liš
roz hlé
rov ě</w>
rov ého</w>
rov né</w>
ritu ály</w>
rekor d</w>
reak tory</w>
radiká lně</w>
přístup em</w>
přines lo</w>
přes něji</w>
předmě tu</w>
pře stal</w>
pře ci</w>
pí sek</w>
publi ka</w>
pu s</w>
ptá me</w>
práv ník</w>
prvot ní</w>
prospe ri
propa gan
program ování</w>
progra mem</w>
pre fe
pravdi vá</w>
pra š
poz ná</w>
pov stání</w>
potenci álně</w>
poslouch ali</w>
posed lý</w>
pos bí
politi cká</w>
politi ckou</w>
pohod lí</w>
pohle d
poh ře
podě lil</w>
podně ty</w>
podmí n
podla ze</w>
pod .</w>
po stavu</w>
po mů
po mohly</w>
po ka
po hlavní</w>
plá t
plá novat</w>
plo chy</w>
ph un</w>
pat náct</w>
paral y
pane ly</w>
palub ě</w>
pali v</w>
pa sá
ovz duší</w>
ov ské</w>
otá čí</w>
oto čit</w>
otevře ná</w>
otevře l</w>
ot vo
ore ch</w>
ope n</w>
olympi js
ole je</w>
okra j</w>
oko lní</w>
oka y</w>
ode šli</w>
od raz
od nést</w>
obvyk lé</w>
obsa hem</w>
obnovi telné</w>
o sti</w>
o ra
o pravit</w>
národ ního</w>
ná ru
ná hodné</w>
ni kam</w>
ni ckého</w>
nh ấp</w>
ng ẩn</w>
neuvěři telná</w>
nejlep šího</w>
nej nižší</w>
ne známé</w>
ne zajímá</w>
ne došlo</w>
navrh ovat</w>
napad á</w>
naka ž
n ếp</w>
měst em</w>
mí ček</w>
mlá dí</w>
mla dou</w>
ml ý
minu lé</w>
milió nu</w>
mikrosko pem</w>
men tali
mem brá
mal by</w>
ma r</w>
ma na</w>
m ỹ</w>
m ová</w>
lé tají</w>
lá hev</w>
li nku</w>
li be
letě li</w>
led nu</w>
l ů
l ované</w>
kvě tu</w>
kuchy ně</w>
ku f
krat ší</w>
kontak t</w>
komuni tách</w>
koho koliv</w>
knihov ny</w>
klasi fi
kapaci ta</w>
kam koliv</w>
kal en
kalen dá
ka psy</w>
k ìa</w>
k nou</w>
jmé nu</w>
jazy ku</w>
institu tu</w>
inspi rující</w>
in kubá
iP od</w>
hy gi
hodno tou</w>
ho lky</w>
hmo tné</w>
hle dám</w>
hle dy</w>
histori í</w>
her ní</w>
h ông</w>
h růz
h ali</w>
gi ới.</w>
ge sta</w>
g ăng</w>
g ar
fyzi ckou</w>
fotografi í</w>
foto apa
fo uk
fi gu
farmá řů</w>
f t</w>
experimen tovat</w>
existu jící</w>
elektrá rny</w>
ele mentá
e fe
du sí
du cha</w>
dokon čit</w>
dobrovol níků</w>
do prová
diagnosti k
di v</w>
defin ovat</w>
cí te</w>
cyk lu</w>
cvi čit</w>
chytr á</w>
chyb ně</w>
chy tit</w>
chví lí</w>
chu doba</w>
chemi i</w>
charak ter</w>
ch ováním</w>
ch nout</w>
cen ých</w>
cen zu
ce du
by to
budou cích</w>
brit ské</w>
br al</w>
be ze</w>
b úa</w>
b r</w>
a pod.</w>
a my
Z é
X ô</w>
Wil son</w>
Vietna mu</w>
Tul ley</w>
Tr ường</w>
Tanza nia</w>
Sti r
Se an</w>
Ros sy</w>
R. S</w>
R od
R en
Pi er
Phili p</w>
P an
O ka
Ná rodní</w>
Nobelov y</w>
Ni co
N ovém</w>
Massachu set
Ma rie</w>
Ma ha
M ala
Kongre su</w>
K in
Joh na</w>
J im
IN C
INC RA</w>
Han sen</w>
H ồng</w>
H P</w>
Guine a</w>
Franci s</w>
Dil lí</w>
Ca iro</w>
C ri
Brook lyn</w>
Bon nie</w>
Ber k
B ab
7 7</w>
4 4</w>
3 50</w>
2. 0</w>
2 5
198 7</w>
ừ </w>
ế c</w>
žralo ky</w>
žlu té</w>
živoči š
ži vě</w>
žal u
ž di
šťast nými</w>
špi č
šen i</w>
říke jte</w>
ří cích</w>
ře čí</w>
Ř í
Đ ào</w>
čísle m</w>
čís li
čtvere c</w>
čle n</w>
čist ý</w>
čer ných</w>
če le</w>
ča t</w>
č ov
č lu
úča st</w>
úto č
úspě chů</w>
úda jně</w>
ú su
ú stavu</w>
ú no
ú ng.</w>
získá vat</w>
záži tku</w>
zákla dů</w>
zvíře cí</w>
zvlá dneme</w>
ztrá címe</w>
ztra tila</w>
zrca dla</w>
zrak ové</w>
způsobi la</w>
zpravodaj ství</w>
zor ů</w>
zlepš ovat</w>
zi vní</w>
zele ných</w>
zapomně l</w>
zamě ření</w>
zaji šť
zabý vali</w>
zabezpe čení</w>
za vádě
za se
za rá
za příči
za né</w>
z totož
z lo</w>
z do
y or
y nami
y er</w>
x ů</w>
větr né</w>
výzku mem</w>
vý sa
vítěz ství</w>
vá no</w>
vznik ly</w>
vzdále ných</w>
vz rů
vyz ý
vytvoři lo</w>
vysí lání</w>
vyrost la</w>
vymý cení</w>
vyho dit</w>
vy řa
vy sla
vy jít</w>
vy hý
vy hráli</w>
vy držet</w>
vrá títe</w>
vr stva</w>
vozí ku</w>
vol ali</w>
vo lan
vlá dnutí</w>
vlá d</w>
vlo žit</w>
vliv em</w>
vizu alizace</w>
vi čky</w>
vesmír ných</w>
ven ti
vak u
va če</w>
va g
v ất</w>
v ả</w>
v ému</w>
v stá
v stupu</w>
v něj
v celku</w>
uží váme</w>
uči la</w>
uzná ní</w>
upří mný</w>
u ví
u vo
u veřej
u moc
tře tiny</w>
těho ten
twe e
tvá ři</w>
tučňá ků</w>
tu re
tu ny</w>
tu ne
tre st</w>
tragé die</w>
tr ùm</w>
tr hů</w>
tou cí</w>
to bě</w>
tle sk
tisíci letí</w>
th ầu</w>
th ường.</w>
ter mí
techni k</w>
techni ckých</w>
talen t
tabu li</w>
ta tivní</w>
ta ng</w>
t ựa</w>
t ụ
sy novi</w>
svět ového</w>
svě telný</w>
supermarke tu</w>
stá tních</w>
studen tem</w>
studen ta</w>
stu d
strá n
str hující</w>
st ný</w>
společen skou</w>
spoji tost</w>
sple ti
spl nit</w>
spi rá
součas ných</w>
součas ného</w>
sofisti kova
snaz ší</w>
slu nci</w>
sk ó
si i</w>
si e</w>
setk al</w>
sen á
sed nout</w>
se š
se řa
se stři
se dla</w>
sa ur
s ô-</w>
s plá
s ová</w>
s mýšle
s bor</w>
rá dy</w>
ru ší</w>
rozší ří</w>
rozvoj ovém</w>
rozli šit</w>
roze bí
rozdí lů</w>
rod ynami
ro vým</w>
ro to
ro ků</w>
reali tě</w>
ra m</w>
r nách</w>
působ ení</w>
přítel kyně</w>
přístup né</w>
připra vena</w>
připa dalo</w>
při jdeme</w>
přetr vá
přes ností</w>
pře z
pře stě
pře stala</w>
pře nos</w>
pře ji</w>
pá le
pru hy</w>
prostřed kem</w>
propa g
pro slov</w>
prav ě</w>
pra chu</w>
počítač ovou</w>
použí val</w>
potenci álu</w>
posíl ali</w>
posí lají</w>
poslou chají</w>
popula cí</w>
popu lár
polo žíte</w>
politi k</w>
podně t</w>
podnika telé</w>
pod lé
po rá
po rod
po měru</w>
po myslíte</w>
plou t
plo cha</w>
plan kto
plak át</w>
pl no</w>
pe ni
partne ra</w>
papr sky</w>
pal ce</w>
pacien tovi</w>
pa ste
pa né</w>
pa desáti</w>
pa ch</w>
ov e
os novy</w>
organi z
opatr ně</w>
ole j</w>
od li
oblo ze</w>
obklo pen
objek tivní</w>
obezi ta</w>
obdob ím</w>
ob l
o ční</w>
o st</w>
o pě
o né</w>
o no
o m</w>
o ku
o kla
ně ného</w>
nábo j</w>
ná vna
nu ji</w>
ni ně</w>
ni na</w>
nhu ộm</w>
nhi ên.</w>
nh i</w>
nezapome ňte</w>
neva dí</w>
neu dělali</w>
nekone čné</w>
nejsil nější</w>
nej jednodušší</w>
nebezpeč ná</w>
ne řekli</w>
ne sou
ne mohly</w>
navrh ování</w>
navi ga
nasta vit</w>
naprost á</w>
naj děte</w>
na zna
na stává</w>
na razila</w>
n âu</w>
n ství</w>
n ko</w>
míst ě
mí č</w>
musli mové</w>
mr aky</w>
moz ků</w>
moh u
mo tý
mini scen
mini a
milov ali</w>
mikro bi
medicí nu</w>
me te</w>
me me</w>
materiá lem</w>
m ma</w>
lin s</w>
li nka</w>
lep šími</w>
lep ších</w>
le vou</w>
le tů</w>
laborato řích</w>
la ri
la nd
la m</w>
l ờ</w>
l ạy</w>
l ên.</w>
l la</w>
l ho
l ce</w>
kři vka</w>
křesť an
kuchy ni</w>
kry sy</w>
kri té
kri tické</w>
kouz la</w>
kou s
kou pí</w>
kontro lní</w>
kon stan
komik sy</w>
ko lap
kmen ů</w>
klimati ckých</w>
ki lo</w>
kh an</w>
každoden ním</w>
kategori í</w>
ka pal
k no
jmu d
jisto tou</w>
jed l</w>
je ví</w>
informa čních</w>
infek ce</w>
inf ark
i la</w>
i di
hři ště</w>
hři šti</w>
hud bou</w>
hu sto
hrá če</w>
hra ním</w>
hovo říme</w>
hlad iny</w>
he j
h ú
h m</w>
gravita ční</w>
gi ật</w>
ga ng
fung ování</w>
fung ovaly</w>
fu n
fosfor u</w>
fir mě</w>
fikova ných</w>
fero mo
farmá ř</w>
exponenci álně</w>
exponen ciální</w>
en i</w>
en cyklopedi
elektro ny</w>
ele y</w>
ekonomi kou</w>
efek tivnější</w>
e ry</w>
dět ských</w>
dě né</w>
dě jin
dro gy</w>
dove dete</w>
dotk nout</w>
doprav u</w>
docí lit</w>
dobrovol níky</w>
dobrovol níci</w>
do šli</w>
do stí</w>
do m</w>
do j
divo ké</w>
disk ri
de x</w>
dan ého</w>
da tech</w>
da ci</w>
d ých</w>
d ni</w>
d lí</w>
chá pe</w>
cho dila</w>
chemi ckých</w>
ch ừng</w>
běž ná</w>
bá ní</w>
brá nit</w>
boj ovali</w>
boha tý</w>
bo jí</w>
bi za
bi op
be tu</w>
be na</w>
bare vné</w>
b lu
antro polo
anga ž
analý ze</w>
al bum</w>
akti vit</w>
ag nosti
afri ckých</w>
ae rodynami
absur dní</w>
abstrak tní</w>
a ro
a de
V í
U V</w>
Ta y
T ất</w>
T ại</w>
T he
Stře dním</w>
Si ou
S il
S ci
S K</w>
Rwan dě</w>
Ro ger</w>
Po in
Pa tri
P P</w>
Oreg on</w>
Nh ất</w>
Nh ân</w>
Ne t
Na jmud
Mexi ko</w>
Mande la</w>
M or
M er
Kore a</w>
Ju pi
Jeffer son</w>
Je an</w>
Ja ck
J sem</w>
Hun ter</w>
Higg sov
Gre en</w>
Fo x</w>
F BI</w>
E ng
D al
Ch à</w>
C or
Brow ne</w>
Blíz kém</w>
Berk eley</w>
Bax ter</w>
Bandu ra</w>
B ồ</w>
B ruce</w>
B A</w>
An tho
An dy</w>
Američan y</w>
A rá
A qu
A lan</w>
A chi
9 6</w>
199 3</w>
19 0
1 500</w>
) </w>
ấ t.</w>
žá ků</w>
živoči šné</w>
živo u</w>
živo to
ži ji</w>
žen e</w>
ž ích</w>
šťast ně</w>
šť á
šen ě</w>
šen y</w>
š roub
Švéd sku</w>
řetě zec</w>
ře n</w>
ře me
ň ujete</w>
ň ky</w>
čá ru</w>
či stí
či nek</w>
če pi
če hož</w>
čas ové</w>
Čí ň
úrov ních</w>
ú st</w>
ú ni
Ó </w>
zří dka</w>
záha da</w>
zába vy</w>
zá pad</w>
zá b
zvětš uje</w>
zvěda vost</w>
zved l</w>
zu ji</w>
zu ba
zu b
zrca dlo</w>
zoufal ství</w>
zná ní</w>
znamen ala</w>
zname ní</w>
znalo st</w>
zna čí</w>
zkouše k</w>
zep tejte</w>
zemře li</w>
ze b</w>
zaměstnan ce</w>
zalo žen</w>
zaji stí</w>
za řídit</w>
za ví
za pamatovat</w>
za chování</w>
z pracovat</w>
z dokumen
z ale
x ní</w>
všim la</w>
vě dou</w>
výrob ků</w>
vál kou</w>
vyš li</w>
vyz ývá</w>
využí vání</w>
vysky tují</w>
vyrábě jí</w>
vypravě č</w>
vynalé za
vy vě
vy půj
vy hlá
vy dává</w>
vo n</w>
veli ká</w>
vede te</w>
ved le
ve lo
vaši m</w>
vakcí na</w>
v ây</w>
učeb nice</w>
uvaž oval</w>
utra tit</w>
upří m
uměle ckých</w>
udrži telnost</w>
u pravit</w>
u jme</w>
té mat</w>
tá te</w>
ty g
trá vil</w>
transforma ce</w>
to rům</w>
tiv ními</w>
ti t
tit les</w>
thi a</w>
teč e</w>
terori smus</w>
ter s</w>
teore ticky</w>
tele sko
te ni
tak ová
ta ční</w>
t ôm</w>
syste maticky</w>
syste mati
symbo lem</w>
svět ů</w>
svě telných</w>
svi tu</w>
su ối</w>
su ro
stru čně</w>
stro mu</w>
straši del
sto jíte</w>
stavě li</w>
stav ě</w>
statisti k</w>
star ými</w>
standar di
sportov ní</w>
spolé hat</w>
společ nostmi</w>
spokoje ný</w>
soutě ží</w>
souse dy</w>
soft wa
sna hou</w>
smu tný</w>
smu tné</w>
složi tá</w>
slov u</w>
si n</w>
sesta vit</w>
se šli</w>
se e</w>
sdě lit</w>
sc ript</w>
s ových</w>
s mýš
s my</w>
rozp ty
rozmě ry</w>
rozdí lu</w>
rovnová ze</w>
rovnová hy</w>
rov nici</w>
rop ě</w>
rodin né</w>
rodi č</w>
riskan tní</w>
revolu cí</w>
repli ká
rak a
r čení</w>
r ùa</w>
pů jdeme</w>
příj mem</w>
přirozen á</w>
přijí má</w>
při stání</w>
předpoví dat</w>
předpoklá dejme</w>
předmě stí</w>
předcho zích</w>
před cházet</w>
pře hra
pě tkrát</w>
pí sk
pá d</w>
psycho logi
prvo číslo</w>
pru dce</w>
prová díme</w>
provo z</w>
prote iny</w>
prost ory</w>
prost orem</w>
progra mů</w>
profi l</w>
pro vede</w>
pro mít
pro dal</w>
pre venci</w>
pra ví</w>
poří dili</w>
poz nala</w>
použi ta</w>
potravi nové</w>
posu nu</w>
poslouch á</w>
poskyt ne</w>
poru chou</w>
porov nat</w>
poptá vku</w>
popisu jí</w>
politi cky</w>
pohyb ů</w>
podzi m</w>
podnika tel</w>
podni k</w>
pod ní
poci tem</w>
po vz
po tu
po p</w>
po hro
po dělí</w>
po cti
planetá rní</w>
pi se</w>
ph ích</w>
pev nou</w>
penh agen</w>
pe te</w>
par kovi
p té
p i</w>
oškli vé</w>
ova cím</w>
ov cí</w>
otevře nost</w>
ot ví
osob ním</w>
ok no</w>
občan skou</w>
obyčej ní</w>
obje vilo</w>
o kem</w>
násob ně</w>
námě stí</w>
nákla dné</w>
ná lní</w>
nu ốt</w>
nov ému</w>
nh ạt</w>
ngh ịch</w>
nezby tně</w>
nevi do
nerov nost</w>
nejchud ší</w>
nedosta nete</w>
nebezpeč ný</w>
ne závislost</w>
ne využi
ne verb
ne týká</w>
ne rozumíme</w>
ne přátel
ne platí</w>
ne můžou</w>
ne mě
ne hodě</w>
ne fungovalo</w>
ne daří</w>
nazva né</w>
nau číme</w>
nasta vení</w>
nakres lit</w>
nak ou
na staven
na dání</w>
n ně</w>
n kem</w>
n -
mr ak</w>
mode lem</w>
mo di
mo ct</w>
mlu ví
ministr </w>
milion krát</w>
mi no
me nem</w>
mas ově</w>
magne tické</w>
ma il
m ẹo</w>
m ười</w>
m ního</w>
m ních</w>
m ku</w>
lớ n.</w>
log y</w>
listo padu</w>
liko pté
lid u</w>
le mi</w>
l há
káz al</w>
ky mati
kvali fi
kro ku</w>
kres lit</w>
kr ku</w>
kov y</w>
kom promi
kolek tivní</w>
klini ckých</w>
kar ty</w>
kap se</w>
kalo rií</w>
ka toli
ka ret</w>
ka bi
k ř
k men</w>
ji sti</w>
ji ho
jem ně</w>
její mu</w>
jednoducho st</w>
je zdí</w>
je vy</w>
jde š</w>
jar o</w>
inspi race</w>
indi ckého</w>
in ov
i r
họ ng</w>
hý be</w>
hypoté zu</w>
hroz í</w>
hrd iny</w>
hormo ny</w>
ho sti
hla sem</w>
he likopté
he l</w>
h rou</w>
h ri
h ování</w>
h aly</w>
h alo</w>
gé ni
gu verné
gra my</w>
geno ci
gen ní</w>
frá ze</w>
frek vence</w>
fosfor </w>
formá ch</w>
fak torů</w>
energe tickou</w>
en tní</w>
dějin y</w>
dál nici</w>
dál nice</w>
dve ří</w>
dosáh nou</w>
dopad lo</w>
dob ra</w>
do zadu</w>
do pisů</w>
do kazuje</w>
dlou hově
disku tovat</w>
depre si
de š
d ệt</w>
cy kli
ci í</w>
chirur gové</w>
chi p</w>
chi e</w>
chemi cký</w>
chce te-li</w>
ch ợt</w>
ch el
celosvět ově</w>
ce ly</w>
c ổng</w>
c ắm</w>
báje čné</w>
bá sně</w>
bu l</w>
bor ů</w>
boha tých</w>
bo ku</w>
blaho byt</w>
bili ó
bi osfé
bezpeč nější</w>
bezpeč nost
bez pochyby</w>
ban ka</w>
ba vili</w>
ba sk
atmosfé ře</w>
atmosfé ra</w>
asi sten
arab ské</w>
angli cké</w>
ameri čtí</w>
ameri ckým</w>
alterna tiva</w>
ak a</w>
agre sivní</w>
a na
a j
Tran script</w>
Tr ắng</w>
Sub titles</w>
Stir ling</w>
Smi th
Se li
Scho ol</w>
S ý
Ro bin
Qu ần</w>
Por t
Pacifi ku</w>
Or le
Olympi c</w>
N as
Monta na</w>
Mon te
Me zi
Ma a
M ộc</w>
M T</w>
M R</w>
M BI</w>
Lin us</w>
L HC</w>
Keple r</w>
Ke ň
Kal uza</w>
K hoa</w>
Jer sey</w>
Itá lii</w>
Hig h</w>
He a
Gil bert</w>
Gi áo</w>
G rand</w>
G ab
For t</w>
Fe yn
F ri
Edin burgh</w>
De tro
Davi da</w>
D en</w>
D E
Co penhagen</w>
Co m
Chicag u</w>
Car ter</w>
C ái</w>
Bo ží</w>
Bo m
Bla ck
Bil ly</w>
Beethov en</w>
B í
Ari zo
Ardu ino</w>
Antho ny</w>
Ameri ku</w>
4 50</w>
4 2</w>
3 .</w>
3 ,
2 .</w>
100 ,000</w>
1 10</w>
ố p</w>
ễ u</w>
živoči ch</w>
že l
ško lky</w>
š výcar
š um</w>
š tit</w>
š ků
Špa něl
řek ni</w>
ře šíme</w>
ře no</w>
đo ạt</w>
đ ền</w>
čtvr t</w>
červ na</w>
čeká ní</w>
če nou</w>
účin nost</w>
úz ce</w>
úspo ry</w>
úchva tné</w>
úc tu</w>
á ndh
zů stá
zů staly</w>
zó nu</w>
zá měrně</w>
zvý raz
zvíře te</w>
zví da
zva ném</w>
zva nou</w>
zu bů</w>
zova ný</w>
znepokoj ující</w>
zkra tce</w>
zi sku</w>
země mi</w>
ze sí
zd vo
zavol ala</w>
zau ja
zamě řuje</w>
zahra dě</w>
zahra d
zachrá nil</w>
zabí její</w>
za stře
za stou
za m
za hrá
za bud
z řej
z or</w>
z lepší</w>
y le</w>
x ốp</w>
web ovou</w>
wai i</w>
věz ni</w>
vědo mím</w>
vě řící</w>
vě nuje</w>
vče la
výro ba</w>
vý šku</w>
váleč né</w>
vá ni</w>
vá ha</w>
vzdu chem</w>
vyš šího</w>
vyví její</w>
využi tím</w>
vytvoře na</w>
vysvět lovat</w>
vy tr
vy ta
vy hraje</w>
vr ta
vole bní</w>
vo do
vní ků</w>
vní ci</w>
vnitř ních</w>
vlaj ku</w>
vez mou</w>
vel blou
vege tari
veden ím</w>
vari a
v ùi</w>
v ná</w>
uží vá</w>
uživa telé</w>
uživa teli</w>
uživa tele</w>
uše třit</w>
uči nil</w>
uvol ňuje</w>
uvaž ujeme</w>
uspě t</w>
uplynu lých</w>
univerzi ta</w>
ukra den
ukaž te</w>
ub rou
u ti
u dělá
u by
tụ ng</w>
tři ceti</w>
těhoten ství</w>
tě ší</w>
tě lu</w>
tvr dé</w>
tvo u</w>
tu k</w>
trénin k</w>
trpě l</w>
trau mati
tová rně</w>
tov ní</w>
tov aly</w>
tov alo</w>
tov a</w>
th áo</w>
test ovat</w>
tele s</w>
tel nější</w>
te o
te mnou</w>
ta tí
ta ski
ta jící</w>
světlu šek</w>
svě domí</w>
sví tí</w>
stře dně</w>
stá ří</w>
studi ích</w>
struktu rou</w>
sto jíme</w>
stih l</w>
st é
st ných</w>
st la
společen sky</w>
spoje ním</w>
spoje ny</w>
speci álně</w>
sou části</w>
sou těž
sou boru</w>
sní h</w>
sna hy</w>
sna hu</w>
smyslu pl
sl í</w>
sku j</w>
skro m
sklá dají</w>
sk ak
si de</w>
shr nout</w>
set kat</w>
se stav
se roto
se ke
saur ů</w>
sand wi
samot ných</w>
s ửng</w>
s pustí</w>
s pustili</w>
s nu
s no
rá ním</w>
rá ny</w>
rych lá</w>
rozhod nete</w>
roz říz
roz bí
rová na</w>
rov y</w>
ritu ál</w>
ri ka
respek tu</w>
republi ká
rela tivi
reak toru</w>
reak tor</w>
re fo
re cen
qu e
pří kaz</w>
pří da
přesvěd čeni</w>
překva pí</w>
představ ě</w>
předsta vou</w>
pře vzít</w>
pře náší</w>
pís men</w>
pá tku</w>
publi k
průměr nou</w>
prů vo
prázd ný</w>
proto indické</w>
prosin ce</w>
proje ktem</w>
profes orem</w>
produktivi ta</w>
pro pu
pro g
pravide lně</w>
pravděpodob ností</w>
prasa ta</w>
pracov níky</w>
pr stů</w>
poz val</w>
použi telné</w>
pouh ý</w>
pou hou</w>
potra vu</w>
podvádě ní</w>
podnikatel ské</w>
po řad</w>
po čet
po vý
po tý
po sá
po pro
po plat
po m
po lí
po lární</w>
po chyb</w>
pla vou</w>
ph ere</w>
per soná
pe stici
pa vu
p án</w>
ova če</w>
ov em
otev ře</w>
otest ovat</w>
ot ě</w>
osm desátých</w>
orchestr </w>
ora ngu
optimi stický</w>
oko lním</w>
okamži ky</w>
oh ý
oh lé
ofi ciální</w>
odpověd nosti</w>
odh alení</w>
odbor níci</w>
obyčej ných</w>
obrá tit</w>
obdi vu
obchod ování</w>
obcho dů</w>
ob é
ob jedná
ob haj
ob ar
o dě
násob ek</w>
náro da</w>
náhod ných</w>
ná mi
nu tit</w>
nu lo</w>
no ny
nh ằm</w>
nh àm</w>
ng ợp</w>
nez tra
nez nám</w>
nevyhnu telně</w>
neu dělal</w>
nes mí</w>
nemoc nicích</w>
nejúžas nější</w>
nejs la
nejbliž ší</w>
nejas né</w>
nej častěji</w>
nej zná
nedosta nou</w>
ne žá
ne vědění</w>
ne vědo
ne potřebují</w>
ne patří</w>
ne mění</w>
ne dostal</w>
ne dokážu</w>
ne dokážou</w>
naš ly</w>
nai vní</w>
na še
na sá
na před</w>
na dějí</w>
n ón</w>
mě chý
mí ří</w>
mu tace</w>
mu m</w>
mnoh ých</w>
mlu vení</w>
minia tu
marketi ng
manaže ři</w>
man n</w>
ma ta</w>
m ày</w>
logi c</w>
liv ého</w>
literatu ře</w>
li vosti</w>
li trů</w>
li d</w>
le tím</w>
le tri
le ra</w>
le e
laborato ří</w>
l ó
l ků</w>
kukuři ce</w>
ku ře</w>
kre di
kraji na</w>
kouk něte</w>
kore k
konzu l
kontro la</w>
konkur ence</w>
kon centr
komplikova ný</w>
ko ordi
ko or
ko labo
kli d</w>
klasi cké</w>
ke v</w>
každič ký</w>
kapaci ty</w>
kame r</w>
ka mi
k ín</w>
k vět</w>
k aly</w>
jád ru</w>
ji sk
jevi šti</w>
jedno tka</w>
jed ny</w>
je mu</w>
isla mi
interne tem</w>
inspi rovalo</w>
injek ce</w>
hád ky</w>
hudeb ního</w>
hudeb níci</w>
hrá ly</w>
hra čku</w>
hr di
hovo řil</w>
holči čka</w>
hodno tách</w>
ho ài</w>
ho le</w>
hlav ního</w>
hladi ně</w>
histori cky</w>
hi e
hie rar
hez ký</w>
he li
hack ování</w>
hack erů</w>
h àm</w>
g ro
g ri
fú ze</w>
frek venci</w>
formu je</w>
finan čních</w>
filozo f</w>
fi el
fer ence</w>
fe mini
fascin uje</w>
fak tů</w>
f lét
f en
f -
exist ovala</w>
exist en
eviden tně</w>
elektrá ren</w>
ekologi cky</w>
eko systému</w>
e re
důvěry hod
důleži tého</w>
důkaz em</w>
dů cho
dě sí</w>
dý chá
dí vala</w>
dá lku</w>
dynami cké</w>
dve ř
dro ny</w>
drah ý</w>
doz věděla</w>
dove c</w>
dosáh nete</w>
dostateč né</w>
dospě lý</w>
dopamin e</w>
dodáv ky</w>
do čas
do min
do klady</w>
dlouhodob ého</w>
divá ky</w>
dile ma</w>
detekto r</w>
den t</w>
de ní</w>
dar y</w>
d ým</w>
d ãy</w>
d ními</w>
d ley</w>
cí lů</w>
cá p</w>
co ol</w>
cin e</w>
cifer né</w>
ci a</w>
chová me</w>
cho le
chlapí ka</w>
chlap i</w>
chla zení</w>
chari tu</w>
cha mi</w>
ch ala</w>
centi metrů</w>
cel í</w>
cel kový</w>
cel kovou</w>
c ạn</w>
c inu</w>
c an
bě hat</w>
bý valo</w>
bí lou</w>
básní k</w>
by tku</w>
bur g</w>
bu jící</w>
bu b
biolu miniscen
bi bli
be letri
be ch</w>
be a
bar u</w>
ba d</w>
b ůh</w>
autono mní</w>
au t.</w>
architektu ra</w>
an ce</w>
am pu
ali zovat</w>
ali ty</w>
ak cioná
ade kvá
Zá ko
Y o
Wal ker</w>
Van cou
V íte</w>
V o
T hành</w>
Sy ria</w>
Svět ové</w>
Satur n</w>
Sa mu
S á
S pa
S er
S .</w>
Rock et
Ri skuj</w>
Phoeni x
Orle ans</w>
Oka y.</w>
Net fli
Mi ssi
Mi lo</w>
Massachuset ts</w>
M ọi</w>
M um
M ul
L é
Ki va</w>
K ì</w>
Juli e</w>
Jen ni
Irá k</w>
Hy dera
Har ri
Ha waii</w>
H ai</w>
Gi ới</w>
Gi a</w>
Ge ver</w>
G ándh
G ran
F in
Evere st</w>
Encela dus</w>
Eco nomi
Dur khe
Dis ney</w>
D a</w>
Cen tr
CI A</w>
C yn
Bo no</w>
Bi r
B ou
B or
B hu
B ay</w>
Aristo teles</w>
Aqu ari
Al ber
9 7</w>
9 00</w>
197 6</w>
18 58</w>
10 ,000</w>
1, 2</w>
0 .
‎ </w>
ọ ng.</w>
ẫ m</w>
život ně</w>
život ních</w>
ži vých</w>
žen ské</w>
ž lá
ž em</w>
ště m</w>
špina vé</w>
šo k</w>
ško lení</w>
ši kov
š tím</w>
š ke
ředi tele</w>
ře ši
ř asy</w>
ň ské</w>
đồ i</w>
đ ảng</w>
đ úc</w>
đ ình.</w>
čín ský</w>
čte me</w>
čo čky</w>
či p</w>
čer ta</w>
čan y</w>
ča na</w>
č u
ý ma</w>
účin ný</w>
účin né</w>
účast níky</w>
zů stali</w>
získá vání</w>
zá chva
zvu kový</w>
zv rá
zu bní</w>
zodpověd né</w>
zobraz ování</w>
zná mou</w>
znepoko ji
zn ala</w>
zi l</w>
zele ně</w>
zd vi
zbyteč ně</w>
zač něte</w>
zauj alo</w>
zaměst ná
zak ó
zahr nují</w>
zachy cuje</w>
za vá
za vla
za pl
za n
z ních</w>
z ali</w>
x ứ</w>
x ế</w>
x ích</w>
w er
věz ňů</w>
věde ckého</w>
vě nujeme</w>
význam nější</w>
význam ná</w>
výjime čně</w>
vý rok</w>
ví tejte</w>
vádě t</w>
vyře ší</w>
vyu čování</w>
vytvoře ná</w>
vybí rat</w>
vybudov ali</w>
vy měnit</w>
vy j
vy hov
vy hodno
vy hnu
vy hlí
vsa dím</w>
vol ného</w>
vl nu</w>
vl ak
vidě ly</w>
vi b
ven i</w>
ve ru</w>
ve jde</w>
v rozen
v oval</w>
v ova
uži tek</w>
uži li</w>
uvědomu jí</w>
ur čují</w>
uniká tní</w>
umě lou</w>
umí rá</w>
uk li
ucho pit</w>
u tí
u silovat</w>
u k</w>
tří d</w>
tře m</w>
těž kou</w>
tvo řil</w>
tvo rové</w>
tu gal
tu ber
trval ý</w>
tro pi
trap né</w>
tradi ci</w>
tr âu</w>
tov ým</w>
tou hle</w>
tlačí tka</w>
tisí ckrát</w>
ti vou</w>
ti ckým</w>
ti ci</w>
thala te</w>
th y</w>
tex ty</w>
tex ti
ten ké</w>
tel ném</w>
teh dejší</w>
technologi cký</w>
techni cký</w>
te ček</w>
taj né</w>
ta h</w>
t ův</w>
t to</w>
t ována</w>
sym pa
světlu šky</w>
svě te</w>
subjek tivní</w>
stře še</w>
stá tem</w>
stá ly</w>
strá ví</w>
stra va</w>
stra ci</w>
stej ní</w>
statisti ku</w>
statisti ka</w>
statisti cky</w>
sta jící</w>
st ý
sr p
spraved livé</w>
spon zo
spoji l</w>
spoje no</w>
soustře dění</w>
souhla sí</w>
sou dit</w>
soci álním</w>
smá li</w>
smr tí</w>
skó re</w>
skon čilo</w>
sko čit</w>
sk ách</w>
sil nic</w>
si ng</w>
sekven ci</w>
se mí
schizofre nie</w>
samot ným</w>
s ứa</w>
s ův</w>
s ích</w>
rư ởi</w>
různo rod
ru č
ru n</w>
ru jete</w>
rozpo ru</w>
rozhodu jící</w>
rozdí lem</w>
roz pa
roz klá
ri n</w>
reži mu</w>
reži m</w>
reál ného</w>
reali zovat</w>
re x</w>
re formy</w>
re be
rakov in
ra dost
pů r
přispí vá</w>
připo jit</w>
přiblí žit</w>
při vedlo</w>
při dáte</w>
při dáme</w>
při cházet</w>
přesu neme</w>
překvapi lo</w>
představ oval</w>
před í</w>
před ků</w>
pře šel</w>
pře tvořit</w>
pře krač
pě sti
píš ou</w>
puště n</w>
pu su</w>
psycho logii</w>
průbě h</w>
prv ně</w>
propoje ni</w>
proce sů</w>
pro stitu
pro s
pro ro
pro mlou
pro bou
preziden tem</w>
prezen tovat</w>
pre fron
pracu jících</w>
pra sk
pošle te</w>
pozorová ním</w>
pozo roval</w>
pozna tek</w>
poz pátku</w>
poví dání</w>
použi to</w>
pou čit</w>
pou li
pot kat</w>
postup u</w>
postup em</w>
postaven o</w>
posta rat</w>
poslouch al</w>
portré ty</w>
popi su</w>
poku šení</w>
pokou ší</w>
pohy bli
podí let</w>
podob á</w>
podi vu</w>
po ví</w>
po předí</w>
po psali</w>
po pla
po mysleli</w>
po moz
pomoz te</w>
po malé</w>
po dat</w>
po chy
ple x</w>
plat formy</w>
plat formu</w>
pl no
piz zu</w>
pilo t</w>
pi lí
ph thalate</w>
peri odi
peně žen
partner ství</w>
parla mentu</w>
pal u
pa u
pa sivní</w>
pa na</w>
p se</w>
p pi
ov ky</w>
oun da
organis mů</w>
okol nosti</w>
oh ni</w>
odpo vím</w>
odpo ru</w>
odmě ny</w>
odmě na</w>
odha dnout</w>
odbor níky</w>
od su
od les
od jel</w>
oceá nů</w>
oběž nou</w>
obraz ce</w>
obra zech</w>
ob vo
ob leč
ob jí
o k</w>
o cho
návra t</w>
nádher nou</w>
ná rní</w>
ná pis</w>
ná kre
ná h
nu to</w>
normá lních</w>
no sím</w>
ni čku</w>
ni ka</w>
nez ná</w>
nes rozumi
nepo hod
nejoblíben ějších</w>
nej zajímavější</w>
neho du</w>
nedosta tkem</w>
nedosta ne</w>
nech me</w>
nebo jte</w>
neandertál ci</w>
ne viděla</w>
ne sly</w>
ne skutečné</w>
ne pocho
ne našli</w>
ne myslí</w>
ne mohlo</w>
ne l
ne končí</w>
ne daleko</w>
ne -
narodi li</w>
naprost ou</w>
nabí dku</w>
na razí</w>
na pá
na poje
na hlédnout</w>
měsí čně</w>
mě ry</w>
má lo
mrt ví</w>
moto rů</w>
morá lku</w>
momen ty</w>
minu lých</w>
minu lém</w>
mi ly</w>
me t</w>
me lá
marato n</w>
malá rii</w>
malá rie</w>
m že</w>
m ép</w>
m ový</w>
m mm</w>
lov alo</w>
lo kali
lo dě</w>
li k</w>
lev ém</w>
leh čí</w>
led ové</w>
le xi
le pi
le dovec</w>
le c</w>
l ži</w>
l .</w>
ky ni</w>
květ nu</w>
ku podivu</w>
krás ných</w>
krás nou</w>
kre sli
kr vá
kr mení</w>
kou sků</w>
kop ce</w>
koncep ty</w>
komentá ře</w>
komentá ř</w>
komedi e</w>
kolá č</w>
kole na</w>
ko čky</w>
ko ně</w>
kní žku</w>
knihov ně</w>
klobou k</w>
kli p</w>
klasi cký</w>
kla de</w>
kar tá
kampa ně</w>
ka u
k ly</w>
jeh lu</w>
jedin ém</w>
je dou</w>
je d</w>
jas ná</w>
jaká si</w>
jaká koliv</w>
jakou koli</w>
jader ných</w>
interak cí</w>
instala ce</w>
injek ční</w>
ilu zí</w>
hã ng</w>
há dejte</w>
hrd ý</w>
hrani cemi</w>
hra nicí</w>
hra jící</w>
hlubo ká</w>
h níz
gy pt
gal akti
g al</w>
foto graf</w>
filozofi i</w>
filozo f
fede rální</w>
fak ty</w>
f fe
exper ty</w>
exist oval</w>
ex tra</w>
ex pan
elektri ckých</w>
ekonomi cká</w>
dů sledek</w>
děl alo</w>
dív ku</w>
dí š</w>
dél ce</w>
dáv aly</w>
dá ma</w>
dveř mi</w>
drž te</w>
dramati cké</w>
dovo lili</w>
dov al</w>
douf at</w>
dokonal ou</w>
do slovně</w>
do padá</w>
dlouhodob ém</w>
diva dlo</w>
dino saurů</w>
d ží
d na</w>
d kou</w>
co m
ck e</w>
ci tuji</w>
ci ho</w>
chů zi</w>
chyt ře</w>
cho di
che mo
ch mu
cest ovali</w>
centr ální</w>
ca s</w>
c vo
c ca</w>
bře hu</w>
bí te</w>
bu dují</w>
bram bory</w>
bo ur
bo sti</w>
blog u</w>
bio logové</w>
bio log</w>
bezpeč ný</w>
ba da
b alo
b ai</w>
anima ce</w>
an der</w>
ambici ózní</w>
alterna tivy</w>
ali smu</w>
ak ční</w>
a ra
William s</w>
Ti tanu</w>
Th ứ</w>
Tay lo
Ta hri
T ạng</w>
T ài</w>
T uyệt</w>
Stri p</w>
Spe ed
Si mon</w>
Seba stian</w>
Satur nu</w>
San del</w>
S po
S ho
Robin son</w>
Re d
RN A</w>
Philadel phia</w>
Parkin so
Par k</w>
P in
Nobelov u</w>
Najmud din</w>
Na th
Mum bai</w>
Me s
Manhat tanu</w>
Ma y
Ma ria</w>
M ůj</w>
M oh
Libano nu</w>
Leonar da</w>
Lang ley</w>
La za
La tin</w>
Kana dy</w>
Ka trina</w>
K ông</w>
K er
Jeru zalé
Ja son</w>
Ja mie</w>
J ur
J ob
J an
J Y</w>
I g</w>
Ha zle
Gu ardi
F el
Eri k</w>
Ed ward</w>
E du
E G</w>
Durkhe im</w>
Dou g</w>
Dob ře</w>
Di ana</w>
Co že</w>
Co lo
Can yon</w>
C y
C oh
C ho
Bom ba
B ệnh</w>
B ây</w>
B lu
Archi mé
Al ja
A sh
A a
= </w>
3 0.</w>
2 4
198 2</w>
1, 5</w>
1 80</w>
1 0.</w>
žralo čí</w>
žralo k</w>
ži dli</w>
žen ým</w>
že jící</w>
ž ur
ž kami</w>
ž ha
ška tu
širo ké</w>
še na</w>
ša ty</w>
ředi telem</w>
ře ni</w>
ř ku</w>
či nit</w>
čen ého</w>
če ž</w>
če li</w>
če la</w>
čan ů</w>
č tr
č kem</w>
úspěš ná</w>
ú činek</w>
ú tra
ô la</w>
ó ó
zů stalo</w>
zázna mu</w>
záva zek</w>
zápa s</w>
zále želo</w>
zákaz níky</w>
záchra ně</w>
zá zra
zá da</w>
zvyš ují</w>
zvláš tních</w>
zv u</w>
ztrá tě</w>
ztra títe</w>
zpě tně</w>
zprá vách</w>
zova ných</w>
zopak ovat</w>
zně l</w>
zná mého</w>
zni čí</w>
zneči ště
znamen al</w>
zma tek</w>
zkou ška</w>
zi la</w>
zdravot nické</w>
začí náte</w>
začí nám</w>
začá tkem</w>
zaznamen ali</w>
zapla ceno</w>
zane prázd
zamě řil</w>
zají mal</w>
za vě
za sek
za padá</w>
za ost
za myšlení</w>
za jít</w>
za jisté</w>
za hy
za dání</w>
za cházení</w>
z troj
z rakov
z ováno</w>
z oru</w>
z le</w>
z de
x é</w>
x ay</w>
věři la</w>
vět ších</w>
výži vu</w>
výro čí</w>
vý zev</w>
vý počtů</w>
vý hod
vý chov
ví r</w>
vá žit</w>
vá hy</w>
vzpomí nek</w>
vzdělá ním</w>
vyprá víme</w>
vynále zu</w>
vynalez li</w>
vyjedná vání</w>
vy řešení</w>
vy zkou
vy pustit</w>
vy pu
vy dělali</w>
vy drží</w>
vstou pí</w>
vrst vě</w>
vlo žili</w>
vla sů</w>
vita mí
vidi telné</w>
vi êm</w>
vi r</w>
veřej ně</w>
večí rku</w>
vel ryby</w>
ve mte</w>
va Sc
v ựng</w>
v ặt</w>
v stát</w>
v ovali</w>
v ků</w>
v ci</w>
uči ní</w>
uvědomu jeme</w>
uměle ckou</w>
umí rání</w>
udrži telný</w>
u če
u vádí</w>
u vedli</w>
u tlu
tá vá</w>
tá bor</w>
ty čin
tvoře ny</w>
tvoře na</w>
tuber kul
tuberkul ó
tu ổi.</w>
tu ân</w>
tu m</w>
tu dy</w>
trá pení</w>
tru bí</w>
tro chou</w>
tro cha</w>
tre fi
tran zist
tradi čním</w>
tr ọng.</w>
tr ét</w>
titu lní</w>
titu lky</w>
ti ště
ti ché</w>
tho n</w>
th ừng</w>
ter em</w>
tenden ce</w>
technologi ím</w>
tan covat</w>
takzva né</w>
takový to</w>
tak řka</w>
tak též</w>
t ẩy</w>
t nímu</w>
t lou
svě telné</w>
svobo dě</w>
stí nu</w>
stra chem</w>
stou pí</w>
sto ph
sti g
sti ckým</w>
stav ba</w>
sta vi
srovná vání</w>
spoje ných</w>
spoje na</w>
spoj ovat</w>
spisova telka</w>
souse dů</w>
souhla sím</w>
souhla sil</w>
sou rozen
sní st</w>
smě šné</w>
smlou va</w>
sm ích</w>
slýchá me</w>
sluš ně</w>
slu ncem</w>
sle ch</w>
sla bé</w>
sla bá</w>
skvě lého</w>
skupi nami</w>
sklá da
sil ným</w>
signá lů</w>
setk ali</w>
sen zorů</w>
se lek
scho dech</w>
sbí rají</w>
samosta tné</w>
samo tě</w>
sa mci</w>
s z
s ra
s pre
s myslem</w>
s hi
růž ové</w>
růz ní</w>
roč níku</w>
rozšíře né</w>
roztomi lé</w>
rozpí ná</w>
rozmě rů</w>
rozmani tosti</w>
rozlo žení</w>
rov nost</w>
roman tická</w>
ro kra
ri á
regi on</w>
refo ot</w>
razi lo</w>
raj ča
r ầu</w>
r nost</w>
příči na</w>
příjem ný</w>
pří znaky</w>
pří stroji</w>
pří s
připraven é</w>
připra vili</w>
přestěh oval</w>
překo nání</w>
představ ujeme</w>
předpo ja
předklá dá</w>
přede jít</w>
pře vrá
pře ná
pře hled</w>
pís meno</w>
pá ru</w>
py t
publi kovali</w>
psycho pa
práv u</w>
prá dlo</w>
pru ž
proží váme</w>
prozkou mali</w>
prospě šné</w>
pro vedení</w>
pro prac
pro mění</w>
pro cházet</w>
pro cházejí</w>
primi tivní</w>
požá dám</w>
počá tek</w>
poč kejte</w>
pozna tků</w>
pozi tivním</w>
poví dám</w>
poví dal</w>
povzbu dit</w>
považ uje</w>
pova ze</w>
pova hy</w>
použí valy</w>
pouš tíme</w>
pou to</w>
posí lá</w>
postaven é</w>
posta víme</w>
posta v</w>
posky tovat</w>
pora dit</w>
pome ran
poku sí</w>
poh rá
podpo rující</w>
podob ní</w>
podnika tele</w>
podi vnější</w>
po ři
po zdra
po trubí</w>
po strá
po razit</w>
plast ové</w>
plane tách</w>
pla tné</w>
ph áo</w>
per son
per o</w>
paten t</w>
papí rové</w>
p -
ovlá dnout</w>
ova telé</w>
ova ném</w>
ounda tion</w>
otáz kám</w>
otáz kami</w>
oto čí</w>
osu du</w>
osob ností</w>
orchestr u</w>
or g</w>
optimi smus</w>
opak ování</w>
ono ho</w>
ohrom ná</w>
oh y
oh něm</w>
odstra nili</w>
odmě n</w>
odhod lání</w>
ode jde</w>
odbor né</w>
od říz
od tr
od bo
oce l</w>
obě ť</w>
občan ská</w>
obyva telé</w>
obtí žně</w>
obliče ji</w>
o zvě
o pustili</w>
o něch</w>
o c
nějak ými</w>
níz ký</w>
níz ko</w>
nádo rů</w>
nádher ně</w>
nádher ných</w>
nábožen ské</w>
ná ra
ná lep
no sil</w>
nh ầy</w>
ng ửi</w>
ng ục</w>
nezapo menu</w>
neu vidíte</w>
netu ší</w>
nesta bilní</w>
nesmí me</w>
nese te</w>
nese me</w>
nes see</w>
nenávi sti</w>
nemoc ný</w>
největ šího</w>
nej rychlejší</w>
neho d</w>
neb ýt</w>
neb a
ne říká</w>
ne w
ne slyšeli</w>
ne představi
ne konečně</w>
ne gramo
ne dělám</w>
ne dostali</w>
naš t
navrhu jeme</w>
naprost é</w>
napad la</w>
namal oval</w>
nadšen i</w>
na čež</w>
na va
na jdu</w>
na h
na ci
na bi
n ců</w>
mí nění</w>
médi um</w>
médi i</w>
má my</w>
mysl .</w>
my to
muž ské</w>
mrt vá</w>
mpi ri
moto ru</w>
moto rem</w>
morá lky</w>
moc ná</w>
mo stu</w>
mo ná
mistr ovství</w>
men y</w>
mechani cké</w>
me mů</w>
mar t</w>
manipu lovat</w>
mal ovat</w>
ma sk
ma sem</w>
ma se</w>
ma fi
léka řů</w>
léka řem</w>
lé tá</w>
lé ku</w>
lá ka
lá h
lov ala</w>
log em</w>
lo w
lid skými</w>
libe rá
lexi ko
les a</w>
ledov ců</w>
le tou
la na</w>
l ượt</w>
l ơ</w>
l ý
l kou</w>
l -
ků ň</w>
kří dlo</w>
ké ž</w>
ku ře
krea cioni
kov ému</w>
kou ření</w>
kou pe
kou kat</w>
kontro le</w>
konflik ty</w>
koncentra ce</w>
kon ta
kon figu
komuni tou</w>
koli ka</w>
ko ngre
ko m</w>
ko lé
ko -
klíč ovou</w>
klá vesnice</w>
klu ky</w>
kles ne</w>
ki ng
každo ročně</w>
katastrof ách</w>
k rych
k ně
jízd ě</w>
jez du</w>
jesky ně</w>
jedi ní</w>
jed ova
jed náme</w>
jader ná</w>
inter view</w>
instruk ce</w>
indi cký</w>
in ti
impul s</w>
im pé
il ding</w>
i mu
husto ta</w>
hroz ná</w>
hroz bou</w>
ho n</w>
hlubo kou</w>
hla sů</w>
histor ku</w>
he k
h ní
gi ll</w>
gh t</w>
generá l</w>
ge l</w>
fyzi cký</w>
fun da
fot ce</w>
fot bal</w>
fon du</w>
fir mou</w>
finan čně</w>
fa ve
f f</w>
explo ze</w>
experimen tální</w>
exist ovaly</w>
ex ter
epidemi i</w>
elektri ckou</w>
ekvivalen t</w>
efek ty</w>
e tické</w>
e se
e mpiri
e ly</w>
džu ng
důstoj nost</w>
důleži tosti</w>
dě me</w>
dáv alo</w>
dár ců</w>
dár cov
dá rek</w>
dro g
dr žím</w>
dr s
dovole nou</w>
dovo lené</w>
dove de</w>
dov á</w>
dosáh la</w>
dostá váte</w>
dosa hují</w>
doporu čuji</w>
dopad ne</w>
domá cího</w>
domá cích</w>
dokto rát</w>
dokon čili</w>
doho dy</w>
dobr ém</w>
do zor
dlu h</w>
distribu ce</w>
disku se</w>
digitá lním</w>
di vu</w>
deta il</w>
depre sí</w>
demografi cké</w>
databá zi</w>
daleko hled</w>
da tům</w>
d no</w>
cí le
cháze lo</w>
chao su</w>
ch .</w>
centr em</w>
cele bri
c tí</w>
c al</w>
bílkov iny</w>
bílkov in</w>
by rokra
bud ová
bu s</w>
bo ž
bo jíme</w>
blázni vé</w>
biza rní</w>
ber te</w>
ber g
bak alá
b ry
b ob
au stral
astro nau
architek ti</w>
anony mní</w>
angiogene zi</w>
analy zovat</w>
ali n</w>
aktiv uje</w>
a ten
a tar</w>
a be
Západ ní</w>
Z ele
Wo men</w>
Vá mi</w>
U N
To hle</w>
Tha js
Th ị</w>
Ten nessee</w>
Tal ks</w>
Tahri r</w>
Stá ty</w>
Sto ne</w>
Speed Strip</w>
Sky pe</w>
Se ver
Samu el</w>
S kot
Rus sel
Ri u</w>
Ri ck</w>
Q atar</w>
Pro jek
Pot ter</w>
Po wer
Po su
Pitts burgh</w>
Ph ần</w>
P AS
O hi
Ni ck</w>
My slím</w>
Monte rey</w>
Mi tra</w>
Mar c</w>
Ma mi</w>
Ma c</w>
M an</w>
Lin e</w>
Le sley</w>
K ur
K ay</w>
Ju stin</w>
Jim my</w>
Ježí š</w>
Jenni fer</w>
Jen ny</w>
Ja vaSc
IM PAS
H ele
H al
Gal va
G ró
G ali
Fran kli
Flori dě</w>
F oundation</w>
Ev ropu</w>
Economi st</w>
E U</w>
Den nis</w>
DAR PA</w>
Cyn thia</w>
Coo per</w>
Chri stoph
Cha z</w>
Car gill</w>
C on</w>
Blíz kého</w>
Bi osfé
Bhu tan</w>
Ba refoot</w>
Ba by
B P</w>
Au ro
Atlan tik</w>
Atlan ta</w>
Ar kti
Aquari us</w>
Alex and
Ac cen
8 1</w>
6 000</w>
17 .</w>
0 0
. org</w>
ể .</w>
ế t.</w>
žárov ky</w>
že ly</w>
ža s</w>
šíle ný</w>
še nou</w>
š ti
š ta
š ná</w>
š kách</w>
říj nu</w>
ří díme</w>
ří dila</w>
ři na</w>
ře na</w>
ře ku</w>
ř ském</w>
đi ền</w>
đi ếc</w>
čín ská</w>
čtená ři</w>
či ně</w>
čer pa
če lo</w>
časo sbě
č kám</w>
Č e
úspo r</w>
ú žas</w>
ú řad</w>
í cí</w>
ì u</w>
ál ové</w>
ál nímu</w>
á lem</w>
 </w>
záži tků</w>
zástup ce</w>
zása dních</w>
zákla dního</w>
zá měrem</w>
zven čí</w>
zva ného</w>
ztrá tou</w>
způsoben o</w>
způsob ené</w>
zpí vá</w>
zpravoda jské</w>
zpravoda js
zobra zit</w>
zneči šť
změ nách</w>
zmí ním</w>
zlo men
zlepš ují</w>
zku síte</w>
zkoumá ním</w>
zjisti lo</w>
zi í</w>
zi sky</w>
zi ma</w>
zdvo ři
zbý vající</w>
začí nali</w>
začí nala</w>
zavo lat</w>
zase dání</w>
zakři vení</w>
zak ry
za šel</w>
za va
za tk
za ostře
za ní
za ho
za chová
za blo
z části</w>
z ká
z kamen
y an</w>
x ộn</w>
we r</w>
we l
vě ky</w>
výu ky</w>
výu ka</w>
výkon nější</w>
výjime čné</w>
výji mky</w>
vý ška</w>
vý šce</w>
vý stup</w>
ví mi</w>
vál ně</w>
vá žíme</w>
vzpome nout</w>
vzpome nete</w>
vzor ků</w>
vz kaz</w>
vyža dují</w>
vyrů stala</w>
vyrov ná
vyfo til</w>
vybr ala</w>
vy razit</w>
vy léčit</w>
vy brá
vozi dlo</w>
vol al</w>
vo lit</w>
vni třek</w>
vl aky</w>
vhod ná</w>
veřej ný</w>
večí rek</w>
venkov </w>
ve čer
ve př
va na</w>
va jícím</w>
v stup</w>
v ovala</w>
v nějším</w>
uživa tel</w>
uše tří</w>
uza m
utra tili</w>
ur čené</w>
upří mní</w>
uprch líků</w>
umož nily</w>
uděle jme</w>
u čením</w>
tří dách</w>
tře sk</w>
tě ž</w>
tá ty</w>
tá tu</w>
tu jete</w>
trá pí</w>
tri ků</w>
tr ak
tov án</w>
tou ží</w>
to tálně</w>
to sho
tlak em</w>
thi ếp</w>
th ổ</w>
th ể.</w>
th iệt</w>
terori sté</w>
tera pii</w>
ten ká</w>
teena ge
te c</w>
talí ř</w>
ta nce</w>
t řá
symbo lů</w>
svobo dné</w>
sva té</w>
sv é
stě ží</w>
stě hov
sty ku</w>
studov ala</w>
strá ž
stro j
stou pit</w>
ste ru</w>
stavě ní</w>
stav bě</w>
správ ných</w>
spolu byd
spoje ný</w>
spo jíte</w>
sou částky</w>
sou dy</w>
soci álně</w>
soci álními</w>
soci álního</w>
so nu</w>
so lid
sně hu</w>
sním ku</w>
smlou vu</w>
slov ech</w>
slep ý</w>
slep é</w>
skon číte</w>
sklá dání</w>
sjedno cení</w>
si ng
si mi
shromáž dění</w>
shr nutí</w>
shr nuje</w>
sho dou</w>
sh mi</w>
sh mal
seve ro
se zení</w>
se st
se kre
se dící</w>
sdíle li</w>
scé ně</w>
scé na</w>
sch válně</w>
sami čka</w>
sa mým</w>
s čí
s prav
s mlu
s děl
s co
rádi ové</w>
ru ční</w>
rozší řili</w>
rozší řil</w>
rozhov orů</w>
rozhod nu
roz tr
rov nosti</w>
rostli nu</w>
rost ly</w>
rop né</w>
ro lí</w>
red ak
re ce
ra du</w>
ra d</w>
ra cioná
r ổ</w>
r ặng</w>
r ské</w>
půj čit</w>
pů va
příše rné</w>
příči n</w>
připraven ý</w>
připra vil</w>
připo jili</w>
přimě je</w>
přijí mání</w>
přibliž uje</w>
při stěhov
při jeli</w>
přes ná</w>
překvapen i</w>
předpoklá dat</w>
před vedu</w>
před kové</w>
pře četl</w>
pře pí
pře nes
pře mo
pře hodnotit</w>
pře ce
píše me</w>
pátra t</w>
pá té</w>
pá trá
pá s
publi kovat</w>
publi kem</w>
prázd ná</w>
prá šek</w>
prou dy</w>
procháze li</w>
proběh la</w>
pro hlaš
prefron tální</w>
pre ference</w>
pracov ním</w>
pr ší</w>
pr še
poš lou</w>
počítač ového</w>
pozná mky</w>
pozná me</w>
pouště t</w>
pou ště</w>
potřeb ám</w>
potravi ná
pot lesk</w>
poste l</w>
posou vá</w>
poslou p
poslech něte</w>
posa dil</w>
pora dce</w>
por trét</w>
polov i
pol štá
pokrač ování</w>
pokouše t</w>
poji štění</w>
poin ta</w>
poho n</w>
podívá te-li</w>
podvádě t</w>
podi ví
po řadu</w>
po tichu</w>
po se
po myslete</w>
plo d</w>
pla sti
pla ce
pi tí</w>
pi to
pi ly</w>
pi lo</w>
pe simi
palu bu</w>
pal ců</w>
padá k</w>
pa s
pa desátých</w>
pa desát</w>
pa cha
p ala</w>
ou t
os y</w>
originá lní</w>
organiza cemi</w>
orangu ta
opy lova
opti mální</w>
opa čné</w>
omezen ý</w>
omezen á</w>
ohro žení</w>
oh ně</w>
odhal í</w>
ode vz
odděle né</w>
oceá ny</w>
oceá nech</w>
oceně ní</w>
obra zec</w>
obje vujeme</w>
obje mu</w>
obezi ty</w>
obecen stvo</w>
obchod níci</w>
obcho dech</w>
ob ou
ob last
ob dél
o č</w>
o svě
o puště
o práv
o par
o kur
nů ž</w>
něj šímu</w>
ní že</w>
náz nak
návr hů</w>
následov ala</w>
národ ním</w>
náhod ná</w>
nábožen ských</w>
ná pa
ná ladu</w>
nu t</w>
no ha</w>
ni čem</w>
ni cemi</w>
nh a</w>
nezapo mí
netu šila</w>
nepo važ
nepo chybně</w>
nemo cemi</w>
nejlep šími</w>
nejkrás nější</w>
nejhor ších</w>
nejdůležitě jším</w>
nedě li</w>
nedo t
ne slyšel</w>
ne rá
ne rozumím</w>
ne přišel</w>
ne předvída
ne myslel</w>
ne efektivní</w>
ne dělali</w>
ne dělal</w>
ne dokázal</w>
ne cké</w>
naznač ují</w>
navští vili</w>
nauči ly</w>
nato čili</w>
naroze ni
napl nění</w>
nahrá vku</w>
nada ci</w>
nabí dka</w>
na sto
na psa
míst ními</w>
mí rně</w>
mu ộn</w>
mu tan
mrt vici</w>
moř skou</w>
mon d</w>
momen tě</w>
moder ním</w>
mo re</w>
mo cí</w>
mnoh ým</w>
mluv te</w>
mi ž</w>
mi k
meze ry</w>
mara tông</w>
mar shmal
mamo grafie</w>
mali a</w>
mal ba</w>
ma tek</w>
ma si
ma jící</w>
m si</w>
lí bil</w>
lé čí</w>
lá ním</w>
lov it</w>
logi cká</w>
logi ckou</w>
lidsko sti</w>
leti šti</w>
le vá</w>
le tou</w>
la ční</w>
la cí</w>
l d
kvali tě</w>
ku po
ku jete</w>
kte j
krátk ých</w>
kru ž
kru zích</w>
kru hy</w>
kre ve
kr ví</w>
kr mí</w>
koste la</w>
koru m
kontrover zní</w>
kombi naci</w>
kom pa
koleg ou</w>
koka in</w>
ko ktej
klo n
kli knout</w>
kle sa
kaz ují</w>
kategori i</w>
kancelá řích</w>
kamen né</w>
kalho ty</w>
kal ku
ka nad
k tua
k lo</w>
jí címu</w>
jist ých</w>
jedi ně
jaz z
jakého koli</w>
ja bl
inzu li
investi c</w>
interpre taci</w>
interne tových</w>
interag ovat</w>
inova tivní</w>
ingredi ence</w>
in ová
in fikovaných</w>
il l</w>
i th</w>
i dy</w>
hú tá
hád an
hu riká
horizon tu</w>
hor ním</w>
hodno tami</w>
ho ro
ho r</w>
ho li
hlas ování</w>
hladov í</w>
hla du</w>
histori cké</w>
here c</w>
h ům</w>
gravi taci</w>
gra ce</w>
ge sto</w>
frek ven
foťá k</w>
formu lá
fo u
flu ktua
finan ce</w>
filo sofi
fi lan
farma ce
fanou š
f inova
f fi
extré mi
exper t</w>
energe ticky</w>
en zy
en u</w>
emo cionálně</w>
em bry
ekono mů</w>
ekono my</w>
e ta
e maily</w>
e j</w>
dů raz</w>
děv čata</w>
dědi ctví</w>
děde ček</w>
dě tech</w>
dí l</w>
dár ci</w>
dá ni</w>
dá lky</w>
du b
dr žíte</w>
doč kat</w>
dovo lil</w>
doved nost</w>
dota z
dostup ných</w>
dopa min</w>
dokáže š</w>
dokto ry</w>
dokonal á</w>
doho du</w>
do mem</w>
do mech</w>
dlouh ých</w>
diskri mi
dis ple
digitá lních</w>
detai lní</w>
dese tkrát</w>
de šti</w>
de sti
de ska</w>
de li
databá ze</w>
da vu</w>
da tové</w>
d roz
ct vím</w>
co by</w>
ci zích</w>
ci zi
chytr ých</w>
chy tá
chtě ly</w>
chobot nice</w>
cho dím</w>
chirur gie</w>
charakte ru</w>
ch ổi</w>
ch lé
běže la</w>
běž nou</w>
budouc ností</w>
bu lu</w>
bu dujeme</w>
bri lan
blíz ký</w>
blíz kosti</w>
bla ho</w>
bask et
bar vou</w>
bankov ní</w>
b ấm</w>
b ít</w>
b alení</w>
auto ři</w>
atr aktivní</w>
astero id</w>
architektu ru</w>
arche o
amy g
al ar
al -
aktu ální</w>
aktivi tou</w>
ak or
absol ven
abe ce
Ver me
US D</w>
To ky
T ru
So malia</w>
Si r</w>
Shi rky</w>
Seat tle</w>
S t.</w>
S ově
S inh</w>
S M</w>
Ru fu
Ra tan</w>
R. S.</w>
R it
Qu e
Power Poin
Pho tosho
Pen ta
Pale sti
P os
Odysse us</w>
Něme cko</w>
Ne pá
Ne pal</w>
Melin da</w>
Mat the
M ovem
M P
M A</w>
Lin u
L e</w>
Ko ngo</w>
Kle in</w>
Kenne dy</w>
Kam bo
K y
Japon ska</w>
Isla ndu</w>
Isla nd</w>
Isa bel</w>
IMPAS S</w>
Geor ge
G er
Fre ud</w>
Francis cu</w>
Fi li
Fel low</w>
Etiopi i</w>
Ele ctro
Edu ar
E a
Do ha</w>
Da w
D ra
Connecticu t</w>
Coca- Co
Christoph er</w>
Cha d</w>
C ách</w>
C ru
Bu l
Bri t
Bot ton</w>
Bang al
Baby lon</w>
Bab ba
B rand</w>
B it
B BC</w>
Ar t</w>
Ar gen
Alex ander</w>
Al lo
A d
A T
8 3</w>
7 8</w>
4 000</w>
197 4</w>
194 9</w>
19 65</w>
1, 3</w>
ệ t.</w>
ả i.</w>
žád al</w>
žá dám</w>
žá dat</w>
že vna
ško lních</w>
ši ka
š véd
š tinu</w>
š pl
š pen
Š výcar
řík aly</w>
ře ka</w>
ň uju</w>
ň ovalo</w>
đ òn</w>
Đ ược</w>
čtvr tiny</w>
čin ností</w>
či pu</w>
čas ů</w>
ča sech</w>
č r
č nými</w>
č melá
č ci</w>
účin nosti</w>
úče tní</w>
účast níků</w>
úč ty</w>
úte su</w>
úh ly</w>
ú vě
ú ry
 </w>
získ an
získ aly</w>
zázrak y</w>
zásob </w>
záb lesk</w>
zá por
zvětši t</w>
zvyk lý</w>
zvyk li</w>
zvláš tně</w>
zvlá dnu</w>
zva ná</w>
zranitel ní</w>
způsob ech</w>
zpřístup nit</w>
zně lo</w>
zná mým</w>
zni čili</w>
zmize t</w>
zlep šili</w>
zla tý</w>
zkou máme</w>
zkou mal</w>
zkamen ě
zjišť ovat</w>
zji ště
zdravot ních</w>
zda -li</w>
zbož ňuji</w>
zavo lá</w>
zauj mout</w>
zasta vila</w>
zaned bá
zabi la</w>
zabi je</w>
zab ali
za třetí</w>
za tá
za to</w>
za slou
za pí
za ja
z re
z li</w>
z houb
z bro
xo áy</w>
wo od
vůd ců</w>
věz ně</w>
vědě ly</w>
vědomo stí</w>
vě kem</w>
vče lí</w>
vče la</w>
vývo jem</w>
výrob ci</w>
výro bek</w>
výmě nu</w>
výbor né</w>
vý ky
vá žím</w>
vá ze</w>
vá noční</w>
vzta zích</w>
vznik nou</w>
vzděláva cího</w>
vyšetř ování</w>
vyu žijeme</w>
vytáh nout</w>
vytváře li</w>
vytvá řím</w>
vyroben ý</w>
vyrob í</w>
vylep šení</w>
vyhle dávání</w>
vy zv
vy zař
vy tá
vy slech
vy sl
vy práv
vypráv ím</w>
vy pořád
vy hu
vy ch
vrst vou</w>
vr tul
vojá k</w>
vlá dám</w>
vizu álně</w>
vizu álního</w>
virtu álním</w>
veřej nou</w>
vez li</w>
ver s</w>
ven ých</w>
va ci</w>
v nou</w>
v kou</w>
uvědomu jete</w>
uvědo mí</w>
uvol nit</w>
uspoko jení</w>
ur čení</w>
umě jí</w>
umí stili</w>
uk rý
uk ry
uc tí
ub ai</w>
u viděli</w>
u tě
u re
u měl</w>
u misť
u cele
tý ž</w>
typi cká</w>
tvoře n</w>
tru i
tri ti
tre f
tre ch</w>
tragé dii</w>
tr àng</w>
tr zích</w>
tr iều</w>
tová rnu</w>
toleran ci</w>
to x
to ku</w>
tla čí</w>
tisí cov
ti čtí</w>
thu ỳ</w>
th ắp</w>
th en</w>
teč né</w>
ten týž</w>
tel ské</w>
tel ní</w>
teku tiny</w>
te pel
tane ční</w>
taková to</w>
t úng</w>
t mi
t l</w>
sí tích</w>
sz ler</w>
sval ů</w>
sun dat</w>
středo škol
stře t</w>
stě na</w>
stádi u</w>
stvo řit</w>
stup ň
stu dujeme</w>
stro p</w>
str </w>
sti ckého</w>
stav ů</w>
staro by
stadi onu</w>
sta ře
sta neme</w>
správ u</w>
spokoje nost</w>
spoji la</w>
sp al</w>
součas nou</w>
souvislo st</w>
soukro mého</w>
sou stavě</w>
sou cítění</w>
so lárních</w>
smí chu</w>
služ ba</w>
slu pky</w>
slu chu</w>
složi tosti</w>
slov í</w>
ská ly</w>
skon číme</w>
sko -
sklá dat</w>
sk al
si s</w>
si lách</w>
si lo</w>
shromáž dili</w>
setk ala</w>
sesta vili</w>
ser ví
sed ím</w>
se staven
se sbí
se me
se dí
sbí rku</w>
sav ců</w>
s rozumi
s nem</w>
s hal
s dru
různoro dost</w>
ry bu</w>
ry ba</w>
ry b
ru ji</w>
ru hé</w>
rozšiř ování</w>
rozvoj ový</w>
rozvinu tých</w>
rozpí nání</w>
rozpozná vání</w>
rozpo r</w>
rozli šení</w>
rozhod nou</w>
roz poznání</w>
roz měr</w>
roz místě
rovi nu</w>
rostli n
ro sau
reprezen tuje</w>
relevan tní</w>
regu lace</w>
re ver
re ne
re j</w>
[...]
