i </w>
n g
ng </w>
n </w>
a </w>
e </w>
. </w>
, </w>
t </w>
o </w>
c h
n h
u </w>
y </w>
m </w>
c </w>
t h
à </w>
í </w>
t r
ó </w>
nh </w>
s t
p o
k h
r o
ch </w>
é </w>
t e
ô i</w>
v à</w>
a l
a k
t ôi</w>
n e
ộ t</w>
o v
g i
p h
t o</w>
l à</w>
m ột</w>
c ó</w>
á </w>
e n
ě </w>
ú ng</w>
c á
j e</w>
ê n</w>
l i
ch úng</w>
t i
s e</w>
ể </w>
e m</w>
ô ng</w>
ữ ng</w>
t o
p </w>
nh ững</w>
p ř
n í</w>
ờ i</w>
j s
e d
ž e</w>
n o
n a</w>
n a
t a</w>
i ệ
ớ i</w>
ấ t</w>
d o
c ủ
củ a</w>
k o
ý </w>
r a
q u
l </w>
m e</w>
n à
v </w>
h o
tr o
l a
ề u</w>
ạ n</w>
l e
m o
s </w>
ư ợ
v ě
b y
n i
ư ời</w>
ng ười</w>
p ro
i ều</w>
ự </w>
- </w>
b ạn</w>
? </w>
tro ng</w>
đ ó</w>
nh ư
ạ i</w>
ã </w>
ì </w>
h o</w>
v i
d ě
l i</w>
ở </w>
th ể</w>
h ọ
ế t</w>
cá c</w>
j ak
ế </w>
j e
ng h
nà y</w>
k </w>
k te
l o
đ ã</w>
c e</w>
n ě</w>
v y
ượ c</w>
v o
p r
ế n</w>
t ak
ž </w>
z a
t e</w>
i n
đ ược</w>
â y</w>
l a</w>
r a</w>
ề </w>
ì nh</w>
kh ông</w>
s k
m ě
o b
í m</w>
v ới</w>
s ự</w>
s a
m i</w>
ch o</w>
n á
k d
c ả
u y
m a
n ě
d </w>
js em</w>
ầ n</w>
kte r
ấ y</w>
t a
l à
ů </w>
v e
ơ n</w>
là m</w>
m u
j í</w>
v á
0 </w>
đ ể</w>
n ó</w>
í ch</w>
z </w>
á c</w>
ự c</w>
ž i
đ iều</w>
ả i</w>
b i
a n</w>
k y</w>
như </w>
th ế</w>
d e
ố ng</w>
ẽ </w>
m i
â n</w>
a y</w>
v ề</w>
ằ ng</w>
l e</w>
o u</w>
ř e
c o</w>
st a
l o</w>
v a
c i</w>
d i
ị </w>
họ </w>
r á
k a
v à
n é</w>
ầ u</w>
ư ớ
ậ t</w>
k u
o r
p a
b u
m à</w>
: </w>
ý ch</w>
m á
s i</w>
e r
s l
kh i</w>
t ừ
à nh</w>
b y</w>
c o
ứ c</w>
ố </w>
n ă
t ě
d o</w>
s ẽ</w>
i ể
t u
j ed
đ ây</w>
a nh</w>
c e
s t</w>
ướ c</w>
š í</w>
s i
k u</w>
al e</w>
đ ến</w>
v í
iệ n</w>
v š
ư ờ
c u
í nh</w>
à n</w>
př í
li d
l á
r ất</w>
al </w>
l u
ố i</w>
a ng</w>
từ </w>
và o</w>
ườ ng</w>
p ra
m ů
ứ </w>
ỉ </w>
đ ộ
h ơn</w>
nh iều</w>
cá ch</w>
d y</w>
jak </w>
v iệ
l ại</w>
việ c</w>
js me</w>
như ng</w>
m í
d í
ậ n</w>
ro z
ov a
t y</w>
ph ải</w>
j i
c k
s e
kd y
ả n</w>
đ ầu</w>
ch o
th ấy</w>
ù ng</w>
r u
cả </w>
ư ơ
â u</w>
é ho</w>
v ì</w>
j í
th ực</w>
họ c</w>
ô </w>
ĩ </w>
r i
v e</w>
en í</w>
př e
js ou</w>
ậ y</w>
a i</w>
á t</w>
c í</w>
ươ ng</w>
r ằng</w>
j i</w>
g ì</w>
kh ác</w>
al i</w>
à i</w>
ệ </w>
ả </w>
st i</w>
n í
tr ên</w>
ổ i</w>
ụ </w>
ž e
b o
co n</w>
př ed
ạ o</w>
ó i</w>
z á
m u</w>
s o
jak o</w>
ề n</w>
v ậy</w>
k i
z e
ế u</w>
a r
s po
v ý
tak </w>
m y
ố n</w>
cá i</w>
kdy ž</w>
l y</w>
kter é</w>
nà o</w>
ch i
ử </w>
ờ </w>
n y</w>
př i
ọ i</w>
ch ỉ</w>
c ông</w>
m e
ř í
đ ang</w>
nă m</w>
t ě</w>
ch uy
à ng</w>
a n
é m</w>
i ên</w>
th ứ</w>
n ói</w>
ắ t</w>
ẻ </w>
r e
s á
a o</w>
th ành</w>
ộ c</w>
do b
s vě
č i
d á
k á
pr o</w>
s ố</w>
t á
o d
ũ ng</w>
cả m</w>
no u</w>
t u</w>
k a</w>
kh o
ơ i</w>
đ i</w>
d u</w>
v í</w>
c ũng</w>
ậ p</w>
n á</w>
1 </w>
ý m</w>
c i
s tr
p i
bi ết</w>
ă n</w>
qu an</w>
v z
ve l
ngh ĩ</w>
ko n
ova t</w>
n ên</w>
tak že</w>
nh à</w>
ơ </w>
s í
b ị</w>
ú c</w>
ř i
r </w>
ữ </w>
ộ </w>
nh ất</w>
t ạo</w>
ặ t</w>
ch ính</w>
u je</w>
u ng</w>
d a
ồ i</w>
t ại</w>
độ ng</w>
n e</w>
d e</w>
t í</w>
ư ở
m ě</w>
z e</w>
n ếu</w>
t ất</w>
ưở ng</w>
mu ốn</w>
ố t</w>
m ình</w>
á n</w>
gi ới</w>
ệ n</w>
ỏ </w>
ữ a</w>
m ọi</w>
h ình</w>
e o</w>
s ống</w>
ř í</w>
m en
n ý</w>
h iện</w>
ượ ng</w>
al a</w>
pr á
0 0</w>
mů že
d ụ
à y</w>
n ov
sa u</w>
ho d
t i</w>
l ớ
ấ n</w>
pra v
cu ộc</w>
č e
ở i</w>
ố c</w>
vš e
ti ế
â m</w>
ê u</w>
na š
ne j
s v
s ob
t ře
th u
t y
z a</w>
ò n</w>
z p
gi ờ</w>
ne b
ov á
c ần</w>
b ắt</w>
m no
s u
b ě
nh ận</w>
ứ ng</w>
th eo</w>
e n</w>
- -</w>
ak </w>
j </w>
đ ị
st u
ô n</w>
by lo</w>
t ự</w>
st i
by l</w>
d u
b ằng</w>
st á
za č
a u</w>
n u
a s
n u</w>
ỏ i</w>
ắ c</w>
b ởi</w>
no sti</w>
ng ày</w>
ủ </w>
po u
th ì</w>
po d
iể m</w>
á m</w>
ộ i</w>
c ùng</w>
neb o</w>
ti n</w>
t ới</w>
ò ng</w>
x i
lớ n</w>
c òn</w>
ì n</w>
h ay</w>
n ím</w>
c âu</w>
ư a</w>
k la
ổ </w>
l ý</w>
h le</w>
ặ c</w>
l é
t ế</w>
s p
t ím</w>
sk u
ả ng</w>
z i
dụ ng</w>
đ ề</w>
ži vo
th ời</w>
b ý
tr ở</w>
tr ước</w>
á o</w>
th ay</w>
qu y
n ước</w>
mo h
nh ân</w>
mo ž
m y</w>
đ ồ
te l
c ơ</w>
ž í
a by</w>
st e
th ật</w>
b ản</w>
si nh</w>
á i</w>
l ên</w>
ọ ng</w>
2 </w>
ạ t</w>
by la</w>
5 </w>
đ ổi</w>
nă ng</w>
ov é</w>
; </w>
n i</w>
d al
gi a</w>
ỗ i</w>
ka ž
ph ần</w>
chuy ện</w>
iệ m</w>
iệ u</w>
p o</w>
nh ìn</w>
th ông</w>
ẫ n</w>
b ộ</w>
ả nh</w>
š e
b a</w>
st e</w>
sa o</w>
qu a</w>
ph át</w>
n o</w>
nh au</w>
no st</w>
ro v
kter ý</w>
tr ường</w>
đị nh</w>
b e
so u
ne ž</w>
h a
to to</w>
sl ed
ư </w>
ụ c</w>
pro to
d ů
te n
l í
to àn</w>
iể n</w>
f i
á ng</w>
ko u</w>
v ật</w>
pro st
nh iên</w>
l ní</w>
v ấn</w>
je n</w>
ì m</w>
vše ch
z na
h u
ă ng</w>
v ní</w>
li ệ
x u
th i
te č
k ết</w>
bě h
n ích</w>
proto že</w>
st o
s ử</w>
ạ c</w>
dě ku
z d
bý t</w>
my sl
kaž d
ž en
ấ p</w>
á nh</w>
o t
n ơi</w>
ấ u</w>
vá m</w>
ả o</w>
le t</w>
h ệ</w>
st í</w>
t ìm</w>
kd y</w>
r u</w>
ch á
h àng</w>
t ưởng</w>
l en
děku ji</w>
ạ ng</w>
h ai</w>
ạ nh</w>
lid é</w>
c en
ỹ </w>
t ốt</w>
ho á</w>
iệ t</w>
to m</w>
C h
vel mi</w>
o d</w>
má y</w>
m ới</w>
d ru
ể n</w>
ả y</w>
t ính</w>
m ặt</w>
ú t</w>
m á</w>
ová ní</w>
t vo
ů sob
tr ẻ</w>
t é</w>
l ed
š i
č í
pa d
č </w>
po ku
ko li
ú </w>
tiế p</w>
ki nh</w>
n ých</w>
la st
ợ p</w>
th ức</w>
iể u</w>
gi an</w>
ó ng</w>
l ượng</w>
al o</w>
u dě
r y</w>
p ak</w>
h ã
h ành</w>
j in
liệ u</w>
h ợp</w>
tr ình</w>
r ồi</w>
ř e</w>
ý mi</w>
c ô</w>
lo u
t é
k rá
kter á</w>
f or
to ho</w>
h ội</w>
zp ůsob
vě t
z mě
to hle</w>
ji ch</w>
tak é</w>
s y
al i
ắ n</w>
ně co</w>
d a</w>
c í
jed no
č a
ồ n</w>
h ỏi</w>
p u
cho m</w>
ck é</w>
à o</w>
by chom</w>
á d
đ ối</w>
ř i</w>
th ích</w>
v last
ví ce</w>
j ší</w>
đ ều</w>
by ch</w>
ệ nh</w>
t í
gi ải</w>
v ị</w>
kte ří</w>
l ần</w>
ti ên</w>
v a</w>
sku teč
v ě</w>
le č
b ao</w>
ty to</w>
m a</w>
ď </w>
và i</w>
n ữa</w>
3 </w>
lo ại</w>
ř ed
je me</w>
t uy
á p</w>
chi ế
mí st
jí cí</w>
ứ u</w>
v á</w>
tr ọng</w>
m al
b a
sá ng</w>
po tře
c ứu</w>
r y
h la
th ường</w>
v r
může me</w>
l u</w>
dru h
x em</w>
u t</w>
ng o
í t</w>
m ỗi</w>
kd e</w>
r ů
může te</w>
j á</w>
đ iểm</w>
va t</w>
p l
đồ ng</w>
t âm</w>
b ất</w>
v ed
l ov
vi ên</w>
t ương</w>
ten to</w>
poku d</w>
th ống</w>
la t</w>
lid í</w>
nh ỏ</w>
ko u
ĩ a</w>
ắ ng</w>
hã y</w>
độ </w>
m é
b ệnh</w>
gi ống</w>
š </w>
b ên</w>
qu ot
quot ;</w>
h led
& quot;</w>
ị ch</w>
je jich</w>
ná s</w>
a m</w>
thi ết</w>
g ra
ễ n</w>
před </w>
kd o</w>
ch u
spo leč
pro b
le p
kho ảng</w>
ê m</w>
st ví</w>
o prav
na y</w>
ho àn</w>
1 9
đ o
mů že</w>
lo gi
má me</w>
chiế c</w>
0 00</w>
t ní</w>
ộ ng</w>
č á
gi áo</w>
ỷ </w>
uy ền</w>
sta v
4 </w>
po z
p la
vi dě
mi li
ngh iệm</w>
p á
ợ </w>
ngh ĩa</w>
tr ung</w>
d ov
ce l
mo z
ch tě
ọ n</w>
j en
đ ưa</w>
qu á</w>
ná m</w>
qu ả</w>
h i
z i</w>
te n</w>
ù </w>
sk é</w>
d ùng</w>
quy ết</w>
ệ t</w>
er i
ũ </w>
š í
ste j
p e
h iểu</w>
ma jí</w>
ph ụ</w>
ạ </w>
p ě
do u</w>
đ ường</w>
a u
tr iển</w>
ứ a</w>
k ů</w>
v é</w>
l úc</w>
my s
t ác</w>
ch ất</w>
ẩ n</w>
ho ặc</w>
h </w>
đ ại</w>
thu ật</w>
ho u</w>
á ch</w>
ro u</w>
x ảy</w>
tr ị</w>
ch u</w>
u jí</w>
ta dy</w>
b iệt</w>
ã o</w>
c ao</w>
d i</w>
uy ên</w>
l ực</w>
ỳ </w>
te r
2 0
ngh ệ</w>
chuy ển</w>
b ình</w>
e ne
z v
1 0</w>
ă m</w>
à u</w>
tu ổi</w>
l í</w>
vo u</w>
svě t
" </w>
d ân</w>
mě li</w>
ò </w>
ử a</w>
iệ p</w>
er </w>
d ne
š ko
vy tvo
d en
u či
sv é</w>
ta m</w>
d ní</w>
vel k
str a
ní ho</w>
b ây</w>
tr uyền</w>
vě ci</w>
vá s</w>
te ď</w>
ngh e</w>
pro č</w>
d ự
ngh iên</w>
o n
n ữ</w>
c ầu</w>
le ži
t ượng</w>
u ž</w>
vi dí
š tě</w>
tr anh</w>
i ch
đ ất</w>
tr a
h ra
gi á</w>
v y</w>
všech ny</w>
c ích</w>
V ám</w>
g h
ú p</w>
g a
naš e</w>
j ste</w>
ti ến</w>
oprav du</w>
% </w>
u r
ợ i</w>
từ ng</w>
ướ ng</w>
g ọi</w>
ạ y</w>
ph ương</w>
k em</w>
z ku
t ập</w>
t ình</w>
ỗ </w>
é p</w>
bu de</w>
ni t</w>
gi úp</w>
no ut</w>
h ết</w>
d r
d í</w>
ři t</w>
xu ất</w>
A </w>
ž í</w>
ma ng</w>
x e</w>
ng u
o s
kh i
cho p
v ẫn</w>
mu sí
ph ân</w>
cu ối</w>
n ão</w>
e xi
tiế ng</w>
ng ay</w>
đ ặt</w>
ắ p</w>
z í
ph òng</w>
te dy</w>
li ên</w>
č í</w>
ả m</w>
n ého</w>
by ly</w>
8 </w>
tuy ệt</w>
ẳ ng</w>
vi t</w>
ta y</w>
je ho</w>
ře j
é mu</w>
v ů
ư ới</w>
po dí
b í
ře k
k ra
ř </w>
ó c</w>
k ov
gi ữa</w>
x ã</w>
s tro
pra c
kh ả</w>
bi ến</w>
chi ến</w>
xi n</w>
di ễn</w>
đ ơn</w>
m in
jed en</w>
ch y
6 </w>
pří kla
ẩ m</w>
p í
s na
N e
đ úng</w>
l em</w>
c á</w>
c ố</w>
by li</w>
z í</w>
ů m</w>
5 0</w>
d ụ</w>
po dob
m lu
y êu</w>
ầ m</w>
t ů</w>
l ời</w>
a ž</w>
M ỹ</w>
do sta
b ài</w>
pou ží
m ất</w>
to mu</w>
ti ền</w>
7 </w>
dal ší</w>
nh i
pří běh
ó m</w>
mysl ím</w>
g ần</w>
th o
s chop
ch to</w>
ậ u</w>
č i</w>
ho ạt</w>
sá ch</w>
svě tě</w>
pr vní</w>
al y</w>
. .</w>
l ập</w>
l ấy</w>
ọ c</w>
č ní</w>
ne u
2 0</w>
lo ài</w>
b ỏ</w>
tě chto</w>
th ân</w>
kho a</w>
đ áng</w>
or i
k ro
j a
č as
d ě</w>
D </w>
h ro
s ản</w>
by ste</w>
dě l
đ iện</w>
ov al</w>
potře bu
tr iệu</w>
moh li</w>
k ế</w>
ž ád
á lní</w>
m to</w>
každ ý</w>
in y</w>
ặ p</w>
dě lá
đ ứa</w>
ch ứng</w>
m ạnh</w>
š e</w>
đ ời</w>
th ú</w>
ch ơi</w>
mož ná</w>
de n</w>
prost řed
ấ m</w>
v i</w>
s ức</w>
mno h
ừ ng</w>
te ch
va jí</w>
t ý
od po
o tá
t vá
sp ě
ch ọn</w>
e k
vš ich
všich ni</w>
ve li
h ướng</w>
T h
s í</w>
b ức</w>
ạ ch</w>
zna men
ve r
roz hod
qu ốc</w>
tr í</w>
th ử</w>
nh ạc</w>
ê </w>
v ăn</w>
ti nh</w>
h y</w>
t ử</w>
pr ů
á l
ngo ài</w>
ne ní</w>
I n
mi nh</w>
tr ả</w>
ň </w>
té to</w>
sl ov
P h
ẫ u</w>
rů z
vě dě
ể u</w>
ế m</w>
u ká
tak ov
jí t</w>
h iệu</w>
d ẫn</w>
th u</w>
me zi</w>
u mě
ph ẩm</w>
m é</w>
b é</w>
ně jší</w>
sy st
s át</w>
dob r
co ž</w>
b ảo</w>
đồ </w>
ob je
c ứ</w>
T ôi</w>
š ích</w>
dů leži
t ăng</w>
ph áp</w>
d ự</w>
ze m
ov ali</w>
kte rou</w>
k ể</w>
s ed
ni ch</w>
po h
z de</w>
ng uyên</w>
k ỳ</w>
f u
m ô</w>
krá t</w>
koli k</w>
w </w>
th áng</w>
a t</w>
é t</w>
se b
n ền</w>
o u
ně jak
mí t</w>
mo hou</w>
b ào</w>
je ště</w>
ch ủ</w>
ti êu</w>
lu ôn</w>
ễ </w>
ẹ </w>
m ý
h u</w>
ve s
mě l</w>
my š
ạ m</w>
ngh iệp</w>
c ky</w>
ta to</w>
z ná
t ên</w>
dne s</w>
v ũ</w>
v ô</w>
T E
ry ch
quy ền</w>
do u
z ji
m r
kh í</w>
p ů
b </w>
ỡ </w>
h rá
ch ức</w>
vidí te</w>
r ů</w>
ka z
al e
x ây</w>
příkla d</w>
ph i
mno ho</w>
ầ y</w>
đ ặc</w>
v en
b u</w>
otá z
ch ế</w>
š tě
ti ck
th ần</w>
t ài</w>
i n</w>
gi ả</w>
e ko
n ak
do kon
al o
vi de
pa t
j te</w>
běh em</w>
b à</w>
ř en
p en
dự ng</w>
prá v
ạ p</w>
uy ết</w>
su y</w>
f o
đ ạo</w>
Q u
í a</w>
a si</w>
– </w>
õ </w>
c ấp</w>
vě do
j de</w>
ừ a</w>
ph ố</w>
mě st
m eri
mů j</w>
udě l
ồ ng</w>
nh óm</w>
n ým</w>
khi ến</w>
do ká
A f
. ..</w>
ph á</w>
m ů</w>
gi ác</w>
ậ m</w>
e x
ề m</w>
M a
ví c</w>
v ụ</w>
ch í</w>
ủ ng</w>
z en
kh u</w>
k e</w>
b ay</w>
te ch</w>
po mo
n y
m àu</w>
đ ánh</w>
všech no</w>
m ức</w>
20 0
te k</w>
ch ết</w>
c àng</w>
kh ỏi</w>
vá ní</w>
ro bo
ch ưa</w>
d ưới</w>
l ẽ</w>
m ạng</w>
ro di
dě ti</w>
vo l
vlast ně</w>
ra n
tr ái</w>
musí me</w>
kh ó</w>
k á</w>
ch út</w>
ẹ p</w>
za jí
vi ết</w>
th ị</w>
s u</w>
před stav
d ịch</w>
d ạng</w>
š en
c ộng</w>
živo t</w>
udě lat</w>
ki ến</w>
h e
3 0</w>
n .</w>
lid i</w>
ế p</w>
sl u
m ở</w>
ce st
ớ </w>
stá le</w>
vá me</w>
đ ôi</w>
ô m</w>
v u
in for
stu p
pro cen
chi a</w>
š ím</w>
zd ra
ji m</w>
ph ép</w>
k iểm</w>
i l
c ực</w>
! </w>
th am</w>
dí ky</w>
đ àn</w>
te m</w>
gi ản</w>
o l
hod ně</w>
ổ ng</w>
še l</w>
t ổ</w>
in u</w>
c ů</w>
da t</w>
c ây</w>
ř a
z ení</w>
xu ống</w>
x a</w>
qu anh</w>
lep ší</w>
tech no
t ư</w>
č er
vě c</w>
tr ò</w>
g ây</w>
v ời</w>
str á
př i</w>
prob lé
b áo</w>
to u</w>
th êm</w>
r õ</w>
č e</w>
x ác</w>
m ẹ</w>
kh á</w>
ph ía</w>
ngu ồn</w>
c ụ</w>
š ení</w>
a bychom</w>
ê ng</w>
9 </w>
s o</w>
koli v</w>
â ng</w>
v ực</w>
V à</w>
pro je
techno logi
te ri
mu se
ko m
d lou
v u</w>
o n</w>
ví me</w>
qu ay</w>
k é</w>
zí sk
v òng</w>
svě t</w>
mý š
g ặp</w>
mé ně</w>
vě cí</w>
tr ang</w>
ch ci</w>
bi ểu</w>
ze k</w>
v ùng</w>
tro chu</w>
t ích</w>
s ĩ</w>
o te
l ém</w>
h ưởng</w>
N h
má m</w>
infor ma
ro ce</w>
nh anh</w>
ne s
míst o</w>
cả nh</w>
u k
t ři</w>
e l
be z</w>
jed nou</w>
ter ne
ř ení</w>
jedno du
đ âu</w>
th ương</w>
dě lat</w>
vidě t</w>
m o</w>
đ ẹp</w>
u st
si l
h ôm</w>
znamen á</w>
i .</w>
ene r
ch ce
b li
řej mě</w>
ví te</w>
t ục</w>
t ku</w>
dob ře</w>
ự a</w>
g ắng</w>
exi st
d ài</w>
b ra
vět ši
ne c</w>
tr a</w>
m ôi</w>
a g
ư ỡ
ti t</w>
d ữ</w>
or </w>
n ém</w>
ồ </w>
v ọng</w>
th uyết</w>
s lo
po li
do st
d va</w>
ch ân</w>
an o</w>
tu to</w>
sa moz
o ng</w>
ny ní</w>
d vě</w>
st o</w>
l ệ</w>
je te</w>
do la
ni c</w>
myš len
ves mí
sta r
po čí
gi ao</w>
g </w>
živo ta</w>
v lá
stej ně</w>
tr ụ</w>
ov ala</w>
đo ạn</w>
dụ c</w>
tr ăm</w>
k ì</w>
jed na</w>
zji sti
to ho
th anh</w>
pá r</w>
ob rá
no stí</w>
vy u
o p
k o</w>
ng ữ</w>
mo c</w>
ti vní</w>
mě r
mys le
bu de
ỉ nh</w>
ž as
prob lém</w>
z u
pře mýš
l ợi</w>
gi ảm</w>
Qu ốc</w>
đ ấy</w>
toho to</w>
le k
d ù</w>
ư u</w>
z kou
vi l</w>
t ỉ</w>
ob ra
ni kdy</w>
nh ớ</w>
mu ni
samoz řejmě</w>
skuteč nosti</w>
pr e
po sled
b ước</w>
ť </w>
đ ô</w>
má te</w>
tr i
ti v
spo ust
ro d
o sta
moh l</w>
d ễ</w>
đ ình</w>
vět ší</w>
veli ce</w>
naš i
ắ m</w>
ú žas
h ầu</w>
č en
du y</w>
ó n</w>
způsob </w>
th í</w>
nu tí</w>
1 00</w>
t ky</w>
mu sí</w>
le ty</w>
ce la</w>
na příklad</w>
mě sí
ch ú</w>
ni ce</w>
k ý</w>
jed in
h ạn</w>
ga ni
ck ý</w>
di t</w>
a bych</w>
th ậm</w>
th ư</w>
ru ng</w>
z nov
w e
vše ch</w>
nov é</w>
ằ m</w>
zá kla
lov ě
la i</w>
ki ếm</w>
hod no
ụ p</w>
đ ầy</w>
vy pad
s âu</w>
pod le</w>
k ni
e l</w>
dokon ce</w>
v ím</w>
mo je</w>
lu ận</w>
lu ật</w>
s vo
ro st
r ní</w>
o h
lo u</w>
s lou
r ộng</w>
ph ủ</w>
bu dou</w>
s ợ</w>
đ ạt</w>
č lově
ph ản</w>
ob la
t ov
sk ý</w>
fu ng
A nh</w>
v rá
mě la</w>
m ục</w>
ki a</w>
ů j</w>
pou ze</w>
k ỹ</w>
c ậu</w>
b er
H o
t ạp</w>
seb e</w>
s y</w>
n ối</w>
tě ch</w>
ri êng</w>
pou ži
n ů</w>
d iện</w>
chá ze
ch ẳng</w>
sv ůj</w>
před sta
ne m</w>
đ ủ</w>
odpo vě
o sob
Ne w</w>
sa i</w>
or gani
la d
l òng</w>
l é</w>
k r
to mto</w>
prá ce</w>
poh y
mo de
ko muni
ch a
tr ải</w>
t ồn</w>
ka m
č ím</w>
mnoh em</w>
gi ữ</w>
ener gi
d ạy</w>
o m</w>
c t</w>
x ung</w>
bu dou
pro to</w>
na ší</w>
kh ắp</w>
pře s
po ř
h ov
ed i
a t
phi m</w>
ch ắc</w>
ch ung</w>
zají ma
thu ốc</w>
g en
cá m</w>
vy tvá
eko no
č ně</w>
v ali</w>
ur či
t ối</w>
skuteč ně</w>
počí ta
o ko
ná š</w>
na d</w>
ch i</w>
č ení</w>
svě ta</w>
su ốt</w>
pro du
min u
ã i</w>
uy ện</w>
ni c
kh u
ko lem</w>
d ành</w>
tr ời</w>
t á</w>
t vr
pře s</w>
procen t</w>
T rung</w>
v ž
sk á</w>
ọ </w>
tr ông</w>
sk ých</w>
po jen
b án</w>
y ếu</w>
to án</w>
qu y</w>
pl ně</w>
ne te</w>
ch ạy</w>
b ố</w>
žen y</w>
đo án</w>
ze mě</w>
x </w>
v ệ</w>
v ẻ</w>
proje k
đị a</w>
prá vě</w>
prá ci</w>
pod sta
č ty
ti sí
th úc</w>
př á
ng .</w>
n ými</w>
g ene
cá nh</w>
cu ốn</w>
ch a</w>
Ph i</w>
v al</w>
sá h
příběh </w>
ma ti
b àn</w>
b r
ư ng</w>
znov u</w>
p y</w>
ne ch
t ně</w>
mili ar
c ăn</w>
đ ọc</w>
vlast ní</w>
thu ộc</w>
mno ho
dola rů</w>
k ỷ</w>
ck ých</w>
b óng</w>
roz dí
ph út</w>
ng ôn</w>
st alo</w>
pě t</w>
dě ji</w>
chtě l</w>
vy š
v âng</w>
tu ần</w>
st řed
li t</w>
l ịch</w>
ặ ng</w>
é o</w>
tr á
ph ức</w>
i m
n ổi</w>
ku l
je jí</w>
ja z
ho à</w>
zv lá
pa r
nhi êu</w>
li v
b ar
zp e
zač al</w>
ti ết</w>
b í</w>
kho ẻ</w>
uká z
str uk
r ak
k ích</w>
j em</w>
dů vo
ưỡ ng</w>
x úc</w>
tře ba</w>
k li
V </w>
th ái</w>
s práv
l âu</w>
k iện</w>
d á</w>
ží t</w>
š pat
te l</w>
ste ch</w>
ph ục</w>
ní mi</w>
J a
đ ứng</w>
z ví
v ừa</w>
qu ý</w>
m ắt</w>
m ẫu</w>
m í</w>
k y
d em</w>
č ky</w>
vý sled
ná sled
ni t
ng ạc</w>
mnoho krát</w>
s vou</w>
na uči
vý zku
u kaz
s ní
lớ p</w>
le tí</w>
TE D</w>
1 5</w>
sv ého</w>
při š
c ấu</w>
an i</w>
te le
s ẻ</w>
s ắc</w>
ně kdo</w>
mu a</w>
sta ne</w>
ne mo
d la</w>
h á
ượ t</w>
s ko
ro k</w>
ekono mi
vš e</w>
th ôi</w>
p lá
l ení</w>
budou c
ữ u</w>
vytvo ři
tr ợ</w>
ng ôi</w>
g ái</w>
do anh</w>
G o
naši ch</w>
e k</w>
chá zí</w>
b ăng</w>
větši na</w>
t ức</w>
s ở</w>
h ữu</w>
řek l</w>
m ối</w>
l ã
bu ổi</w>
vš ak</w>
vi li</w>
s vý
na n
la n
bu ň
vz dělá
ú plně</w>
ně kdy</w>
k re
A meri
zp ě
potřebu jeme</w>
l á</w>
kh ủng</w>
každ é</w>
h ạnh</w>
d ů</w>
Y or
Ấ n</w>
th iên</w>
p er
nh iệm</w>
h ồi</w>
vypad á</w>
sk u</w>
p le
hro ma
c ửa</w>
ú spě
stu den
pr v
nh ập</w>
moz ku</w>
c kou</w>
độ c</w>
vo j
vide o</w>
v ận</w>
kh ám</w>
h ạt</w>
ỏ ng</w>
ča s</w>
x ét</w>
stu di
způsob em</w>
sl y
nak o
2 5</w>
sto u
s kou</w>
jaz y
ch ương</w>
ổ n</w>
vá l
u mož
r àng</w>
p lo
ng ồi</w>
je m
š ť
velk é</w>
prostřed í</w>
pro ti</w>
pa d</w>
pa ci
ko li</w>
ho r
h r
d lo</w>
pra cu
kul tu
b an</w>
N o</w>
ži t</w>
ch e
y .</w>
va ž
tr úc</w>
ně j
kter ých</w>
g e
do st</w>
ck á</w>
bi ển</w>
či t</w>
č in
z o
u vědo
sa mo
p s
ně kolik</w>
ch ụp</w>
b lí
è o</w>
sk ého</w>
produ k
ph úc</w>
o g
jedno ho</w>
dá v
b á
Af ri
ti cké</w>
ph ạm</w>
nako nec</w>
mu ž
ch âu</w>
vy so
ni l</w>
zv u
vu i</w>
ob rov
jí cích</w>
ch ắn</w>
bi o
Đ ộ</w>
terne t</w>
f e
dě tí</w>
cel é</w>
c ạnh</w>
6 0</w>
v ẽ</w>
spo lu
s ím</w>
poz or
mož né</w>
l ựa</w>
je st
ẩ y</w>
n ằm</w>
k ẻ</w>
i g
au to
tě ž
syst ém</w>
f y
exist uje</w>
da jí</w>
C o
đ a</w>
v iện</w>
t ý</w>
k iểu</w>
ří ct</w>
ĩ nh</w>
vytvo řit</w>
pr vé</w>
a m
zd ro
thi ếu</w>
sk y
l ắng</w>
d ří
v o</w>
u jící</w>
fy zi
dob ě</w>
4 0</w>
t ỷ</w>
fi l
m ật</w>
dự a</w>
M i
đ ột</w>
vů li</w>
tr ai</w>
d y
tak to</w>
l ạc</w>
cu ng</w>
za po
t ổng</w>
ph í</w>
mno ž
l ů</w>
ši t</w>
změ nit</w>
tr ưởng</w>
t ấm</w>
po ci
n ky</w>
k va
f </w>
z y</w>
u ni
m em</w>
đ au</w>
te r</w>
sp í
ro b
po té</w>
po tom</w>
ng ành</w>
n iệm</w>
c a
vě ři
tá i</w>
tho ại</w>
s mě
pro gra
ně které</w>
h iểm</w>
f ak
d al</w>
D N
đ u
v é
tr ực</w>
t .</w>
st át</w>
p li
ov á</w>
ně ní</w>
vz ta
s ư</w>
ra zi
ni ci</w>
le tech</w>
sk vě
ro ku</w>
ov ých</w>
k vůli</w>
jednodu ch
ch ống</w>
ch ví
za ce</w>
vz ni
hi st
M ar
1 2</w>
ži li</w>
ng ược</w>
e lek
a ng
In di
čá st</w>
zač ali</w>
nhi ễ
chuy ên</w>
ch ỗ</w>
ch iều</w>
robo t</w>
r em</w>
po d</w>
o de
jin é</w>
ị u</w>
ž u</w>
to u
ne k</w>
musí te</w>
ma teri
lid em</w>
K </w>
ử i</w>
s r
T i
L e
ù a</w>
x anh</w>
tel né</w>
pří pad
po hled
m ặc</w>
ch ứ</w>
S </w>
prav dě
n d
f ek
pravdě podob
paci en
kh ăn</w>
š lo</w>
č ku</w>
ú a</w>
pla ne
p e</w>
mo ng</w>
la jí</w>
ká ch</w>
k e
độ i</w>
so át</w>
so ci
nu ôi</w>
ho ạ</w>
Ch âu</w>
vy pa
ti l</w>
p u</w>
n ửa</w>
moh la</w>
ce lý</w>
b ác</w>
D a
ži l</w>
u ži
to li
si g
ni ềm</w>
me tr
ž ně</w>
đ óng</w>
za t</w>
technologi e</w>
so n</w>
přes ně</w>
l ạ</w>
jak é</w>
S pojen
N g
v nit
o hro
d ần</w>
d ce</w>
TE D
z ní</w>
v ượt</w>
k lá
jed nu</w>
j mé
dal ších</w>
Č í
ú i</w>
zač í
va še</w>
ov ý</w>
lo b
h ơi</w>
de mo
S A</w>
čí s
z ra
w ar
t ệ</w>
sa mi</w>
s em</w>
ni kdo</w>
kter ým</w>
ho a</w>
dě je</w>
a byste</w>
P </w>
ộ n</w>
vž dy</w>
ve řej
u jeme</w>
or g
na prost
kh ối</w>
j de
hist ori
dí tě</w>
bude me</w>
poz ději</w>
o kam
j ení</w>
druh é</w>
d ung</w>
chu ẩn</w>
c ím</w>
í te</w>
z ů
v ra
th ất</w>
společ nosti</w>
on ů</w>
množ ství</w>
k to
jen om</w>
do sáh
sou čas
qu ân</w>
ob e
ob cho
n ội</w>
ko ne
hu d
g ửi</w>
d vou</w>
b ại</w>
ča sto</w>
vidí me</w>
st ě
sk y</w>
pomo cí</w>
okam ži
ne me</w>
k ính</w>
g ấp</w>
ch ịu</w>
T ây</w>
Ch úng</w>
ti vi
t ắc</w>
růz ných</w>
energi e</w>
to st</w>
ti m</w>
t né</w>
struk tu
sto letí</w>
mal é</w>
ma y</w>
m ně</w>
ka mi</w>
gra fi
S i
ẵ n</w>
ří ká</w>
ň uje</w>
v ní
tr ạng</w>
t ố</w>
pod po
ote v
na d
d ne</w>
P a
x ấu</w>
u dr
sv ých</w>
stu p</w>
s pi
pro ce
k éo</w>
dá l</w>
cả i</w>
cho pi
N a
J o
če t</w>
x ếp</w>
x o
th iện</w>
poř á
po sta
o by
nhiễ m</w>
ng ủ</w>
naš e
kh ắc</w>
informa ce</w>
dá le</w>
8 0</w>
è </w>
x ử</w>
t ka</w>
or u</w>
na z
kdy by</w>
H a
ří ká
č ka</w>
p eri
h ậu</w>
h lí
d ali</w>
x u</w>
u li
te le</w>
ta kh
takh le</w>
svě d
s ẵn</w>
ova né</w>
ná stro
nej lepší</w>
m ého</w>
in á
i t
důleži té</w>
ch ăm</w>
a meri
S e
to à</w>
t k
naš i</w>
ko ho</w>
c a</w>
đ en</w>
ze mi</w>
sa ng</w>
r o</w>
le s
kh iển</w>
ho di
gh i</w>
d ấu</w>
chce me</w>
S a
ộ p</w>
živo tě</w>
ž á
toli k</w>
th ách</w>
t ội</w>
prost ě</w>
o ny</w>
ngh èo</w>
h ru
Go og
đ ấu</w>
zá vi
uděl ali</w>
th ập</w>
sob ě</w>
prac ovat</w>
prac ov
o me
ngh i</w>
li š
do by</w>
chtě li</w>
c ắt</w>
vy svět
umě ní</w>
podsta tě</w>
po pu
ni st
ngo ại</w>
mys l</w>
mlu vit</w>
h ứng</w>
fung uje</w>
ẩ u</w>
tá ch</w>
rá d</w>
ro ve
Z e
ồ m</w>
đ ức</w>
u s
tel é</w>
potře b
ngu y</w>
h lu
vy k
ti ện</w>
ní k</w>
ma n
m lad
jest li</w>
h i</w>
zpě t</w>
v ně</w>
tě jší</w>
ta n
t ká
ph i</w>
nějak é</w>
ně kteří</w>
krá s
h a</w>
g en</w>
d ầu</w>
ž a
zpe č
vo lu
sku p
ro p
ra to
n ạn</w>
mě ní</w>
C </w>
1 0
đ ẩy</w>
í ze</w>
sku pi
roz en
ph óng</w>
p t
ji st
ch ữ</w>
ch rá
c .</w>
19 9
žád né</w>
če k</w>
pen íze</w>
j as
h ộ</w>
ce lou</w>
z u</w>
ti li</w>
svý m</w>
ob sa
nov ý</w>
nh ờ</w>
ne po
mnoh a</w>
c ổ</w>
1 8
ší ho</w>
člově k</w>
č em</w>
zdra vo
t ận</w>
po mí
p tá
nic t
k ri
C a
čá sti</w>
th i</w>
nh iệt</w>
l ưu</w>
kh án</w>
ch ữa</w>
T </w>
čty ři</w>
vě z
vidě li</w>
v zá
t ôn</w>
n ỗi</w>
lá i</w>
g ồm</w>
ck ého</w>
z n
u m</w>
tu y</w>
s mr
s dí
po kra
ob ě
lid mi</w>
jed né</w>
. 000</w>
ště stí</w>
ukaz uje</w>
st al</w>
sk a</w>
ov ou</w>
obrá z
o ni</w>
materi á
dě t
ch la
G i
slov a</w>
rove ň</w>
qu ản</w>
podí ve
po lo
do cela</w>
de ch</w>
d ây</w>
bo ha
đ á</w>
è n</w>
zač ala</w>
t ốc</w>
rych le</w>
osta tní</w>
naše ho</w>
kon tro
do m
chce te</w>
S te
đ ổ</w>
změ ni
tak y</w>
ji ž</w>
je j</w>
gi ấy</w>
đ ông</w>
vá te</w>
ro dní</w>
pod ni
ně koli
naprost o</w>
g lob
dobr é</w>
b ạo</w>
a b
K i
že n</w>
á ní</w>
za mě
vesmí ru</w>
t va
peri men
na vr
lã nh</w>
dě lají</w>
đ êm</w>
zku šen
zem í</w>
vý zna
th ấp</w>
po chopi
neu věři
ma te
ka t</w>
ex perimen
c em</w>
buň ky</w>
đ ỡ</w>
đ ích</w>
čá stí</w>
Â u</w>
to n</w>
případ ě</w>
představ te</w>
gi ết</w>
gi ây</w>
chi m</w>
cel ém</w>
c ận</w>
ž ení</w>
čas u</w>
posled ní</w>
n ku</w>
mo zek</w>
lé pe</w>
liệ t</w>
h ề</w>
fo to
chu ột</w>
chi ếu</w>
z prá
z cela</w>
vědě t</w>
tak ové</w>
t ầm</w>
stej né</w>
sk r
před po
ph ong</w>
obla sti</w>
ni ên</w>
ne jsou</w>
n ale
mili onů</w>
k ĩ</w>
k ové</w>
h ại</w>
dob u</w>
de se
chuy ến</w>
Yor k</w>
vz or
s ắp</w>
pokra č
ně j</w>
jedno t
hu ỷ</w>
c k</w>
B ri
í me</w>
té mě
rost li
pří mo</w>
pře kva
poli ti
po s
ngh ị</w>
m .</w>
l ně</w>
i l</w>
gi à</w>
g ắn</w>
dal ek
tí mto</w>
th ủ</w>
po zi
od liš
ng ắn</w>
j ů</w>
h mo
d ra
d anh</w>
7 0</w>
2 00</w>
ặ n</w>
ře šení</w>
đ ợi</w>
õ i</w>
t ả</w>
ra ce</w>
osta t
kh ách</w>
in te
i t</w>
g ốc</w>
b ốn</w>
al a
témě ř</w>
pří li
jed ním</w>
d ưỡng</w>
d át</w>
ch ra
b en
ị t</w>
đ o</w>
z ak
st ala</w>
s mu
m ơ</w>
h y
děl á</w>
ch ấp</w>
š i</w>
zkušen o
x uyên</w>
vi nu
v če
syst é
po č
l ĩnh</w>
j men
dosta t</w>
chtě jí</w>
a st
I V</w>
F ran
z ni
vů be
vůbe c</w>
uděl al</w>
u mí
tí m
tr é
st ře
oko lo</w>
ná ní</w>
neu ro
m ắc</w>
la n</w>
la bo
kom ple
d ương</w>
chví li</w>
ch ị</w>
b ánh</w>
5 00</w>
žen a</w>
uvědo mi
stu jí</w>
spoust u</w>
gi àu</w>
gi ai</w>
da ta</w>
cá o</w>
R o
I </w>
B i
, 000</w>
příli š</w>
ph ẫu</w>
p sy
mi mo
d ci</w>
c ân</w>
T r
K ỳ</w>
ừ </w>
t ải</w>
t ým</w>
s li
růz né</w>
několi ka</w>
ngh i
na jít</w>
h er
d ro
ó t</w>
z alo
vš em</w>
sp e
pra vi
popu la
m ých</w>
m nou</w>
ka jí</w>
jed no</w>
ch ování</w>
T u
ško ly</w>
zač á
t ří
po prvé</w>
ní ci</w>
na bí
lo g
f er
di l</w>
d òng</w>
H IV</w>
ze len
za měst
z lo
va i</w>
v ý</w>
s óng</w>
ní ky</w>
n ông</w>
ma r
h ộp</w>
h á</w>
e mo
d é
Ho a</w>
1 8</w>
ří zení</w>
đ em</w>
če ká
u ống</w>
ta n</w>
rak ov
problé my</w>
nemo c
lid ské</w>
kter ém</w>
hroma dy</w>
ho ạch</w>
dá m</w>
c ử</w>
velk ý</w>
th </w>
si êu</w>
s óc</w>
s kon
pen ě
ng àn</w>
le g
la o</w>
kh ởi</w>
dří ve</w>
demo kra
c ư</w>
Goog le</w>
š li</w>
uni ver
slo ži
pořá d</w>
ph ận</w>
na ho
mi kro
l ưới</w>
dalek o</w>
che mi
ří k
z by
v ala</w>
společ en
s a</w>
po tra
obrá zek</w>
h ồ</w>
b or
DN A</w>
v ali
th ẳng</w>
společ nost</w>
po sky
pa ma
n ce</w>
muse li</w>
mo u</w>
khu ôn</w>
kh ai</w>
k ỉ</w>
e t
e fek
c ười</w>
đ ói</w>
tí n</w>
pů l</w>
při šel</w>
do hromady</w>
tuy ến</w>
tr ách</w>
t ých</w>
s mysl
použí t</w>
le s</w>
k ů
h út</w>
U SA</w>
A l
ã n</w>
th ụ</w>
te h
sá m</w>
pu bli
nh ảy</w>
ma n</w>
jin ého</w>
h ấp</w>
cí ho</w>
K a
we b</w>
vá dě
to sti</w>
ta i</w>
s ân</w>
s la
pří leži
otáz ka</w>
na jednou</w>
mů žu</w>
mr t
de r
ch ỉnh</w>
c ení</w>
In ternet</w>
B o
ỵ </w>
že t</w>
š em</w>
ò i</w>
zá sa
zvlá š
vš u
vidě l</w>
tu a
to r</w>
se l
rá t</w>
mal ý</w>
N am</w>
L a
ži la</w>
đ èn</w>
ve z
ti to</w>
t ovat</w>
rozdí l</w>
ro ky</w>
o hled
h roz
g u
chtě la</w>
E v
ế ng</w>
za tím
z lep
vě de
tr ồng</w>
příběh y</w>
po má
naz ý
n ặng</w>
exi stují</w>
dá ní</w>
d vě
d ně</w>
W i
B a
ší mi</w>
ří me</w>
đ ảo</w>
zatím co</w>
re ali
podíve jte</w>
o ná
mož nost</w>
m ôn</w>
m ón</w>
labo rato
jin ak</w>
dělá me</w>
c y
V i
K h
ị p</w>
vo du</w>
vnit ř</w>
uká zat</w>
udě lá
tě la</w>
ph ổ</w>
má u</w>
l y
bu dov
vytvoři li</w>
teh dy</w>
schop ni</w>
r ối</w>
před ná
no r
ne jen</w>
na m</w>
mě lo</w>
m ã</w>
k vali
P o
či l</w>
vi la</w>
tr u
sti t</w>
st u</w>
sly še
schop nost</w>
s àng</w>
prů měr
po su
ní ků</w>
ni a</w>
k lí
in ter
dov o
ch óng</w>
ang li
K o
G e
1 1</w>
ọ t</w>
ž ní</w>
zač ít</w>
ve n</w>
tr ao</w>
t ù</w>
stá vá</w>
qu en</w>
posled ních</w>
ov liv
otáz ku</w>
o pe
f é
e s
dá vá</w>
de l
d ĩ</w>
H ồi</w>
A r
vyu ží
r ně</w>
obra z
nh .</w>
ng ờ</w>
mo bi
m àn</w>
l uyện</w>
d ừng</w>
d ny</w>
bude te</w>
F a
šť ast
če ho</w>
vědě li</w>
vě ř
vzni k
tra di
tr an
th ưởng</w>
spo lu</w>
předsta vit</w>
odpově ď</w>
na t</w>
m ùa</w>
m ê</w>
jak ý</w>
j u</w>
dvě ma</w>
co i</w>
b ě</w>
R i
vé st</w>
vz dá
vy prá
v ân</w>
tel ně</w>
t ấn</w>
stra ně</w>
sto jí</w>
pře svěd
projek t</w>
ni li</w>
d àng</w>
bo o
bo j
9 0</w>
đ ám</w>
z hru
zhru ba</w>
vá š</w>
th ải</w>
po roz
p sa
no st
nh ắc</w>
nej větší</w>
mo le
min ut</w>
lo sti</w>
do spě
dlou ho</w>
bu ộc</w>
č an
ú ča
ó p</w>
zd á</w>
v l
u vnitř</w>
ti ểu</w>
tech ni
si t</w>
seb ou</w>
ov aly</w>
o ro
mé di
mole ku
lo ạn</w>
f ot
dobr á</w>
b ày</w>
ak teri
ầ ng</w>
đ ỏ</w>
zjisti li</w>
vyš ší</w>
vo dy</w>
tr ùng</w>
spoust a</w>
r út</w>
r e</w>
po lov
ov lá
o čeká
ně te</w>
ná kla
ng ăn</w>
mu ž</w>
me n</w>
ku d</w>
khu ẩn</w>
k ém</w>
fi nan
dou f
b ầu</w>
J oh
š ky</w>
đ iển</w>
vy vinu
te nh
tenh le</w>
t ầng</w>
t àu</w>
sp á
si tua
rů st</w>
r en
po čet</w>
mysle l</w>
mu sím</w>
m ềm</w>
jin ý</w>
hã i</w>
ce mi</w>
Spojen ých</w>
B ro
1 4</w>
čís lo</w>
vy ře
ty hle</w>
t ờ</w>
pomo ci</w>
po važ
o pět</w>
moh lo</w>
m ảnh</w>
lé ka
l ỗi</w>
ko sti</w>
druh ý</w>
ch y</w>
Ch ri
ấ c</w>
zdra ví</w>
tře tí</w>
sv ém</w>
st ov
qu ang</w>
přemýš let</w>
psy cho
poci t</w>
ni mi</w>
m ým</w>
m edi
gi ó</w>
e ch</w>
ch ứa</w>
bio logi
O K</w>
Ch i
ň ují</w>
č ních</w>
ú rov
vesmí r</w>
tě lo</w>
t ảng</w>
r ừng</w>
pří stup</w>
před tím</w>
o ce
nghi êm</w>
le ží</w>
le h
kh ái</w>
každ á</w>
P e
N i
B </w>
š tí</w>
Đ ông</w>
ó .</w>
zp á
v alo</w>
syst ému</w>
p y
ma ni
lu je</w>
jak ým</w>
h át</w>
bu ồn</w>
bu du</w>
K en
H ar
ž i</w>
če mu</w>
společ ně</w>
pod mí
ov ého</w>
miliar d</w>
mi ễn</w>
l ầm</w>
dost ali</w>
doká že
dob ro
dne š
S u
- li</w>
ụ t</w>
č né</w>
vš ím</w>
vz ít</w>
vo st</w>
ra t</w>
ra di
při rozen
měst a</w>
má lo</w>
hrá t</w>
hlu bo
h al
g óc</w>
důvo d</w>
dost al</w>
dal o</w>
d õi</w>
c ar
L i
à m</w>
u ji</w>
t ổn</w>
t la
st y</w>
ra n</w>
ob vyk
mysl í</w>
j ád
dobr ý</w>
d ím</w>
ch àng</w>
ẳ n</w>
đ ảm</w>
zd a</w>
z tra
tr ừ</w>
svět lo</w>
pro te
pravděpodob ně</w>
ně koho</w>
mate mati
h ẳn</w>
d ường</w>
R e
ží me</w>
ù i</w>
všu de</w>
tá h
s ơ</w>
rá di</w>
pří ro
ph ỏng</w>
neb e
jde te</w>
in terne
fi r
d rá
budouc nosti</w>
bu d
že l</w>
š ku</w>
đ ương</w>
či li</w>
úžas né</w>
ú ko
získ á
zajíma vé</w>
z ovat</w>
ti la</w>
t ốn</w>
svo bo
sk o</w>
s ch
přiš li</w>
otáz ky</w>
ně jak</w>
m ẽ</w>
h ài</w>
d ậy</w>
tick ých</w>
th ơ</w>
te li</w>
sá nh</w>
sk lá
přemýš le
ps al</w>
po slou
peně z</w>
ng ân</w>
mě ly</w>
míst a</w>
mys li</w>
ma t</w>
l ky</w>
kh ổng</w>
ka m</w>
jí dlo</w>
ji t</w>
e t</w>
di li</w>
ch ờ</w>
bu ně
bo le
b an
b al
1 3</w>
ž ou</w>
ř á
v al
th ắng</w>
te ori
ta t</w>
sá u</w>
poř ád
ph ấn</w>
ph ù</w>
ov alo</w>
ne d</w>
me s</w>
m ém</w>
l ồ</w>
l ých</w>
j dou</w>
in spi
dru hou</w>
doká z
c ập</w>
a ť</w>
O </w>
H ig
ško le</w>
zem ích</w>
za se</w>
vý cho
vzdělá ní</w>
vz pomí
u čí</w>
soci ální</w>
před e
prost or</w>
or y</w>
ni e</w>
ng uyện</w>
kh ẩu</w>
kh uy
k ru
h ạ</w>
fu n
druh </w>
L o
C ar
1 7</w>
ơ n.</w>
čer ven
ze mě
z bra
výsled ky</w>
vytvá ří</w>
tá lní</w>
ti sti
th ịt</w>
sp ek
ob lí
nějak ý</w>
ní mu</w>
ngh ỉ</w>
ngh ìn</w>
míst nosti</w>
muž i</w>
mo ci</w>
li nh</w>
k ovat</w>
hodi n</w>
h ned</w>
b ảng</w>
b ní</w>
G </w>
B u
1 6</w>
ži tí</w>
vzdá len
takov ý</w>
pl y
n ému</w>
mo rá
lí me</w>
là ng</w>
l ẫn</w>
ki m</w>
f ar
c ũ</w>
T hu
N </w>
K e
B e
úča st
zpá tky</w>
vě t</w>
univer zi
u .</w>
t ồi</w>
t ường</w>
sk ým</w>
si l</w>
se be
s en
qu ần</w>
pr i
op ak
oblí ben
ni i</w>
m ed
lo ạt</w>
l ovat</w>
ka n
in e</w>
hu de
de sig
be zpeč
b ề</w>
M exi
D e
A I
z ved
velk á</w>
tr e
to ti
tisí ce</w>
smu s</w>
se k</w>
s ót</w>
podí vat</w>
po r
o x
ná bo
nh u</w>
c ơn</w>
A n
še st</w>
zá pad
tr ánh</w>
ra ci</w>
pě ti</w>
pro fe
pama tu
nà y.</w>
mili ó
li ne</w>
kho ản</w>
in ova
hla vní</w>
d ala</w>
bě ž
b e</w>
ak ce</w>
R </w>
M e
ã y</w>
vědě l</w>
v ợ</w>
v ky</w>
tr ại</w>
t ům</w>
spo ň</w>
sna d
s ů</w>
po ru
po n
n úi</w>
měr em</w>
le y</w>
l ửa</w>
l ze</w>
důleži tější</w>
d le</w>
b ro
řek li</w>
č tvr
z r
v ak
th ảo</w>
tele vi
ru s</w>
podí váte</w>
obe c
mysl íte</w>
m ãi</w>
in di
druh y</w>
bu r
a pli
R ob
ča se</w>
zá vě
za bý
z er
vš im
vz du
toti ž</w>
sou částí</w>
sou vi
roz ší
r ời</w>
pro ved
po stav
navr h
mo men
h iển</w>
f a
ch ạm</w>
cest u</w>
ce p
c ầm</w>
b lo
M ột</w>
C O
še t
zá roveň</w>
z vý
vytvá ře
vi dí</w>
v ững</w>
v ĩ</w>
tisí c</w>
ti ềm</w>
t àn</w>
spe ci
si lí</w>
r ơi</w>
pa pí
ne dáv
mi ếng</w>
m ắn</w>
l ương</w>
ci e</w>
b rá
a ni
to m
tick á</w>
tel ný</w>
p í</w>
n é
l ku</w>
krá t
kou pi
in ve
i den
ch ồng</w>
ch ấm</w>
boha t
bo u
M o
L u
D i
ự ng</w>
žád ná</w>
ži jí</w>
úspě š
způsob y</w>
vel kou</w>
v né</w>
ta hle</w>
ta ce</w>
sk ém</w>
samo t
s ho
rodi če</w>
quy ển</w>
prost oru</w>
po ten
ol te</w>
nict ví</w>
mysle li</w>
moh u</w>
mili ony</w>
mi lu
k ým</w>
k men
j me</w>
i na</w>
gi ấc</w>
g óp</w>
fun k
ck ým</w>
L </w>
Afri ce</w>
ớ m</w>
ři lo</w>
Đ ại</w>
změ ny</w>
vět š
tá n</w>
stá ty</w>
s ửa</w>
př en
ob dob
ná z
ni la</w>
nej více</w>
mi ni
mi le</w>
m ne</w>
m ci</w>
jed i
do mů</w>
zá ko
zdravo t
z ova
vě ku</w>
výzku m</w>
vý vo
te x
t ộc</w>
spí še</w>
so f
ru ce</w>
qu ên</w>
počíta č
ová ním</w>
mi to</w>
l ặp</w>
kh ích</w>
h ỗ</w>
h ảo</w>
fer en
e m
do šlo</w>
d an
chu ỗi</w>
chiế m</w>
be z
b ữa</w>
b ang</w>
zákla dní</w>
zví řa
za řízení</w>
v ení</w>
umě t</w>
tr ắng</w>
tick ý</w>
tho át</w>
th iệu</w>
tel ů</w>
slu ž
rozhod li</w>
pře sto</w>
má ní</w>
mi mo</w>
m ời</w>
l ộ</w>
l ối</w>
kho á</w>
informa cí</w>
dá me</w>
ch ảy</w>
b ri
Da vi
Af g
AI D
/ </w>
ři li</w>
zna č
vál ky</w>
vá mi</w>
tvo ří</w>
spo tře
rozhod l</w>
qu ảng</w>
problé mů</w>
pr ve</w>
ne r
míst ě</w>
metr ů</w>
l ních</w>
jak mile</w>
ho ảng</w>
h ar
dá te</w>
d iệu</w>
c vi
b i</w>
ak tivi
ři l</w>
či la</w>
získ at</w>
za sta
w it
ved e</w>
v ỡ</w>
u čení</w>
tě mito</w>
tr ận</w>
ti ny</w>
t ắt</w>
t ého</w>
sko ro</w>
sa mé</w>
sa ma</w>
potře ba</w>
p edi
naš em</w>
na pad
mo c
jednodu še</w>
dů sled
dov ed
do má
cháze jí</w>
chá u</w>
ch ce</w>
ce boo
c à</w>
b ře
b akteri
al é
a ra
B ắc</w>
AID S</w>
říká m</w>
začí ná</w>
za ci</w>
vž dy
vědo mí</w>
và ng</w>
vy ro
u l
sy m
pů vo
pohy b
o na</w>
o k
něj ších</w>
nor má
n ổ</w>
k ry
k lo
jin ých</w>
in ternet</w>
h uje</w>
h lé
h lou
dov olte</w>
do lů</w>
b è</w>
a .</w>
z trá
x ương</w>
v li
tr ì</w>
th ở</w>
svět la</w>
sr dce</w>
s mysl</w>
poten ci
p al
nábo žen
muse l</w>
m ập</w>
lo st</w>
kone čně</w>
kon ci</w>
kh ổ</w>
jin ými</w>
h věz
gh á
foto grafi
e s</w>
blí z
Afg ha
$ </w>
ặ m</w>
če t
uči t</w>
u m
tr òn</w>
to mu
s měrem</w>
s mu</w>
ro vat</w>
re ál
proce s</w>
nov ých</w>
nov ou</w>
n óng</w>
měsí ců</w>
myšlen ky</w>
myšlen ka</w>
m la
le n</w>
kter ými</w>
ka r
h ôn</w>
glob ální</w>
cen tr
budouc nost</w>
M </w>
J e
ụ ng</w>
ẹ n</w>
če j
za v
vždy cky</w>
vrá tit</w>
u dá
tou to</w>
te ra
se xu
s rov
s bí
rá no</w>
použí vat</w>
potra vi
pa du</w>
p é
obje k
mo u
men ší</w>
l ễ</w>
k ịch</w>
k ům</w>
jak é
il l</w>
ci t
ch ov
c ỡ</w>
bi li
CO 2</w>
ště ní</w>
đ ào</w>
člově ka</w>
zem ře
vě jší</w>
vá ž
vz ali</w>
va z
v ốn</w>
th ước</w>
sti tu
spo jen
sna ží</w>
s ov
rych le
rod iny</w>
před mě
potřebu jete</w>
potřebu je</w>
popula ce</w>
ph ối</w>
ně m</w>
nist an</w>
ne chá
nauči t</w>
mož nosti</w>
m ấy</w>
li vé</w>
kro k</w>
každ ého</w>
ci vi
b ọn</w>
Thu ỵ</w>
Fa ceboo
D P</w>
řek la</w>
đ ỉnh</w>
ú to
věř ím</w>
va jící</w>
th an</w>
sl á
re volu
pre zen
pohled </w>
po vr
o pa
nech at</w>
ne js
m ạch</w>
m ní</w>
li k
l ọc</w>
k er
h à</w>
gi ọng</w>
doká že</w>
d ý
cho dem</w>
T o
Hig g
H ọ</w>
Ch úa</w>
Afgha nistan</w>
3 00</w>
žád ný</w>
đ ăng</w>
ál ně</w>
á y</w>
za pla
z va
va ší</w>
sta tisti
st í
sl í
poz oro
ph iên</w>
ote c</w>
nh ựa</w>
mode l</w>
lé č
le ch</w>
komuni ka
jí cím</w>
iden ti
Ze mi</w>
N ó</w>
1 ,
ưỡ i</w>
đu a</w>
đ iệp</w>
zn alo
vý rob
vá žně</w>
ve k</w>
studi e</w>
stou pi
se ku
s ạch</w>
s fé
rozhod nutí</w>
o str
nh u
naho ru</w>
li e</w>
k ých</w>
k ê</w>
ho u
en a</w>
Indi e</w>
Ch ar
A ng
živo ty</w>
žen é</w>
đ am</w>
čí me</w>
ì a</w>
z po
ukáz alo</w>
ukáz al</w>
pří stro
posky t
od stra
o nu</w>
ní z
nov á</w>
mys let</w>
miliar dy</w>
h é</w>
gra f
gh ép</w>
do stá
di gi
bo m</w>
T rá
I s
H e
B ạn</w>
19 </w>
đ ằng</w>
ál ních</w>
zá leží</w>
vě dci</w>
tr ưng</w>
s úng</w>
při bli
prv ním</w>
prostřed </w>
pozor nost</w>
po sí
po stup
ph ê</w>
p ení</w>
oby va
ngh ề</w>
ng u</w>
m ž</w>
le ta
hla v
energi i</w>
děl ení</w>
do kto
d ặm</w>
ch ậm</w>
Indi i</w>
ži jeme</w>
ž r
ř ád
đ iên</w>
č len
zvu k</w>
z mí
we b
ve š
v ết</w>
tý den</w>
tiv ně</w>
tele fo
te k
střed ní</w>
st y
se n</w>
s ớm</w>
prac oval</w>
pr in
podob ně</w>
p ůsob
ová na</w>
odpově d
oby čej
nh ật</w>
ne dosta
n d</w>
me ta
m ý</w>
l ắm</w>
kho ảnh</w>
k ří
elek tro
e volu
ch ào</w>
b ền</w>
Nh ưng</w>
ị nh</w>
žen ý
zá ba
těž ké</w>
tel ná</w>
svo ji</w>
st a</w>
ra z
překva pi
po j
po dě
par t
p last
od ha
ni ž
n ka</w>
má i</w>
moh ly</w>
mal á</w>
l ạnh</w>
k ři
jak ý
h ry</w>
d nout</w>
cel kem</w>
W al
Trá i</w>
Af ghá
200 8</w>
žr alo
ži je</w>
še k</w>
z ne
vyu žít</w>
vr cho
tá m</w>
ti cky</w>
s h
r ác</w>
pa dy</w>
organi zace</w>
o .</w>
ná ro
ne byla</w>
na mi</w>
n ắm</w>
l ỗ</w>
l ova
ko st</w>
j ím</w>
g ợi</w>
dosta nete</w>
ck ém</w>
chy b
ch ủng</w>
ch ai</w>
cel á</w>
c ờ</w>
c er
ali for
Ev rop
19 8
ớ t</w>
ươ i</w>
Đ ức</w>
čen o</w>
zjisti t</w>
vi dím</w>
va še
u prostřed</w>
ti na</w>
th ai</w>
t ové</w>
su ất</w>
sta t</w>
skup iny</w>
při prav
při jít</w>
ov šem</w>
ome zen
obdob í</w>
me z
li gen
le k</w>
kh ứ</w>
in žený
gi e</w>
dom ov
ch at</w>
X </w>
N or
G u
Davi d</w>
A u
špat né</w>
ří ci</w>
đ òi</w>
đ i
ý t</w>
zjisti l</w>
za bi
z mi
y to
vo ng</w>
th ọ</w>
t ật</w>
spo j
prů mysl
ová ny</w>
nějak ou</w>
nh ẹ</w>
ng ừng</w>
ne vy
mimo chodem</w>
me ch</w>
m ù</w>
li l</w>
kon f
k ova
ed </w>
dů vě
druh á</w>
an u</w>
ứ t</w>
Ả </w>
đ ựng</w>
změ nu</w>
za hra
th ăm</w>
t ří</w>
rá mci</w>
roz dě
při jde</w>
po každé</w>
pi s</w>
otev řen
ob nov
ně ji</w>
neu stále</w>
n alé
lá rní</w>
l ục</w>
l ého</w>
l ka</w>
kre a
hod iny</w>
h ùng</w>
dosáh nout</w>
den ně</w>
R a
7 5</w>
' </w>
ž ky</w>
đo àn</w>
đ iệu</w>
čí st</w>
zdro je</w>
začá tku</w>
vzá jem
tr ào</w>
tomu to</w>
t al
stá nu</w>
skupi na</w>
s ốt</w>
qu ỹ</w>
přiš la</w>
pla t
org á
ob li
ná d
ne vi
ne byl</w>
n âng</w>
měst o</w>
m ky</w>
len é</w>
lan d</w>
kr é
komple x
k lu
k iệm</w>
jazy k</w>
d ối</w>
cí tí
civi li
au to</w>
T wit
ří dit</w>
đu ổi</w>
č lá
ê nh</w>
zač alo</w>
za chrá
všech na</w>
vzdělá vání</w>
vyro bi
ved le</w>
v ých</w>
v ka</w>
tě mi</w>
tu je</w>
th ận</w>
svý mi</w>
spo ko
ro n</w>
pr ak
pomo c</w>
pohled u</w>
po ko
ov i</w>
obje v
ob čan
ná pad</w>
ná ch</w>
ng ẫu</w>
m ực</w>
ka ma
k le
jednoduch é</w>
jed ná</w>
inte ligen
ho àng</w>
hla s</w>
gi ỏi</w>
dlou ho
di la</w>
d ních</w>
buně k</w>
b ật</w>
angli č
an al
V el
P ho
Nh ật</w>
1 50</w>
č te
u važ
tr ữ</w>
t úi</w>
str u
st ří
sed ě
se zna
s ụp</w>
s c
pro u
pro dá
použí vají</w>
podob né</w>
okamži tě</w>
oce á
obráz ky</w>
o pak</w>
nh ịp</w>
na víc</w>
kdy bychom</w>
j o</w>
interne tu</w>
ha m</w>
g ori
dneš ní</w>
d uje</w>
chu d
c ấy</w>
bi ên</w>
ar chi
Z á
F i
ỗ n</w>
vy rá
ti sk
skvě lé</w>
roz voj
příběh u</w>
op ti
mysl íme</w>
mo ř
materiá l</w>
ki lo
kaž dou</w>
je l</w>
jde me</w>
hled i
hla vně</w>
en é</w>
di nh</w>
c ôn</w>
b ò</w>
b ou</w>
W as
H u
Fran ci
4 5</w>
4 00</w>
2 4</w>
2 000</w>
ớ p</w>
ž ím</w>
ší mu</w>
větši nou</w>
vzta h</w>
voj á
vez me
to ry</w>
ti êm</w>
t ô</w>
t ního</w>
stav u</w>
s ông</w>
rov na</w>
re ag
qu í</w>
pří stup
pří j
použi tí</w>
potřebu jí</w>
po zna
ox yto
obla st</w>
ná silí</w>
ng ại</w>
ko leg
k al
jí dla</w>
h ỗn</w>
fak t</w>
děl ali</w>
c in
bo n</w>
ale spoň</w>
S ta
P au
DN </w>
A DN</w>
Đ ây</w>
či st
vše ho</w>
výsled ek</w>
vy ža
vidě la</w>
vi ễn</w>
u z
th ảm</w>
systé my</w>
stá tů</w>
sig ná
s k</w>
r ô</w>
při po
pě st
projek tu</w>
po sl
ostr ov
ná mi</w>
nh ắn</w>
ng ang</w>
nej lep
nale z
mez iná
li n</w>
kon kré
ko la</w>
každ ém</w>
i de
h my
dů m</w>
do sa
co m</w>
cel ého</w>
S o
J i
F or
Ameri ce</w>
1 .
& #
&# 9
ợ t</w>
ậ c</w>
ũ i</w>
đ ẳng</w>
è m</w>
z rovna</w>
vytvo řen
vlá da</w>
vi rus</w>
v ú</w>
th ang</w>
stá tech</w>
st ali</w>
sou ci
roz e
po da
obrov ské</w>
nád her
ni cké</w>
me to
là nh</w>
kh ung</w>
jí cího</w>
js i</w>
jin á</w>
jednot liv
hov o
h lá
dobro vol
do stup
do slova</w>
do prav
b ậc</w>
apli ka
Wi ki
A l</w>
š la</w>
đ áp</w>
zá j
xo ay</w>
vý m</w>
vz al</w>
umě le
umož ňuje</w>
u mí</w>
ti ně</w>
slov o</w>
s ví
rá da</w>
ru š
r ượ
pro vo
pra vide
pohy bu
pa mě
os m</w>
ob čas</w>
ně kde</w>
no ci</w>
ne bylo</w>
na slou
muž ů</w>
mo dr
l ặng</w>
kni hy</w>
họ p</w>
h ào</w>
g e</w>
douf ám</w>
do z
d vo
b ốt</w>
au ta</w>
Was hi
T a
G a
C ảm</w>
0 .</w>
ň te</w>
zprá vy</w>
zdravo tní</w>
vědě la</w>
vo i</w>
veš ker
uži va
u ží
u pří
tr ống</w>
th ù</w>
teori e</w>
takov ého</w>
ta ci</w>
svět ové</w>
stra ch</w>
správ né</w>
s h</w>
razi l</w>
příleži tost</w>
p ó
nástro je</w>
ná vr
měsí ce</w>
mi e</w>
mar ke
li li</w>
le z
l ừa</w>
kh áng</w>
jmé nem</w>
jedin ý</w>
e ma
d va
d in
cest a</w>
ce lá
b ối</w>
Washi ng
P ro
C ha
đ ạp</w>
zá ži
zvířa ta</w>
z uje</w>
vli v</w>
vaše ho</w>
v ỏ</w>
tě mto</w>
th ác</w>
t ři
sna d</w>
sled ovat</w>
s ổ</w>
rượ u</w>
rov é</w>
po tk
part ne
ně kterých</w>
ní ku</w>
mů žou</w>
myš lení</w>
mi l</w>
m ali
kter ého</w>
k ó
hud ba</w>
h ổ</w>
f in
er e
dost ala</w>
d iệt</w>
ch ặn</w>
ch ó</w>
c ứng</w>
S an</w>
P hi
živo či
špat ně</w>
ří zen
č ů</w>
ze pt
y a</w>
w a
vá dí</w>
ved lo</w>
tran s
th ấu</w>
t nou</w>
svo je</w>
skr ze</w>
sed m</w>
ri zi
přede vším</w>
po ra
nu l</w>
neuvěři telně</w>
naš li</w>
měsí c</w>
ma tka</w>
m óc</w>
m né</w>
l ním</w>
ko r
kan celá
ka z</w>
jedno m</w>
hra nice</w>
hor ší</w>
ex tré
dal ším</w>
ch ặt</w>
ce t</w>
c t
c am</w>
W il
B er
š pi
řík al</w>
zákla dě</w>
za bí
vě dy</w>
vi zu
tr àn</w>
technologi i</w>
stra š
slov y</w>
ru ku</w>
pí s
progra m</w>
pro mě
pracu jí</w>
pracov ní</w>
počíta če</w>
použí váme</w>
po žád
ova cí</w>
ov ým</w>
od mě
obvyk le</w>
obraz ov
na vš
na rodi
n ỗ</w>
mlu vil</w>
m pi
lo n</w>
kaž do
histori i</w>
gi ám</w>
dří v</w>
di sku
de r</w>
d ovat</w>
M on
H i
D ar
živo tní</w>
ř at</w>
zná me</w>
vě ří</w>
vypa dat</w>
vy jád
vnit ř
vlá dy</w>
veli kosti</w>
urči tě</w>
u jících</w>
th ưa</w>
t àng</w>
stov ky</w>
smr ti</w>
s ỹ</w>
s ợi</w>
rů stu</w>
rychle ji</w>
ro py</w>
předsta vi
ová no</w>
o st</w>
ná sob
nes mí
me k</w>
m lou
lo stí</w>
klí č
hra ní</w>
hled á
dě tem</w>
do ma</w>
co koliv</w>
b ắn</w>
a f
Yor ku</w>
E </w>
2 1</w>
č ního</w>
ú da
í n</w>
ál ního</w>
zví řat</w>
změ nil</w>
vě tr
ti a</w>
th uyền</w>
t ních</w>
sí la</w>
st va</w>
spo jení</w>
schop nosti</w>
prin ci
prav o</w>
pochopi t</w>
pla tí</w>
nedáv no</w>
nebe zpeč
nauči l</w>
mí stech</w>
lid ského</w>
konf lik
jmé na</w>
h ů</w>
g ol
dá n</w>
dokáže me</w>
do ạ</w>
de ta
cest y</w>
ak ci</w>
V y
Joh n</w>
zaměst nan
za hr
z ích</w>
výzku mu</w>
v la
tu jí</w>
tr i</w>
t ování</w>
sí lu</w>
struktu ru</w>
sti li</w>
sou střed
s ně
ra jí</w>
přibli žně</w>
při nes
prů běh
pro sím</w>
prav du</w>
ov ém</w>
ostat ních</w>
oprav dov
obje vil</w>
něj ším</w>
nict vím</w>
nh ằm</w>
mí st</w>
logi e</w>
ka pi
gra f</w>
f as
děl al</w>
cả n</w>
ci n</w>
c ặp</w>
c ãi</w>
b ảy</w>
an der
ab so
T V</w>
R u
B ra
ří kají</w>
č ný</w>
ú roveň</w>
zkušeno sti</w>
zač ne</w>
u h
th ầy</w>
takov á</w>
t ụ</w>
t vů
sí tě</w>
studen ti</w>
strá nky</w>
st aly</w>
roz hov
při způsob
při j
při chází</w>
plane ty</w>
o či</w>
nástro j</w>
no u
ng ón</w>
na hra
mě r</w>
mé t</w>
m ové</w>
lã ng</w>
lá ch</w>
kov ých</w>
kon feren
k do
hu ống</w>
ha t</w>
f ra
bi a</w>
b ông</w>
L on
I rá
Faceboo k</w>
ớ n</w>
ško lu</w>
říká me</w>
đ ó.</w>
č t
é ri
ál ním</w>
změ ní</w>
zač nou</w>
z dá
z bo
vý ji
vyře šit</w>
vyprá vě
v lo
tuy ên</w>
tr valo</w>
th ánh</w>
te st
te plo
t ním</w>
stej ný</w>
správ ně</w>
si li</w>
ro li</w>
re kla
r ăng</w>
nej důležitější</w>
ne závi
n ské</w>
míst ní</w>
m ừng</w>
l ũ</w>
l ính</w>
ká ní</w>
ká m</w>
k ře
jmen uje</w>
in stitu
hrá l</w>
hodno ty</w>
h ạng</w>
h ů
h iệp</w>
g ỗ</w>
g an
da né</w>
bu bli
b ờ</w>
ar </w>
N A
I ran</w>
6 5</w>
6 00</w>
0 .000</w>
ř ů</w>
đ ĩa</w>
úspě ch</w>
úrov ni</w>
ô i.</w>
změni lo</w>
za ji
vše mi</w>
vče tně</w>
vy ba
vo sti</w>
ve r</w>
uži teč
uvědomi l</w>
u jete</w>
tá ní</w>
thu ỷ</w>
th ừa</w>
t ỏ</w>
sou kro
sou hla
sof t
rozdí ly</w>
ro čně</w>
r ào</w>
prav ed
obli če
o pi
o chra
nh é</w>
nej prve</w>
ne ch</w>
na mi
mě ří
mu že</w>
mlu ví</w>
ma tu</w>
m ại</w>
khi ếp</w>
k í</w>
jedin é</w>
jak ou</w>
histori e</w>
h nutí</w>
ga mi</w>
druh ů</w>
cí tit</w>
cá t</w>
ch án</w>
c ột</w>
br zy</w>
Y ou
P A</w>
Kh ông</w>
A ri
ườ n</w>
žen u</w>
đ ống</w>
Đ iển</w>
Čí na</w>
zkou še
zdro jů</w>
z ba
vy br
velk ých</w>
umě l
tu hle</w>
ti ckou</w>
tho ả</w>
su d</w>
star ší</w>
skuteč né</w>
se tká
ru kou</w>
ro n
pří č</w>
poz ná
pou h
podni ka
po rov
pe v
osob ní</w>
odpo ví
o či
nov ého</w>
nov á
na příč</w>
na jí</w>
me cha
li n
l né</w>
kra bi
kh ảo</w>
ka men
ha jí</w>
h è</w>
g ương</w>
d ře
ci i</w>
ch ž</w>
cest ě</w>
c ẩn</w>
b er</w>
Ze mě</w>
Y </w>
M ich
J uli
D o
ží te</w>
úko l</w>
za cí</w>
z rak
y ên</w>
vý ho
vé d
vá ním</w>
va r
tý če</w>
ty pi
tr </w>
t ná</w>
stá r
st vo</w>
sk ými</w>
se k
r á</w>
r ny</w>
psa t</w>
prv ních</w>
prostřed nictvím</w>
problé mu</w>
pro po
pravi dla</w>
prac ovali</w>
podí váme</w>
po ví
po sti
pa n
org e</w>
nhu ận</w>
ngo ái</w>
ne n
naš ím</w>
mi lov
ma g
m iệ
miệ ng</w>
l ím</w>
kov ý</w>
k vě
je t</w>
jak á</w>
in ten
hud bu</w>
ho ang</w>
gh ế</w>
g ala
fas cin
cí l</w>
ch ép</w>
c ti
ani ž</w>
W e
TED u</w>
B ản</w>
B ill</w>
še sti</w>
š ti</w>
ře čeno</w>
đ e</w>
změ na</w>
x ưa</w>
vě da</w>
va ši
té ž</w>
slyše li</w>
skr z</w>
situa ci</w>
s ăn</w>
roz vo
rodi na</w>
prob í
po mal
p .</w>
no stech</w>
nic méně</w>
n út</w>
má t</w>
muse la</w>
m ný</w>
lé ky</w>
kni hu</w>
khuy ến</w>
hude b
hu ấn</w>
hi ến</w>
hi ếm</w>
gi ành</w>
g ọn</w>
for d</w>
důleži tá</w>
dá vají</w>
cí lem</w>
ck ými</w>
chla p
cen u</w>
ce lo
c an</w>
ara b
ar má
U ni
Spojen é</w>
200 9</w>
ẹ o</w>
š o
ří te</w>
ň á
čís la</w>
Čí ně</w>
ú če
Á </w>
za chy
vý z
vzá jem</w>
vytvoři l</w>
vi n
v aly</w>
tick ého</w>
tho ảng</w>
th ờ</w>
t ây</w>
st er</w>
služ by</w>
slu ne
s va
s er
ri é
prav da</w>
pl né</w>
od dě
nábožen ství</w>
ner v
na vzájem</w>
na místo</w>
měr ně</w>
mode rní</w>
mo ji</w>
man že
m ùi</w>
li vě</w>
le o</w>
l ního</w>
i lu
gi ường</w>
g ấu</w>
fir my</w>
do pad</w>
dal y</w>
d nů</w>
c ỏ</w>
ar d</w>
a d
Ph áp</w>
Nh ững</w>
H an
3 D</w>
. com</w>
ủ i</w>
ơ m</w>
Đ ất</w>
čty ř
získ ali</w>
zpe čí</w>
z vo
vá n</w>
v ého</w>
urči té</w>
u hlí
tro j
tri ết</w>
ti tu
ti nu</w>
thu ê</w>
sí ly</w>
st é</w>
sna žil</w>
ri a</w>
pře su
pracu je</w>
pr y
počíta č</w>
pos ;</w>
pohy bu</w>
pl ný</w>
p ali
p a</w>
ostat ními</w>
oná lní</w>
od bor
ob o
o do
ni tel
ne má</w>
ne bo
na ce</w>
milió nů</w>
li ền</w>
li la</w>
le ch
l ắp</w>
kter ému</w>
kou sek</w>
kon cep
kh ấu</w>
jí me</w>
f an
dosta nou</w>
cu k
c ường</w>
bi nh</w>
a pos;</w>
Z a
Th ế</w>
Mexi co</w>
M u
L iên</w>
J u
G re
Chri s</w>
C ác</w>
& apos;</w>
ẻ o</w>
đ ắt</w>
ča so
č tí</w>
ú čin
á l</w>
zí me</w>
zne či
xo á</w>
vypa dají</w>
vy sí
ved l</w>
u vidíte</w>
tu ální</w>
t úc</w>
t ová
sí ť</w>
stu dov
sti l</w>
sti cké</w>
sta ro
sou sed
so ng</w>
r ưỡi</w>
při tom</w>
poroz umět</w>
po kro
oxyto cin</w>
otev ře
o sti</w>
ni stánu</w>
ne z
na pl
mode r
mi ền</w>
li i</w>
je ž</w>
in ách</w>
hled at</w>
h ắn</w>
h eo</w>
gala xi
elek tri
dá ch</w>
de k</w>
d ọc</w>
cy k
ch em</w>
bakteri e</w>
ak tivní</w>
Twit ter</w>
Ma t
Ge orge</w>
Evrop ě</w>
A t
20 .</w>
1 000</w>
đ ắn</w>
zi den
větš inu</w>
vý bě
vál ce</w>
ver ní</w>
u s</w>
tě m</w>
tvá ř</w>
technologi í</w>
t ř
t l
sta čí</w>
st vo
představ uje</w>
průběh u</w>
pry č</w>
problé mem</w>
po ža
po di
plane tě</w>
ohled ně</w>
o xi
ní me</w>
ni lo</w>
ng ưỡng</w>
nej vět
nad šen
médi a</w>
morá lní</w>
mi n</w>
kon zu
kh át</w>
h ồn</w>
g a</w>
ema il</w>
eko logi
e pi
di men
d ính</w>
ch ová
ce ch</w>
c ụt</w>
c ục</w>
b lá
b iện</w>
R os
L an</w>
Is ra
š an
ň ovat</w>
đ ùa</w>
ď te</w>
zvláš tní</w>
zji st
vyrá bě
vy ví
vu ông</w>
udr ž
tý dny</w>
ty p</w>
takov ou</w>
ta jem
su per
str i
str anu</w>
sta nou</w>
společ ností</w>
spo čí
slu nce</w>
sa n</w>
rostli ny</w>
pří jem
pořád ku</w>
po čá
po l
po chop
pi s
or e</w>
on line</w>
od mí
o pu
no c</w>
ne s</w>
ne byly</w>
na opak</w>
mu sli
mal ou</w>
mag ne
m ỏ</w>
m ạo</w>
m ạc</w>
léka ř
le tě
ku s</w>
ko nec</w>
jin ým</w>
i m</w>
hu jí</w>
gi ảng</w>
ener ge
důvo dů</w>
dů kaz
druh ého</w>
dr ž
dokon al
dlouho dob
d àn</w>
cháze t</w>
ch ừng</w>
ch ốt</w>
c ăng</w>
bra t</w>
b éo</w>
archi tek
Th ổ</w>
D u
D an</w>
2 2</w>
ři la</w>
řa du</w>
ě jší</w>
čí te</w>
čá sti
zač aly</w>
vý ro
vzdu chu</w>
vra ž
tr ov
thu ần</w>
t nost</w>
sto že</w>
sta v</w>
součas nosti</w>
soft war
slo sti</w>
sil né</w>
pře stože</w>
pě k
pra vit</w>
pokrač ovat</w>
podmí nky</w>
p p
obrov ský</w>
ob tí
nauči li</w>
naho ře</w>
na psal</w>
mí ru</w>
minu losti</w>
me zi
me ra</w>
mal ých</w>
m ưa</w>
m ovat</w>
lid ských</w>
li že</w>
le r</w>
l ược</w>
ku r
kon struk
kom pli
kla si
k les
jedin á</w>
j ších</w>
hled ání</w>
ha ck
h ơn.</w>
h nout</w>
gh ét</w>
en y</w>
el l</w>
dí me</w>
dom ní
dokáz ali</w>
dese ti
d ao</w>
ch ro
c ům</w>
bo m
bar e
b or</w>
ak tiv
Wiki pedi
Th ái</w>
T e
S y
M an
Isra el</w>
G ha
C D</w>
Bri tá
Ang e
2 7</w>
ợ n</w>
ỗ ng</w>
ří t</w>
ě ní</w>
đ ập</w>
úspě chu</w>
ze n</w>
vytvo ření</w>
vyso ké</w>
va cí</w>
u vol
tu ệ</w>
th ỉnh</w>
th ạch</w>
su b
spí š</w>
přiš lo</w>
pá nové</w>
prote in</w>
proce su</w>
pro vádě
pro pojen
pre ziden
poda řilo</w>
ori gami</w>
ob a
nákla dy</w>
na to
na hrá
n ali</w>
mecha ni
laborato ři</w>
l ové</w>
ku m</w>
krás né</w>
kov ou</w>
je k
hod né</w>
h ố</w>
gene race</w>
fi lo
di spo
di ag
d ị</w>
d ve
d né</w>
d ky</w>
cí til</w>
chá y</w>
chy tr
ch ar
c ỗ</w>
bur g
b ơi</w>
Ti mes</w>
N ig
C ó</w>
2 3</w>
Š véd
đ ớn</w>
č ním</w>
ú mrt
zná te</w>
vě zení</w>
vě cech</w>
vz po
vz bu
vo lá
vo d</w>
va ši</w>
va né</w>
v ze
v te
udělá te</w>
uděl ala</w>
tvů r
to stí</w>
th ả</w>
t kem</w>
sv ému</w>
sp u
sou r
se l</w>
přá tel
představ u</w>
př iná
použí vá</w>
po chází</w>
pa t</w>
p sát</w>
or e
obsa huje</w>
obráz ku</w>
o to
ně čeho</w>
ná rodní</w>
no n</w>
ng ọn</w>
ne měli</w>
nak a
na r
n al</w>
mě nit</w>
mysle la</w>
mož ností</w>
mo jí</w>
mlu vili</w>
ki ên</w>
jist ě</w>
jest liže</w>
je li</w>
jas ně</w>
h ối</w>
h àm</w>
g y
finan ční</w>
experimen t</w>
en i
en ce</w>
dí tě
dy nami
dosta teč
do le</w>
d ày</w>
cí tím</w>
by d
b ãi</w>
Ja pon
F </w>
19 7
ụ i</w>
đ ài</w>
č uje</w>
z odpověd
význa m</w>
vzta hy</w>
vysvět lit</w>
vy bí
vrá til</w>
vo da</w>
udr ži
tuy ết</w>
ti ệ
thu ận</w>
th iểu</w>
th ao</w>
te s</w>
te ro
t ỉnh</w>
st vím</w>
st in
smysl u</w>
se str
rá ní</w>
při pomí
pohy b</w>
pad á</w>
p em</w>
os la
opti mi
ob ě</w>
ní ka</w>
ná rod
n ovat</w>
m ây</w>
l ây</w>
k m</w>
k al</w>
je jí
ho ž</w>
h ương</w>
h uyết</w>
fotografi e</w>
er y</w>
dosta ne</w>
dob a</w>
do ku
d ním</w>
chi ru
ch e</w>
budov y</w>
bo hu
an d</w>
af ri
S mi
S h
R ich
Lo s</w>
Le o
H </w>
Afghá nistánu</w>
A si
200 7</w>
západ ní</w>
za u
za tím</w>
za prvé</w>
x ứng</w>
x âm</w>
vě dí</w>
vá š
vy rů
vní mání</w>
vi r
tí t</w>
tr ăng</w>
tr uyện</w>
te m
sym bo
stej nou</w>
sk lad
s ť
rozhod la</w>
ro kem</w>
ra cí</w>
r ẻ</w>
qu án</w>
pří to
pře žití</w>
po vat</w>
ph án</w>
pa ra
p ů</w>
ov ě
otáz kou</w>
oprav dy</w>
nh ũng</w>
ne bude</w>
naš el</w>
n ấu</w>
měst ě</w>
myšlen ku</w>
mysle te</w>
mo to
minu lý</w>
men tá
materiá ly</w>
marke ti
m ẩu</w>
m ũi</w>
la ce</w>
kh ôn</w>
kdy bych</w>
ka te
ji li</w>
inve st
in fra
hodno tu</w>
hla vu</w>
he z
h ẹn</w>
f á
e me</w>
dí vka</w>
dá vat</w>
du še
do opravdy</w>
do kud</w>
de fin
cí mi</w>
cho dit</w>
chiru r
ch ẩn</w>
bi n</w>
b ắc</w>
b ạ
an ti
R w
N ě
Mich a
L in
J er
, 5</w>
žád nou</w>
žen ou</w>
đ ậu</w>
đ ón</w>
Đ ó</w>
čí n
ã ng</w>
zra nitel
war d</w>
vů či</w>
vy p
vy ná
ved la</w>
ty py</w>
tu č
tr ạm</w>
th ẩm</w>
t óm</w>
t óc</w>
t s</w>
t ko</w>
studi i</w>
sta ve
smr t</w>
sa u
rov nová
při jí
práv o</w>
prá zd
posta vit</w>
po bře
o zna
ná pady</w>
ne mají</w>
mí r</w>
mu l
mlu víme</w>
m ệnh</w>
m ò</w>
m ně
l ým</w>
kro mě</w>
kon tex
kh ía</w>
k èm</w>
je z
há ní</w>
hled </w>
g à</w>
er ek</w>
en i</w>
dé le</w>
dá my</w>
dr žet</w>
da m</w>
d li</w>
d .</w>
cí tí</w>
c ốt</w>
bohu žel</w>
V á
NA SA</w>
M I
Jo e</w>
I zra
Dar w
Bro w
200 5</w>
1 /
živo tů</w>
š né</w>
š ka</w>
đ eo</w>
ča né</w>
závě r</w>
zása dní</w>
zjisti la</w>
zby tek</w>
za znamen
z vyš
výzku m
vývo j</w>
uká žu</w>
tvá ří</w>
tr ôi</w>
tr pě
takov ých</w>
t ém</w>
studen ty</w>
strá nku</w>
sta u
souci t</w>
sk len
ru je</w>
re stau
re ch</w>
pů j
pří či
průměr ný</w>
pravide l</w>
pat ří</w>
obra z</w>
ob a</w>
o cho
nh ấn</w>
ngo n</w>
nesmí rně</w>
nemo ci</w>
nazý váme</w>
m lá
lu jí</w>
ko ru
kama rá
k lid
jí st</w>
ji sto
ji nou</w>
hu y</w>
he s
g o</w>
fil m</w>
far má
dět ství</w>
do pa
d ò</w>
chví le</w>
ch ối</w>
c ất</w>
b ụng</w>
b ạc</w>
b in
W K</w>
T ali
O x
I ra
D erek</w>
C i
200 6</w>
1 2
ệ ch</w>
đ ốt</w>
úžas ný</w>
úžas ná</w>
zá kaz
zprá va</w>
zkušeno st</w>
vi l
vak rát</w>
va šem</w>
v ti
ukaz ují</w>
u tra
té ma</w>
tá o</w>
tvo řit</w>
tru y</w>
trov er
th ợ</w>
svě tu</w>
stá vají</w>
struktu ry</w>
stra ny</w>
sta nd
st er
situa ce</w>
ro ste</w>
re spek
re la
ra u</w>
pří pad</w>
přá telé</w>
přá tel</w>
předpo klá
před u</w>
práv u</w>
pra vo
po žá
pi e</w>
pacien tů</w>
p to
obec ně</w>
o kra
ně ž</w>
ná me</w>
no hy</w>
ng ã</w>
mě ru</w>
muse t</w>
momen t</w>
mimo řád
li ko
l ộn</w>
l ôi</w>
ká lní</w>
kultu ry</w>
kh ỉ</w>
k ého</w>
ji ní</w>
inten zi
i la</w>
hude bní</w>
hmy z</w>
h ru</w>
gi ày</w>
fan ta
dě ní</w>
dlou hou</w>
de l</w>
d vakrát</w>
cen y</w>
b la
ag en
a jí</w>
P ale
O ba
J </w>
C am
4 0
đ ếm</w>
čer né</w>
ú va
ê n.</w>
zá li
zvlá ště</w>
zmi ze
země děl
zamě ř
z veřej
w o
vě d
vi n</w>
ve re
uči tel
uy ệt</w>
tý ká</w>
tr ầm</w>
tr ích</w>
ter na
t ali
strá vil</w>
spoko jen
s ữa</w>
robo ta</w>
ro u
r ắc</w>
publi kum</w>
pomá há</w>
po sed
od kud</w>
od hal
oceá nu</w>
ná pad
ng ọt</w>
mla dí</w>
m m</w>
krea tivi
ko mi
kni h</w>
kdy byste</w>
kam pa
jas né</w>
i ly</w>
i Pho
hod inu</w>
h ằng</w>
gi ận</w>
g an</w>
for my</w>
dí vat</w>
dí te</w>
dr že
doká ží</w>
d ové</w>
d l</w>
cu ộn</w>
ch ovat</w>
bo ng</w>
blo g</w>
anal ý
abso lu
a to
T ho
S to
Ng ười</w>
ạ i.</w>
řed i
řa dě</w>
ň a
ù m</w>
Ô ng</w>
ze p
začá tek</w>
x ạ</w>
vyrobi t</w>
vol by</w>
ves nici</w>
u zav
tře ch</w>
tvo r
tho ải</w>
t ôi.</w>
t ò</w>
st an</w>
společ ného</w>
se y</w>
s ốc</w>
s praved
roz ví
r .</w>
qu ét</w>
před ví
prů zku
pro spě
prac ovala</w>
po měrně</w>
ph ổi</w>
ph o</w>
pe č
ope raci</w>
oko lí</w>
okamži k</w>
ohled u</w>
odpově di</w>
ně né</w>
nit ř</w>
m ộ</w>
l ẻ</w>
l ặn</w>
konkré tní</w>
komuni ty</w>
ko mu</w>
kh ao</w>
jmé no</w>
en o</w>
en o
dět mi</w>
dov nitř</w>
d ược</w>
co ng</w>
ber e</w>
ak i
P á
Nor den</w>
L ak
Har var
19 60</w>
ự u</w>
ť á
ši li</w>
šen ím</w>
ň ování</w>
zku sit</w>
z obra
z nak
vyža duje</w>
ved ení</w>
u jte</w>
tě z
tí te</w>
ste in</w>
star é</w>
sc é
revolu ce</w>
q </w>
příto mno
pří rodní</w>
pu l
pro ti
použi li</w>
polov ina</w>
pla n
pi n</w>
ová ni</w>
ov án</w>
os vo
ode hrá
od dělení</w>
nost mi</w>
ni ly</w>
nh ạy</w>
ngo an</w>
ne měl</w>
na j
meziná rodní</w>
mati cky</w>
m ãn</w>
lo ng</w>
kri ze</w>
kone č
kon tak
k êu</w>
hra je</w>
ho ại</w>
h ứa</w>
dr ží</w>
do ry</w>
dese ti</w>
dal šími</w>
d ř
d ãy</w>
ch ìm</w>
cen a</w>
c ro
ba bi
b ó</w>
Washing ton</w>
V ì</w>
Uni ver
R ập</w>
Q </w>
Ne w
Micha el</w>
Ja mes</w>
Char les</w>
C la
A i</w>
2 50</w>
Ồ </w>
č ce</w>
zá sob
znamen alo</w>
změni la</w>
zalo žen
z la
vytváře t</w>
vyso ce</w>
vy rost
vide a</w>
vi ly</w>
uči telé</w>
ty pu</w>
tu s</w>
tu r
tr ắc</w>
tr h</w>
ti lo</w>
televi zi</w>
t ạm</w>
stě h
stu dovat</w>
s ova
rostli n</w>
re akce</w>
pří š
pu jí</w>
profe s
procen ta</w>
pro de
posta vili</w>
pomal u</w>
po ško
po ste
po le</w>
po ho
otá zek</w>
obcho d</w>
násled ujících</w>
normá lní</w>
no sti
nej víc</w>
nech ali</w>
nauči la</w>
n ấm</w>
n uje</w>
mo sfé
mi êu</w>
li ng</w>
l ỏng</w>
l l</w>
ků že</w>
kon ver
kli ni
kho an</w>
kh ớp</w>
ji l</w>
je tí</w>
informa ci</w>
i slá
hra jí</w>
h òn</w>
h em</w>
g o
en ý</w>
emo ce</w>
druh u</w>
dokáže te</w>
doku men
demokra cie</w>
de sá
cí tila</w>
bo j</w>
bar vy</w>
b ạch</w>
at mosfé
P or
Ken ya</w>
Higg s</w>
C alifor
B ar
A ma
ừ u</w>
živo tu</w>
ško l</w>
ši l</w>
řek nu</w>
zví ře</w>
zvu ky</w>
znalo sti</w>
ze jména</w>
zahra ni
w i
vá ch</w>
vy rov
vy rob
vy dělá
vy brat</w>
vaši ch</w>
vak cí
v ku</w>
tře mi</w>
tr ục</w>
tiế c</w>
ti on</w>
stá tu</w>
ste ro
spo r
sou tě
slov </w>
skup inu</w>
sexu ální</w>
s ứ</w>
roz lo
rov něž</w>
ro ng</w>
ri s</w>
ra y</w>
ra ději</w>
příkla dů</w>
před á
pře lo
ps ali</w>
pr u
pozor u
po za
obtí ž
ng ập</w>
ng ũ</w>
nejs pí
nej dříve</w>
ne ná
navš tí
na pravo</w>
n ó.</w>
n kách</w>
mlad é</w>
mi t</w>
medi cí
ma s</w>
m ạn</w>
ky slí
komplex ní</w>
ko lo
khuy nh</w>
kh ô</w>
hor mo
h ỏng</w>
h ư</w>
h ý
h nu
g õ</w>
g ói</w>
filo zo
du jí</w>
di n</w>
de vět</w>
de sí
de fi
da mi</w>
d rob
d ka</w>
d ge</w>
cho d</w>
bạ n.</w>
b ách</w>
Rich ard</w>
O E
M c
Ira q</w>
E ri
1 7
ướ p</w>
ž lu
ř ích</w>
đ ốc</w>
đ âm</w>
ča stě
č ích</w>
ú he
ã nh</w>
zemře l</w>
zbra ně</w>
zaměst na
x ong</w>
vo zí
vesmí r
ves nice</w>
velk ým</w>
vel ko
ved ou
v nější</w>
tva r</w>
tu ỳ</w>
tu ry</w>
tr ần</w>
thu ế</w>
th iệt</w>
tel nou</w>
t nosti</w>
stro my</w>
stro je</w>
sti mu
složi té</w>
skuteč nost</w>
sku tku</w>
sbí r
s in
ru jí</w>
re a
qu à</w>
pře ko
prá va</w>
pravo da
plá n</w>
ph ạt</w>
pamě ti</w>
pa ti
ova ný</w>
ov ými</w>
ne se</w>
na zv
n ốt</w>
n ảy</w>
n ala</w>
má lní</w>
mul ti
moleku ly</w>
mo ut</w>
mili onu</w>
log ové</w>
lid ská</w>
le ti
la da
l ưng</w>
l âm</w>
l nost</w>
ků ži</w>
kou z
kontro lu</w>
kh óc</w>
ka rié
ka p
k ní
hud by</w>
hrá li</w>
fung ují</w>
fil mu</w>
fi k
eri a</w>
dá r
dá ng</w>
do n</w>
dlou h
digi tální</w>
del f
cho du</w>
car bon</w>
c ốc</w>
b ổ</w>
at d.</w>
ameri cké</w>
You Tu
YouTu be</w>
Y e
S he
P aki
Califor nia</w>
Afri ky</w>
3 3</w>
20 10</w>
19 5
1 5
ž ku</w>
ší te</w>
ší me</w>
ško la</w>
š ed
ô ng.</w>
zá jem</w>
zají m
z právu</w>
z pravoda
z ování</w>
z ou
z or
z ma
vě řit</w>
vyvinu li</w>
vyu žití</w>
vezme te</w>
v ườn</w>
v skutku</w>
udělá me</w>
tře s
tě les
tu ng</w>
tro šku</w>
tr en
th ăng</w>
th iệp</w>
t ný</w>
svě tem</w>
stra te
stand ar
sr de
sly šel</w>
seku nd</w>
se kto
s niž
rů m</w>
rá di
roz ení</w>
příběh ů</w>
ps ala</w>
progra mu</w>
pro zkou
pro vi
pravděpodob nost</w>
pra cí</w>
poč tu</w>
potřeb ovali</w>
pohyb ovat</w>
po de
p s</w>
ov ě</w>
ov ství</w>
obyva tel</w>
ni nh</w>
ng ài</w>
neuvěři telné</w>
nech al</w>
na ději</w>
n ét</w>
mu s</w>
mou dro
m l
lé t
logi i</w>
l ăn</w>
kov á</w>
koupi t</w>
jednoduch ý</w>
inve sti
g al
en ím</w>
e c</w>
důleži tý</w>
domá cí</w>
dob rou</w>
d ku</w>
cítí me</w>
ch ước</w>
ch ìa</w>
cest ou</w>
c ậy</w>
bu ď</w>
bohat ství</w>
b ão</w>
a nebo</w>
U gan
T al
Rw an
P i
P ar
O r
MI T</w>
M ĩ</w>
Gha na</w>
E n
C H
B razil</w>
Ange les</w>
A li
0 ,000</w>
ướ t</w>
ško lách</w>
đ áy</w>
Đ iều</w>
čen é</w>
ú z
ú h
závi sí</w>
zá ří</w>
zvláš ť</w>
zi sk
z t</w>
z bý
x i</w>
vě k</w>
vz ruš
vytvá ření</w>
vy bud
ve s</w>
uli ci</w>
u ci
tradi ční</w>
ti vy</w>
ti va
tajem ství</w>
si vní</w>
sdí let</w>
s ně</w>
růz nými</w>
rá ch</w>
rov ali</w>
rov al</w>
rod inu</w>
reál ném</w>
re cep
ra dost</w>
přemýš líme</w>
pro pa
po bí
okamži ku</w>
od pad
obla stech</w>
nh ỉ</w>
nepo ko
nej vyšší</w>
ne zby
ne možné</w>
nabí zí</w>
na děje</w>
minu ty</w>
m ẻ</w>
m er</w>
lí bí</w>
lá r
l ận</w>
l nosti</w>
kon ce</w>
komunika ci</w>
kh ơi</w>
kh uyên</w>
ka ta
k ênh</w>
jednot livé</w>
ja dř
h ải</w>
en tro
e te</w>
dru ž
di no
dese t</w>
den ní</w>
d ải</w>
ct ví</w>
chá zíme</w>
chá ní</w>
chy by</w>
ca mera</w>
by tosti</w>
b ếp</w>
a však</w>
W or
V a
T ri
Ste ve</w>
S O
Joh n
Ji žní</w>
H à</w>
H DP</w>
Darw in</w>
C ực</w>
A i
1 .</w>
… </w>
ẫ y</w>
ů h</w>
ši la</w>
řen é</w>
đo an</w>
č er</w>
ì nh.</w>
zá zna
zač neme</w>
zají má</w>
za sáh
z prac
z nám</w>
vě říme</w>
vy šet
vy jadř
vo dě</w>
vlast ním</w>
v an</w>
u spo
tý dnů</w>
tuč ňá
tr ốn</w>
th ôn</w>
tel nost</w>
te ku
takov é
ta bu
systé mů</w>
sv á</w>
střed u</w>
sta nov
st ů</w>
spolu pracovat</w>
sna žíme</w>
sled ování</w>
skuteč ný</w>
sk á
sil nější</w>
si a</w>
s mlou
s lep
rá lní</w>
ro vání</w>
re n</w>
re gi
r ãi</w>
při mě
pá ní</w>
prav é</w>
pr su</w>
postup ně</w>
poli tické</w>
po tě
pl ý
ph ó</w>
papí ru</w>
ova ná</w>
oba vy</w>
ní ž</w>
ná hod
ni k</w>
ng ầm</w>
ne ho
ne ga
ne do
n ơ</w>
mo d
men ším</w>
m úa</w>
li dech</w>
le té</w>
la h
kou ze
ko s
k nout</w>
k g</w>
k ali</w>
js ké</w>
jazy ky</w>
j ích</w>
hy po
ha m
h ád
gra vi
for mu</w>
for mu
f on
evolu ce</w>
důvo dem</w>
dělá te</w>
dělá m</w>
dí ry</w>
druh ým</w>
do kola</w>
de pre
d ẻo</w>
d ar
co koli</w>
ch ů</w>
c ối</w>
c or
b ớt</w>
b ů</w>
as tro
a s</w>
S tan
Nh ĩ</w>
Le e</w>
Higg sov
H en
E D</w>
D ương</w>
B ởi</w>
B os
3 5</w>
200 4</w>
ško l
ří cí</w>
ře n</w>
đ ực</w>
čt vere
á rní</w>
záko ny</w>
zákla d
zvu ku</w>
zlep š
zjist íte</w>
zdravot nictví</w>
z vě
z vyk
z ují</w>
z ny
vš tě
vá leč
vlast nosti</w>
veli kost</w>
ve změ
va mi</w>
v ĩnh</w>
umož ní</w>
u skuteč
u d</w>
tá l
tvr dí</w>
to nu</w>
takov ým</w>
t lu
t kou</w>
svo jí</w>
spolu práce</w>
sp l
souvi sí</w>
slou ží</w>
sil ný</w>
roz mani
ri e</w>
re prezen
re k</w>
rak e
r ập</w>
qu ạ</w>
qu ê</w>
qu ái</w>
při cházejí</w>
pé či</w>
pt át</w>
profe si
produk ty</w>
podě lit</w>
po zem
pl ak
pacien ta</w>
p ád
ob y</w>
ob ou</w>
o s</w>
ně no</w>
nh o</w>
ng ắm</w>
nemo cí</w>
nej lépe</w>
nej en
ne o
napad lo</w>
n ướng</w>
mu ze
moz kové</w>
li ều</w>
le tý</w>
l ệnh</w>
ky ber
kultu rní</w>
ku je</w>
kov ali</w>
koru p
kon čí</w>
kni hov
kd e
ka jící</w>
je jím</w>
jak o
iPho ne</w>
ho spo
hledi ště</w>
h ô</w>
gol f</w>
gi án</w>
ga me</w>
f os
f f
er u</w>
důvo du</w>
dosta neme</w>
do pi
do nu
delf í
de mi
de jte</w>
d voj
d lem</w>
co t
ch ăng</w>
ch ran
by zny
bole st</w>
blí ž</w>
b ấy</w>
b ám</w>
b log
Tali ban</w>
P ra
Ně me
Irá ku</w>
C ông</w>
2 6</w>
1 4
ộ m</w>
ẫ m</w>
ži ly</w>
š tí
ří dí</w>
čá ste
Čí ny</w>
éri i</w>
zví ře
zr ca
zp í
zou f
za p
vě du</w>
výsled kem</w>
vá na</w>
vz ala</w>
vi ny</w>
vi di
ve čer</w>
v ây</w>
umí me</w>
tvá ře</w>
tick ým</w>
th ịnh</w>
th ói</w>
th ính</w>
th áo</w>
ta mi</w>
ta j
t oval</w>
str es
snad no</w>
sna žili</w>
slyše t</w>
sed í</w>
s ung</w>
rych lostí</w>
ry by</w>
roz li
ro man
r ủi</w>
pří tom
pří jem</w>
při ta
progra m
poku s</w>
podni kání</w>
pobře ží</w>
po va
po kou
p er</w>
ote pl
osob u</w>
odliš né</w>
obje vili</w>
ně čím</w>
ní te</w>
ne pře
ne může</w>
ne měla</w>
naši m</w>
nale vo</w>
na u
měsí ci</w>
mě řit</w>
mě st</w>
men t</w>
ma tky</w>
m ờ</w>
m èo</w>
l ệch</w>
l ão</w>
kom bin
ko st
kilo metrů</w>
k ování</w>
j á
inte lek
hvěz dy</w>
hal uci
h ali
gi ấu</w>
gi am</w>
fa j
efek t</w>
e mi
dve ře</w>
diag nosti
demokra cii</w>
d ứt</w>
cí le</w>
ck a</w>
chá pe
cho dí</w>
ch ấn</w>
ch ů
ch tít</w>
ch lá
c ú</w>
blíz ko</w>
a č
X in</w>
W </w>
Ste war
S N</w>
R I</w>
OE CD</w>
K alifor
Ha i
F re
C u
C on
A le
3 ;</w>
2 .
199 0</w>
1 ;</w>
1 6
&#9 3;</w>
&#9 1;</w>
ượ n</w>
ž to</w>
ž ka</w>
ň ů</w>
đ ừng</w>
čin nosti</w>
čas em</w>
č ných</w>
Í rá
získ al</w>
záži tek</w>
zá chra
zr ak</w>
zlep šení</w>
zept al</w>
zd ar
začí nají</w>
z je
w at
w a</w>
vě c
věc mi</w>
vý kon
vypad al</w>
vo le
vnitř ní</w>
vil le</w>
ven ku</w>
ved li</w>
ve če
univerzi tě</w>
u ji
tě stí</w>
tr vá</w>
ti hle</w>
th ổi</w>
th âm</w>
te kto
t ặng</w>
su s</w>
studen tů</w>
stro j</w>
spo jit</w>
speci fi
součas né</w>
sní žit</w>
sní mek</w>
skvě lý</w>
samo sta
s àn</w>
s lad
s ha
ru ồi</w>
roz to
rodi č
rodi ně</w>
rod in
re k
ra z</w>
prostřed ky</w>
pozna t</w>
pomá hají</w>
polov inu</w>
podpo ru</w>
poci ty</w>
po ně
po no
po hod
phi ền</w>
ph a</w>
per fek
pamatu ji</w>
ova ných</w>
orgá ny</w>
obrov ská</w>
o st
ně mu</w>
ní kům</w>
nhi ếp</w>
nh ãn</w>
ng a
ne mám</w>
naš těstí</w>
na sa
na da
n ci</w>
ma i</w>
m ũ</w>
kva n
krá lov
ko p
khi ếm</w>
jist é</w>
jazy ka</w>
j ším</w>
inova ce</w>
hla vě</w>
hla d
gori t
gi ặt</w>
gen o
g ỡ</w>
fot ky</w>
for du</w>
f a</w>
er t</w>
e li
důsled ky</w>
děl ala</w>
dě si
de ba
dal šího</w>
ch ở</w>
c ấm</w>
c ku</w>
c ed
ber g</w>
b ơm</w>
b le</w>
aplika ce</w>
al terna
al gorit
ak cí</w>
a no
W o
S an
Pau l</w>
Paki stan</w>
P T
Jo se
Ameri ky</w>
3 7</w>
1 20</w>
ư ơn</w>
ří kat</w>
đ ợt</w>
čas .</w>
Ý </w>
způsob ů</w>
zná mé</w>
zachrá nit</w>
za sa
za myslete</w>
vál ka</w>
vz dory</w>
vytvo ří</w>
vypa dalo</w>
vy táh
vo zi
vlast ních</w>
vi lo</w>
vešker é</w>
ven kov
ved ou</w>
u prav
tr ộn</w>
tr pí</w>
ti ka</w>
th ùng</w>
th ô</w>
te st</w>
sy n
struktu ra</w>
sta bili
st en
spolu práci</w>
smě ř
slune ční</w>
sk a
seku n
se x</w>
re cyk
razi t</w>
razi li</w>
ra nh</w>
qu ãng</w>
příro dy</w>
pře mě
pře ká
pu stit</w>
pu st
prv ního</w>
pro vá
pozi tivní</w>
potenci ál</w>
po u</w>
po stup</w>
po sto
ph ím</w>
pe c</w>
os u</w>
odmí t
obsa h</w>
obliče je</w>
ob leč
ob klo
náz or</w>
ná vště
nist er
nh ắm</w>
ng o</w>
nech te</w>
na vzdory</w>
n ở</w>
myšlen kou</w>
meta fo
m ení</w>
m bi
lí te</w>
liko ž</w>
li p</w>
len a</w>
l ợn</w>
l ông</w>
ky ně</w>
kre sl
kni h
kla d</w>
kh uyết</w>
kdo koliv</w>
kate gori
k ịp</w>
jí cími</w>
jen že</w>
jen ž</w>
je likož</w>
hodno cení</w>
h ồng</w>
h ra</w>
gi i</w>
g ánh</w>
elek tř
e ro
dosáh li</w>
dost alo</w>
dlou hé</w>
desig n</w>
cha ri
ch úc</w>
bě žně</w>
b út</w>
b ùng</w>
ameri ckých</w>
] </w>
[ </w>
S tre
S lu
S cot
O SN</w>
M il
M RI</w>
K ar
J en
G ol
Bi g</w>
At lan
8 00</w>
ờ ng</w>
živo tního</w>
že k</w>
ž ší</w>
ž al
šan ci</w>
š pa
ří dil</w>
řen ím</w>
đị ch</w>
đ ạn</w>
člá nek</w>
čen a</w>
če b
ča ta</w>
č ují</w>
č kou</w>
úmrt nost</w>
é n</w>
zů stat</w>
zá ní</w>
změni li</w>
změ n</w>
zep tat</w>
y n
vče ly</w>
výz va</w>
vý mi</w>
vy lep
vr st
vo dní</w>
vide oh
ven ce</w>
uči tele</w>
uči tel</w>
u trá
to ả</w>
tiv ních</w>
ti on
th e
tero ri
tel nosti</w>
tel em</w>
te ru</w>
t ắm</w>
str e
stou p
sti cký</w>
sta vě
st ři
srov nání</w>
spoust y</w>
softwar e</w>
snad né</w>
si mu
s vi
rozhod ně</w>
roz sa
roz hraní</w>
ro va
přen á
pře ce</w>
pó di
průmysl u</w>
projek ty</w>
pro cháze
požád al</w>
podí vali</w>
po š
po nen
po e
ph ốt</w>
ph ì</w>
pa ne
osob y</w>
opa tr
obla stí</w>
objek ty</w>
ob di
nějak á</w>
ně čemu</w>
ně n</w>
ná te</w>
nov ání</w>
ni cích</w>
ni chž</w>
nh ở</w>
nh ặt</w>
nh ẫn</w>
nevi di
nejlep ších</w>
nej horší</w>
ne můžeme</w>
ne moc</w>
naši mi</w>
na jdete</w>
na da</w>
míst nost</w>
má ma</w>
mo ře</w>
mikro sko
m ỹ</w>
m ì</w>
lá ska</w>
lo w</w>
le vo</w>
le pi
laborato ře</w>
la ci</w>
l ật</w>
l ường</w>
l ùi</w>
kultu ra</w>
kte m</w>
kata stro
ka ná
k in
jedi nou</w>
j ní</w>
i s</w>
hodno ta</w>
hlav ním</w>
h ệt</w>
gi ơ</w>
faj n</w>
en á</w>
ekonomi cké</w>
e mi</w>
dá l
domá c
do my</w>
do mu</w>
dne ch</w>
desig nu</w>
del ší</w>
cho ro
ch úa</w>
c ướp</w>
b ụi</w>
b á</w>
V ậy</w>
T rong</w>
Se verní</w>
Mar tin</w>
M as
Lon dý
K an
In do
H ội</w>
Franci s
E in
C ập</w>
C ô</w>
C A
Bro n
B ộ</w>
B ůh</w>
A h
A bra
19 4
ằ n</w>
še ň</w>
š a
độ n</w>
úda je</w>
zna t</w>
země třes
zemětřes ení</w>
zdá lo</w>
zdro jem</w>
zdar ma</w>
zbra ní</w>
z ře
z ně
x óm</w>
x í
výcho dní</w>
vybr ali</w>
veřej né</w>
v ắc</w>
univer zá
uděl á</w>
tě le</w>
tr eo</w>
to r
tiệ c</w>
th ám</w>
ten den
te p
t ĩnh</w>
t ân</w>
stá l</w>
stou pení</w>
spá nku</w>
společ nostech</w>
spo n
spi sova
skup in
skon čil</w>
sezna m</w>
setká ní</w>
sdí lení</w>
sa my</w>
rá p</w>
rozvoj ových</w>
roz ši
rov á</w>
ri tu
r ễ</w>
r ý
qu e</w>
přiná ší</w>
překvapi vě</w>
pé če</w>
pracu ji</w>
pozi ce</w>
povr chu</w>
poroz umění</w>
podíve jme</w>
phi ếu</w>
p lu
p ale
otepl ování</w>
od hali
obje vila</w>
o le
o h</w>
ně čem</w>
ná do
nu li</w>
nov i</w>
niž ší</w>
nh au
ng ừa</w>
nejen om</w>
n ọ</w>
n ắng</w>
měří tku</w>
mě stech</w>
mí ry</w>
médi í</w>
mlad ých</w>
m ười</w>
m ali</w>
lo g</w>
lid ský</w>
li tera
le jší</w>
le gra
kultu ru</w>
kouze l
kon ku
ko ho
kh ẳng</w>
kdy koliv</w>
kampa ň</w>
jedin ým</w>
jedi ne
jed ná
je la</w>
in tu
i ně</w>
hro u
hled em</w>
hla vy</w>
hla s
h ưu</w>
h óc</w>
ge o
fung ovat</w>
děku jeme</w>
dí vky</w>
dokáz al</w>
do jde</w>
dispo zi
d ạo</w>
d ã</w>
co u
c ưới</w>
běž né</w>
bri t
a na</w>
U S
Stewar t</w>
Sta r
Smi th</w>
S hi
N á
N ob
Mi cro
I N
G DP</w>
B us
Ama z
200 2</w>
ố m</w>
žen o</w>
ů v</w>
ši ro
ši m
ř ství</w>
đ ế</w>
či lo</w>
č ná</w>
ál ů</w>
zá ha
změ ně</w>
zer va
zbo ž
zač nete</w>
z ó
z rych
z ovali</w>
z krá
xi nh</w>
vý ži
vý u
vý bor
ví tr</w>
vytváře jí</w>
vyso kou</w>
vu a</w>
vrá tí</w>
vní mat</w>
vlá k
vi a</w>
vezme me</w>
v ậ
v levo</w>
v em</w>
udr žet</w>
u n</w>
tu ân</w>
tr val
tr hu</w>
to ru</w>
tl ak</w>
telefo n</w>
te prve</w>
takové to</w>
ta r</w>
ta jí</w>
t ần</w>
t ông</w>
sy n</w>
svět ový</w>
su r
stá tní</w>
sta bi
st em</w>
společ né</w>
slu š
sl y</w>
sil ná</w>
signá l</w>
sed mi</w>
schop en</w>
samot ný</w>
s má
s hod
rá me</w>
rych lost</w>
rozši ř
roz u
re ži
rakov iny</w>
rakov inu</w>
r ồ</w>
r ky</w>
přístro je</w>
příro dě</w>
pří no
přá tele</w>
pu t
ptá te</w>
poza dí</w>
potře by</w>
politi ky</w>
poe zi
pod ně
pochop ení</w>
pl ná</w>
pi z
očeká vání</w>
ov o
ot ce</w>
osvo bo
os mi</w>
ol y
odliš ný</w>
obcho dní</w>
o ta</w>
o proti</w>
o má
ná ho
nu tím</w>
nu jí</w>
nh at
ne obvyk
má ž
mode ly</w>
me -li</w>
mal á
m lé
leta dla</w>
le v
la ng</w>
l ại.</w>
konferen ci</w>
komuni kovat</w>
ko pí
khi êu</w>
k ẹo</w>
jí te</w>
intu i
im provi
identi fi
hlav ních</w>
fos for
for má
fil my</w>
ekonomi ky</w>
efek tivní</w>
e v
dostateč ně</w>
dopa min
do pad
dispozi ci</w>
dan ý</w>
da ří</w>
da ta
d ly</w>
cítí te</w>
cí tili</w>
ck ému</w>
civili zace</w>
cho dil</w>
c ưỡng</w>
c ag
auto ri
auto bu
Vá s</w>
Vi r
T ại</w>
T as
N ếu</w>
Micro sof
Mi s
Ma nhat
Chi cag
Bra zí
A ra
8 5</w>
ề u.</w>
šim pan
š ká
ří z
řen á</w>
řen y</w>
řek ne</w>
ře či</w>
če ka
častě ji</w>
časo pi
ča ny</w>
č iny</w>
ò m</w>
é nu</w>
á lu</w>
Ú c</w>
zá kon
zlep šit</w>
zi t</w>
zamě řit</w>
z bro
vů dci</w>
vů d
výji me
vzta hů</w>
vznik l</w>
vytvoři la</w>
vyba vení</w>
vy hledá
vte ř
vizu ální</w>
ver zi</w>
velk ého</w>
va n
v ải</w>
v ươn</w>
univerzi ty</w>
umož ňují</w>
u šet
tva ru</w>
tr ứng</w>
tr ấn</w>
tr ú</w>
tká ně</w>
tion al</w>
th ẻ</w>
ta r
sá o</w>
stra chu</w>
spá nek</w>
skupi n</w>
sk ry
sebe vraž
sa y</w>
s s</w>
rost ou</w>
radi o</w>
r ửa</w>
r ắn</w>
qu át</w>
qu i</w>
příleži tosti</w>
příkla dem</w>
při pa
přemýšle l</w>
pě tí</w>
prů měru</w>
proved li</w>
propo jení</w>
pracu jeme</w>
poz nání</w>
potřebu ji</w>
potk al</w>
poh á
podob ě</w>
pod vádě
pochopi li</w>
po vzbu
po tvr
po sel
par en
pa dech</w>
p sá
p lí
ova ní</w>
or em</w>
odpově dí</w>
obra zy</w>
ob lo
o t</w>
o nemoc
násled ně</w>
ni m</w>
ni koli</w>
nemoc nice</w>
ne za
ne byli</w>
na rozen
myšlen kami</w>
mu jící</w>
mlu vím</w>
mi l
me ňte</w>
marketi ng</w>
logi cké</w>
li ší</w>
le jte</w>
l ování</w>
l d</w>
ku jí</w>
kli ma
kla du</w>
kde koliv</w>
jednotliv ých</w>
jednoduch á</w>
je hož</w>
ig no
i li</w>
hvěz d</w>
hro máž
hra ni
hr din
ho mo
hes la</w>
gy p
graf u</w>
gi ãn</w>
f ale
ev rop
e ra</w>
dě la
dá váme</w>
do tk
do sti</w>
d uyệt</w>
d cer
ci onální</w>
chu doby</w>
chla pí
chemi ká
c ti</w>
c ování</w>
by tu</w>
auto no
ar gu
Ye men</w>
W ar
W a
Tho mas</w>
Th iên</w>
Pá ki
M al
K u
H ãy</w>
F lo
E d
D o</w>
Ameri čan
Afri ka</w>
7 00</w>
19 70</w>
19 6
1 3
ồ i.</w>
živo tem</w>
ře šením</w>
ře č</w>
řa dy</w>
đ ẻ</w>
đ óm</w>
červen é</w>
če n</w>
á c.</w>
záli vu</w>
záko n</w>
zu jící</w>
zlo čin
zd i</w>
zau j
zasta vit</w>
z em</w>
x ăm</w>
ví ce
vá šeň</w>
vzta hu</w>
vzpomí nky</w>
vz or</w>
vyprá vět</w>
vy pěst
vrá tili</w>
vrcho lu</w>
vo jen
vlá dní</w>
vi o
vi nh</w>
vezmě te</w>
v ỗ</w>
uvědomi t</w>
ul tra
u tr
tě ho
tr ân</w>
tov ou</w>
te -li</w>
tal en
t ovali</w>
stvo ření</w>
studov al</w>
strá nka</w>
st mi</w>
soci álních</w>
sna žila</w>
se sta
schop né</w>
schop na</w>
s ắt</w>
s pad
s lid
s hromáž
roz sáh
rov ých</w>
ri sk
rakov ina</w>
příkla dy</w>
příběh em</w>
pří spě
pře žít</w>
pro vést</w>
pro mí
prav dě</w>
poža da
poč kat</w>
pozor nosti</w>
pozi ci</w>
pohybu je</w>
po hla
ph ẳng</w>
ov i
ou n
os fé
obcho du</w>
ná zv
nhau .</w>
nemoc nici</w>
nej růz
nej dřív</w>
ne rov
naš la</w>
narodi l</w>
na znač
na učí</w>
na psat</w>
na po
n né</w>
n alo</w>
mé mu</w>
myš le
myšle nek</w>
mobi lní</w>
mati cké</w>
ma na
m ấu</w>
lá tky</w>
lá ní</w>
lov al</w>
lan du</w>
kvali tu</w>
ku jící</w>
kru hu</w>
kompli kova
kho ái</w>
kh ôi</w>
kdy si</w>
každ ému</w>
k lou
k er</w>
ji žní</w>
jak ou
hov ě
ho ả</w>
hledi ska</w>
h er</w>
for m
ex per
dvo u
dva ce
dovo lit</w>
doká zat</w>
dob ou</w>
deseti letí</w>
da jící</w>
d ního</w>
cu ồng</w>
ch ục</w>
ch ín</w>
c y</w>
bu ôn</w>
bo d</w>
ber t</w>
be rou</w>
ander th
anal y
an e</w>
ali zace</w>
Wal l</w>
Si nga
S ự</w>
P M</w>
O ly
Ne anderth
M ặt</w>
Lon don</w>
L ED</w>
K al
Hen ry</w>
G lob
Ein stein</w>
D ur
Ca ro
Ca nada</w>
B en
B an
B I</w>
A nd
A dam</w>
5 8</w>
19 .</w>
ế ch</w>
ž ď
ško lní</w>
ško d
š ce</w>
řík ala</w>
řej mé</w>
ř ské</w>
ň ujeme</w>
đo m</w>
đ ạc</w>
člově kem</w>
č tější</w>
č ování</w>
ý cho
úrov ně</w>
ú m</w>
ú lo
é st</w>
zá pa
zu jeme</w>
způsob u</w>
zku ste</w>
zelen é</w>
zapo men
zajíma vá</w>
zabý vat</w>
za vol
z obraz
z nepoko
z kra
y l</w>
x ám</w>
web si
věd ců</w>
vě dě</w>
význa m
vzruš ující</w>
vzor y</w>
vz hů
vzhů ru</w>
využí vat</w>
vy zkouše
vo dí
vo dou</w>
ven ci</w>
vedou cí</w>
v ovat</w>
v ního</w>
v ay</w>
uvědomi li</w>
urči tou</w>
upří mně</w>
uh li
uhli či
udělá m</w>
u pozor
u lo
těž ší</w>
tu ý</w>
tov á</w>
tov i</w>
to též</w>
to le
tiv ním</w>
ti ky</w>
teori i</w>
techni ky</w>
ta ne
t ị</w>
t ươi</w>
t al</w>
sí tí</w>
svobo du</w>
stri bu
straš ně</w>
stoupi t</w>
sto j
statisti ky</w>
star á</w>
sta ří</w>
slyše la</w>
skupi ně</w>
sk e
si la</w>
si ce</w>
se t</w>
schop ný</w>
sa mi
s ơn</w>
rá že
rov ý</w>
rop a</w>
ro stou
rizi ko</w>
razi la</w>
ra zí</w>
r ẽ</w>
působ í</w>
případ ů</w>
pří ští</w>
pří padech</w>
přirozen ě</w>
při jdou</w>
při blí
přesvěd čit</w>
představ ují</w>
předná šky</w>
pro hlí
prav di
použi l</w>
po tla
po kry
plast y</w>
pi i</w>
otev řít</w>
orgá nů</w>
op er
oko l
obje ví</w>
o no</w>
o my
ně me</w>
ní kem</w>
nu la</w>
nov iná
no hou</w>
ng ực</w>
nezávi sl
nebe zpečí</w>
ne r</w>
ne máme</w>
ne koneč
ne gie</w>
nalé zt</w>
na chází</w>
n ský</w>
mů m</w>
modr é</w>
mno zí</w>
meziná rod
metr </w>
matemati ka</w>
manže l
m òn</w>
m ra
lá t</w>
lá sky</w>
lo di</w>
l ấp</w>
l ướt</w>
kri zi</w>
konku ren
komple tně</w>
kom bi
kmen ové</w>
kli matu</w>
ka paci
ka me
jednodu š
jaké koliv</w>
jako žto</w>
in jek
hovo ří</w>
hmo ty</w>
h ận</w>
h ně
gra mo
f ron
f e</w>
dě lo</w>
dáv no</w>
dob ří</w>
do poru
do chází</w>
di stribu
d nou</w>
d ce
chu t
char akteri
cen tra</w>
blí že</w>
ba mi</w>
b ỗng</w>
a spoň</w>
a d</w>
Zá pad
W in
W at
Vir gi
Th e</w>
Ste ph
Slu nce</w>
S tá
Rob ert</w>
Oly mpi
Oba ma</w>
Nob el</w>
Jose ph
H er
Gre en
Flo ri
E gyp
Da ni
Car negie</w>
A pp
5 000</w>
3 8</w>
ụ n</w>
ỉ a</w>
ži lo</w>
žen ý</w>
ž li
ň ující</w>
đ à</w>
části ce</w>
čtyř mi</w>
čer v
č oko
čoko lá
â y.</w>
á ly</w>
závi sl
zá bě
ztra tili</w>
zná mý</w>
zkou mat</w>
zd ě</w>
zaznamen á
zapo jit</w>
zak á
z ím</w>
x ôi</w>
websi te</w>
věde cké</w>
vě novat</w>
vzdu ch</w>
vytvá říme</w>
vyjád řit</w>
vy nalez
vir tuální</w>
vi du
velk ém</w>
va ng</w>
v ở</w>
uli ce</w>
udá losti</w>
u zná
tří dě</w>
tý mu</w>
tvo ři
tva ry</w>
tuy ển</w>
tr ật</w>
tr ượt</w>
tr ưa</w>
tr à</w>
tom hle</w>
to ři</w>
th ổ</w>
th er</w>
tel ných</w>
t ků</w>
stup u</w>
studen t</w>
strá nce</w>
stro mů</w>
sto lu</w>
st á</w>
správ ný</w>
sní mky</w>
sna žím</w>
sled ovali</w>
schop ností</w>
samo tné</w>
sa mý</w>
s hr
rozhov or</w>
rozhod ování</w>
roz dělení</w>
re w</w>
přístro j</w>
přá ní</w>
při pra
při cháze
představ ení</w>
před cho
pí sk
prv ky</w>
počíta či</w>
použí vali</w>
posta vil</w>
poslou chat</w>
poslou ch
posel ství</w>
pomá h
podí val</w>
podob ný</w>
po pi
ph ú</w>
ph un</w>
pe k
pa ten
p ky</w>
osob ně</w>
or ů</w>
oly mpi
od kaz
obe lov
ob oru</w>
o f</w>
nějak ého</w>
něj šího</w>
như ờng</w>
nedosta tek</w>
ne y</w>
ne pří
ne mohl</w>
na jdeme</w>
n ữ
moz ky</w>
mili on</w>
mi str
med vě
mani pu
ma s
m ými</w>
là n</w>
lid stva</w>
lid skou</w>
le t
ká z
kr ve</w>
ko stí</w>
kla dy</w>
kh o</w>
každ ým</w>
ja der
inter pre
indi vidu
hla dov
h ước</w>
h ò</w>
h uy
gh t</w>
gene raci</w>
gen ů</w>
g er</w>
filozo fi
fe et</w>
fak ta</w>
f eno
experimen tu</w>
em pati
důkaz y</w>
dě v
dě te</w>
dino sau
di vo
di plo
d ọn</w>
d ư</w>
d nu</w>
chy t
ch ý
cen é</w>
ce n</w>
car </w>
c ọ</w>
c ạn</w>
bě že
bu ýt</w>
bla ho
be zpečí</w>
be zpe
ba t</w>
b ít</w>
b át</w>
ameri cký</w>
a mi</w>
Sa ha
S ou
S ha
P ri
P r
P la
N obelov
M el
J os
Harvar d</w>
H y
D V
Britá nii</w>
Amaz on</w>
9 9</w>
200 3</w>
20 50</w>
ớ i.</w>
ế c</w>
ší ří</w>
ši lo</w>
řík ali</w>
đ ai</w>
čí mž</w>
či ly</w>
čet la</w>
čen ím</w>
čas í</w>
á r
zá leži
způsob uje</w>
zná t</w>
zkušeno stí</w>
zdro j</w>
zač ní</w>
zajíma vější</w>
vzájem ně</w>
vz hledem</w>
využí vá</w>
vyu ži
v ẹn</w>
v ování</w>
uči nit</w>
uvědomi la</w>
ukáz ali</w>
u číme</w>
u tvá
u kon
tí me</w>
tran sp
th áp</w>
ta .</w>
t ủ</w>
t ê</w>
stár nutí</w>
stej ná</w>
srde ční</w>
spoj uje</w>
spo leh
sou část</w>
smě ru</w>
skvě lá</w>
sklá dá</w>
sel hání</w>
s ưu</w>
s pa
s my</w>
s me
s hroma
s er</w>
s ce</w>
rá me
roz vinu
re gu
r ồi.</w>
r ét</w>
r ed
při spě
při padá</w>
přesvěd čení</w>
pře stat</w>
prů mysl</w>
pro mi
pro jít</w>
pra vě
počá tku</w>
pou ště
potravi n</w>
po časí</w>
po t
po mohl</w>
po ly
ovliv ňuje</w>
osob nosti</w>
os m
odstra nit</w>
o čí</w>
násled ující</w>
nov al</w>
no ční</w>
ng ựa</w>
ng ốc</w>
ng ưng</w>
nej méně</w>
ne zisk
ne ander
nazý vá</w>
nak u
na rození</w>
na no</w>
n ợ</w>
moř ské</w>
mo st</w>
mlu vila</w>
milu ji</w>
men tální</w>
mal in
ma pa</w>
m ồi</w>
m ảng</w>
lí bi
lã m</w>
lá sku</w>
li ng
li ber</w>
lek ce</w>
la pto
l ưỡng</w>
l ům</w>
l ce</w>
kov i</w>
kontex tu</w>
koncep t</w>
komunika ce</w>
ko n</w>
kho ai</w>
k ými</w>
k ín</w>
k ala</w>
jak oby</w>
i d</w>
hypo té
hra nici</w>
hospo dá
hlou p
haluci nace</w>
h ovat</w>
h ma
gh ê</w>
fyzi cké</w>
exist en
e u
dí váme</w>
dí vali</w>
duše vní</w>
dal eko
d ži
d nutí</w>
ck o</w>
ci ální</w>
chi e</w>
ch ớp</w>
ch í
ch ovali</w>
ch ou</w>
c ắp</w>
c ài</w>
bí l
budou cí</w>
bri dge</w>
bole sti</w>
bohat ší</w>
b ắp</w>
astro no
ak u</w>
absolu tně</w>
W hi
Th ánh</w>
T ex
Sa ra
S put
S pe
Pe ter</w>
PT CH
PTCH A</w>
P al
Neanderth al</w>
L ong</w>
K ri
Ho ward</w>
H iệp</w>
Ci ty</w>
CA PTCHA</w>
C E
Ari sto
Afri ku</w>
A m
3 2</w>
3 1</w>
20 11</w>
19 00</w>
- ti</w>
ử ng</w>
ži vé</w>
ší len
špat ný</w>
ř ím</w>
đi êu</w>
đ ồi</w>
đ ền</w>
či n</w>
č inu</w>
ú smě
ú silí</w>
ú kolem</w>
záj mu</w>
zvě da
zneči štění</w>
zna jí</w>
zmí nil</w>
zkou šel</w>
zeměděl ství</w>
zapo mně
za ne
za druhé</w>
xí u</w>
we bu</w>
vậ y.</w>
větš iny</w>
věde c</w>
vý raz
vý mě
vál ku</w>
vysvět lení</w>
vyso ko
vy dě
vy chází</w>
vi ta
v ịnh</w>
v uje</w>
v dě
u čeb
té hle</w>
tré ni
transp lan
trans paren
tr h
to krát</w>
tla čí
tisí ci</w>
ti sk</w>
thu ẫn</w>
ten tokrát</w>
televi ze</w>
ta cí</w>
t s
t le</w>
svět ová</w>
svět lu
svobo dy</w>
sti cká</w>
star ých</w>
star ý</w>
společ ný</w>
souvi slosti</w>
slid e</w>
si lou</w>
shroma žď
se tk
s ạn</w>
s úc</w>
s ny</w>
růz no
ru šen
rozhod nout</w>
robo ty</w>
ro hu</w>
reali ta</w>
quy ên</w>
příro da</w>
předmě ty</w>
předmě t</w>
ptá ci</w>
probí há</w>
pr sty</w>
pořád ně</w>
poz or</w>
použí vání</w>
použi tím</w>
posky tuje</w>
politi ku</w>
poli cie</w>
po cháze
pacien ti</w>
oči ma</w>
ovliv ňují</w>
ostat ním</w>
op y
ohro mující</w>
od va
obleč ení</w>
o sa
něj šími</w>
ně na</w>
náho dou</w>
nu kle
nov ým</w>
nov iny</w>
nost em</w>
nhi ều.</w>
nej oblíben
nebezpeč né</w>
ne existuje</w>
na ži
na vždy</w>
na c
musli m
mo tiva
mo ni
mezi tím</w>
medi ální</w>
m ọc</w>
m ãnh</w>
m âu</w>
m ak
led u</w>
led ov
led </w>
la m
l õi</w>
l ò</w>
kra jin
kr ý
koupi l</w>
komi k
ko la
kdo koli</w>
ka za
k iệt</w>
jazy kem</w>
islá m
inteligen ce</w>
im plan
i zo
i nou</w>
i muni
huy nh</w>
hu ýt</w>
hod in
hlé dnout</w>
h ạch</w>
h na
gra m</w>
gen y</w>
g ã</w>
foto graf
f ran
exist ovat</w>
důsled ku</w>
dět skou</w>
dí val</w>
dlou há</w>
di va
cvi čení</w>
co uz
cit li
chu a</w>
cho di
chirur g
centr um</w>
cen ě</w>
budouc nu</w>
bo dy</w>
ba ti</w>
b ali
an d
Wikipedi a</w>
Wat son</w>
Vel ké</w>
U </w>
T ất</w>
Sy l
S c
S au
R us
R A</w>
Nig eria</w>
Nh a</w>
Na no
N L</w>
Mar k</w>
Ma hmo
Leo nar
Ka na
K ore
Joseph </w>
Japon sko</w>
Gu i
Francis co</w>
F o
DV D</w>
C e
Ali ce</w>
A la
199 9</w>
19 50</w>
0 ,
ụ m</w>
ẹ t</w>
ấ t.</w>
ště né</w>
še t</w>
ř ka</w>
đ àm</w>
čty ř</w>
čte ní</w>
čet l</w>
čer st
č te</w>
č ovat</w>
úhe l
zů stává</w>
zvu kem</w>
zra nění</w>
zku sili</w>
zji šť
zen é</w>
zaměstnan ci</w>
za myslíte</w>
za br
z ří
z řejmě</w>
z opak
x e
wo od</w>
věř te</w>
vy volá
vy sky
vy pořá
vy ni
vy hra
vy chová
va ri
uspo řá
u míst
tov ých</w>
to rů</w>
to pi
tiv ního</w>
ti n
tho ái</w>
thi êng</w>
tel ného</w>
t ướng</w>
t ce</w>
sí le</w>
stá ní</w>
str an</w>
sto py</w>
stej ným</w>
stave b
společen ské</w>
speci ali
součas ně</w>
so n
složi tější</w>
sla v
signá ly</w>
s pat
rá m</w>
ru čně</w>
ru ky</w>
rov ala</w>
robo tů</w>
ro dí</w>
revolu ci</w>
restau race</w>
re s
re por
ra j
r i</w>
půvo dní</w>
přítomno st</w>
přá teli</w>
připrav eni</w>
přemýšle li</w>
pře číst</w>
psa ní</w>
projek tů</w>
pro sa
pro ni
pro chází</w>
pozoru hod
pozoro vání</w>
potřeb oval</w>
potě šení</w>
popula ci</w>
pokrač uje</w>
pohla ví</w>
po tká
po pis
po může</w>
plá ny</w>
papí r</w>
p si</w>
p al</w>
oči vi
ovliv nit</w>
organi zací</w>
ome zení</w>
obráz ků</w>
obrov skou</w>
obrazov ce</w>
ob vi
o č
o ut</w>
návr h</w>
ná t</w>
ná hle</w>
nov ém</w>
nost ní</w>
nic kou</w>
ni n</w>
nh ầm</w>
nh o
neuro nů</w>
navš tě
na cházíme</w>
n ó
mo tiv
mo n
milió ny</w>
mi lova
men a</w>
mal ém</w>
ma so</w>
ma sa</w>
m ku</w>
léč bu</w>
léka ři</w>
lé k</w>
l ờ</w>
l ạm</w>
l ượt</w>
koupi li</w>
kou sky</w>
kontro lovat</w>
ko lo</w>
ko g
kni ze</w>
katastro f
k i</w>
ji chž</w>
je h
in stin
hu ma
hla sy</w>
gol f
e le
dů raz
dů kaz</w>
dě jí</w>
druh ém</w>
dostup né</w>
dosta tek</w>
dokto ři</w>
dobro druž
do ta
do stává</w>
da va
ck s</w>
ci oná
chla pec</w>
ch ova
cel ých</w>
ca c
c ởi</w>
c ovat</w>
byzny s</w>
biologi i</w>
biologi e</w>
ba teri
b ọc</w>
b ận</w>
b rát</w>
auto mobi
argu men
ar e</w>
ak a
W ri
V iệt</w>
Stre et</w>
Pr in
O s
Microsof t</w>
Ki nh</w>
K á
In terne
I Q</w>
I M
I I</w>
Hu n
Goog lu</w>
G ore</w>
D el
Co ca</w>
Chi le</w>
Cam bridge</w>
C al
B ình</w>
B ang</w>
B an</w>
Ar thu
0 0
ế .</w>
ượ c.</w>
žen á</w>
žen ami</w>
ší řit</w>
ší ření</w>
ši r
ši ly</w>
Švéd sko</w>
ř ou</w>
ď á
čin nost</w>
če kat</w>
í cí</w>
Ô i</w>
zá ření</w>
zvý šit</w>
zen a</w>
zbo ží</w>
zajíma vý</w>
zajíma t</w>
za ží
z účast
z oval</w>
všim něte</w>
výro bu</w>
výbě r</w>
vzá c
vzpomí nám</w>
vzdálen ost</w>
vyvinu l</w>
vytvoři ly</w>
vybud ovat</w>
vy z
vy vo
vy stav
vra cí</w>
vaz bu</w>
va c
v ượng</w>
v .
u spě
u plat
tá lně</w>
tu jeme</w>
tr áng</w>
tov ý</w>
to rem</w>
tenden ci</w>
te rá
te li
t ó
svět lem</w>
studi í</w>
stabi lní</w>
sta rat</w>
spo ji
sna žit</w>
skon čí</w>
sen i
sedě l</w>
s m
ru n</w>
roz měr
ren t
re kor
přij mout</w>
při vádí</w>
předná šek</w>
pře stěh
př in
pu jící</w>
produk tů</w>
procen to</w>
pro hlá
pro bu
pri má
prav dy</w>
pr ch
pr ale
pozoro vat</w>
povr ch</w>
použí vám</w>
pouh ých</w>
pomo ct</w>
poli tických</w>
pohybu jí</w>
pod la
po tí
ph ái</w>
per spek
p ě</w>
ox y</w>
osob a</w>
organi zaci</w>
ohro mné</w>
oh a</w>
od sou
od padu</w>
od chy
obe zi
ob zvláště</w>
ob rny</w>
o svět
o sud</w>
o se</w>
o cit
nữ a.</w>
ně ných</w>
ní n</w>
násled ovat</w>
ná la
ná cti
nà o.</w>
nov in
no te
ni koho</w>
nh àng</w>
ngh ịch</w>
neuro ny</w>
největ ších</w>
nejspí š</w>
nechá te</w>
neander tál
ne tu
ne budou</w>
nad šení</w>
na n</w>
n ụ</w>
n ản</w>
n ům</w>
minu tu</w>
metr y</w>
me tri
materi álů</w>
mal ého</w>
ma rato
m ỏi</w>
m ệt</w>
m al</w>
lí z
lá nh</w>
lo ni</w>
lep ším</w>
le tu</w>
le te
kře sť
kultu ře</w>
ku chy
kre s
kh ác.</w>
každ ých</w>
k ti
k en
jin de</w>
jed nat</w>
ja pon
in du
hu sto
hod a</w>
ho l
hlubo ké</w>
hla di
h ông</w>
g ối</w>
funk ční</w>
fran couz
fot ka</w>
feno mé
fascin ující</w>
f rek
f f</w>
extré mně</w>
er ra</w>
energi í</w>
ekonomi ckého</w>
doved nosti</w>
dola ry</w>
do pl
desí tky</w>
de ví
d ốc</w>
d s</w>
co l
chy b</w>
cha jí</w>
ch vi
ch ové</w>
c ụm</w>
c é
c s</w>
by tek</w>
buň ka</w>
bu ďte</w>
boj ovat</w>
bo ji</w>
bo dů</w>
bar vu</w>
bar va</w>
b ầy</w>
b ướ
b en</w>
ač koliv</w>
angli cky</w>
an alo
a ch</w>
Z im
Y o
Wil li
V an</w>
Univer si
Ugan da</w>
TED Glob
TEDGlob al</w>
T ur
Saha ra</w>
S vět
Ros ling</w>
P I
Ng ân</w>
Ng a</w>
Mahmo ud</w>
Jo na
J or
Han s</w>
Hai ti</w>
Ha w
H ọc</w>
Gi áo</w>
Ev ropy</w>
Eri c</w>
Chi ến</w>
C ri
Bri t
Bri an</w>
B ob
App le</w>
Abra ham</w>
A pol
9 9
9 5</w>
2 9</w>
2 8</w>
2 ,
19 80</w>
0 .
ễ u</w>
ấ y.</w>
ží cí</w>
ži jící</w>
že lez
šťast nější</w>
š u
řek něme</w>
ře ky</w>
đ ới</w>
Đ ỏ</w>
člově ku</w>
či ní</w>
č ným</w>
ú mysl
á ty</w>
zása dě</w>
zv u</w>
změni ly</w>
zkou mání</w>
zer o</w>
zajím alo</w>
z ované</w>
z ná</w>
z hor
z dají</w>
x y</w>
w e</w>
vět šího</w>
vý poč
ví těz
vyná le
vy stoupení</w>
vy pu
vy ko
vy fo
vlá du</w>
vlá dou</w>
vlast nictví</w>
vi ze</w>
vez me</w>
va ším</w>
v ịt</w>
uči telů</w>
uči l</w>
us mí
univerzá lní</w>
u si
tr ừu</w>
tick ém</w>
ti ễn</w>
ti ng
ti ly</w>
ti k</w>
thu a</w>
t ali</w>
stup ňů</w>
strá nek</w>
stra na</w>
stoupi l</w>
sr dci</w>
správ ná</w>
souci tu</w>
smysl u
sk ému</w>
sk ro
sk lon</w>
sk em</w>
si n</w>
se ch</w>
sdí le
sch ů
s mí
s dě
s chi
ry t
ry bá
rozší řit</w>
rozvo j</w>
rozdě lit</w>
rozdí l
robo ti</w>
ri z
ra g
r ũ</w>
r ku</w>
r ali</w>
quy ến</w>
představi vost</w>
předsta va</w>
pě ti
ptá m</w>
psy chi
prů kop
pro běh
pravi dlo</w>
potravi ny</w>
posu nout</w>
postav y</w>
poskyt nout</w>
politi ka</w>
poci tu</w>
pochopi telně</w>
po vědět</w>
po v
po sklá
po sa
ply nu
pe k</w>
pat ch</w>
pamatu jete</w>
pacien ty</w>
pacien t</w>
p ý
ovlá dání</w>
oprav dové</w>
obcho d
o zná
o l</w>
ně ny</w>
ně ni</w>
né st</w>
né n</w>
nástro jů</w>
nápad ů</w>
ná vra
ná cti</w>
nu že</w>
note boo
normá lně</w>
no ha
nhiễ u</w>
nh ện</w>
ngh iệt</w>
ng ột</w>
ng re
ne štěstí</w>
ne t</w>
ne obyčej
na sta
n ếp</w>
modr á</w>
mnoh é</w>
mlad ý</w>
minu tách</w>
milu jí</w>
mi min
ma nh</w>
ma mo
lé čit</w>
lé ta</w>
letě t</w>
leta dlo</w>
la ska
la mi</w>
l ũng</w>
ku cha
kro kem</w>
kri min
kov ého</w>
kon stru
kon cer
koleg y</w>
ko mo
ko lá
kni ha</w>
khi êm</w>
ka ce</w>
k é
jed nání</w>
je sky
je jichž</w>
jazy ků</w>
j ství</w>
hu st
hu jící</w>
hu a</w>
ho ř
hlubo ce</w>
he mi
ham burg
g lu
funk ci</w>
fung ovalo</w>
for mě</w>
f ú
dži há
dů stoj
dítě te</w>
du chov
doká žou</w>
di č
di a
deta il
d ội</w>
d ắt</w>
d âm</w>
d ný</w>
d ná</w>
d lu
chemi cké</w>
char ak
ch ôn</w>
ch âm</w>
ch va
ch .</w>
c ựu</w>
c ương</w>
c ové</w>
bíl kov
bra m
br ý
bezpeč né</w>
bal í
babi čka</w>
b ột</w>
b ky</w>
au tě</w>
am bi
ak y</w>
Y ves</w>
Universi ty</w>
Tr ường</w>
Th ật</w>
T om</w>
O X
Mon ta
L ạp</w>
Ken i</w>
K am
Ja ze
Fran k</w>
Faceboo ku</w>
F OX
E l</w>
Co la</w>
C P</w>
Au strá
A R
7 2</w>
4 8</w>
3 4</w>
3 000</w>
2 5
2 4
10 .000</w>
ệ m</w>
žen ých</w>
š é
řen o</w>
řa d</w>
đ c</w>
Đ úng</w>
čin ění</w>
čer no
čen ý</w>
č ník</w>
úžas nou</w>
ál ními</w>
získá te</w>
zába va</w>
zu by</w>
zpě tnou</w>
zouf al
znalo stí</w>
zdra vé</w>
zd í</w>
zbož ň
zapla tit</w>
zají mají</w>
za h
za du</w>
za chra
za bere</w>
z men
z hrou
vědo mo
vě cem</w>
výho du</w>
vzni ká</w>
vzdělá vací</w>
vyrábě t</w>
vy mý
vy hrál</w>
vy dal</w>
vrá tila</w>
vol ba</w>
vl ny</w>
veřej ných</w>
ver ze</w>
ved ly</w>
va nou</w>
užiteč né</w>
uvaž ování</w>
urči tém</w>
urči t</w>
uli cích</w>
ukáz ala</w>
uká že</w>
udá lost</w>
u spoko
u rych
u jícím</w>
u ju</w>
tří dy</w>
té ma
tu ỷ</w>
tu ra</w>
tu n</w>
tro u
ti c</w>
th ẳ
th a</w>
tel ům</w>
tel ným</w>
sy ste
sy na</w>
stres s</w>
sta n
správ nou</w>
spotře b
sour ce</w>
skvě le</w>
skuteč ná</w>
sil ně</w>
se h
schop ny</w>
sa t</w>
sa har
rozdí lné</w>
roz p
rov no
ro vi
rela tivně</w>
re zi
re produk
ran d</w>
ra tivní</w>
ra r
r né</w>
příči nou</w>
pří rod
při dat</w>
představ y</w>
pódi u</w>
publi ku</w>
pt ali</w>
psycho logie</w>
profes or</w>
produk t</w>
princi py</w>
pracu jící</w>
poně kud</w>
poko ji</w>
pohy by</w>
podpo rovat</w>
podmí nkách</w>
po če
po sou
po mohli</w>
po krok</w>
plane tu</w>
pi lo
pe vně</w>
pamě ť</w>
p uje</w>
ova nou</w>
otevřen é</w>
ote st
odha d</w>
obě ti</w>
ob lé
o li
ně ním</w>
ně komu</w>
názv em</w>
ná hra
ni čí</w>
ng ườ
ne čeka
navrh nout</w>
naslou chat</w>
na vá
na podob
mě ří</w>
mu ộn</w>
mo tor</w>
mlá ď
mi zí</w>
materiá lu</w>
matemati ky</w>
man žel</w>
ma ce</w>
m ỏng</w>
m ình.</w>
léka ř</w>
lu ồng</w>
lid stvo</w>
le gi
la m</w>
l ồng</w>
l ưỡi</w>
ku la
krát ké</w>
krás ný</w>
krabi ce</w>
kov ě</w>
konferen ce</w>
kog ni
kdy koli</w>
kapi tá
k ované</w>
jednoduš ší</w>
jedin ci</w>
je vo</w>
j du</w>
infor m
in trover
i z
i ni
hã ng</w>
hodno tit</w>
ho us
ho ry</w>
hemi sfé
h ầm</w>
h ang</w>
galaxi e</w>
g ar
f lu
f i</w>
f er</w>
er s</w>
emo cí</w>
ekonomi ka</w>
dé lka</w>
do předu</w>
do pis</w>
do dáv
di k
demo n
de vil</w>
de tekto
de mie</w>
de ch
d ơi</w>
d ž
d ũng</w>
cu je</w>
cho d
ch ợt</w>
ch ợ</w>
centr u</w>
c ổng</w>
c ống</w>
c ov
c ine</w>
bu jí</w>
bro u
br z
blá zni
ber eme</w>
ban kov
b re
b le
b ai</w>
anglič tině</w>
al koho
a nh.</w>
V iện</w>
V en
V an
Tu re
T es
T em
Syl via</w>
Sput nik</w>
S ch
S al
Rwan da</w>
Pa ří
Nano patch</w>
Ma ri
Leo ne</w>
H y</w>
H C</w>
Dani el</w>
Ch er
Ch e
Bus h</w>
B ren
B líz
B ang
B a</w>
Asi i</w>
Apol lo</w>
Američan ů</w>
3 0
2 ,5</w>
1 25</w>
ờ i.</w>
ế t.</w>
ầ u.</w>
ži jete</w>
že b</w>
ž né</w>
špat ným</w>
špat ná</w>
še jí</w>
ři di
řen a</w>
ře šit</w>
ře ch</w>
đ ảng</w>
đ ược.</w>
čí cí</w>
čá stech</w>
čt ver
če líme</w>
úko ly</w>
zí te</w>
závi slosti</w>
zákla dem</w>
zákla d</w>
zá vo
zvyš uje</w>
zná zor
znamen at</w>
zna čky</w>
zn ali</w>
zmi zí</w>
zi sk</w>
zač nu</w>
zahr nuje</w>
za myslet</w>
z neu
xu ân</w>
všim li</w>
všim l</w>
všech en</w>
věři li</w>
vědo mě</w>
vče ra</w>
vývo je</w>
vý da
vý chov
vá ny</w>
vz děla
vysvět luje</w>
vyrů stal</w>
vypad ala</w>
vy bu
vlast ního</w>
vir tu
velk ými</w>
ve ch</w>
va jí
v ặt</w>
v ạch</w>
v ních</w>
utr pení</w>
umí te</w>
uhlí ku</w>
u vidíme</w>
tři krát</w>
tře tí
tá ta</w>
tvr dě</w>
tro n</w>
tradi čních</w>
to to
tick ými</w>
ti va</w>
ti sku</w>
thi ền</w>
telefo nu</w>
takov ý
ta jící</w>
t ma
sv al
sub sahar
stá la</w>
stu pují</w>
strá vili</w>
sti h
sti an</w>
stav y</w>
sta vět</w>
st ní</w>
spá n
společen ství</w>
spojen é</w>
spo dní</w>
sp er
sled ují</w>
sled ujte</w>
skuteč nou</w>
sk la</w>
sho w</w>
sestr y</w>
sdí lí</w>
s ôi</w>
s ci
roz umět</w>
roz umí</w>
rostou cí</w>
rost la</w>
rizi ka</w>
ri bati</w>
reag ovat</w>
ra mi
pů dy</w>
příj my</w>
pří bu
přines la</w>
předví da
předpo vě
pí š
pí se
produk ce</w>
pri ori
potřeb ovala</w>
postav ení</w>
podí l</w>
po vědomí</w>
po ro
plá nování</w>
piz za</w>
peč livě</w>
pa ní</w>
omezen é</w>
ok na</w>
ohro m
odpoví dá</w>
odpo led
od vo
ochra nu</w>
obnov i
obje v</w>
ob á
o š
o ko</w>
ně mž</w>
ná sil
noha ma</w>
ni čeho</w>
nej chud
ne skutečně</w>
ne jisto
na no
n êu</w>
mě ření</w>
my š</w>
mu ỗi</w>
moudro sti</w>
mode lu</w>
mobi li
mno ut</w>
mlad ší</w>
metr u</w>
metafo ra</w>
men tu</w>
men o</w>
med a
m ó
m àng</w>
lé tat</w>
logi cky</w>
li mi
le vé</w>
l ề</w>
l ùng</w>
ká vu</w>
kyber -
kos mi
kon ti
komuni tu</w>
klu k</w>
kh úc</w>
kh éo</w>
kapi to
ka ch
jedin ého</w>
inžený r
instin k
in t</w>
in su
hroz né</w>
hovo řit</w>
hmy zu</w>
hamburg er</w>
h ét</w>
h uyền</w>
h ed
gi ná
g ũi</w>
fil tr
fi kova
f le
experimen ty</w>
et na
er e</w>
důleži tou</w>
domác nosti</w>
dobrodruž ství</w>
do mi
dlouh ý</w>
data bá
d la
d iny</w>
củ ng</w>
chí p</w>
chápe te</w>
charakteri sti
ch le
ch lad
cac bon</w>
bo t</w>
bo ha</w>
bi t
b ỏng</w>
a h</w>
We b</w>
Th ực</w>
Th ứ</w>
Tes la</w>
S ĩ</w>
Ph ật</w>
P er
P en
P S</w>
Nh à</w>
Na than</w>
N o
Manhat tan</w>
M ur
Ki ribati</w>
Ke vin</w>
H ợp</w>
H ol
Ge o
Ga tes</w>
G ra
G ar
E u
E l
Cla y</w>
Ch ính</w>
Brow n</w>
Britá nie</w>
Bo sto
B en</w>
B al
Asi e</w>
Ameri čané</w>
6 4</w>
5 5</w>
. C
Ở </w>
ườ ng.</w>
šťast ný</w>
š ť</w>
š ly</w>
řa dí</w>
đ úc</w>
đ ây.</w>
člen ů</w>
čist ě</w>
čen i</w>
če kali</w>
č ného</w>
ú řed
ú spo
ó zní</w>
ì u</w>
á n
zů stala</w>
získ ala</w>
zákon ů</w>
zákla dních</w>
zá chran
zpo mal
znak y</w>
zku sil</w>
zapo jení</w>
za stá
za r
za brá
z přístup
z má
x ích</w>
vš i
vši mnout</w>
větši ně</w>
výsled ku</w>
vý car
váž né</w>
váš ni
vyšet ř
vysí la
vyprá ví</w>
vyná lez
vy vi
vy s
vy pravě
vu jeme</w>
vte ři
vi ce</w>
ven é</w>
v ứt</w>
uži tí</w>
uměl ci</w>
umož nil</w>
uk lá
uh lí</w>
u š
u prch
tře tím</w>
tě sně</w>
tvr d
tr án</w>
tká ní</w>
ti cho</w>
thẳ m</w>
th ắt</w>
th ung</w>
teč ky</w>
teplo tu</w>
te sto
te jte</w>
t ẩy</w>
t ných</w>
t krát</w>
sy nd
synd ro
sty lu</w>
sty l</w>
stup uje</w>
studi a</w>
sta ví</w>
srov ná
sr d
spotře bi
spor tov
sly ší</w>
slo st</w>
sk en
sha hi
shahi di</w>
se verní</w>
schop ní</w>
s ố
s ý
s ní</w>
ru ka
re zo
re gene
ra mi</w>
r ních</w>
r na</w>
r al</w>
přirozen é</w>
při ja
přemýšle la</w>
přemýšle jte</w>
předpo ví
pře stá
pře jít</w>
pí te</w>
pí sku</w>
pu ber
prá vní</w>
prodá vat</w>
prob le
pro ží
pro sin
pra vou</w>
počítač ové</w>
posto j</w>
podob ného</w>
podmí nek</w>
po řízen
po vali</w>
po tá
po pravdě</w>
po jetí</w>
po blíž</w>
pla tit</w>
phi êu</w>
pe ň</w>
para do
pal u
pad la</w>
pa tr
pa ne</w>
očivi dně</w>
ov í</w>
ope race</w>
okol ností</w>
od kaz</w>
od e</w>
o znač
o su
o cen
nějak ým</w>
náz ory</w>
násled ky</w>
nukle ární</w>
nu ối</w>
nov ě</w>
nov ala</w>
ni ku</w>
ni koliv</w>
ni cká</w>
ngh iện</w>
ng ớ</w>
ng ẫm</w>
ng e</w>
nes ná
nejlep ším</w>
nej menším</w>
nebo ť</w>
ne to
ne se
ne máte</w>
ne exist
naslou chání</w>
nak lá
nabí dnout</w>
na psala</w>
na ci</w>
měsí cích</w>
mí n</w>
mrt vé</w>
moz kem</w>
mo nd</w>
mo n</w>
mlé ko</w>
mi li</w>
meto da</w>
men u</w>
m ồ</w>
m ươi</w>
m óng</w>
lov ých</w>
lov ou</w>
len o</w>
le tá</w>
lapto p</w>
l ơ</w>
ky se
kvali ty</w>
ku jeme</w>
krá tk
kov al</w>
konver zace</w>
konflik tu</w>
komuni ta</w>
ko rá
ko lek
ko le
klíč ové</w>
ki êng</w>
ki ng</w>
kh ói</w>
kancelá ře</w>
k s</w>
k eo</w>
jí dle</w>
jist ý</w>
jaký koli</w>
inter akce</w>
intenzi vní</w>
in fek
hã m</w>
hrá či</w>
hled ali</w>
hla vou</w>
h vě
h ung</w>
gene tické</w>
g é
fotografi i</w>
for ma</w>
ekonomi ku</w>
efek tiv
e la</w>
důleži tě
dí vám</w>
dí ra</w>
drže la</w>
druh ému</w>
dr žel</w>
dr o</w>
douf á
dopamin e</w>
do spí
dimen ze</w>
deta ily</w>
da t.</w>
d ở</w>
d ské</w>
d ai</w>
ck rát</w>
chy bě
chu dí</w>
chova jí</w>
chlapí k</w>
ch ăn</w>
cel ým</w>
bra tr
bo ty</w>
bo li
bezpeč nost</w>
b ẻ</w>
b óc</w>
b al</w>
ato mů</w>
armá da</w>
algorit my</w>
al l</w>
ab str
a si
Y R</w>
U shahidi</w>
Tr ời</w>
Th e
TED x</w>
T an
Steph en</w>
Si erra</w>
SO PA</w>
R G</w>
Phi li
Pa ris</w>
Ox ford</w>
Mar co</w>
M t</w>
M W</w>
L au
Kalifor nii</w>
K in
IN C
INC RA</w>
H ải</w>
H ou
G il
Fre e
F ar
E x
E din
D r.</w>
D ou
D en
C ơ</w>
C ám</w>
B el
And rew</w>
An tar
5 0
40 4</w>
1 40</w>
ổ i.</w>
ži ví</w>
žen ím</w>
šo kující</w>
še sti
š tině</w>
ří dili</w>
ře těz
ře l</w>
částe čně</w>
čty řech</w>
čte ná
čer ná</w>
če lí</w>
če l</w>
č ující</w>
č o
č ků</w>
úva hu</w>
ú č
ú zemí</w>
ú ng.</w>
ô la</w>
â t</w>
zů stane</w>
ztra til</w>
zrak u</w>
způsob í</w>
zprac ová
zova ný</w>
zodpověd nost</w>
změ nou</w>
zji štění</w>
zen ím</w>
zen y</w>
ze v</w>
ze t</w>
zd voj
zby teč
zaji stit</w>
za žít</w>
z ku</w>
z hu
y e
y a
w ay</w>
výcho dě</w>
vý no
vý bu
více méně</w>
ví no</w>
vzájem né</w>
vzor ek</w>
vznik la</w>
vytvo říte</w>
vyrost l</w>
vy pl
vy mysleli</w>
vy ho
vy budov
vrá ny</w>
vojá ci</w>
ve jte</w>
vac cine</w>
va ný</w>
v ả</w>
v òi</w>
v pravo</w>
uvědo mu
urči tý</w>
ur čuje</w>
ur ba
uhlí k</w>
udá lostí</w>
u kaza
tě lem</w>
táh nout</w>
tu d</w>
tradi ce</w>
ti ku</w>
th ắc</w>
th ala
te sty</w>
takov ém</w>
t ơ</w>
t ăm</w>
t we
sub jek
stra vování</w>
sto jím</w>
sti n</w>
stej ných</w>
star ého</w>
sta nu</w>
sta nete</w>
st né</w>
spočí vá</w>
skr ý
sklen í
sestr a</w>
sekto r</w>
se s</w>
scé ná
s ọ</w>
s ắm</w>
s érii</w>
s ové</w>
s né</w>
rá ží</w>
rov i</w>
rodi čů</w>
ro ván</w>
ro má
riz on
reali tu</w>
ra d
r edi
půvo dně</w>
půvo d</w>
pů jde</w>
příš er
přines l</w>
přibli ž
při jdete</w>
při hlá
přemýš lím</w>
představi vosti</w>
py rami
průměr né</w>
prou du</w>
progra má
produk tivi
pro šli</w>
princi p</w>
preziden t</w>
prak ticky</w>
počítač ů</w>
poz o
použi ty</w>
potřeb ovat</w>
pos lech
pos lat</w>
pomá hat</w>
poku sy</w>
poezi e</w>
podsta tou</w>
pod rob
po chyb
pli c</w>
pl nou</w>
pi ano</w>
ph o
pama tovat</w>
p ti
p né</w>
p ka</w>
ote ví
organi smy</w>
org as
ohro mnou</w>
ohled ech</w>
odpoled ne</w>
oblíben ých</w>
o slov
o pen
ně ný</w>
ně která</w>
ně kam</w>
nádher né</w>
ná vat</w>
nu ly</w>
nov ými</w>
no si
nist án</w>
ng ẩn</w>
ng ư</w>
nezby tné</w>
nej bli
ne od
ne mohou</w>
napo do
nadšen ý</w>
na ru
na jde</w>
n ồng</w>
n ô</w>
mě k
míst em</w>
mož ných</w>
moleku lární</w>
mlu v
mini str
milov al</w>
mi la</w>
meta for
me ga
mali č
m ến</w>
m koliv</w>
m ce</w>
m bia</w>
lu ỹ</w>
lu jeme</w>
lov ý</w>
liv ý</w>
lid sko
leti ště</w>
len ých</w>
len ím</w>
le to
l ými</w>
l úa</w>
ká lně</w>
kyslí k</w>
kvali tní</w>
krát ký</w>
krát ce</w>
krá su</w>
kro u
krea tivní</w>
kov ým</w>
kontak tu</w>
konstruk ce</w>
kon ců</w>
kon cen
koncen tra
komuni tě</w>
kom er
klo bou
kin s</w>
kam eru</w>
k ẹt</w>
ji ž
jaz z</w>
jaké ho
j o
iz ol
in struk
i r</w>
i e</w>
hrá la</w>
hroz i
ho ành</w>
ho rizon
hlubo ko</w>
h ẹp</w>
h ôi</w>
gravi tace</w>
grafi e</w>
g ạch</w>
g ìn</w>
g h</w>
fi rem</w>
f t</w>
f ou
extré mní</w>
entro py</w>
en ých</w>
en ou</w>
ekonomi cký</w>
e -
důvě ra</w>
dě jin
dé lku</w>
dá vali</w>
dá val</w>
dra h
dospě lé</w>
doprav ní</w>
domov </w>
domní vám</w>
doká žu</w>
do sud</w>
do mě</w>
dne ska</w>
di vá
desig né
d ỗ</w>
d ri
d an</w>
chá pání</w>
chy tře
chy bí</w>
chvi lku</w>
chu ông</w>
ch ả</w>
ch ři
c ắm</w>
by tí</w>
brá ní</w>
bo je</w>
bo du</w>
bi ếm</w>
bi e</w>
be l</w>
be k</w>
bare v
ba z
ba ví</w>
b ồi</w>
b ří
b ìa</w>
b o</w>
aplika ci</w>
al á
ak u
ag re
afri cké</w>
a ut</w>
a da
Th ượng</w>
T ổ</w>
T uni
T en
Sh ak
S A
Ro mo</w>
P u
P re
M ě
M y
M au
L a</w>
Ho mo</w>
H àn</w>
G PS</w>
E li
D ere
C ái</w>
C ol
C en
C as
Bron x</w>
Be ach</w>
Arthu r</w>
A O</w>
= </w>
7 7</w>
3 6</w>
+ </w>
žralo ků</w>
ži jících</w>
žen ám</w>
ž kou</w>
šan ce</w>
š á
ři ly</w>
đo ạt</w>
đ ố</w>
đ ệm</w>
đ òn</w>
čet li</w>
červen á</w>
čen á</w>
čen y</w>
č nou</w>
č ko</w>
Čí ňa
úspěš ně</w>
úh lu</w>
ú se
ú do
ù n</w>
získá vají</w>
získá me</w>
záj my</w>
zá pla
zná má</w>
znov a</w>
zkou šky</w>
zept ali</w>
zelen iny</w>
zdvoj násob
zbra ň</w>
začí náme</w>
zaměř ova
zahrani čí</w>
za stav
za bít</w>
z ru
z ou</w>
y o
y an</w>
xo ắn</w>
xo áy</w>
význa mný</w>
výrob ě</w>
vá ží</w>
vzpo meňte</w>
vzor ce</w>
vyprávě ní</w>
vypa daly</w>
vynalez l</w>
vybr al</w>
vy stře
vol ně</w>
vo u
vel ry
ve ru</w>
v ương</w>
v před</w>
v nou
uživa telů</w>
uvaž ovat</w>
udě lejte</w>
u ved
u c
tvo říme</w>
tu šení</w>
trá ví</w>
tr ộm</w>
tr vat</w>
tr u</w>
tr iệt</w>
tole ran
ti vi</w>
th ép</w>
ter énu</w>
tel ské</w>
te tování</w>
te be</w>
tak zva
ta ng</w>
t ými</w>
sva t
su re</w>
su per</w>
stá tě</w>
stá lo</w>
stu peň</w>
stu jeme</w>
stra nou</w>
stej ném</w>
sp la
soustřed it</w>
sou dce</w>
so lární</w>
sna ze</w>
slov .</w>
sk ů</w>
sk lo
sk li
sk i
sel há
sed m
sebevraž ed
samo u</w>
sa s</w>
sa me
s ườn</w>
s bě
s .</w>
rá nu</w>
ru ka</w>
roz um
rov nice</w>
rost l</w>
rodi či</w>
rodi nou</w>
ri ng</w>
reali ty</w>
rea sure</w>
re akci</w>
ran ž
radi kální</w>
ra m</w>
r ạp</w>
pů l
pří pady</w>
přátel ství</w>
při pravit</w>
přelo žit</w>
překva pen
před lo
pu stili</w>
průzku m</w>
prů měr</w>
prou d</w>
prost o
profesi oná
produk ovat</w>
pro té
pro poj
pri mi
prav dou</w>
pr ed
poč tem</w>
posí l
popu lární</w>
polo žit</w>
politi ce</w>
pokro či
pokro ku</w>
poh ř
podí vám</w>
pochopi l</w>
po vin
po psat</w>
plane ta</w>
pi í</w>
phi ến</w>
pe ch</w>
par al
pa desá
p ta
oxi d</w>
ovlá dat</w>
ov ému</w>
ov li
ovli vní</w>
ori en
or che
opravdov ý</w>
open -
ope ra
odliš ných</w>
oce án</w>
obra zu</w>
obo ha
obje vit</w>
obje vily</w>
obec né</w>
ně ná</w>
ně l
ně ho</w>
ná růst</w>
ná ct</w>
nov ali</w>
neu tr
neto pý
nej důležitě
nega tivní</w>
ne ví</w>
ne sia</w>
ne na
ne můžete</w>
ne musí</w>
naži vu</w>
na tolik</w>
n ề</w>
n ắp</w>
mr z
mo udr
mo r</w>
miliar dami</w>
mi se</w>
mi lovat</w>
mi i</w>
me t</w>
mate ma
manžel ství</w>
mal ými</w>
ma xi
ma sivní</w>
m ỡ</w>
m kou</w>
lí ků</w>
lé to</w>
lé ků</w>
lá tku</w>
lo ď</w>
li con</w>
letě l</w>
len ý</w>
le va</w>
le tého</w>
králov ství</w>
kro ky</w>
kon če
ko mu
kli k
kho ăn</w>
kho l
každo denní</w>
kal ori
ka pe
ka ci</w>
jednot li
jed e</w>
jaký koliv</w>
jak á
j a</w>
indu stri
in st
identi ty</w>
i ce</w>
i Pa
hroma dě</w>
hou b
hol či
hodno t</w>
ho ài</w>
hmo ta</w>
hlu b
he ň</w>
h ři
gi ật</w>
gene ticky</w>
gen om</w>
galaxi í</w>
g ay</w>
funk ce</w>
fot ku</w>
fo tek</w>
fo n</w>
f ru
f an</w>
evolu ční</w>
evolu ci</w>
emo cionální</w>
elektř iny</w>
elek trá
dí vá</w>
dí cí</w>
dvace ti</w>
drá ze</w>
dra žší</w>
dra hé</w>
dostá váme</w>
dostá vat</w>
dosa žení</w>
dopi sy</w>
dobr ých</w>
do w
do kaz
di e</w>
di e
de va
dcer y</w>
da nou</w>
d ạ</w>
cuk rov
cu s</w>
ci fer
chá pat</w>
chud é</w>
chra ne</w>
chlap ci</w>
ch ọc</w>
ch ằm</w>
ch ová</w>
cen ti
ced u
c ừu</w>
c ra
bý vá</w>
bý val</w>
by s</w>
burg h</w>
boha té</w>
bo nac
ba vit</w>
ba b
b ăn</w>
b l
aktivi ty</w>
abso l
Zá pad</w>
Washing tonu</w>
Twit teru</w>
T reasure</w>
T oro
Si ou
Shak e
S ky
S R</w>
S P
Ri o</w>
Re zero</w>
R ory</w>
Q a
Ng hệ</w>
Na tional</w>
Mi nister
Mel lon</w>
Li ba
K hi</w>
Jona than</w>
John ny</w>
Jaze era</w>
J an
Izra e
Higgsov a</w>
H am
G al
For t</w>
Flori da</w>
Fi bonac
E i
Co ngo</w>
Co chrane</w>
Cher yl</w>
Char lie</w>
C ách</w>
C or
C N
B la
B ell</w>
Ar chie</w>
Ameri ka</w>
Afghá nistán</w>
A .</w>
4 3</w>
19 45</w>
1 30</w>
ưở i</w>
ž dě
ž ce</w>
ů l</w>
špat nou</w>
řen ý</w>
řek nou</w>
ř em</w>
đu ối</w>
đ ụng</w>
đ ẽ</w>
đ áo</w>
đ àng</w>
části c</w>
úžas ně</w>
ú čet</w>
ú mr
úmr tí</w>
ô -</w>
 </w>
záži tky</w>
záko na</w>
zá stup
zv y</w>
způsob ují</w>
způsob it</w>
zpo mali
zná sil
zku sí
zje vně</w>
ze ď</w>
ze ptáte</w>
zdá n
zdra vější</w>
zby tku</w>
zbro jen
zav ře
zaměstnan ců</w>
zaměst nání</w>
zalo žil</w>
za pá
za dar
zadar mo</w>
z ory</w>
z organi
z da
x ướng</w>
x é</w>
x à</w>
w ell</w>
vů dce</w>
všu dy
větr u</w>
vět ví</w>
vědě ní</w>
vě říte</w>
vývo ji</w>
výcho d</w>
ví ru</w>
ví ken
vá ni</w>
vzdělá va
využí vají</w>
vy lé
vy dělat</w>
vy dat</w>
vrcho l</w>
vlast nost</w>
vide í</w>
vi e
ven ti
v ém</w>
v ce</w>
uči teli</w>
univerzi tu</w>
uměle c</w>
umí stit</w>
uk lid
u vést</w>
tře tina</w>
té matu</w>
ty pů</w>
tvůr ci</w>
tvr zení</w>
tu ře</w>
troj úhel
toto ž
thala te</w>
th e</w>
televi zní</w>
ta m
t ảo</w>
t le
svěd kem</w>
střed o
střed i
stu pu
stro jů</w>
stov ek</w>
sti la</w>
stej ného</w>
stave bní</w>
star ších</w>
sta va</w>
st ůl</w>
st ine</w>
spraved lnost</w>
spolu pracov
spo lé
speci ální</w>
souvi se
so fi
sniž uje</w>
slu žeb</w>
sled uje</w>
sled ovala</w>
sla b
skvě lou</w>
sezna mu</w>
sedě la</w>
se xu</w>
se t
se stro
sa teli
sa nd
s ma
s ak
rychle jší</w>
rozsa h</w>
rozhov ory</w>
ro vou</w>
ro pu</w>
ri i</w>
re y</w>
ra .</w>
r ỗng</w>
r ốt</w>
r ó
r ìu</w>
r nu</w>
r ed</w>
příš tích</w>
příjem né</w>
přiš ly</w>
připomí ná</w>
přimě t</w>
přen os
předví dat</w>
předná šku</w>
před nost</w>
před em</w>
pěk ně</w>
py l</w>
ptá ků</w>
prostřed ek</w>
profesi onální</w>
pro vin
pro fi
považ uji</w>
potřeb né</w>
potře bu</w>
potk ala</w>
posl ali</w>
pos vá
poku su</w>
poku sit</w>
podsta ta</w>
po st
po mohla</w>
po jmen
plá n
ph er</w>
perfek tně</w>
par la
pali va</w>
pacien tům</w>
p an</w>
ovo ce</w>
ova ně</w>
ova ného</w>
ov y</w>
ov lada
ori giná
orche str
onemoc nění</w>
ohro mný</w>
odva hu</w>
odmě nu</w>
od pad</w>
občan ské</w>
obyva tel
obsa hují</w>
objev ují</w>
ob zvlášť</w>
o po
ně me
ně kým</w>
ná chy
nu ta</w>
nov inách</w>
ni cký</w>
neuro n</w>
největ ším</w>
nejspí še</w>
nej de</w>
nech ala</w>
nebo li</w>
ne n</w>
nazv ali</w>
nazv al</w>
naz vat</w>
narodi la</w>
nada ce</w>
n ských</w>
n ní</w>
mí ra</w>
má lně</w>
myš i</w>
moleku la</w>
moc ný</w>
mo č
mlad á</w>
mla dí
minu lost</w>
mimořád ně</w>
meta boli
man n</w>
ma r</w>
ma je
m ượn</w>
lá tka</w>
lá sce</w>
lid ským</w>
li í</w>
li êng</w>
len á</w>
leh ce</w>
le šení</w>
la s</w>
l ắc</w>
l ượ
l ăng</w>
l s</w>
l .</w>
ká zání</w>
kyslí ku</w>
kte ch</w>
krás ná</w>
kru h</w>
kra ji
kou k
kontro ly</w>
konti nen
kontex t</w>
konkré tně</w>
kon zerva
kon trover
kogni tivní</w>
ko ste
ko or
ko le</w>
kmen ových</w>
kh ông.</w>
kd eko
každo den
kaž dič
kama rád</w>
k ý
jmen uji</w>
jez dit</w>
její ho</w>
j u
inter aktivní</w>
intelek tu
inova cí</w>
in kou
identi tu</w>
i i</w>
há ně
hroz ně</w>
hod í</w>
hma ta
hla si
hla d</w>
hi ếp</w>
h ái</w>
h no
h ne</w>
grafi cké</w>
glob álního</w>
gi ọt</w>
fyzi cky</w>
fe ro
f tal
exist ence</w>
en vi
elektri cký</w>
eko systém</w>
ed di
dře vě
dí vek</w>
dí lo</w>
du ší</w>
du jeme</w>
dro n</w>
dosta nu</w>
doprav y</w>
domov a</w>
dokto r</w>
do r
do l
dimen zí</w>
di o
de j</w>
dce ra</w>
d lu</w>
d ar</w>
cí mu</w>
cu jí</w>
chá zení</w>
chá pu</w>
chrá nit</w>
ch ì</w>
ch vá
cen tů</w>
cen t</w>
c ự</w>
c to
c khol
bud ování</w>
bubli ny</w>
bubli na</w>
bu ồng</w>
bu je</w>
bu cks</w>
bra tr</w>
bou ře</w>
bor y</w>
bab we</w>
b ộc</w>
b ấm</w>
b úa</w>
ato my</w>
as u</w>
anglič tiny</w>
ameri ckého</w>
ameri cká</w>
ali n</w>
aka demi
abstr ak
Zim babwe</w>
You tu
Van cou
V ýcho
V al
U r
T ak
Sto ckhol
Star bucks</w>
Stan ford</w>
S tu
S her
S au</w>
Ro z
Prin ce
Po w
PI PA</w>
P ol
O li
Ng ài</w>
Mat t</w>
M ul
M edi
Leonar do</w>
Le go</w>
La den</w>
L á
Kh an</w>
K en</w>
Juli an</w>
Jos hua</w>
Interne tu</w>
H ong</w>
H ai</w>
Gol d
Ge or
FOX O</w>
D E
C an
Bob </w>
Ben ja
B ot
B il
Antar kti
A V</w>
A S
3 50</w>
2 .</w>
199 4</w>
1 60</w>
- 2</w>
ụ a</w>
ố p</w>
žralo ci</w>
živo tech</w>
špa ge
řen ých</w>
ř ských</w>
ň oval</w>
đ ôla</w>
ď me</w>
čí sel</w>
čá ra</w>
člá nky</w>
člen y</w>
člen ové</w>
čen ých</w>
če mž</w>
časo pis</w>
č k
úžas ných</w>
úče lem</w>
úsmě v</w>
ú c
í rá
éri e</w>
é ry</w>
é l</w>
â n.</w>
zů stal</w>
zásob y</w>
zása dně</w>
zába v
zprá v</w>
zpo chyb
zna čně</w>
zn ak</w>
změ řit</w>
zjist íme</w>
zen o</w>
zelen á</w>
zdán livě</w>
zapo jili</w>
zabí jení</w>
za ví
za s</w>
za pojen
za ost
z ů</w>
z řejmé</w>
z ní
z jednodu
z důraz
yn thi
y e</w>
x ăng</w>
x ay</w>
w or
vět ším</w>
výzku my</w>
výsled ků</w>
výho dy</w>
vý kon</w>
vzor ec</w>
vzor ců</w>
vzni ku</w>
vzdálen osti</w>
vy plý
vy myslet</w>
vteři n</w>
vozí k</w>
vole b</w>
vo d
vi zi</w>
vi ru</w>
veřej ného</w>
veče ři</w>
ver sus</w>
va ná</w>
v ụn</w>
v ất</w>
uměle cké</w>
uli c</w>
uděl alo</w>
udě lají</w>
udr že
třetí ho</w>
tá me</w>
tá bo
typi cké</w>
tu ru</w>
tu re</w>
titu l</w>
ti vu</w>
thu ỳ</w>
th ấm</w>
ter s</w>
te ore
t ựu</w>
t řed
t át</w>
t nější</w>
t ného</w>
t kami</w>
syn te
svěd ky</w>
stá hnout</w>
stu povat</w>
strá vila</w>
stre su</w>
str es</w>
sto pher</w>
sto p</w>
stav ba</w>
st ky</w>
st ere
spoj ují</w>
sp át</w>
sou bor</w>
softwar u</w>
smě r</w>
smlou vy</w>
skuteč ných</w>
skupi nou</w>
skon čila</w>
sed a
samot ná</w>
s ỏi</w>
s é
s rá
s mýš
s mem</w>
rych lé</w>
ru ột</w>
roz sví
reál né</w>
rekla my</w>
re ha
reha bili
re g
rakov inou</w>
r ỉ</w>
r âu</w>
r ty</w>
qu ặc</w>
působ i
pů du</w>
příleži tostí</w>
příleži to
při spí
překo nat</w>
před vádě
před e</w>
pře kro
pře kon
píš u</w>
pí še</w>
pí še
průměr ná</w>
progra my</w>
produk ci</w>
problé mech</w>
prav á</w>
prav y</w>
prav u</w>
prak tické</w>
požád ali</w>
počíta t</w>
použi jeme</w>
potenci ální</w>
posled ního</w>
posl al</w>
polo žil</w>
poku sili</w>
poko je</w>
poh l
podob ných</w>
podi v
pod él</w>
po vě
po psal</w>
po měr</w>
po hromadě</w>
plá nu</w>
ph ơi</w>
ph ác</w>
ph thalate</w>
pe st</w>
par k</w>
p lou
p lní</w>
ov ol
organi cké</w>
or g</w>
ome tri
ohro mně</w>
odpo vědět</w>
ode jít</w>
od tud</w>
od lo
ochra ny</w>
obtíž né</w>
obje ven
o pat
o chran
náz oru</w>
návr hu</w>
nádo r</w>
nádher ný</w>
nà ng</w>
nu tné</w>
nu klá
no ty</w>
ni í</w>
ni s</w>
ngườ i.</w>
ng ô</w>
nevy hnu
neu stá
nejrůz nější</w>
neb e</w>
ne šťast
ne zaměstna
ne mohli</w>
na stav
na rá
na mí
na hlí
na dále</w>
na cházejí</w>
n ského</w>
n ků</w>
má ch</w>
muse lo</w>
mu d
mož ný</w>
moudro st</w>
moder ního</w>
mo no
medicí ny</w>
ma pu</w>
ma nu
ma mi</w>
ma gi
m ộng</w>
m ổ</w>
m koli</w>
lí ky</w>
léč by</w>
lé o</w>
lov á</w>
lov ali</w>
liv ých</w>
li st</w>
les k</w>
lep šímu</w>
le tri
l ỡ</w>
l nější</w>
l ak
krás a</w>
krajin y</w>
krabi ci</w>
kou le</w>
korup ce</w>
kor po
komple xi
komple tní</w>
kom ponen
ko mentá
kmen y</w>
kaz y</w>
kamen y</w>
jí dlem</w>
jí c</w>
jin ému</w>
jednoduch ých</w>
jedno tku</w>
jedno mu</w>
jedin ců</w>
jedin ce</w>
jed li</w>
jaký si</w>
j ar
insu lin</w>
institu cí</w>
institu ce</w>
in zu
imuni tní</w>
im pul
ide ální</w>
ide o
i ng
i hned</w>
hý bat</w>
hu mani
ho an</w>
hlou bě
hloubě ji</w>
hled u</w>
hlad inu</w>
har </w>
h ụt</w>
h ưng</w>
h ře</w>
h ít</w>
h en</w>
h al</w>
gi eo</w>
gene rá
ge ometri
g u</w>
g ai</w>
fyzi ky</w>
fyzi ka</w>
for mou</w>
fil m
fale š
epi demi
džihá d</w>
důleži tým</w>
du še</w>
du s</w>
drá hy</w>
drá hu</w>
druh em</w>
doufá me</w>
dobrovol níci</w>
dobr ým</w>
dobr ého</w>
do ty
do jem</w>
do ho
dinosau ry</w>
de sát</w>
de ká
dal e
d ập</w>
d t</w>
cí me</w>
cuk ru</w>
ci z
chtě lo</w>
cho dili</w>
ch an
cen o</w>
cel ku</w>
ce jí</w>
c lip</w>
c inu</w>
bý val
bí lé</w>
bá l</w>
bá je
by t</w>
budov </w>
biologi cké</w>
bi t</w>
bezpeč nostní</w>
be letri
bateri e</w>
ba rié
b ốc</w>
b ọ</w>
b ể</w>
b ón</w>
b ru
b lou
b li</w>
as pek
a ta</w>
a ri
Youtu be</w>
Y u
Wor ld</w>
Wikipedi i</w>
Vi etna
V ương</w>
Tex as</w>
Tem pest</w>
T ự</w>
Sara h</w>
S třed
R ay</w>
Páki stánu</w>
P ři
P ře
Olympi c</w>
Něme cku</w>
Ni co
Mě sí
Monta na</w>
Mis sour
Ma ha
M er
M T</w>
L en</w>
Ko ran</w>
Ko ngre
Ken ne
Ke ple
K ì</w>
K er
Indo né
I .
Hi ro
Gi ai</w>
G race</w>
Ed ward</w>
E G</w>
Del hi</w>
D ân</w>
D on
D il
Chri stopher</w>
Ch ỉ</w>
C ộng</w>
C ynthi
C lin
C ho
Bu dru
Brazí lii</w>
B on
B C</w>
A sh
A my</w>
A c
7 0.</w>
5 0.000</w>
4 6</w>
3 ,
20 30</w>
2 1.</w>
199 8</w>
195 7</w>
18 58</w>
1 1.</w>
1 .000</w>
.C .</w>
. org</w>
. A.</w>
ự c.</w>
ố t.</w>
ậ t.</w>
ži vá</w>
ži viny</w>
že bří
ž ova
špi na
ško dy</w>
ši f
še st
š ování</w>
š en</w>
říká te</w>
ře k</w>
řa da</w>
đ ầu.</w>
đ ười</w>
červen ou</w>
č níku</w>
č nost</w>
č kách</w>
č kami</w>
úto ků</w>
úspěš ný</w>
úhe l</w>
údo lí</w>
ú no
ú n</w>
ì .</w>
à .</w>
Írá n</w>
zázna my</w>
západ ním</w>
západ ních</w>
zákla dy</w>
zábě ry</w>
zved něte</w>
zved nout</w>
ztrá cí</w>
způsob il</w>
zo f
zof ren
zná mky</w>
znov u
zna čku</w>
změ níme</w>
zkrá tka</w>
zelen inu</w>
zd át</w>
zd rá
zba vit</w>
zavol al</w>
zapo j
zapla tili</w>
zalo žené</w>
zak ři
zak o
zahrani ční</w>
za slouží</w>
za bezpe
z y
z vy
z ovány</w>
z ovala</w>
x ộn</w>
web ové</w>
věz nice</w>
význa mně</w>
výbor ně</w>
vý šky</w>
ví ra</w>
ví na</w>
váž nou</w>
vznik nout</w>
vznik ne</w>
vze stupu</w>
vyzkouše t</w>
vyvinu ly</w>
vytvo říme</w>
vysvět lil</w>
vyso kým</w>
vyprávě l</w>
vyjád ření</w>
vy nalé
vy lou
vy cháze
vla j
vidě ní</w>
ve terá
va řit</w>
va ření</w>
v. v</w>
v ời.</w>
v ọt</w>
v ují</w>
v ni
v hod
uží vat</w>
uvědo movat</w>
urči tým</w>
urba ni
umož nilo</w>
uji stit</w>
udrži telné</w>
tý dně</w>
tím hle</w>
tr úng</w>
tr ùm</w>
tr y
tr au
to ale
tiệ m</w>
tisí ců</w>
ti v</w>
ti nou</w>
thi ếp</w>
tex t</w>
testo stero
tera pie</w>
ten krát</w>
tele fon
tel ka</w>
tane č
tal í
ta ční</w>
ta smá
t ón</w>
sym pto
su ối</w>
studi u</w>
strate gie</w>
str an
stoupi la</w>
sti ckou</w>
stere o
stav bu</w>
sta rají</w>
sta nici</w>
sta nice</w>
společen ská</w>
spo u
soukro mý</w>
sou pe
sou d</w>
smě š
sly šíte</w>
slu chá
sled ujeme</w>
sla mi
sl ý
skuteč ném</w>
si de</w>
se xy</w>
sdí líme</w>
schi zofren
sbí rat</w>
sa mo</w>
s ó
s ét</w>
s or
s hi
s eri
rů ž
rych lý</w>
ru jící</w>
rozvoj ové</w>
rozto mi
roz pí
roz mě
rovnová hu</w>
rodi n</w>
rezo nan
repor té
reali tou</w>
ra zy</w>
přístup u</w>
příkla du</w>
příj mu</w>
přá l</w>
přin ést</w>
při nejmenším</w>
při dal</w>
překva pující</w>
předsta v</w>
před stí
pře klá
písk ání</w>
psycho logové</w>
prostřed ní</w>
produ kuje</w>
proce sy</w>
požada vky</w>
počíta čem</w>
pou ští</w>
potra vy</w>
posu d</w>
postup y</w>
posl ání</w>
politi ci</w>
pokrač oval</w>
podpo ruje</w>
pobí dky</w>
po vede</w>
po to
po ptá
po klá
pamatu ju</w>
pa rá
pa dají</w>
oxi du</w>
ov a</w>
ostrov ě</w>
osa mě
org án</w>
or ech</w>
opu stil</w>
optimi smu</w>
odhali t</w>
od hod
obsa hu</w>
objek t</w>
ob ý
ob í
ob al
o ranž
o ra
nějak ém</w>
ní cí</w>
nákla dů</w>
ná vy
ná ku
ni čení</w>
nhu ộm</w>
ng ụ</w>
nevi do
nes ou</w>
nej nov
nej menší</w>
ne mohla</w>
ne lze</w>
ne jsem</w>
ne dě
naše mu</w>
nahra dit</w>
n kou</w>
n alo
n ali
mě stí</w>
mě jší</w>
myšlen ce</w>
mys li
mož ným</w>
minu lého</w>
mi nister
med </w>
mechani smus</w>
mani an</w>
mana ž
ma č
m ầm</w>
m ưu</w>
m ìn</w>
léč ba</w>
lá skou</w>
ly n</w>
logi c</w>
lo w
lo t
li ny</w>
len i</w>
leg ální</w>
leg an
lah ví</w>
la u</w>
la du</w>
l ô</w>
l ân</w>
l lo
křesť an
ká vy</w>
ká men</w>
ky mati
kter é
kry sy</w>
kre vní</w>
kre v</w>
kre slí
konflik t</w>
kone čný</w>
kone c
komunika ční</w>
kombi nace</w>
koleg ové</w>
ko t
klí čem</w>
kh ốn</w>
kh ẩn</w>
kdeko li</w>
kancelá ři</w>
kam ery</w>
k vět
jednoduch ou</w>
jazy ce</w>
ja cí</w>
j šího</w>
inženýr ství</w>
invest ovat</w>
inter akci</w>
inteligen tní</w>
inte rag
ini ci
infra strukturu</w>
indi cké</w>
hy gi
hou by</w>
hodi lo</w>
ho o</w>
hmo tnost</w>
hist or
hes lo</w>
hed vá
he sel</w>
gra phi
gra mů</w>
gi ới.</w>
gene rací</w>
gen u</w>
ga s</w>
g om</w>
g er
fá zi</w>
f fi
ex ponen
ex pedi
epi demie</w>
elektř inu</w>
elek tři
ekono mové</w>
e th
e ste
e legan
důvě ru</w>
důvo dy</w>
dítě ti</w>
dí la</w>
dy s
dva cet</w>
drže li</w>
dovo lí</w>
dosáh ne</w>
dospě lých</w>
dospě lí</w>
domi nan
dola r</w>
dobr o</w>
do posud</w>
do dnes</w>
do dat</w>
di o</w>
delfí ni</w>
de šť
de tek
da řilo</w>
da ty</w>
da ní</w>
d ồn</w>
d ịu</w>
d ịp</w>
co m
civili zací</w>
ci on
chy bu</w>
cen ý</w>
c ược</w>
c úm</w>
c ào</w>
c m</w>
by tost</w>
buň kami</w>
bu s</w>
blaho bytu</w>
bi osfé
bez domov
ber u</w>
b ồn</w>
b ẩy</w>
b ři
b óp</w>
au ti
an .</w>
aktivi tu</w>
a né</w>
Y a
Virgi nia</w>
Univer zi
Tas manian</w>
T ư</w>
T ha
Su san</w>
Spe ech</w>
Se an</w>
Sa tur
S ci
S ar
S ao</w>
Pa pu
Ni zo
Missour i</w>
Man de
M áy</w>
Ko lu
Kan sas</w>
K hoa</w>
Ja c
J ay</w>
Izra el
Indo nesia</w>
G and
Free Speech</w>
E ng
E le
E co
D .C.</w>
Cynthi a</w>
Con ne
Chicag o</w>
Car l</w>
Ca sey</w>
C A</w>
B ảo</w>
B ur
B lu
A ho
9 8</w>
9 7</w>
7 1</w>
6 2</w>
5 2</w>
200 1</w>
1/ 3</w>
1 500</w>
& </w>
ị .</w>
ướ c.</w>
ži vý</w>
žen i</w>
ž ování</w>
šen é</w>
š uje</w>
š tiny</w>
š te</w>
š ka
Švéd sku</w>
ř ský</w>
đi ền</w>
čá tku</w>
čas y</w>
čas ně</w>
č tě
č ními</w>
č an</w>
Číňa né</w>
ý .</w>
úče l</w>
ú ro
západ ě</w>
zva né</w>
zv ra
ztrá ty</w>
zra el
zpravoda jství</w>
zpo čátku</w>
znamen ají</w>
zn al</w>
zmí r
zi m</w>
zen ý</w>
zen i</w>
zemře la</w>
ze ra</w>
zapo mí
zak lá
zajíma vého</w>
zajíma vou</w>
zabi l</w>
za žili</w>
za star
za s
za mí
za milova
z rodi
z ována</w>
z ky</w>
z kombin
z kla
y o</w>
x ốp</w>
x ưởng</w>
x í</w>
war e</w>
vš í
věři l</w>
věde ckých</w>
věde cký</w>
vě nu
vě dce</w>
význa mné</w>
výzkum níci</w>
ví ry</w>
vá no</w>
vzpomí nku</w>
vz dal
využí váme</w>
vyso ký</w>
vyrobi li</w>
vypořá dat</w>
vybu ch
vy vol
vy no
vy jedná
vy hnout</w>
vol bu</w>
vní má
vní ma
videoh ry</w>
vide u</w>
vide o
veřej nosti</w>
vesmí rem</w>
ver zi
velko ry
va z</w>
v na
uskuteč nit</w>
us al
urči tého</w>
umě lé</w>
u de
tí cí</w>
tvor bě</w>
tvo ření</w>
tva rů</w>
tru bi
tri ky</w>
trans for
tr ži
tr v
tová rny</w>
th ế.</w>
th er
teč ní</w>
teplo ty</w>
teplo ta</w>
telefo ny</w>
te ra</w>
takov ými</w>
ta s</w>
t ạc</w>
t ovala</w>
t mě</w>
t f
t cích</w>
systé mem</w>
super marke
su n
studov ali</w>
studen tům</w>
strá vit</w>
stru n</w>
str ý
stou pí</w>
sto le</w>
sti ckých</w>
st ně</w>
st ale
správ ným</w>
spoust ou</w>
specifi cké</w>
soustřed ě
soukro mé</w>
slu ch</w>
sled oval</w>
sil nou</w>
sil nici</w>
si on</w>
si i</w>
seh nat</w>
sebe vědomí</w>
se š
se ver
se stři
se e</w>
schop ná</w>
s ói</w>
s le</w>
s hi</w>
rů sta
ráme c</w>
rych losti</w>
roz po
roz děl
rov alo</w>
robo tem</w>
ro ra</w>
regi onu</w>
recep t</w>
re akcí</w>
radi o
ra né</w>
ra dy</w>
r ỗi</w>
r ala</w>
qu ỷ</w>
qu ỵ</w>
pů jdete</w>
příbu z
pří tele</w>
pří tel</w>
přita žli
přirozen ou</w>
při nese</w>
při dali</w>
přen osu</w>
přemýš lení</w>
překá žky</w>
překva pení</w>
předná šce</w>
pře vážně</w>
pře vra
pře hrá
pě šky</w>
pád ně</w>
pád em</w>
ptá ky</w>
průměr ně</w>
prostřed ím</w>
prosin ce</w>
promě n
proble mati
pro šel</w>
pro vádí</w>
pro cvi
pred á
pravdi vé</w>
prav ý</w>
prav a</w>
pr vek</w>
poško zení</w>
pozna tky</w>
považ ovali</w>
pouh ým</w>
poste li</w>
poste le</w>
popis uje</w>
poku sů</w>
poku sím</w>
pohled em</w>
poda ří</w>
po vedlo</w>
po si
po doby</w>
plu s</w>
pi li</w>
ph ô</w>
ph ero
phero mo
ph ere</w>
perfek tní</w>
partne ry</w>
par ku</w>
pad ne</w>
pa razi
pa má
p son</w>
oš kli
osvět lení</w>
os ví
os voj
opravdov ou</w>
olympi js
odpověd nost</w>
odehrá vá</w>
od sud</w>
ocho t
obrazov ky</w>
oblíben é</w>
obliče j</w>
objev ovat</w>
obcho dě</w>
ob ál
o tra
o stí</w>
nákla ďá
nuklá rní</w>
ni kde</w>
ni ka</w>
nh ộn</w>
nh ất.</w>
nh àm</w>
neuvěři telný</w>
nej úžas
ne š
ne stalo</w>
ne chtěl</w>
naznač uje</w>
navští vit</w>
navrh l</w>
na i
n ộ</w>
n ến</w>
n ů
n âu</w>
mí ň</w>
moz kových</w>
moleku lu</w>
mode lů</w>
mobi lních</w>
mo ři</w>
mo r
mlu víte</w>
milu ju</w>
milov ala</w>
miliar du</w>
miliar da</w>
mi mi
mi lo
meto dy</w>
matemati ku</w>
ma ra
ma fi
m ô
m g</w>
lượ m</w>
lí tost</w>
lí cí</w>
lékař ství</w>
lár ním</w>
lu jící</w>
lo ž
lik vi
lid u</w>
li ví</w>
li sto
li nu</w>
li ly</w>
les a</w>
le vné</w>
le te</w>
le l</w>
la r</w>
la del
l ụa</w>
l ọ</w>
l ều</w>
l ů
l ên.</w>
l li
kur z</w>
ku ři
ku kuři
krá l</w>
kouz lo</w>
kou sku</w>
konec konců</w>
komu nit</w>
klá st</w>
klid u</w>
klid ně</w>
kli mati
kles la</w>
kho án</w>
každo pádně</w>
karié ru</w>
kamará dy</w>
ka be
k ệ</w>
k ìm</w>
k vé
k vá
k la</w>
jí ce</w>
jednoduch ým</w>
jed nalo</w>
je jích</w>
jak koliv</w>
j šími</w>
iệ m.</w>
islá mu</w>
inžený ři</w>
ing redi
in ch</w>
i zrael
i ro</w>
họ c.</w>
họ .</w>
hr eddi
hreddi es</w>
hoř či
homo sexuální</w>
ho ãn</w>
ho rní</w>
ho lka</w>
hmo tnosti</w>
hledá me</w>
hla su</w>
hla do
ha d</w>
graf y</w>
glob álním</w>
ga rá
g ậy</w>
g á
g ri
funk cí</w>
fil m.</w>
fanta stické</w>
f ó
existen ci</w>
ex plo
er u
en á
empati e</w>
ekologi cké</w>
e- ma
dře vo</w>
dě l</w>
dě de
dí vají</w>
dí t</w>
dé l
dá no</w>
dvo ji
dost aly</w>
dokon ale</w>
dob </w>
do cí
disku ze</w>
digi tá
digi tali
di ng</w>
demon str
de ra
dan ých</w>
dal šímu</w>
d ại</w>
d ê</w>
d ného</w>
d iều</w>
ci zí</w>
chytře jší</w>
chytr é</w>
chuy ền</w>
chud ých</w>
choro by</w>
cho dy</w>
chlá pek</w>
chlap ce</w>
ch ẽ</w>
ch ali</w>
ch al</w>
cest ování</w>
ce stá
c ồn</w>
c ạo</w>
c ovství</w>
c anh</w>
bướ m</w>
bě ží</w>
by tostí</w>
buň ku</w>
budouc na</w>
bole sti
be zdrá
ban jo</w>
bal ó
bakteri í</w>
b ù</w>
b oru</w>
autobu s</w>
anglič tina</w>
analý zu</w>
an tro
ad re
absolu tní</w>
a xi
a ce</w>
Západ ě</w>
Z u
Z i
Z </w>
X ô</w>
W ol
V ě
V e
US D</w>
U N
Ti ến</w>
Tal k</w>
T y
T ra
T ony</w>
T ed</w>
T ara
Singa pu
Shake spe
Se ba
Sch war
S hreddies</w>
S cho
S am</w>
R og
Pho eni
Oli ver</w>
Ne va
Ne j
N gh
Mur ray</w>
Mexi ko</w>
Ma ria</w>
Ma a
M ọi</w>
M ak
M BI</w>
Ki ng</w>
K ur
K el
Ja ck
J H</w>
In stitu
I sa
I P
Hig h</w>
Geo graphi
G ri
F BI</w>
Egyp tě</w>
E ar
Dere ku</w>
Ca me
Bo w
Ba ra
B ou
B ay</w>
Au rora</w>
Ari zo
Ara b
A d
A T
9 .</w>
8 1</w>
6 0
4 4</w>
4 2</w>
3 .</w>
20 20</w>
20 12</w>
žralo ka</w>
žlu tá</w>
žen ě</w>
že h
ší lené</w>
šimpan zi</w>
šen á</w>
š tích</w>
š ků
ří še</w>
řá du</w>
ře ší</w>
đi nh</w>
đ ốm</w>
đ ậm</w>
Đ ể</w>
čty ři
čtvr t</w>
čte te</w>
čer nou</w>
če ká</w>
č nímu</w>
č má
Č er
úžas ného</w>
úva zek</w>
úda jů</w>
ú řady</w>
ú tě
ú te
é r</w>
â ng.</w>
á .</w>
záj mů</w>
záchra nu</w>
zába vné</w>
zá vod</w>
zá padu</w>
zva ný</w>
zrca d
zpí vat</w>
zlo čin</w>
zkouše li</w>
zept ala</w>
ze ň</w>
ze jí</w>
zdro ji</w>
zd r
zasta ví</w>
zasta vili</w>
zalo žili</w>
zalo žila</w>
zabr alo</w>
zabi li</w>
za úto
za to</w>
za drž
za dní</w>
z vá
x ách</w>
x ní</w>
wat t</w>
všudy přítom
všech nu</w>
vědo mé</w>
výz vou</w>
výraz ně</w>
vý voj
vý sky
vá z
vzpomí náte</w>
vzor ky</w>
vzni kají</w>
vzni k</w>
vz lét
vyvolá vá</w>
vyvinu la</w>
vytvořen y</w>
vyrost la</w>
vy či
vy čer
vy tisk
vy spě
vy mě
vy hy
vozi dla</w>
vol ení</w>
vodí ku</w>
vl na</w>
vita min</w>
vie w</w>
vi rů</w>
vi den
velko lep
vel cí</w>
vaz by</w>
val en
v òm</w>
v ním</w>
v hodné</w>
uči li</w>
uči la</w>
uy ễn</w>
urči tých</w>
umě l</w>
ukáz aly</w>
uk ové</w>
uhliči tého</w>
udrž uje</w>
u ši</w>
u di
u chopi
tý my</w>
tý mem</w>
tý kají</w>
tý dnu</w>
tý dne</w>
tvůr čí</w>
tvor bu</w>
tučňá ků</w>
tu ji</w>
tu dí
tudí ž</w>
tréni n
tr e</w>
to k</w>
tká ň</w>
th ối</w>
th y</w>
test ování</w>
tep lo</w>
tem pem</w>
tel ství</w>
te s
ta ri
ta nec</w>
t ạng</w>
t úng</w>
t ský</w>
svě ty</w>
stá ří</w>
stá h
studi o</w>
strate gii</w>
stra vy</w>
stoup á</w>
sta di
spočí tat</w>
sp eri
soutě ž</w>
souhla sí</w>
sou d
so ná
sní ží</w>
smysl ů</w>
složi tost</w>
slo žky</w>
slad ké</w>
skon čit</w>
sklen ě
ske pti
sk vr
sk ri
sk lí
sil ovat</w>
sho ra</w>
sel l</w>
sekun dy</w>
sch vá
s le
s jedno
růz ná</w>
rá n</w>
ryt mus</w>
ry sy</w>
ruka ma</w>
rozmani tost</w>
roz umíme</w>
rov ná</w>
rostli na</w>
rodič ovství</w>
robo tické</w>
ro ční</w>
rekor d</w>
recyk lova
reag uje</w>
re zerva
rake ty</w>
radi g
ra ting
r ỡ</w>
r èn</w>
r ním</w>
přítomno sti</w>
příspě vek</w>
přizpůsob it</w>
přirozen ého</w>
připa dalo</w>
přijí ma
při čemž</w>
při znat</w>
přemýš líte</w>
překo ná
předpo vědět</w>
předná ška</w>
předcho zí</w>
pře ží
pře stali</w>
pře sou
pře hlí
píše te</w>
pís ni
pá tek</w>
py t
py lu</w>
pu m
ptá k</w>
prostřed ků</w>
prospě ch</w>
propojen é</w>
promi ňte</w>
prodá vají</w>
pro pu
pro dlou
pro dat</w>
prak ti
požád ala</w>
posu n</w>
posky tují</w>
por tré
polov ině</w>
polov iny</w>
poli cii</w>
poj ďme</w>
podě kovat</w>
podvádě ní</w>
po ži
po vání</w>
po vo
po val</w>
po str
po mohlo</w>
po k
po ji
po in
plast ů</w>
plane t</w>
pla v
phi a</w>
ph e</w>
pev ni
partne rů</w>
partne r</w>
pa radig
pa pr
pa dá
p car</w>
ova ným</w>
ov z
ov em
ou nd
organi za
ora ngu
open- source</w>
odha duje</w>
ode šel</w>
od star
od leh
obě tí</w>
obě ma</w>
obnov it</w>
o zbrojen
o z
o ku
o kouz
o fi
ně mi</w>
nă m.</w>
nástro ji</w>
nápad em</w>
nà n</w>
nov y</w>
nov in</w>
nou cí</w>
no sit</w>
no hu</w>
ni k
ng ửi</w>
ng ây</w>
nes práv
nepře trži
nená vi
nejs il
nejoblíben ější</w>
nejnov ější</w>
nej moc
nej hor
nedosta tku</w>
ne zná
ne věděli</w>
ne vě
ne měly</w>
ne budeme</w>
nale zení</w>
nak re
nak r
na tá
na stane</w>
na pětí</w>
na jevo</w>
n ská</w>
my to
muse jí</w>
mu zi
mou chy</w>
mo tory</w>
mo ckrát</w>
mno st</w>
mláď ata</w>
mini málně</w>
mimin ka</w>
mili on
men out</w>
ma py</w>
ma gie</w>
m ẹo</w>
lí tosti</w>
lá m</w>
logi cký</w>
log y</w>
len y</w>
ledov ce</w>
led ové</w>
la h</w>
kří dla</w>
kó du</w>
kó d</w>
kvali ta</w>
kultu rou</w>
ku li
krás ně</w>
kri ti
kreativi tu</w>
kre sli
kov án</w>
kov ala</w>
konflik tů</w>
kone čné</w>
kon domy</w>
kli nické</w>
ki na
ki e</w>
kho ang</w>
khi ếu</w>
kh an</w>
ka vá
jád ra</w>
ji mi</w>
ji la</w>
jedno tky</w>
jedi nec</w>
jaké koli</w>
jakou koliv</w>
jak ého</w>
j ně</w>
investi ce</w>
inteligen ci</w>
inspi ro
hru bo
hmo tu</w>
hlé dnutí</w>
hez ky</w>
ha vio
ha si
h ân</w>
h ové</w>
gra n
gi áp</w>
gi àn</w>
gen i
gar et</w>
galaxi i</w>
g ộp</w>
g ãy</w>
g ác</w>
g hi
g al</w>
fyzi ckou</w>
fosfor u</w>
fosfor </w>
for em</w>
fero mo
far my</w>
fa ve
f rá
f al
er ů</w>
envi ron
elektri cké</w>
ekonomi ckou</w>
ekonomi ce</w>
důvě ry</w>
důleži tých</w>
dů chodu</w>
dě ji
dí váte</w>
dí ru</w>
dá ním</w>
dá na</w>
dra ma
dovo luje</w>
dou cí</w>
dosáh l</w>
dostup ná</w>
domní váme</w>
dom ně
dokáz ala</w>
dokonal é</w>
dob ách</w>
do jít</w>
do jem
dlou hově
diag nó
di verzi
di ly</w>
di lo</w>
detail ů</w>
de sh</w>
dale ka</w>
d ời</w>
d ệt</w>
d ẹp</w>
d ẳng</w>
d ưa</w>
củ </w>
cí tě
cy klo
cifer né</w>
chů ze</w>
chá zím</w>
chá me</w>
chi ên</w>
che jte</w>
cestá ch</w>
cest ovat</w>
cen i</w>
celo svět
ce st</w>
ce lek</w>
c ử
c óc</w>
c li
c al
c ai</w>
buně čné</w>
budov a</w>
bud ovat</w>
bu m</w>
brý le</w>
br ali</w>
br al</w>
be ra</w>
be havio
bare v</w>
ban ky</w>
ba d</w>
b ẩm</w>
axi t</w>
auto maticky</w>
au tisti
atmosfé ry</w>
aplika cí</w>
an s</w>
an der</w>
ali zaci</w>
ak s</w>
a ten
a do
Wri ght</w>
V er
Tr iều</w>
Ti tus</w>
Th ời</w>
Tan za
T ổng</w>
Stan fordu</w>
Sou th</w>
Singa po
Scot land</w>
S á
S pi
S M
R N
Qu ân</w>
Pow er
Par k</w>
Ox fordu</w>
O hi
Ni ke</w>
N ăm</w>
Mi ke</w>
Mexi ku</w>
Me lin
M ovem
M an</w>
Liba no
Lak ota</w>
Kolu mbi
Ko ngu</w>
Ki m</w>
Kenne dy</w>
Ke ň
Je ží
Harvar du</w>
Gui ne
Geographi c</w>
Gand hi</w>
G er
For d</w>
Evrop a</w>
Co lu
Ce line</w>
C òn</w>
Bu d
Brazí lie</w>
B ru
B or
B oha</w>
B ali</w>
B P</w>
Aristo tle</w>
Aho j</w>
A s
7 6</w>
5 ,000</w>
3 9</w>
2. 5</w>
198 9</w>
198 6</w>
17 .</w>
10 ,000</w>
. 5</w>
ủ a</w>
ỏ .</w>
žá rov
živo u</w>
živo tním</w>
že le
Ž i
šťast nými</w>
šir ší</w>
řík alo</w>
ře č
độ ng.</w>
đu ôi</w>
đ i.</w>
Đ an</w>
Đ a</w>
čtvr ti</w>
čtvere čních</w>
če lit</w>
časopi su</w>
č nosti</w>
č lu
úto ku</w>
ú chva
získ á</w>
zá zrak
zá važ
zv .</w>
ztrá ta</w>
ztra tit</w>
zranitel nosti</w>
zouf ale</w>
zobraz uje</w>
zobra zit</w>
zní t</w>
zni čení</w>
zmí nit</w>
zmá čk
zemře lo</w>
zelen ou</w>
zdra vím</w>
zd vi
zbý vá</w>
zastar al
zapomně li</w>
zaměstnan ce</w>
za ř
za ved
za ru
za né</w>
za nechá
za n
za bra
z větš
z odpově
z mate
y le</w>
x ơ</w>
x ài</w>
w n</w>
w i</w>
vů m</w>
vše mu</w>
vš ed
větr né</w>
výrob ní</w>
výpoč ty</w>
výda je</w>
vý zvu</w>
vý hoda</w>
váš ně</w>
vá lek</w>
vznik ly</w>
vzdálen é</w>
vz dát</w>
vyš lo</w>
vysoko škol
vyrobi l</w>
vypěst ovat</w>
vybud ování</w>
vy sta
vy hov
vy dali</w>
vy dala</w>
vr ste
vr ch
vol ný</w>
vojá ků</w>
vojen ské</w>
vo stí</w>
vlá dních</w>
vlast ností</w>
vla sy</w>
vl h
videoh er</w>
vi valen
vi ry</w>
vi an</w>
vešker á</w>
vakcí ny</w>
va ných</w>
v ựng</w>
v ớ</w>
v ů</w>
v čas</w>
užiteč ná</w>
uvědo mění</w>
usal em</w>
umíst ě
umož nila</w>
u ỷ</w>
u ốn</w>
u za</w>
u y</w>
u viděl</w>
u sa
u měli</w>
u kra
u bí
u blí
tři ce
tře tinu</w>
těž ká</w>
těž ko</w>
těho ten
tý kající</w>
troj rozměr
tra gé
tr ội</w>
tr ọt</w>
tr ọn</w>
tr pí
tov ého</w>
tomu hle</w>
ti ce</w>
tho áng</w>
tho n</w>
th ằng</w>
th ượng</w>
th èm</w>
tf li
tera pe
tel u</w>
techni cky</w>
te ček</w>
t ốt.</w>
t ống</w>
t ùng</w>
t zv.</w>
t ným</w>
t ními</w>
t my</w>
t ch
sá le</w>
syste maticky</w>
sv aly</w>
stu d</w>
strá nkách</w>
struktu ře</w>
stro ji</w>
stoupi li</w>
sto pu</w>
sta rou</w>
st eri
spotřeb ová
spotře bu</w>
spo jili</w>
spo du</w>
spek tra</w>
součas ný</w>
soci o
slov ně</w>
sl zy</w>
skuteč ností</w>
sko k</w>
sin i</w>
si e</w>
sh mi</w>
sekto ru</w>
sek vence</w>
sedě t</w>
sedě li</w>
se zná
se ro
sero to
scéná ř</w>
sau rus</w>
samot nou</w>
sa ur
sa mém</w>
s ửng</w>
s ứa</w>
s vá
s mar
růz ně</w>
růz ným</w>
ru šení</w>
rozvo ji</w>
rozvo je</w>
rozsa hu</w>
rozp tý
rozdíl ných</w>
roz tří
roz počet</w>
roz bi
rovnová ha</w>
rodič ům</w>
rob i</w>
ro le</w>
ri sku
rekla mu</w>
rakov ině</w>
raj ča
rad ši</w>
ra mie</w>
r ực</w>
r ìa</w>
r ka</w>
příjem ný</w>
pří sluš
pří sa
připo jení</w>
při vést</w>
při pojen
při kázání</w>
přes ný</w>
přes né</w>
přes ko
přemýš lí</w>
překvapi vé</w>
předsta vou</w>
předsta vili</w>
před su
před nost
pře tvá
pře měnit</w>
pře kla
pěst ování</w>
pru hy</w>
provádě t</w>
proved l</w>
prou dí</w>
prode je</w>
procháze l</w>
problé mům</w>
pro jde</w>
pro cedu
princi pu</w>
požá dat</w>
počí tání</w>
pozoro va
pozná te</w>
poz vali</w>
považ ují</w>
považ ujeme</w>
pou hé</w>
potře b</w>
potenci álu</w>
posíl ali</w>
posti žení</w>
posled ním</w>
porov ná
pomo c
poli tický</w>
poli ci
poh ře
podí vala</w>
podsta ty</w>
podpo řit</w>
pod ce
po řídil</w>
po ta
po mohou</w>
po li</w>
po le
po krý
po cházejí</w>
ple x</w>
ple chov
pla tili</w>
pi t</w>
ph ồng</w>
pali vo</w>
pale c</w>
pad l</w>
pa to
p sy</w>
p en</w>
p ci</w>
p ce</w>
oxyto cinu</w>
ově řit</w>
ovz duší</w>
oun da
otáz ce</w>
ot vo
osob ních</w>
opi ce</w>
ope rací</w>
opat ření</w>
odpo čí
odo l
odhal uje</w>
od ráží</w>
od pu
obyva tele</w>
oblíben á</w>
obe cen
ob čané</w>
ob i
o ži
o se
o no
o ka</w>
o k</w>
o heň</w>
náro čné</w>
ná městí</w>
ná hodně</w>
nu té</w>
nu tně</w>
no s</w>
no i
ni ckých</w>
nh úng</w>
nh ét</w>
ng ục</w>
ng a</w>
nes s</w>
nes l</w>
nerv ové</w>
nej te</w>
nej starší</w>
nej as
nedosta teč
ne řekl</w>
ne ú
ne viděl</w>
ne představi
ne l
navští vil</w>
na razil</w>
na psali</w>
na program
na neštěstí</w>
na jdou</w>
na i</w>
měst ských</w>
mě ři
míst ních</w>
mí ře</w>
mí chy</w>
má š</w>
muž ům</w>
muze a</w>
mu ối</w>
mr k
mr ak</w>
moz kovou</w>
moni to
momen tu</w>
moder ni
moc né</w>
mla dou</w>
mili o
mikro fon</w>
me te
me m
me lo
matemati cké</w>
mal by</w>
magne tické</w>
ma tkou</w>
m ří
m ím</w>
lớ n.</w>
lí p</w>
lá tek</w>
là m.</w>
lov ého</w>
liv em</w>
litera tury</w>
limi ty</w>
lid ském</w>
li vá</w>
li ne
li lo</w>
len ou</w>
lek ci</w>
legra ce</w>
legi ti
le že
le xi
le sy</w>
l ượn</w>
l ži</w>
l ê</w>
kře h
ká lních</w>
ku předu</w>
krát ko
krá sy</w>
kro ků</w>
kreativi ta</w>
kr vá
kov ém</w>
konzu mu
konver zaci</w>
kon tra
kon cem</w>
komuni kují</w>
ko řen
ko re
ko pii</w>
knih ách</w>
kmen e</w>
klá dá</w>
klu ci</w>
klini ckých</w>
ki a.</w>
kho e</w>
kh e
kategori í</w>
kancelá ř</w>
ka jících</w>
k men</w>
k ali
jmen oval</w>
ji hu</w>
jed í</w>
je lo</w>
je -li</w>
j děte</w>
j ce</w>
inova ci</w>
inici a
informa ční</w>
informa cemi</w>
i th</w>
i slami
i robi</w>
i lo</w>
i P
hů ře</w>
hů ř</w>
hrdin ové</w>
hra čky</w>
hospodá řství</w>
hodno tě</w>
hlou b
hled á</w>
hedvá bí</w>
he tero
har mo
h ở</w>
h ách</w>
gal ak
g ạt</w>
g ì.</w>
g y</w>
fá ze</w>
fung oval</w>
finan cování</w>
fil mů</w>
fi re
fale šné</w>
fak ul
fak tory</w>
fak tor</w>
f onů</w>
experimen tů</w>
eri ng</w>
en u</w>
emo ční</w>
elektro ni
ek vivalen
ed e
dře va</w>
dět ské</w>
dě lí</w>
dáv ala</w>
du ši</w>
du chu</w>
doz věděl</w>
dovo lené</w>
dostá vají</w>
doprav a</w>
do klady</w>
dne te</w>
dlouhodob é</w>
diagnosti k
di vné</w>
deví ti</w>
deta i
d ỡ</w>
d lech</w>
cí r
cor n</w>
co n
ck et
ck er</w>
cion ali
ci ty</w>
chápe me</w>
chu ộng</w>
chro moz
cho le
chemiká lií</w>
chemiká lie</w>
ch ướng</w>
ch ùm</w>
ce stu
c ộ</w>
c al</w>
bí me</w>
bur n</w>
bole stí</w>
boj ovali</w>
boha tí</w>
blíz ké</w>
be zna
baz ơ</w>
bare vné</w>
bar </w>
b ổng</w>
b ưu</w>
as y</w>
armá dy</w>
arab ské</w>
ano ny
anglič tinu</w>
ang a
an t</w>
ak ti
ak ce
ad mini
ab sur
a tri
a stero
X L</w>
Wo w</w>
Willi am</w>
War ren</w>
Wal ker</w>
V ăn</w>
V âng</w>
V ene
Tu lu</w>
Toro n
Ti be
Ten nes
Tara huma
Tal ks</w>
Ta y
T re
T ran
Singapo re</w>
Shi rky</w>
Shakespe are</w>
Se at
Ros sy</w>
Rob ot</w>
Rob o
R od
Phoeni x
Pa ri
P it
O d
Nig érii</w>
Ne tfli
Na irobi</w>
N ovém</w>
M ạch</w>
M um
M in
M ala
Londý ně</w>
Li by
La ramie</w>
L e</w>
L HC</w>
Keple r</w>
K le
Jer usalem</w>
Jen ni
Ja mie</w>
Ja ck</w>
J Y</w>
In ter
I x
Hol ly
He len</w>
Haw king</w>
H il
Gar y</w>
G ali
Franci i</w>
En ce
E s
Dur khe
Dur ga</w>
Dil lí</w>
Cha z</w>
Cas sini</w>
CE O</w>
C ra
C on</w>
Bro ok
Bosto n</w>
Bos nia</w>
Bo no</w>
Bi ble</w>
Ba y
Austrá lii</w>
Au str
Ale x
A li</w>
A chi
A bu</w>
8 9</w>
5 .000</w>
199 6</w>
199 2</w>
199 1</w>
197 8</w>
196 2</w>
18 .</w>
1, 5</w>
1 80</w>
. 7</w>
ể .</w>
živoči šné</w>
živoči chů</w>
živoči chy</w>
ži vých</w>
ži ju</w>
šé f
špi č
šo k</w>
ška tu
šen a</w>
šed é</w>
še li</w>
še jící</w>
š tá
š tina</w>
š t
š kách</w>
š am
řízen ím</w>
ře z</w>
řa d
ř te</w>
đ ỗ</w>
đ ặn</w>
čín ský</w>
čá ry</w>
člá nku</w>
čin íme</w>
če kají</w>
č tr
ý ma</w>
účin ky</w>
úspěš ní</w>
ú tá
ú pra
zů stávají</w>
zů stanou</w>
zí tra</w>
závě ry</w>
závě ru</w>
závisl í</w>
zákaz níci</w>
zá vaz
zá b
zvíře cí</w>
zvířa ty</w>
zvlá dnout</w>
zv ukové</w>
zv en
způsob ila</w>
zprac ování</w>
zoufal ství</w>
zo ta
znepoko j
znalo st</w>
znak ů</w>
zn ala</w>
zlo činu</w>
zkou mali</w>
zem ře</w>
ze l</w>
ze ch</w>
zdra vý</w>
začí nal</w>
zapo meňte</w>
zamě řili</w>
založen ý</w>
zahr nují</w>
zabý val</w>
za žil</w>
za řa
za tra
za potře
zapotře bí</w>
z větši
z těles
z lé</w>
z blíz
zblíz ka</w>
y on</w>
y ne</w>
xe m.</w>
x ảo</w>
x ả</w>
wat tů</w>
vůd covství</w>
vědě lo</w>
vě ty</w>
výrob ce</w>
výji mkou</w>
vý stup
vý razy</w>
ví tejte</w>
và nh</w>
và n</w>
vzpo mně
vznik lo</w>
vz dal</w>
vyz ý
vyví jí</w>
vyvi nout</w>
vytvořen é</w>
vyso ko</w>
vyplý vá</w>
vynále z</w>
vyni kající</w>
vybudov ali</w>
vy šel</w>
vy vá
vy pla
vy držet</w>
vy dava
vu jící</w>
vteř iny</w>
vr ta
volá ní</w>
vol ali</w>
vo n</w>
vnou čata</w>
vlá dě</w>
vli vu</w>
vi ci</w>
vesmír né</w>
vel blou
ve čer
ve ge
vari a
va rování</w>
va jících</w>
v sa
učitel em</w>
uvědo mí
uspořá dání</w>
urči tá</w>
uni ká
um ře
ukáz ka</w>
uhliči tý</w>
tři cet</w>
tře sku</w>
těž ký</w>
těhoten ství</w>
tá bor</w>
tvů j</w>
tu ổi.</w>
tu ku</w>
troj násob
tri nh</w>
tren d</w>
tov ě</w>
tle sk
tiv nější</w>
ti ch
th ắp</w>
th ôi.</w>
th a
tele fonů</w>
tel ní</w>
technologi emi</w>
te stu</w>
te da</w>
ta hu</w>
t ước</w>
t va</w>
t t</w>
t ala</w>
sí ti</w>
sí d
sy l
su jí</w>
stří ka
stup ně</w>
sti lo</w>
st ům</w>
st vu</w>
st en</w>
srov na
sr p
spu stit</w>
spoust ě</w>
sov ě</w>
součas ného</w>
součas ná</w>
sní m
sly ším</w>
skry té</w>
skon čili</w>
sil nice</w>
si lní</w>
sed mi
se řa
se stav
se mena</w>
sc an</w>
sbě ra
sa va
sa má</w>
s ướng</w>
s ô</w>
s vit</w>
s pr
s nů</w>
s ný</w>
s no
s mů</w>
s my
různo ro
rádi o</w>
rá na</w>
ru b
rozší ření</w>
roz říz
roz pozná
roz poznat</w>
roz hlé
rov nou</w>
rov nici</w>
ro vým</w>
ro pou</w>
ritu ály</w>
red uk
re t</w>
re pli
re fle
re ak
r ớt</w>
r ò</w>
qu are</w>
přístro jů</w>
příj mů</w>
příj mem</w>
při rov
při jel</w>
přen os</w>
představ uji</w>
předpově di</w>
před sed
pře vést</w>
pře tr
pře ji</w>
př .</w>
pust íte</w>
pt al</w>
psycho logii</w>
prů hled
prá v</w>
provo zu</w>
propa st</w>
promě nit</w>
procen ty</w>
procen tní</w>
pro šla</w>
pro násled
pro dal</w>
prezen tace</w>
pra vili</w>
pr vo
pozoru hodné</w>
poví dat</w>
použí val</w>
potk ali</w>
poru cha</w>
porov nání</w>
polo žíte</w>
polo žili</w>
poh nout</w>
podí let</w>
podpo ry</w>
podpo ra</w>
podni ky</w>
poci ť
poci tů</w>
po řadí</w>
po věděl</w>
po vím</w>
po tom
po pí
po myslel</w>
po mohly</w>
plý tvá
plá t
ply nů</w>
plast u</w>
plan kto
pla vat</w>
pi lí
ph ế</w>
ph ẫn</w>
per soná
pe s</w>
partne ra</w>
paral y
pa ch</w>
p pi
očeká vat</w>
otevře li</w>
ostrov y</w>
ostrov </w>
osob ním</w>
os mi
organi zova
opatr ně</w>
opak ovaně</w>
op en</w>
okra ji</w>
odpo věděl</w>
ode šla</w>
od ráže
od ra
obraz ů</w>
oblíben ý</w>
ob jem</w>
o čích</w>
o tro
o pě
ně nou</w>
ně kterým</w>
níz ké</w>
níz kou</w>
ní kovi</w>
náro dy</w>
ná zev</w>
nu t</w>
no sí</w>
no mi
nist a</w>
ni čky</w>
ni cí</w>
ni ckého</w>
nhi ên.</w>
nh ạt</w>
nh ún</w>
nh ánh</w>
nh a</w>
nghi ền</w>
ng ắt</w>
ng ươi</w>
ng ơi</w>
neš tov
nezávisl é</w>
nevi n
netu šila</w>
nes praved
nejoblíben ě
neho dy</w>
nech ce</w>
neandertál ci</w>
ne va
ne jsme</w>
ne dokon
ne budu</w>
nazý vám</w>
nazý vají</w>
napad ne</w>
nalé ha
naka žli
na sy
na star
na rozdíl</w>
na psá
na pravit</w>
na mal
na cháze
n ạp</w>
n cem</w>
měří tko</w>
měst ské</w>
muž em</w>
ml ý
milov ali</w>
mezinárod ních</w>
meto du</w>
men y</w>
mem brá
me zer
mal ým</w>
mal y</w>
mal a
ma tku</w>
ma ji
m ốc</w>
m ová</w>
m mm</w>
lí t</w>
lí k</w>
léč bě</w>
lé či
lé tající</w>
lá me</w>
log ů</w>
lo teri
litera tuře</w>
li vost</w>
li cen
li b
led nu</w>
le žet</w>
le tých</w>
le nem</w>
le la</w>
la r
l ọt</w>
l ậu</w>
l nímu</w>
l ními</w>
l alo
kvě tiny</w>
ku bá
krát kou</w>
kru ž
kr ku</w>
konstruk ci</w>
kon ven
kompli kované</w>
kolo ni
ko má
kho áng</w>
kh e</w>
kap se</w>
kamen né</w>
kame rou</w>
k ẽ</w>
k ẹp</w>
k en</w>
jí zdě</w>
jí dlu</w>
jád ru</w>
já tra</w>
jmé nu</w>
jist ém</w>
jin ém</w>
jednotliv ci</w>
jed n
je vi
je v</w>
jar o</w>
jaký ch
jak si</w>
j ové</w>
infra struktura</w>
in ov
il ding</w>
i ng</w>
i mi
hvě zda</w>
homo sexu
hod inách</w>
hled al</w>
hack er</w>
h ời</w>
h ẻo</w>
h útá
h áo</w>
h ám</w>
h ri
h l</w>
gramo tnosti</w>
grafi i</w>
gra my</w>
gi áng</w>
gh é</w>
g ập</w>
fyzi o
fu ngu
fo sil
fir mu</w>
finan cí</w>
fik ované</w>
fi al
fenomé n</w>
farmá ři</w>
extré mi
exist ovala</w>
exi stu
eko systémy</w>
efek tivně</w>
ed a</w>
e ly</w>
důsled kem</w>
dů věř
dět ská</w>
dě lo
dítě tem</w>
dí ly</w>
dá ny</w>
dvoj násob
dobrovol níků</w>
dne me</w>
dne m</w>
dlouho době</w>
dik tá
di sci
di feren
den í
demokra tické</w>
defi nici</w>
defi nice</w>
dan á</w>
da ň
d âu</w>
d âng</w>
d ley</w>
cử u</w>
cá p</w>
cy klu
cuk r</w>
cu jící</w>
co si</w>
civili zaci</w>
chytr ý</w>
chy ba</w>
chu i</w>
chu doba</w>
chrá ní</w>
chi êm</w>
chi nh</w>
chemi ckých</w>
ch ổ</w>
cen ou</w>
cen né</w>
cel kově</w>
ce li
ce l</w>
ca st
ca -
c ớ</w>
c la
c ca</w>
běh </w>
bě žet</w>
bě lo
bá zi</w>
bá sní
byd lení</w>
bu l</w>
bu jící</w>
bom by</w>
bom bar
boj uje</w>
bo lí</w>
biologi cky</w>
bi l</w>
behavio rální</w>
be ze</w>
be ch</w>
ba to
b ới</w>
b ồ</w>
b ẫy</w>
b ẩn</w>
b alo
ač koli</w>
autono mní</w>
au ten
aten tá
archi tekto
ar che
analý ze</w>
an ce</w>
alterna tivní</w>
ali zova
ak tu
ak e</w>
ab sor
Zá padu</w>
Zi pcar</w>
V ịnh</w>
V ol
U S</w>
Ti me</w>
Tennes see</w>
TED x
Sto ne</w>
She ila</w>
S il
Po su
Pit ts
Phi ladel
Ph ải</w>
Ph ượng</w>
Ph ương</w>
Ph òng</w>
Pau la</w>
O t
O n
O kina
Nh ư</w>
New cast
Ne pal</w>
Na j
N ano</w>
Mum bai</w>
Mon te
Me cha
Mar s</w>
M P
Lu ật</w>
Londý na</w>
L úc</w>
L ine</w>
L ang
Ko ngo</w>
Kalifor nie</w>
Kal uza</w>
K .</w>
Jer uz
Jer ry</w>
J im
J ar
I m
Har ri
Han sen</w>
H P</w>
Guine a</w>
G ran
G len
F e
Ear th</w>
E EG</w>
Durkhe im</w>
Dou g</w>
Di a
De rar
Colu mbia</w>
Clin ton</w>
Ch à</w>
CN N</w>
C el
Budru s</w>
Bi osfé
Benja min</w>
B ol
Ang lii</w>
An dy</w>
Ai me
A p
A n</w>
A lan</w>
9 0.</w>
8 4</w>
7 000</w>
5 9</w>
5 7</w>
5 4</w>
5 3</w>
4 .</w>
2 .000</w>
199 7</w>
1 70</w>
1 ,000</w>
ỹ .</w>
ở m</w>
ố ng.</w>
ị n</w>
ệ p</w>
ệ n.</w>
ả n.</w>
ươ ng.</w>
žád ní</w>
živoči š
ži dle</w>
ť te</w>
šťast ní</w>
šťast né</w>
škol ství</w>
ško lních</w>
šen ý</w>
šed e
še la</w>
š um</w>
š ovat</w>
š kou</w>
Š výcar
Š a
ří ši</w>
ří dila</w>
řek něte</w>
řek nete</w>
đu n</w>
đ ọng</w>
đ è</w>
čist ý</w>
čist ou</w>
čer ta</w>
čer ných</w>
če muž</w>
če ho
ča j</w>
č ům</w>
č u
č tu</w>
č nější</w>
č lenem</w>
účast nit</w>
úto k</w>
úspě chy</w>
úspě chem</w>
úmrt nosti</w>
úko lů</w>
ú vod</w>
ú ni
õ ng</w>
í mi</w>
í ch.</w>
à ng.</w>
získá vat</w>
záha da</w>
zá c
zvu ků</w>
zvláš tního</w>
zvláš tních</w>
ztra tila</w>
zranitel nost</w>
zpravoda js
zpomali t</w>
zobra zení</w>
zni čit</w>
zna čné</w>
zna čka</w>
změ nám</w>
zkou šek</w>
zi mě</w>
zi e</w>
zen ých</w>
zem řou</w>
ze stár
ze ptám</w>
zbý vající</w>
zak on
zabý vá</w>
zabí její</w>
za sed
za příči
za mo
za m
za chování</w>
za chovat</w>
z važ
z prostřed
z ně</w>
z kontro
z konstru
z dě
y ho</w>
x ỉ</w>
x ẻ</w>
x ô</w>
wit z</w>
věde cky</w>
vě r
vě jších</w>
výro by</w>
vý še</w>
vý vojá
vý cvi
ví tě
ví t</w>
vá hu</w>
vz kvé
vyža dují</w>
vyšetř ování</w>
vyš li</w>
vyu žili</w>
vysvět lím</w>
vy myslel</w>
vy jde</w>
vy hrá
vy brá
vy bra
vti p</w>
vozí ku</w>
vol á</w>
vojá ky</w>
vní ků</w>
vnitř ních</w>
vlá d</w>
vlaj ku</w>
vi čky</w>
vi zi
vi rem</w>
vi nu</w>
vešker ý</w>
vez mu</w>
ver b
vaše mu</w>
v ờ</w>
v ội</w>
v ắt</w>
v ích</w>
v stup
v ovala</w>
v ova
v nu
uží vají</w>
uži tek</w>
učitel ka</w>
uči nili</w>
uči nil</w>
utvá ře
ur o</w>
ur ley</w>
uprch líků</w>
uměl ců</w>
uměl ce</w>
umě ním</w>
umě le</w>
umí rají</w>
ukáz ku</w>
udá lo
udrž ují</w>
u žít</w>
u věřit</w>
u věz
u tvo
u to
u přednost
u plynu
u jícího</w>
tří da</w>
tře sk</w>
tě l</w>
té mu</w>
tvo ry</w>
tu ne
tri k</w>
tre st</w>
transparen tnost</w>
tra gi
tr ễ</w>
tr ương</w>
tr žní</w>
tr ói</w>
tr iều</w>
tov alo</w>
tou ha</w>
to čí</w>
to ra</w>
tl aku</w>
tisk ár
th ỏ</w>
terori smu</w>
techni cké</w>
te en
teen ag
tan ce</w>
takov í</w>
tabu lky</w>
t ựa</w>
t ụt</w>
t ịch</w>
t ské</w>
t ované</w>
symbo ly</w>
symbo l</w>
stě ž
stě ny</w>
stá tem</w>
stro m</w>
stra nách</w>
sti cky</w>
ste k</w>
statisti ku</w>
staro vě
staro sti</w>
srd cem</w>
spon tá
spolu pracují</w>
spolu byd
společen ských</w>
společen ského</w>
spo třeba</w>
spek tr
sp í</w>
sp al
soukro mí</w>
sou stava</w>
sou du</w>
soci álním</w>
sob e
so ạn</w>
sně hu</w>
sní žení</w>
slu chu</w>
složi tých</w>
složi tý</w>
slov em</w>
slo stí</w>
skvě lých</w>
skuteč ného</w>
sklad bu</w>
sil nic</w>
si ca</w>
setk al</w>
sek ven
se šli</w>
saur ů</w>
samoz řejmé</w>
sami čky</w>
sa m
sa du</w>
s ừng</w>
s son</w>
s ran
s nu</w>
s me</w>
s hlu
s chodi
s cen
rů stá</w>
rozví jet</w>
roze znat</w>
roz umíte</w>
roz um</w>
roz množ
roz liš
rostli n
roman tické</w>
ro čníku</w>
ri n</w>
restau raci</w>
respek t</w>
reag ují</w>
ra jící</w>
ra dosti</w>
ra da</w>
ra d</w>
r ồng</w>
r ệt</w>
r ải</w>
r é
r ã</w>
qu e
působ it</w>
přístup né</w>
příro dou</w>
přizpůsob i
přines lo</w>
při hodilo</w>
přená ší</w>
přemýšle jí</w>
předsta vil</w>
pře stane</w>
pře sa
pře klad</w>
pře hna
př eru
pěst ovat</w>
pěk ný</w>
pě sti
pí sek</w>
psycho pa
psa né</w>
průzku mu</w>
prů lo
prázd ný</w>
prozkou má
prote iny</w>
prohlí že
profi l</w>
produk tivní</w>
pro mluvit</w>
pro káz
pro ká
prezen taci</w>
pravi dly</w>
pravděpodob né</w>
pracov ního</w>
pracov ních</w>
pra xi</w>
pra se
pořá dek</w>
počítač ových</w>
pozem ků</w>
poz nali</w>
poz nala</w>
pov stání</w>
potá pě
posí lat</w>
posí lají</w>
pos bí
poru chou</w>
popula ční</w>
popula cí</w>
poli ce
pokrač ovala</w>
pohá ně
pohod lí</w>
podí vá
podsta tně</w>
podob u</w>
podob ným</w>
podni k
podla ze</w>
podi vné</w>
pode zře
pochopi la</w>
po pis</w>
po mů
po chyby</w>
plá nu
plat formy</w>
plane tá
plak áty</w>
pi l</w>
pho ne</w>
ph ôi</w>
ph áo</w>
ph àn</w>
ph anh</w>
perspek tivy</w>
peně zi</w>
p ít</w>
p tá</w>
p min
ounda tion</w>
ound ed</w>
otevřen ou</w>
otevře te</w>
osvoj ení</w>
osob ou</w>
os phere</w>
organi zační</w>
orangu ta
opak ovat</w>
okra j</w>
ohro ž
oh y
oh ni
odpo věděli</w>
od větví</w>
ochot ni</w>
obě tovat</w>
obě hu</w>
občan ů</w>
občan ská</w>
obsa hem</w>
obklo pen
objev uje</w>
obdi vu
ob slu
ob ot
ob jas
o šet
o ře
o pravit</w>
o nen</w>
o kie</w>
několi krát</w>
ní cích</w>
návra t</w>
ná ší</w>
ná lep
ná hled</w>
nu ốt</w>
nu s</w>
nov i
no ž
ni g
nh ồi</w>
nh ạo</w>
nh ược</w>
ng ọc</w>
ng à
neuvěři telná</w>
ner vy</w>
neobvyk lé</w>
nej rychleji</w>
nech ám</w>
ne šlo</w>
ne zapomen
ne při
ne mě
ne musel</w>
ne funguje</w>
ne e</w>
nd h
narozen iny</w>
nalez li</w>
nak res
nabí d
na vi
na stal</w>
na ruš
na razila</w>
na cí</w>
n ộp</w>
n ý
n ón</w>
n ko</w>
n kami</w>
měsí čně</w>
míst ními</w>
mé p</w>
mé o</w>
má nh</w>
my ší</w>
musli mové</w>
muse ly</w>
mu ôn</w>
mr aky</w>
motiva ce</w>
moder ních</w>
mod li
mo sky
mo ná
množ stvím</w>
mlu ven
mimo zem
milu jeme</w>
milió nu</w>
mi c
marato n</w>
mal í</w>
ma tických</w>
ma ri
ma nd
m ớ</w>
léka ře</w>
lé čení</w>
lé tě</w>
lé mu</w>
lu ji</w>
lov u</w>
lov i</w>
lov ala</w>
log o</w>
log a</w>
lo ň
lo kální</w>
lo dí</w>
lo a</w>
lidsko st</w>
li sty</w>
let t</w>
lep šími</w>
legra ční</w>
led na</w>
le c</w>
laborato ř</w>
la ser
la dus</w>
l ụt</w>
l ó
kří dlo</w>
kři žova
kyber- zločin
kvě tu</w>
kvan tové</w>
ku ře
krá vy</w>
kri té
kresl ení</w>
kreativi ty</w>
kov ými</w>
kou li</w>
korup ci</w>
konzu l
kon fi
komik sy</w>
kom edi
ko t</w>
knihov ny</w>
klíč ová</w>
klí č</w>
klima tických</w>
ki lo</w>
kh en</w>
každič ký</w>
karié ry</w>
kan di
kal kula
kal ho
ka ra
ka mera</w>
k tua
k no
k .</w>
jí zd
její ž</w>
jednotliv ce</w>
jednodu cho
jed nali</w>
jaké si</w>
jak ými</w>
j ci</w>
intelek tuální</w>
in s</w>
in ové</w>
in fikova
in ci</w>
ilu zi</w>
ilu ze</w>
iPa d</w>
i s
i ro
há me</w>
hu tan</w>
hrá ch</w>
hru b
hrani cemi</w>
hr diny</w>
hous le</w>
hormo ny</w>
hodi li</w>
hodi l</w>
ho sti
ho i</w>
hled y</w>
hled ala</w>
hla va</w>
hi ếu</w>
hez ké</w>
her e
he l
h ổng</w>
h ří
h ăng</w>
h ování</w>
h le
h ali</w>
h ala</w>
gh et
gh en</w>
geno mu</w>
gene ra
gen e</w>
fyzi k</w>
flu ktua
fir mě</w>
fil ma
far ma
f lét
f en
f -2</w>
experimen tovat</w>
exper ti</w>
ex tra
entro pie</w>
emi se</w>
ele c
elec tron</w>
ekonomi ckých</w>
důleži tost</w>
dů cho
dějin ách</w>
ději n</w>
dé lky</w>
dáv ku</w>
dár ců</w>
dá vání</w>
dys se
duchov ní</w>
du cha</w>
drá ha</w>
dro ny</w>
dr ži
doz vědět</w>
doz věděli</w>
dow s</w>
doved ností</w>
doved nost</w>
doved ete</w>
dopa min</w>
dol lar</w>
dodáv ky</w>
dobr ými</w>
do razí</w>
do leva</w>
dne y</w>
distribu ce</w>
dino saurů</w>
di ri
di na</w>
di alo
detekto r</w>
der son</w>
demokra ti
deba ty</w>
de jme</w>
da f</w>
da f-2</w>
d é</w>
cả .</w>
cí li</w>
cyklu s</w>
cvi čit</w>
col n</w>
chyb ně</w>
chu dobu</w>
choro b</w>
chod níku</w>
chlap ců</w>
chemi i</w>
chemi e</w>
charak ter</w>
ch ặng</w>
ch á</w>
ch k</w>
cen ter</w>
celo světové</w>
cel lo</w>
cel kové</w>
c ằn</w>
bý valo</w>
bý vají</w>
budov ě</w>
bra tři</w>
boj ov
bo ur
blí ží</w>
bezpe čně</w>
ba ná
b ự</w>
b ế</w>
b én</w>
auto r</w>
at s</w>
ar en</w>
ar ch</w>
an ka</w>
al and</w>
a tr
a tom
a e
Z é
Ya hoo</w>
Y el
W ounded</w>
Vietna mu</w>
Vi vian</w>
Vene zu
Vel ký</w>
Vancou ver</w>
V ý
Ti m</w>
Th ông</w>
Th eo</w>
Tay lo
Ta hri
Stá tech</w>
Ste fan</w>
Scot t</w>
S har
S ag
Rus sell</w>
Ra ch
R ồi</w>
R ed
R O
Qu ỹ</w>
Qu ần</w>
Pá ni</w>
Prince ton</w>
Por t
Po int</w>
Ph át</w>
Pe psi</w>
P ří
P op
P at
O dysse
O ak
O L
O K.</w>
Ng o
New ton</w>
Naj mud
N a</w>
Mari o</w>
Mar garet</w>
M ộc</w>
M os
M CA</w>
Lin coln</w>
La w
L àm</w>
Ke ith</w>
Ka ro
K on
K nee</w>
Ju stin</w>
Jor dan</w>
Jenni fer</w>
Je ff</w>
Je an
Japon sku</w>
Izra el</w>
Ix aren</w>
Isa bel</w>
Irá k</w>
Indoné sii</w>
I tá
Hy dera
Ho no
Ha y
Gi ới</w>
Ga pmin
F oundation</w>
F er
F N</w>
Edin burgh</w>
D ě
D a</w>
Cu ộc</w>
Co lo
Co ca-
Chri si</w>
Ch ủ</w>
Ch il
Ch al
Caro lyn</w>
Came ron</w>
Ca iro</w>
C y
C ro
Bron xu</w>
Blíz kém</w>
Bi osphere</w>
Ban du
B hutan</w>
Ameri čany</w>
Al ber
Al -
Aime e</w>
A rá
A G</w>
9 3</w>
8 0.</w>
7 8</w>
6 7</w>
6 000</w>
5 1</w>
4 50</w>
199 5</w>
198 2</w>
19 75</w>
19 65</w>
10 0.000</w>
10 .</w>
1 10</w>
ứ .</w>
ộ .</w>
ọ ng.</w>
ề nh</w>
ậ n.</w>
ạ c.</w>
ươ c</w>
žád á</w>
žralo ky</w>
živoči chové</w>
žen ách</w>
žal u
ťá k</w>
šť á
špa něl
šen ých</w>
šen o</w>
š ní</w>
š la
řá s
řá d</w>
řetěz ce</w>
řen ě
ře tě
ř ům</w>
ř ská</w>
ř ky</w>
Ř í
ň uji</w>
đ ứt</w>
đ ục</w>
đ ắm</w>
đ ắc</w>
čí sl
čist é</w>
či stí
či ni
červen ce</w>
červ na</w>
če kala</w>
ča t</w>
č níků</w>
úžas ným</w>
účast níky</w>
úspěš né</w>
úrov ní</w>
ú su
ú pl
õ m</w>
é ra</w>
á tů</w>
zů sta
zří dka</w>
získá vání</w>
získ ají</w>
závě re
záleži tost</w>
záchran né</w>
zá ři
zá zrak</w>
zá va
zá měr</w>
zvyk lí</w>
zveřej nil</w>
zved l</w>
zu b
ztra tí</w>
zrodi l</w>
způsob ené</w>
zpravoda jské</w>
zodpověd ný</w>
zobraz ování</w>
zná sob
zneči ště
zneu ží
zlo men
zlepš ovat</w>
zkusí me</w>
zkou má
zkou mal</w>
zji stí</w>
zi l
zem ím</w>
ze c</w>
zač něte</w>
zač </w>
zasáh lo</w>
zapomně l</w>
zaká z
zako řeně
zak lada
zajíma vých</w>
zahr nu
zabý vají</w>
zabí jí</w>
zabi já
za řídit</w>
za nik
za mbi
za há
za hrát</w>
z we
z totož
z mrz
z ka</w>
z dy</w>
z dokumen
z daleka</w>
ya ma</w>
y ota</w>
y nami
xo a</w>
x ů</w>
x á</w>
x tin</w>
web ových</w>
wa ii</w>
w hi
vše obecně</w>
vše obec
vě kem</w>
výrob ky</w>
výho d</w>
výbě ru</w>
vý zvy</w>
vítěz ství</w>
ví š</w>
váž ná</w>
vzpo me
vz rušení</w>
vyža dov
vyře šili</w>
vytvoři lo</w>
vyso kých</w>
vyso ká</w>
vyrov na
vypravě č</w>
vymý cení</w>
vyjadř ování</w>
vydělá vat</w>
vybí rat</w>
vy zkoušel</w>
vy slov
vy nale
vy ma
vy klá
vy jít</w>
vy j
vy hrát</w>
vy hráli</w>
vr stva</w>
vo lat</w>
vlák na</w>
việ t</w>
vidí š</w>
vi bra
veš ke
veške rou</w>
veřej nost</w>
venkov ě</w>
veli ký</w>
vel ryby</w>
ved lejší</w>
ved ena</w>
ved eme</w>
ve čí
ve j</w>
vakcí na</w>
v ỉa</w>
v ặn</w>
v ẩn</w>
v ạn</w>
v zadu</w>
v klá
v je
v ak</w>
uživa teli</w>
učeb nice</w>
uzná ní</w>
uvědo mě
uspo řád
uni k
udrž ovat</w>
u ví
u veřej
u pev
u e</w>
tře tiny</w>
tře k</w>
tě šit</w>
tě lu</w>
téma tem</w>
téma ta</w>
typi cky</w>
tvr dil</w>
tvo řil</w>
tvo rů</w>
tva rem</w>
tu k</w>
tréni nku</w>
trá vil</w>
trpě l</w>
tr ừng</w>
tr êu</w>
tov aly</w>
tou hy</w>
tou hu</w>
to sho
to rům</w>
to p</w>
to ken</w>
tlačí tko</w>
tisí ci
tisk á
ti ve</w>
ti ng</w>
ti fi
ti e</w>
ti cha</w>
th ơm</w>
th en</w>
teč ka</w>
testostero ne</w>
terna tional</w>
terape u
ter mo
tele s</w>
technologi cké</w>
techni ku</w>
ta ski
ta ru</w>
ta nu</w>
t ởm</w>
t ặc</w>
t ší</w>
t vé</w>
t ti</w>
symbo lem</w>
světlu šky</w>
svět ů</w>
svět ového</w>
svět le</w>
su ýt</w>
studi um</w>
strate gi
stou pen
sto krát</w>
sti sk
sti ci
statisti ka</w>
statisti cky</w>
star ými</w>
standar dní</w>
st ě</w>
st ných</w>
st ka</w>
správ ném</w>
spraved lnosti</w>
spokojen ý</w>
spoji la</w>
spat řit</w>
soused ství</w>
sou těž
so tva</w>
so na</w>
so i</w>
sní h</w>
sna hy</w>
smě rech</w>
smysl ové</w>
smlou vu</w>
slov níku</w>
slou žit</w>
sli b</w>
skup inách</w>
skro m
sko -
sklení kových</w>
sk lada
sk ak
si vně</w>
si tion</w>
shr nutí</w>
sh mal
sexu álně</w>
seni orů</w>
sekun du</w>
sed la</w>
sed l</w>
se arch</w>
sdě lit</w>
sch é
sch ová
samot ných</w>
samosta tně</w>
sa v
s ờ</w>
s ův</w>
s ùng</w>
s wor
s vaz
s pre
s prav
s ou</w>
s měr
s mlu
s dělení</w>
s chrá
s bor</w>
s al
rá ním</w>
ry hod
ru jeme</w>
rozmani tosti</w>
rozli šit</w>
rozhod ující</w>
roz vi
roz pětí</w>
roz lou
roz kladu</w>
rovnová hy</w>
rov né</w>
roman tická</w>
ro ck</w>
risk an
rezi sten
rent gen
rekla ma</w>
re le
re cy
razi lo</w>
ra cionální</w>
r ộn</w>
r ổ</w>
r ảnh</w>
r à</w>
r ný</w>
qu ận</w>
qu ăng</w>
pů vodu</w>
pů dě</w>
pří ště</w>
pří zni
pří padu</w>
přátel ům</w>
přá ním</w>
přij ali</w>
při vedlo</w>
při pev
při mělo</w>
při jetí</w>
při dě
při dáte</w>
přestěh oval</w>
přes ností</w>
překla da
přehrá va
předsta víte</w>
předpo ja
předmě stí</w>
před cházet</w>
před at</w>
pře vlá
pře tvořit</w>
pře stala</w>
pře sta
pře nes
pěk né</w>
pó lu</w>
pí ch
pá tra
pyrami dy</w>
ptá me</w>
průmysl ové</w>
prozkou mat</w>
proto typ</w>
prost orem</w>
propa gan
proje vy</w>
proje ktech</w>
progra movat</w>
progra mem</w>
profe so
proce sem</w>
pro zra
pro chá
preziden ta</w>
pre mi
pre feren
prav ě</w>
pracov ním</w>
pra h</w>
pr ô
počí tá</w>
počí na
pozoro váním</w>
povr ch
povin nost</w>
použi jete</w>
pou ště</w>
pou to</w>
potřeb ám</w>
potká te</w>
posu nu</w>
postup em</w>
poslou chejte</w>
politi ckou</w>
poku sil</w>
pokrač ujeme</w>
pohod ě</w>
podpo rují</w>
pod lé
po zdě</w>
po vala</w>
po rod
po pá
po myslete</w>
po hro
po hlavní</w>
po c
ply n</w>
plo d</w>
plo chy</w>
pla sti
pla ce
ph ớt</w>
ph ích</w>
personá l</w>
per o</w>
part ner
paradig ma</w>
pa že</w>
pa na</w>
p tají</w>
p ed
p ali</w>
očeká váme</w>
oč kování</w>
ova telé</w>
ov ky</w>
ov ce</w>
ou t
otest ovat</w>
ot cem</w>
ostrov ů</w>
osob ě</w>
orgas mus</w>
opě tov
opatr ní</w>
omá čku</w>
omy l</w>
ome n</w>
ole j</w>
oko lní</w>
okamži ky</w>
ok ay</w>
odmě ny</w>
odmě na</w>
odbor níky</w>
od s</w>
ochra ně</w>
obě žné</w>
obě tují</w>
občan skou</w>
obyčej ný</w>
obyčej né</w>
obra ny</w>
obo jí</w>
obnovi telné</w>
obnov ení</w>
oblé k
objek tů</w>
objek tu</w>
obje mu</w>
obdob ím</w>
ob il
o p</w>
o né</w>
o m
o di
níz ký</w>
návr hy</w>
násled uje</w>
násled ov
národ ů</w>
náro d</w>
náhod ných</w>
nu tkání</w>
nu lo</w>
nov o
no p
nic a</w>
ni čím</w>
ni komu</w>
ni jak</w>
ni da
nh ấc</w>
nh óc</w>
ngh ênh</w>
ngh iệm.</w>
ng ộ</w>
ng âm</w>
ng em</w>
nezávi sle</w>
nevido mé</w>
nevidi telné</w>
nes mr
nekoneč na</w>
nejsil nější</w>
nejlep šího</w>
nejchud ší</w>
nejbli ž
nej nižší</w>
nej </w>
nedo t
nech á</w>
ne známé</w>
ne znamená</w>
ne věděl</w>
ne viděli</w>
ne stabilní</w>
ne spo
ne so
ne mělo</w>
ne daleko</w>
navrh ování</w>
navrh ovat</w>
navr hu
napl no</w>
nalez neme</w>
nakr mit</w>
naka ž
naj děte</w>
na č</w>
na zpět</w>
na sá
na ra
na před</w>
na proti</w>
na dání</w>
může š</w>
měst em</w>
mě jte</w>
médi um</w>
muze um</w>
mu tace</w>
mrt vých</w>
mrt vý</w>
moz ková</w>
morá lku</w>
momen ty</w>
moleku l</w>
mod rou</w>
mo du
mlá dí</w>
milu jete</w>
mikro by</w>
me en</w>
materiá lem</w>
matemati ce</w>
mar t</w>
mar shmal
manipu lovat</w>
magne tickou</w>
ma u</w>
ma min
ma d</w>
ma ci</w>
m ộc</w>
m ỉ</w>
m ày</w>
m ních</w>
m ala</w>
líbi lo</w>
lí ně</w>
lé tání</w>
lá ng</w>
lá ky</w>
lu xu
lu jete</w>
lov a</w>
lov </w>
lo à</w>
listo padu</w>
li nii</w>
li moná
leta del</w>
le vá</w>
le e
laborato řích</w>
laborato ří</w>
la te</w>
la ser</w>
l ứa</w>
l ích</w>
l ované</w>
kyber ne
květ nu</w>
ku rá
ku pují</w>
krátk ém</w>
krát ká</w>
kru hy</w>
krimin ali
kres lit</w>
kos mo
korpo race</w>
kontak t</w>
konflik ty</w>
konfi gu
koncentra ce</w>
komuni tách</w>
komplex ních</w>
kom po
koleg a</w>
ko leč
ko labo
ko l</w>
ko ka
knih tisk</w>
klobou k</w>
klo n
kli ma</w>
kli en
kles á</w>
kle sat</w>
kh ép</w>
ke v</w>
kapaci ta</w>
kalori í</w>
ka r</w>
k ř
k ému</w>
jí del
již ním</w>
jisto tu</w>
jist á</w>
ji nam</w>
jedn ak</w>
jedi ně</w>
jed l</w>
je š</w>
je ne
jaz z
jakého koliv</w>
jak ých</w>
jak koli</w>
iệ t.</w>
iể n.</w>
izo lace</w>
inžený ry</w>
interne tové</w>
institu tu</w>
inst ala
inspi rovat</w>
inspi rovalo</w>
infikova ných</w>
in kubá
ilu str
i r
há ček</w>
hrá čů</w>
hroma du</w>
hra ním</w>
hra jící</w>
hra jeme</w>
hořči ce</w>
hodno tou</w>
ho tov
ho le</w>
hno ji
hlas ování</w>
histori í</w>
hi e
hie rar
hemisfé ry</w>
he v</w>
he li
h ức</w>
h ře
h růz
h as
h aly</w>
gi an.</w>
ga ta</w>
g ớm</w>
g ắt</w>
g ma
fyzi kální</w>
foto a
fot bal</w>
fot bal
fosil ních</w>
formá ch</w>
formu lá
for movat</w>
for </w>
fe jme</w>
fanta stický</w>
f fer
f ede
exist ovaly</w>
eth ov
en zy
en cyklo
encyklo pedi
elektrá rny</w>
důkaz ů</w>
důkaz em</w>
dě di
dý chat</w>
dí l
dé lce</w>
duše vních</w>
drž te</w>
dov ý</w>
douf at</w>
dou fejme</w>
dosáh nete</w>
dosa hují</w>
dopi sů</w>
dopamin u</w>
dopad lo</w>
dokon čit</w>
do t
do slovně</w>
do drž
dneš ním</w>
dneš ních</w>
di v
di skri
di i</w>
desá tých</w>
de š
de sky</w>
de s</w>
dan ém</w>
da v</w>
da jících</w>
da h</w>
d ování</w>
d ang</w>
cítě ní</w>
cí lů</w>
cy kli
cy c
cti on</w>
cti cu
co late</w>
ci zi
chy tit</w>
chu ť</w>
chu tná</w>
chu době</w>
chro ni
chole stero
chlá pka</w>
chle ba</w>
chirurg ové</w>
chari tu</w>
cha os</w>
ch ày</w>
ch ováním</w>
ch lé
ch ay</w>
cel kový</w>
ce li</w>
c ăm</w>
c òi</w>
c vo
c u</w>
běže la</w>
běž ná</w>
bí lá</w>
bá ní</w>
byzny su</w>
by to
buň kám</w>
bur gh
bude š</w>
bro koli
bram bory</w>
bra tran
br o</w>
bor ů</w>
bom ba</w>
boha tých</w>
blá z
blaho byt</w>
bi li</w>
ben zí
bar vami</w>
ban ka</w>
ba víme</w>
ba m
b ời</w>
b ịch</w>
b ênh</w>
b ê</w>
b ak
auto r
asi sten
armá du</w>
ani mace</w>
analý zy</w>
ambi ci
am s</w>
ak tivně</w>
ak ro
ak o
ak em</w>
afri ckých</w>
admini stra
ada p
ab ri
a st</w>
Ze aland</w>
Y ale</w>
X anh</w>
V âng.</w>
Ture cko</w>
Tu nes</w>
Ti V
The odo
Tha js
Tanza nia</w>
Tahri r</w>
T hành</w>
T D</w>
Sy dney</w>
Smi th
Sky pe</w>
Siou x</w>
Si nh</w>
Si licon</w>
Sci ence</w>
S ố</w>
S tra
S ově
Rwan dě</w>
Ri ves</w>
R ất</w>
R ot
Pri ze</w>
Pho tosho
Ph ần</w>
Pale xtin</w>
Pale sti
P an
P I</w>
Ohi o</w>
O prah</w>
Ni kola</w>
Nh ân</w>
New s</w>
Ne pá
Na th
N ên</w>
Monte rey</w>
Minister stvo</w>
Mil ler</w>
Mande la</w>
Ma y
M or
Lu ther</w>
Lang ley</w>
La tin</w>
L ớn</w>
L ou
L or
L en
Kur zwe
Kle in</w>
Kin sey</w>
Kel ly</w>
Kana dě</w>
K ni
Juli a</w>
Ju pi
Jim my</w>
Ji m</w>
Jen ny</w>
Jac ob
J es
Inter val</w>
In ternational</w>
I stan
Hun ter</w>
Holly wood</w>
Higgsov o</w>
Hi mala
He a
Ha waii</w>
Gi a</w>
Gal lu
G od</w>
Franci s</w>
Fi sh
Ev an</w>
Ence ladus</w>
E ti
E thi
E bert</w>
Di s
Derar tu</w>
Den nis</w>
De an</w>
D án
D oha</w>
D A
Co m
Chri stian</w>
Ch an
Cel sia</w>
C oun
C T</w>
C I
Brow ne</w>
Bren da</w>
Bi bli</w>
Be ethov
B et
Austrá lie</w>
Atlan ta</w>
Aristo teles</w>
Ar gen
An na</w>
Ameri cké</w>
Ale x</w>
Al len
Al f
Ah med</w>
A g
A da
A L</w>
7 .</w>
6 50</w>
5 -
4 1</w>
4 ,5</w>
3 ,000</w>
2. 0</w>
198 7</w>
194 9</w>
1, 4</w>
ộ i.</w>
ố c.</w>
ị a</w>
ệ t.</w>
ẽ n</w>
ậ p.</w>
ạ .</w>
ư c</w>
ơ i.</w>
žá ky</w>
žlu té</w>
živo tních</w>
ži vě</w>
ži v
žen e</w>
že te</w>
že mi</w>
ž ích</w>
ž te</w>
ť me</w>
špat ných</w>
špat ného</w>
šká lu</w>
ša ty</w>
š výcar
š ují</w>
š kar
Ša ngh
Š pa
řen ou</w>
řek lo</w>
ř u</w>
Ř ek
Ř e
ň ovali</w>
ň ovala</w>
đồ n</w>
đ ạm</w>
đ ươc</w>
đ ãi</w>
đ iểu</w>
đ an</w>
Đ ô</w>
čtvr té</w>
čtená ři</w>
čin ností</w>
če ž</w>
če kal</w>
če hož</w>
čas ové</w>
č uji</w>
č tou</w>
č ov
č len</w>
účast níci</w>
úča st</w>
úč ty</w>
úz kost</w>
úspěš nější</w>
úse ky</w>
ú c.</w>
ê u.</w>
é ze</w>
é li
é .</w>
ál ové</w>
á c
zů staly</w>
zástup ce</w>
zákaz níky</w>
zába vu</w>
záb lesk</w>
zá pad</w>
zá měrem</w>
zá chod</w>
zvý ší</w>
zvíře te</w>
zvyš ují</w>
zvo lit</w>
zvlá dnou</w>
zvlá dneme</w>
zven čí</w>
zva ná</w>
zv rá
ztrá tu</w>
zrych luje</w>
zrca dlo</w>
způsob ilo</w>
zpě vá
zpě tně</w>
zo hled
zná mého</w>
zneči šť
zna mení</w>
zmize ly</w>
zmize li</w>
zlo či
zkou šku</w>
zkou má</w>
zi sten
zem ní</w>
zelen ě</w>
zelen ého</w>
zdro j
zdravot ních</w>
zba vili</w>
zauj alo</w>
zas lech
zapomen out</w>
zane dlouho</w>
založen o</w>
zakři vení</w>
zabý vali</w>
zabrá nit</w>
zabi to</w>
za tk
za slou
za pama
za padá</w>
za mysleli</w>
za hal
za cházení</w>
z mann</w>
z lepší</w>
z do
y or
w er</w>
vů le</w>
všim nete</w>
vš tí
věz ňů</w>
vědomo sti</w>
věde cká</w>
vě dou</w>
výži vu</w>
výbě rem</w>
vý š</w>
vý poče
výpoče tní</w>
vý hra
víken d</w>
váš ní</w>
váleč né</w>
vál kou</w>
vá žit</w>
vá za
vá ha</w>
vzor ků</w>
vzor ku</w>
vzdělá ním</w>
vyš le</w>
vyvo lat</w>
vyu čování</w>
vytvořen á</w>
vytvo řen</w>
vysky tuje</w>
vyrů stala</w>
vyrá bíme</w>
vyrov nat</w>
vyprá víme</w>
vyp nout</w>
vynález ce</w>
vyho dit</w>
vyhledá va
vydělá vají</w>
vy řa
vy zkou
vy v
vy tě
vy lu
vy le
vy jí
vy hý
vy hnu
vti pné</w>
vteř inu</w>
vrá títe</w>
vrá tilo</w>
vrst vu</w>
vra ťme</w>
vra cet</w>
vole bní</w>
vol bách</w>
vo li
vo do
vní máme</w>
vní mají</w>
vl n</w>
vidě ly</w>
vi ếng</w>
ver ti
ver s</w>
ven a</w>
velk ému</w>
ve se
v ắng</w>
v õng</w>
v ovali</w>
v oval</w>
v něj
uží vání</w>
uživa telé</w>
užiteč ný</w>
uči ní</w>
uy ển</w>
uy ến</w>
utra tili</w>
urych lova
upří mný</w>
umí rá</w>
umož nily</w>
uká ži</w>
ukaz oval</w>
udrži telnost</w>
uchopi t</w>
u viděla</w>
u topi
u rá
u mrt
u chová
u cho</w>
u brou
tý ž</w>
té mat</w>
tu ộc</w>
tu r</w>
trv ale</w>
tru bí</w>
tri c</w>
transfor mace</w>
tr ước.</w>
tr èo</w>
tr pět</w>
tová rně</w>
tov án</w>
tla čit</w>
titu lní</w>
tick ému</w>
tho ny</w>
thi êu</w>
th ừng</w>
th ủng</w>
th ốn</w>
th ể.</w>
th ề</w>
th ắn</w>
th ầm</w>
ten týž</w>
telefon ní</w>
technologi ích</w>
techni ka</w>
techni k</w>
te mné</w>
te in</w>
tasmá nského</w>
tan covat</w>
takový chto</w>
taj né</w>
ta min
t ụng</w>
t ẻ</w>
t ưới</w>
t ôm</w>
t te</w>
t son</w>
t kách</w>
t aly</w>
sý r</w>
sí ť
systé mech</w>
syndro m</w>
syn chroni
symbo li
sym fo
sy novi</w>
světlu šek</w>
sví tí</w>
svobo da</w>
svi tu</w>
super masivní</w>
su šen
su l
střed ním</w>
stře t</w>
stí nu</w>
stí n</w>
stá vám</w>
stá li</w>
stá di
stupu jeme</w>
studi ích</w>
stu du</w>
strá ví</w>
stra va</w>
stra ce</w>
str y</w>
stav by</w>
statisti k</w>
staro by
stale tí</w>
sta tus</w>
sta rost
sta jí</w>
st ence</w>
st al
srp na</w>
spu stili</w>
správ ných</w>
spolubyd lící</w>
společ nou</w>
spojen ím</w>
spe ra</w>
spad ne</w>
sp ly
sp leti
součas ných</w>
soused y</w>
souhla sil</w>
sou ladu</w>
sou drž
sou dní</w>
so nu</w>
sna žíte</w>
smysl y</w>
smu tný</w>
smr tí</w>
smar t
sm ích</w>
slu cha
slou čen
sli b
sl ám</w>
skvě lým</w>
skupi nami</w>
skrý vá</w>
sko p</w>
sk ří
sk ó
sk ování</w>
sil nými</w>
sil ným</w>
si lo</w>
shromáž dění</w>
sen z
sen d
send vi
sed ící</w>
se v
se ker
samot ného</w>
sa mých</w>
s ům</w>
s ô-</w>
s vádě
s uyễn</w>
s si
rá ny</w>
ry b</w>
rozu mi
rozhov oru</w>
rozhod uje</w>
rozdí lů</w>
roz prost
roz pa
roz bí
rova ný</w>
rov ého</w>
rou b
rost ly</w>
rod ynami
ro vací</w>
risk ovat</w>
rele van
recy kla
reali zovat</w>
re zer
re publi
re l</w>
ran de</w>
radi kálně</w>
r ọi</w>
r ệp</w>
r ặng</w>
r ậm</w>
r òng</w>
r k</w>
qu ẩn</w>
qu ạt</w>
půvo dních</w>
působ ení</w>
pů da</w>
pří tel
pří s
pří měří</w>
připra ven</w>
připo jili</w>
při lá
přesu nu</w>
přes něji</w>
překva pí</w>
předsu dky</w>
představ oval</w>
předpo kladu</w>
předpo kla
předmě tů</w>
přede š
přede fin
před ní</w>
pře jí
pře hodnotit</w>
pě stujeme</w>
píse ň</w>
pís ně</w>
pí ší</w>
pá rty</w>
pu šku</w>
pu stil</w>
průměr nou</w>
průběh </w>
prô tein</w>
prá šek</w>
pru dce</w>
proto n</w>
prote in
prospě š
program ování</w>
prodá val</w>
produktivi ta</w>
produk tu</w>
pro stitu
pro s
pro ro
pro boha</w>
primi tivní</w>
pre venci</w>
pravide lně</w>
pravděpodob něji</w>
pracov níků</w>
pracov níky</w>
pra čku</w>
pra xe</w>
pra sa
pra -
pp er</w>
poža dov
počína je</w>
poč ty</w>
pozoruhod ný</w>
pozor ujeme</w>
pozor ně</w>
poz val</w>
povr chem</w>
považ ovat</w>
použi ta</w>
pouh ými</w>
pou ť</w>
pou nd</w>
potí že</w>
potravi nové</w>
potenci álně</w>
pota z</w>
posto je</w>
poste l</w>
postav ena</w>
posta va</w>
poslouch ali</w>
posed lí</w>
poru chy</w>
porov nat</w>
pora nění</w>
pomal e
poli tická</w>
pohyb oval</w>
pohy bli
poho tov
poh lé
poezi i</w>
podsta tné</w>
podob nou</w>
podně ty</w>
podnika tel
po tu
po trubí</w>
po psá
po pe
po moz
pomoz te</w>
po me
po lé
po lární</w>
po cházím</w>
plýtvá ní</w>
plán ované</w>
ply ne</w>
pla val</w>
pla st</w>
pheromo ne</w>
ph ình</w>
ph alo
pen i
pe stici
papí rový</w>
pamatu jí</w>
palu bu</w>
pal ce</w>
pa st
ova ném</w>
ova cím</w>
otevře la</w>
otevře l</w>
oteví rá</w>
otev ření</w>
ose vel
ori o</w>
opu stit</w>
optimi sti
optimi smus</w>
opti mální</w>
opti mali
omezen ý</w>
ome zi
oh ý
odsou zen</w>
odbor níci</w>
od jel</w>
obtíž nější</w>
obrov ským</w>
obrazov ku</w>
objev ů</w>
obje vy</w>
obdivu hod
ob čany</w>
ob ag
o ční</w>
o tické</w>
nů ž</w>
nějak ých</w>
ně t</w>
náz or
násled kem</w>
náhra du</w>
ná kre
ná hodné</w>
nu tý</w>
nu to</w>
nu lovou</w>
nov ému</w>
no sil</w>
nig eri
ni či
ni cemi</w>
nh ốt</w>
nh ọn</w>
nh ấp</w>
nh ã</w>
nh ào</w>
ngh ẽn</w>
ng ạo</w>
ng ào</w>
ng s</w>
ng -
nezávi slost</w>
nese me</w>
nes li</w>
nerv ózní</w>
nerv ový</w>
nejúžas nější</w>
nejrůz nějších</w>
nejhor ších</w>
nejdůležitě jších</w>
nejbli žší</w>
nej krás
nedě li</w>
nedáv ná</w>
nechá me</w>
nebezpeč ný</w>
ne víte</w>
ne vládní</w>
ne stačí</w>
ne l</w>
ne konečné</w>
ne je
ne dokáže</w>
ne daří</w>
ne chci</w>
ne chají</w>
naš ly</w>
naz vanou</w>
nau číte</w>
nakres lit</w>
nabí dka</w>
na čež</w>
na táh
na stává</w>
na půl</w>
na př.</w>
na posled
n ếm</w>
n ně</w>
n kem</w>
n der
n ců</w>
mě chý
míst ním</w>
mí nění</w>
mu m</w>
mu el</w>
mr ak
moudr ý</w>
moto rů</w>
motiva ci</w>
mistr ovství</w>
minu lé</w>
mini mální</w>
milion krát</w>
miliar d
mikrosko pem</w>
mi zer
mi x</w>
mete oro
mentá rní</w>
men ších</w>
men ty</w>
men e</w>
medvě di</w>
medi a</w>
me ši
me i
marshmal low</w>
marketi ngu</w>
malá rii</w>
malá rie</w>
mal ba</w>
ma tek</w>
ma pě</w>
ma -</w>
m ši
m te</w>
m ské</w>
m s</w>
m ový</w>
m ovali</w>
m ka</w>
m hle</w>
lí d
lá tor</w>
lá p
lu ân</w>
lu lu</w>
lu i</w>
low sto
logi cká</w>
line ární</w>
lib ovol
li ễu</w>
li tr
li pí
li nky</w>
li nku</w>
li na</w>
lev ém</w>
leto s</w>
leta dle</w>
les cen
len ě</w>
led em</w>
le b
lah ve</w>
l ột</w>
l ố</w>
l ley</w>
l há
ků ň</w>
ky čel</w>
ky ní</w>
kvali fi
kultu rně</w>
kukuři ce</w>
ku su</w>
ku se</w>
ku f
kov alo</w>
kou píte</w>
kou pí</w>
kontro lou</w>
kontro lní</w>
komer ční</w>
kom promi
kolo nie</w>
kní žky</w>
kmen ů</w>
klíč ovou</w>
klasi cký</w>
kilo metr</w>
khu ếch</w>
kh âu</w>
každo ročně</w>
kate drá
kar ty</w>
kapitá lu</w>
kapaci tu</w>
kandi dá
kam pu
kal en
kalen dá
k ép</w>
k aly</w>
jád ro</w>
jád rem</w>
jin dy</w>
ji stí</w>
jevi šti</w>
její mu</w>
jedno tek</w>
jed ete</w>
jed ená
jed </w>
je zdí</w>
je vy</w>
je ly</w>
je c</w>
jas ný</w>
ja d</w>
it al
inžený r</w>
investi c</w>
intui tivní</w>
inspi raci</w>
inspi race</w>
individu ální</w>
in cla
identifi kovat</w>
i ště</w>
i re</w>
hři ště</w>
há dám</w>
há dejte</w>
hypoté zu</w>
hy per
hy dro</w>
hy dro
hudeb níci</w>
hud bě</w>
hu mor</w>
hu b
hroz by</w>
hr d
hov ýcho
hor šímu</w>
hor ské</w>
ho ro
hmo t
hlí že
hlubo ký</w>
hlubo kou</w>
hled ají</w>
hled a
hlad iny</w>
histori cký</w>
hierar chi
hemisfé ra</w>
hack ování</w>
ha j
h rou</w>
h ovala</w>
h ní
h ao</w>
h alo</w>
gy pt
glob alizace</w>
gi ếng</w>
gi ông</w>
gi ll</w>
ghi m</w>
g ót</w>
g am</w>
fyzi ku</w>
fyzi cká</w>
fung ovala</w>
ftal áty</w>
fron tální</w>
foto graf</w>
formá tu</w>
fir ma</w>
finan čních</w>
filozofi i</w>
filozofi e</w>
filo sofi
fe mini
farmá řů</w>
far k
fa nou
exponen ci
exist oval</w>
evrop ských</w>
epidemi i</w>
energe tické</w>
energe ticky</w>
emi sí</w>
elektro magne
ekonomi i</w>
efek tivi
e tické</w>
e ti
e p</w>
e m.</w>
e gra
e g
e fe
dž u
důvě ryhod
důstoj nost</w>
důleži tosti</w>
dů raz</w>
dů mysl
dů kla
dřevě né</w>
děv čata</w>
děsi vé</w>
dělá ním</w>
děl alo</w>
děku ju</w>
děde ček</w>
dě j
dý cha
dí vku</w>
dáv alo</w>
dár cov
dál nici</w>
dynami ky</w>
dro g
dra matické</w>
doz věděla</w>
dovo lila</w>
doved e</w>
dota z
dostup ných</w>
dominan tní</w>
dokonal ý</w>
dokonal ou</w>
dokaz uje</w>
doho dy</w>
dobrovol níky</w>
do pady</w>
do m</w>
do j
do bytek</w>
diplo ma
di ce</w>
desí tek</w>
de sti
de chu</w>
da cí</w>
da ci</w>
d uyên</w>
củ i</w>
cá n</w>
cu a</w>
cit livé</w>
cioná lně</w>
ci no
chytr á</w>
chyt ře</w>
chy tá
chví lí</w>
cho áng</w>
cho dila</w>
cho colate</w>
chlé b</w>
chemi cký</w>
che mo
ch ồn</w>
ch ốn</w>
ch úng.</w>
ch óc</w>
ch obot
ch lu
ch er</w>
cest ovali</w>
centr em</w>
cen ých</w>
cen á</w>
cen zu
cel í</w>
ce rato
c ôi</w>
c an
běž ných</w>
bur g</w>
budou cích</w>
bu si
bu r</w>
bu lu</w>
brit ské</w>
bra tra</w>
boj ím</w>
boj ují</w>
bo x</w>
bo dě</w>
bo dem</w>
blá zen</w>
bio lu
bi bli
bi an</w>
bar vou</w>
bar u</w>
bam bu
bal ení</w>
b ọt</w>
b ầm</w>
b ì</w>
b eria</w>
au t.</w>
atmosfé ře</w>
atmosfé ra</w>
atentá t
at le
armá dě</w>
argumen ty</w>
ar di
apli kovat</w>
antro polo
ano r</w>
ali zovat</w>
ali e</w>
al d</w>
aktiv uje</w>
agre sivní</w>
agen tury</w>
af ghá
ae rodynami
ado lescen
abstrak tní</w>
a co
Yel lowsto
Y B</w>
Wri gh
Win dows</w>
Wi red</w>
Wi i</w>
Whi te</w>
Ver me
V ô</w>
U ỷ</w>
Tu lley</w>
Tri nida
Tri cerato
Tran sition</w>
TiV o</w>
Taylo r</w>
T ài</w>
T obag
T il
T ech</w>
T ab
Sá u</w>
Su gata</w>
Stá ty</w>
Stockhol m</w>
Ste ven</w>
Sta te</w>
Sa muel</w>
Sa ch
S ty
S po
S incla
S im
S hack
S cha
S ala
S K</w>
Ru fu
Rog er</w>
Ro osevel
Ri dge</w>
Re search</w>
Rach el</w>
RN A</w>
R en
R ag
Qu e
Qu an</w>
Qa eda</w>
Pro spera</w>
Pi er
Pau lo</w>
Pale stine</w>
P et
Os orio</w>
Os car</w>
O z</w>
O reg
Ná rod
Nobelov u</w>
Nizo zem
Ngo ại</w>
Ng ôi</w>
Netfli x</w>
Najmud din</w>
N as
Měsí c</w>
Movem ber</w>
Mon ster</w>
Mo zar
Mo zambi
Mo ore</w>
Mi tra</w>
Mi nh</w>
Melin da</w>
Medi a</w>
Mat thi
Manhat tanu</w>
Mala wi</w>
MP 3</w>
M ao</w>
M A</w>
Lu cy</w>
Lin u
L à</w>
L im
Kore ji</w>
Kongre s</w>
Ki d
Ki bera</w>
Kana dy</w>
K ính</w>
K yo
K ay</w>
K B</w>
Je men</w>
Jan sen</w>
J op
J ane</w>
J S</w>
Is land</w>
I r
I P</w>
Hou se</w>
Hono lulu</w>
Hea ther</w>
He i
H ill</w>
Gu ardi
Green land</w>
Gre en</w>
Gi t</w>
Geor ge
Ge ver</w>
G rand</w>
G ene
Fran kli
Fibonac ci</w>
Fibonac ci
F i</w>
Ev ropu</w>
Eu ropa</w>
Ethi opi
Ele anor</w>
E sto
E m</w>
E m
E T</w>
Du bai</w>
Dia mond</w>
Di e
De tro
DA Rw
D eni
D MCA</w>
D A</w>
Conne cticu
Co okie</w>
Chicag u</w>
Cen tr
Car gill</w>
Cal tech</w>
C oper
C oh
Bri tan
Blu e</w>
Bi r
Bang la
Ba sit</w>
Ba ha
B ờ</w>
B ệnh</w>
B A</w>
Ari ely</w>
Ar t</w>
An thony</w>
An derson</w>
Ameri čan</w>
Am ster
Am jad</w>
Alex ander</w>
Ai r
Af gh
A veli
A ber
A M</w>
9 6</w>
9 1</w>
9 00</w>
8 7</w>
8 6</w>
7 50</w>
7 4</w>
5 ,
4 ,
3 65</w>
3 0.000</w>
2 6
18 6
18 00</w>
10 0
1, 3</w>
1, 2</w>
. S
) </w>
# </w>
ở .</w>
ờ .</w>
ố i.</w>
ệ .</w>
ề ng</w>
ế n.</w>
ẹ p.</w>
žárov ky</w>
žád ném</w>
živo tně</w>
živo bytí</w>
ži ji</w>
ži dli</w>
žen ým</w>
že me</w>
šť ou
ště ný</w>
ště d
ško lení</w>
škar ed
šimpan ze</w>
š véd
š tinu</w>
š kr
š ke
Špa něl
ří j
ří cích</w>
řen i</w>
ředi tel</w>
ře ši
Řek ové</w>
ň ovalo</w>
đi ếc</w>
đ úng.</w>
đ ính</w>
Đ ảng</w>
Đ ược</w>
Đ ôn</w>
Đ ài</w>
čí sly</w>
čí nské</w>
čtvr tou</w>
čtver ce</w>
čo čky</w>
čmá rání</w>
či pu</w>
či ně</w>
červ ů</w>
čer ný</w>
če st</w>
če le</w>
če la</w>
častě jší</w>
ča na</w>
č ká
ă n.</w>
účin ný</w>
účast níků</w>
úte su</w>
úspo r</w>
úrov ních</w>
úpra v</w>
úno ra</w>
úko lu</w>
úh ly</w>
ú řad</w>
ú vě
ú tra
ú st</w>
ê t</w>
ê -</w>
é ru</w>
â m.</w>
à i.</w>
° </w>
zů stalo</w>
zů stali</w>
zó ny</w>
zó nu</w>
získá váme</w>
zí ho</w>
zázna m</w>
závaz ku</w>
základ nu</w>
zákla du</w>
zá pi
zá me</w>
zá lo
zá dech</w>
zvětši t</w>
zvý šení</w>
zvý raz
zvířa tům</w>
zví da
zu ři
zu bů</w>
ztrá címe</w>
zranitel ní</w>
zrak ové</w>
zpřístup nit</w>
zpě tné</w>
zpo ví
zova ných</w>
zodpověd nosti</w>
znázor ňuje</w>
zná mo</w>
zni čil</w>
zni čena</w>
změ níte</w>
zma tek</w>
zkouše t</w>
zje v
zen ou</w>
zemře li</w>
zdravot nické</w>
zbra němi</w>
zbožň uju</w>
zbož ňují</w>
zba víme</w>
začí náte</w>
začá tkem</w>
zaúto čit</w>
zasta vil</w>
zased ání</w>
zapo jil</w>
zane d
zan ne</w>
zalo žit</w>
zalo žena</w>
zahra dě</w>
zachy til</w>
zabý vající</w>
za vést</w>
za t
za pamatovat</w>
za pad
za nechal</w>
za jít</w>
za i
za hlé
za bud
za blo
za be
zabe th</w>
z ření</w>
z o</w>
z ká
z de
y s</w>
y i</w>
x ịt</w>
x ế</w>
x ót</w>
web ovou</w>
větr ný</w>
vědomo stí</w>
vě novali</w>
vě dách</w>
výzku mné</w>
výzku mem</w>
výu ku</w>
výrob ků</w>
výcho du</w>
vý šku</w>
vý ška</w>
vý tahu</w>
vý sa
vý raz</w>
vý pla
vý let</w>
vý hod
váž ný</w>
vzpome nete</w>
vze stup</w>
vzdálen ých</w>
vyš šího</w>
vyš ších</w>
vyře ší</w>
vyzkouše li</w>
vyví jet</w>
vytáh nout</w>
vytváře li</w>
vytvořen ý</w>
vysí lání</w>
vysky tují</w>
vyrá bí</w>
vyrov ná
vyrob ený</w>
vyprávě la</w>
vyko ná
vy razit</w>
vy razili</w>
vy pí
vy pořád
vy m
vy lo
vy ha
vy děsi
vy dává</w>
vy cházejí</w>
vy ber
vu ốt</w>
vti p
vo lit</w>
vni třek</w>
vlák no</w>
vlák en</w>
vio lin</w>
vidi telný</w>
vi sí</w>
vi na</w>
veče ře</w>
ves ni
ver zí</w>
ver side</w>
ven ý</w>
ved u</w>
ve c</w>
vaši mi</w>
varia bili
v ị.</w>
v ẫy</w>
v ần</w>
v ší</w>
v ému</w>
v zato</w>
v stří
v stupují</w>
v livem</w>
v lez
ušet řit</w>
učitel ům</w>
uzav řené</w>
uvol ňuje</w>
utra tit</w>
usi lov
ur ve
upří mní</w>
uniká tní</w>
umí stil</w>
ukra den
ukaza tele</w>
uděl aly</w>
uc tí
u číte</w>
u čím</w>
u čením</w>
u vidí</w>
u vedl</w>
u tvořit</w>
u tek
u silovat</w>
u ra
u na
u k</w>
u chovat</w>
tří d</w>
třice ti</w>
těž ce</w>
tý kat</w>
tá vají</w>
tá tu</w>
tá mhle</w>
typi cký</w>
ty g
tvůr ce</w>
tvá ři</w>
tvoři vost</w>
tvor ba</w>
tvo řili</w>
tvo je</w>
tu ňá
tu re
tu ne</w>
tu jící</w>
tu ber
tuber kul
tuberkul ó
trénin k</w>
trá vit</w>
trá pení</w>
trval ý</w>
trval é</w>
trpě la</w>
tro u</w>
tri ků</w>
tren dy</w>
tre mi
tradi ci</w>
tr ệ</w>
tr ường.</w>
tr hy</w>
tov ní</w>
tou cí</w>
toli ka</w>
toleran ci</w>
to xi
to wn</w>
to i
tlačí tka</w>
tisk nout</w>
ti ệt</w>
ti n.</w>
ther land</w>
th ảy</w>
th ản</w>
tex tu</w>
test ovat</w>
teore ticky</w>
tem po</w>
tel nější</w>
tel nými</w>
techni ckých</w>
te ple
te pl
tane ční</w>
talen t</w>
ta o</w>
ta na
ta h</w>
ta b
t ỉa</w>
t úm</w>
t z</w>
t ována</w>
t nímu</w>
t ma</w>
t ka
số ng.</w>
sí t
sympto my</w>
svět ových</w>
svět ovou</w>
svě telných</w>
svobo dně</w>
subsahar ské</w>
su ro
su jící</w>
stře chy</w>
stě ží</w>
stě te</w>
stí ny</w>
studov ala</w>
studen tem</w>
struktu rou</w>
straš né</w>
stou pa
sti pen
stipen di
staveb nictví</w>
stav em</w>
stav bě</w>
staro st</w>
standar dy</w>
stabili ty</w>
sta čilo</w>
sta ty</w>
st é
st án</w>
st ný</w>
st la
spotře bě</w>
společen skou</w>
společ nostmi</w>
spojen ých</w>
spo jil</w>
spl nit</w>
spi ri
spa ghet
spaghet ti</w>
sp le
sov a</w>
soustřed í</w>
sou čet</w>
sou hr
sním ků</w>
sniž ují</w>
sna žilo</w>
sna hou</w>
směř ují</w>
smyslu pl
služ bu</w>
slu nci</w>
slu mu</w>
slov u</w>
slov níky</w>
slov ník</w>
skó re</w>
skon čím</w>
skon čilo</w>
sklad by</w>
sklad ba</w>
situa cí</w>
si vního</w>
si ro
shromažď ovat</w>
seroto nin</w>
ser ve
sen zory</w>
sebevraž du</w>
se ň</w>
se st
se mí
se mi</w>
sdí lené</w>
sbír ali</w>
sbír al</w>
samo tě</w>
sa mci</w>
sa chu
sachu set
s ỡ</w>
s ắ
s ập</w>
s úp</w>
s mát</w>
s dru
s con
s cho
růz ní</w>
rádi ové</w>
ry bu</w>
ry bo
ru ční</w>
ru ko
rozšiř ování</w>
rozvoj ovém</w>
rozum ím</w>
rozu měli</w>
rozsáh lé</w>
rozsáh lou</w>
rozpozná vání</w>
rozp ty
rozlo žení</w>
rozhod ovat</w>
roz ta
rost lo</w>
ro čník</w>
ro vána</w>
ritu ál</w>
riskan tní</w>
ri ka
rezerva ce</w>
reprezen tuje</w>
ren ce</w>
refle x</w>
red ak
recep tor</w>
re land</w>
re be
radi ká
r ẩy</w>
r ưởi</w>
r nách</w>
r ná</w>
pů lka</w>
příspě vky</w>
přírod ním</w>
přírod ních</w>
případ ně</w>
příno s</w>
pří činy</w>
pří stře
přispě t</w>
přirozen ý</w>
přirozen á</w>
připo mně
připo menout</w>
připo jit</w>
přin u
při zná
při jeli</w>
přesvěd či
přesvěd čeni</w>
přesvěd čen</w>
překvapi lo</w>
představ ovat</w>
předpově ď</w>
předpoví dat</w>
před vádí</w>
před cháze
pře žila</w>
pře vá
pře bí
pě tkrát</w>
pís mo</w>
pá ry</w>
pá du</w>
publi kovat</w>
publi ka</w>
pu n
prá vy</w>
provádě ní</w>
provin cie</w>
propo jit</w>
proje vuje</w>
proje v</w>
prode j</w>
pro staty</w>
pro speri
pro sper
pro sla
pro mlou
pro lo
pro hlé
pro dává</w>
pro bou
priori ty</w>
pre frontální</w>
prav ém</w>
pracu jete</w>
pra š
pra vým</w>
pra ví</w>
pra chu</w>
pr sy</w>
požada vek</w>
počítač ový</w>
pozi c</w>
poz vání</w>
poz nal</w>
poví dá</w>
považ uje</w>
považ oval</w>
použí vány</w>
použí valy</w>
pouh ý</w>
pou čit</w>
pou li
potravi ná
potra vu</w>
postup u</w>
poslou p
posl éze</w>
posl ala</w>
poskyt ne</w>
posklá dat</w>
posed lost</w>
poru ch</w>
portré ty</w>
poně tí</w>
pono řit</w>
polov i
polo žek</w>
police jní</w>
pol štá
pokry tí</w>
pokrač ují</w>
pok les</w>
pohyb ovala</w>
poho dy</w>
poh ád
podsta tu</w>
podsta t
podnika telské</w>
podnika teli</w>
podnika tele</w>
pod zim</w>
pod vod
pod ní
pod lo
pod .</w>
poci tem</w>
po žeh
po vz
po topi
po ster</w>
po slucha
po plat
po pla
po nor
po na
pona učení</w>
po měru</w>
po myslela</w>
po jem</w>
po bytu</w>
plát no</w>
plá ži</w>
plá že</w>
plá novat</w>
ply nu</w>
plo ch
plast ové</w>
plak át</w>
pla vala</w>
pi vo</w>
pi tí</w>
pi sy</w>
peni ci
pe vné</w>
pe nh
paten t</w>
pat nácti</w>
parla mentu</w>
pane ly</w>
pamatu jte</w>
pali v</w>
pacien tovi</w>
pacien tka</w>
pa ži</w>
pa vou
pa sivní</w>
pa s
pa pri
p ím</w>
p ní</w>
p ala</w>
p H</w>
očeká vali</w>
ozna čit</w>
ova cích</w>
otá čet</w>
oto čí</w>
otevřen á</w>
otev ře</w>
ot ci</w>
os novy</w>
or to
opravdov á</w>
opera ční</w>
opak ují</w>
opa čným</w>
ole je</w>
oko lním</w>
ohro žení</w>
ohled em</w>
oh ně</w>
oh lá
odstra nili</w>
odpo r</w>
odliš ným</w>
odliš ná</w>
odliš nosti</w>
oddě lené</w>
odbor né</w>
od ví
od tr
od nést</w>
ocit la</w>
obyčej ných</w>
obyčej ní</w>
oby d
objev ování</w>
obje vilo</w>
obi lí</w>
obezi ta</w>
obecen stvo</w>
ob rnu</w>
ob rna</w>
ob or</w>
ob lá
ob jedná
ob e</w>
o stu
o kla
o kem</w>
o chrá
ný br
nýbr ž</w>
níz ká</w>
níz ko
násled ek</w>
národ ním</w>
náro da</w>
nála du</w>
ná ru
ná padu</w>
ná leži
ná dory</w>
nu tá</w>
nu dné</w>
noviná ř</w>
no m</w>
no l
ni um</w>
ni s
ni nu</w>
nh ục</w>
nghi êng</w>
ng ặt</w>
ng le</w>
nezisk ové</w>
neuro vědy</w>
nes mysl
nes la</w>
nerov nost</w>
nepřetrži tě</w>
nepo chybně</w>
nemoc nic</w>
nejdůležitě jším</w>
nej základ
nej zná
nej zajímavější</w>
nej význam
nej bohatší</w>
neho du</w>
neexist ovaly</w>
nech aly</w>
nebe zpe
ne vědo
ne verb
ne sou
ne sly</w>
ne ra
ne předvída
ne napadlo</w>
ne h
ne existují</w>
ne dělá</w>
ne dlouho</w>
ne chtěli</w>
nasta vit</w>
narodi li</w>
naprost é</w>
naprost á</w>
naposled y</w>
napad la</w>
nai vní</w>
nadšen i</w>
nada ci</w>
nad měr
nabí dli</w>
na pá
na jí
na dech
na ci
měsí cem</w>
mě ste
mý tus</w>
mô t</w>
mí rně</w>
mí li</w>
mí le</w>
médi i</w>
má lem</w>
má la</w>
myšlen kách</w>
mysl ích</w>
mu tan
mu jí</w>
mr tvo
moto ru</w>
mode lovat</w>
moc ná</w>
mobi l</w>
mo tý
mo ru</w>
mlý n</w>
mlad ým</w>
mimořád né</w>
mikro blog
med ú
me zí</w>
me xi
me tan</w>
maxi mální</w>
marato nu</w>
manže la</w>
mamo graf</w>
malin ké</w>
mal í
mak ro
ma té
ma o</w>
ma ng
ma ge</w>
ma ga
maga zí
m ỳ</w>
m ới.</w>
m ọt</w>
m ầu</w>
m ĩ</w>
líbi t</w>
léč bou</w>
lékař em</w>
lár ních</w>
lá h
lo so
lo ck</w>
llo h</w>
lin s</w>
lid skými</w>
li êu</w>
li vosti</w>
li s</w>
li d</w>
li ci</w>
li c</w>
letě li</w>
leg e</w>
lech ti
le vou</w>
le se</w>
le jších</w>
laska vost</w>
lan tro
la y</w>
la u
la se
la i.</w>
la hev</w>
la d</w>
l ẫy</w>
l ạy</w>
l vy</w>
kři vky</w>
ké ž</w>
káz al</w>
kymati ka</w>
kvali tě</w>
kuchy ně</w>
ku povat</w>
krás ných</w>
kri zí</w>
kri tické</w>
kra tší</w>
kr vi</w>
kou sků</w>
kou pe
koru m
koor di
kon zisten
kon spi
kolá č</w>
kolabo rativní</w>
ko řeny</w>
kní žku</w>
kno f
knihov ně</w>
klíč ovým</w>
klíč ových</w>
kli matické</w>
kli d</w>
kles ne</w>
klasi cká</w>
ki ếp</w>
kh ử</w>
kh ốc</w>
ke jte</w>
kategori e</w>
kar cino
kancelá řích</w>
kame nem</w>
ka toli
k ve
k nutí</w>
jisto ty</w>
ji vé</w>
ji sk
ji hovýcho
jesky ni</w>
jeh ly</w>
jeh lu</w>
jednotliv ců</w>
jed ou</w>
jed náme</w>
je jící</w>
jas ná</w>
jakých koliv</w>
jakou si</w>
ja ter</w>
it co
inzu li
inter view</w>
inten do</w>
intelektu álně</w>
inte g
inspi rující</w>
injek ce</w>
ingredi ence</w>
infra struktury</w>
informa cím</w>
indi cký</w>
in ti
in fark
in de
improvi zovat</w>
iP od</w>
i slám</w>
i ki
i Tunes</w>
i ..</w>
hygi eni
hudeb níka</w>
hud bou</w>
hrá ly</w>
hrubo st</w>
hroz bou</w>
hrani cí</w>
hově zí</w>
hormo ná
hodi ně</w>
hodi la</w>
ho telu</w>
ho p</w>
ho n</w>
ho me
ho lu
ho dit</w>
hní zda</w>
hmo tné</w>
hlub ší</w>
hlou bky</w>
hled ů</w>
hlav ního</w>
hladi ně</w>
hla du</w>
her ní</w>
he ro
he m
ha ra
ha jící</w>
h ř
h âm</w>
h án</w>
h àn</w>
h níz
h nou</w>
h an
gra ce</w>
glu kó
glu co
gi ềng</w>
gi en</w>
geno ci
gene ruje</w>
gene m</w>
ge sta</w>
ge b
g ục</w>
g ầy</w>
g ạo</w>
g án</w>
g ur
fú ze</w>
fyzi ce</w>
fru str
fron ty</w>
frek venci</w>
frek vence</w>
fotografi í</w>
formu je</w>
form ování</w>
fir mou</w>
finan c
fi lantro
fede rální</w>
farmá ř</w>
farma ce
farmace u
fak ty</w>
fak tu</w>
fak tem</w>
f la
experimen tální</w>
ex tremi
ex </w>
et z</w>
environ mentální</w>
energe tickou</w>
ema ily</w>
em b
elektři na</w>
elektro ny</w>
el le</w>
ekvivalen t</w>
ekono my</w>
e tu</w>
e a</w>
důsled ek</w>
děv čat</w>
děl aly</w>
dě sí</w>
dě jství</w>
dý chání</w>
dáv aly</w>
dá ma</w>
dru ži
drah ý</w>
dra maticky</w>
dr ž</w>
dov i</w>
dosáh nou</w>
dosáh la</w>
dospě lý</w>
dola ru</w>
dokto rát</w>
dokon čili</w>
do šli</w>
do týká</w>
do razili</w>
do přá
do prová
dlouhodob ém</w>
dlouhodob ého</w>
dla ž
diva dlo</w>
distribu ci</w>
disku zi</w>
diskri mi
di le
deví ti
deta il</w>
depre sí</w>
depre se</w>
den ním</w>
demokra tickou</w>
demo grafi
delfí ny</w>
defin ovat</w>
deba ta</w>
databá zi</w>
daleko hled</w>
da ně</w>
d ạn</w>
d ì</w>
d na</w>
d ani</w>
cí p</w>
cé v</w>
co ol</w>
ck e
ci í</w>
ci fi
chři p
chá zíte</w>
chá te</w>
chá pou</w>
chytr ých</w>
chy tří</w>
chy ce
cho àng</w>
cho rob
chla zení</w>
chla pe
chemi cká</w>
chce te-li</w>
cha osu</w>
ch vě
cest oval</w>
centr ální</w>
cen ě
cen den
ce stují</w>
ce ly</w>
ce land</w>
ca fe</w>
c ẩu</w>
c ay</w>
bře hu</w>
běh ání</w>
běh u</w>
bílkov iny</w>
bí lý</w>
báje čné</w>
bá zí</w>
bá seň</w>
by tě</w>
by tku</w>
burgh u</w>
budov u</w>
bud d
bu ji</w>
bu b
brit ská</w>
bra zil
bo že</w>
bo ku</w>
blo ky</w>
blo k</w>
biologi cký</w>
biologi cká</w>
bi i</w>
bezpeč nost
beletri i</w>
beletri e</w>
ban u</w>
ba seb
b ực</w>
b ến</w>
b ú</w>
b ùn</w>
b ành</w>
b r</w>
b lu
autori tá
au tem</w>
astrono mové</w>
astro nau
as s</w>
architek t</w>
ara ší
ar te
ar i</w>
analo gi
an á</w>
an na</w>
ameri čtí</w>
alo sti</w>
alkoho lu</w>
ali ty</w>
ali a</w>
al s</w>
al geb
aktivi ta</w>
ak tuální</w>
ak or
ak cioná
ak a</w>
ag en</w>
a va
a ro
a pod.</w>
a p
a nato
a na
a maté
a j
a bys</w>
Zé landu</w>
Y ou</w>
Wikipedi e</w>
Wi scon
Wal mart</w>
W omen</w>
Va ší</w>
V ụ</w>
V od
V o
Ture cku</w>
Tobag o</w>
To án</w>
To à</w>
To yota</w>
To m
Ti ếng</w>
Th ần</w>
Tex asu</w>
Tak že</w>
T ế</w>
T ạo</w>
T in</w>
Su zanne</w>
Su therland</w>
Stockhol mu</w>
Si vers</w>
Shar meen</w>
Shack le
Sh an
Seba stian</w>
Sach s</w>
SO L
SM S</w>
S ý
S quare</w>
S no
S en
S am
Rot ter
Rob in</w>
Rob in
Ri verside</w>
R an
Qu ảng</w>
Qa tar</w>
Q uyền</w>
Posu zova
Po st</w>
Phi lip</w>
Paří ži</w>
Paří že</w>
Pari kr
Papu a</w>
Pa cifi
Pa chyce
P ine</w>
P in
P as
P R
Ox y</w>
OL c
O ne</w>
O l
O ko
O b
Něme cka</w>
Ná rodní</w>
Nobelov y</w>
Nh ất</w>
Nh ìn</w>
Ng ày</w>
Neva da</w>
Ne s
N ového</w>
N intendo</w>
Mozar t</w>
Min neso
Mi d
Mau ri
Mat ty</w>
Ma ps</w>
Ma na
Ma c
M L</w>
M G</w>
M A
Libano nu</w>
Li băng</w>
Lak shmi</w>
Lak ot
Lak e</w>
L eo</w>
L OLc
Ko ránu</w>
K obe</w>
Juli e</w>
John son</w>
Ji ho
Jes sica</w>
Jeruz alé
Je menu</w>
Je ffer
Japon ska</w>
Jack son</w>
Ja son</w>
J on</w>
Izrae li</w>
Itá lii</w>
Is landu</w>
Indi á
I van</w>
I slá
I reland</w>
I g</w>
I B
Ho ặc</w>
Ho ả</w>
Har ris</w>
H ot
Gra ham</w>
Gold man</w>
Go urley</w>
Go ering</w>
Go din</w>
Gil bert</w>
Gali leo</w>
For tune</w>
Fibonacci ho</w>
Fi lipí
Far mer</w>
F ri
Ethiopi a</w>
Eli zabeth</w>
Eco nomi
E PA</w>
Don na</w>
Di ana</w>
D ự</w>
D í
D or
D emo
Cro nin</w>
Cri tic</w>
Chal le
Cha d</w>
CI A</w>
C ùng</w>
C S
C L
Bu y</w>
Brow nová</w>
Bot s
Bo t</w>
Biosfé ře</w>
Ber lin</w>
Beethov en</w>
Bay es</w>
Bandu ra</w>
B ăng</w>
B ây</w>
B à</w>
B ruce</w>
B rand</w>
B itco
Aveli le</w>
At ten
Ang lie</w>
Ama zo
Allen de</w>
Ale xi
Al len</w>
Afgh an</w>
AR PA</w>
A le</w>
A b
A .
@ </w>
9 2</w>
8 .
7 ,000</w>
5 0,000</w>
4 9</w>
4 7</w>
20 15</w>
20 .000</w>
198 4</w>
194 7</w>
19 30</w>
10 0,000</w>
1. 5</w>
1, 6</w>
‎ </w>
ờ n</w>
ẽ o</w>
ắ ng.</w>
ầ n.</w>
ả i.</w>
ả .</w>
ạ ng.</w>
žád nému</w>
žá dost</w>
žralo k</w>
ži dov
ťá tko</w>
ťá ků</w>
šu mu</w>
ště ním</w>
ště n</w>
ště dro
ští h
šo ku</w>
šků dce</w>
šká le</w>
škod livé</w>
šam pi
š vi
š tit</w>
Švýcar sku</w>
Šangh a
řízen o</w>
ří díme</w>
ří d
řidi če</w>
řetě zec</w>
ře čí</w>
ře zá
ře z
ře me
ř ského</w>
ř ku</w>
Ř ím</w>
ň ské</w>
ň me</w>
đ ẹp.</w>
đ ấy.</w>
đ ái</w>
čtvere c</w>
člá nků</w>
či p</w>
či nek</w>
čen ou</w>
čeká te</w>
čeká ní</w>
če list</w>
če li</w>
čas ů</w>
čan ů</w>
č oval</w>
Čí ň
Čí nu</w>
úřed níci</w>
účast níkům</w>
úva hy</w>
úda jně</w>
úchva tné</w>
ú plné</w>
ú pla
ú niku</w>
ú nik</w>
ó z
ê .</w>
é zní</w>
â u.</w>
ád á</w>
á ndh
Írá nu</w>
Á o</w>
~ </w>
získá vá</w>
zázrak y</w>
záleži tostí</w>
zákla dů</w>
zá tě
zá tor</w>
zá chva
zá cho
zvý šilo</w>
zvu kový</w>
zvlá dla</w>
zved la</w>
zu bní</w>
ztrá tou</w>
zrak em</w>
způsob ech</w>
zpě v</w>
zpá tku</w>
zodpově zení</w>
zo o
zo ne</w>
zně lo</w>
zni čili</w>
znamen ala</w>
znamen al</w>
zna čí</w>
zmize l</w>
zma tku</w>
zlep šili</w>
zla té</w>
zkusí te</w>
zku sím</w>
zkra tce</w>
zkoumá ním</w>
zkou ší</w>
zkou ška</w>
zjisti lo</w>
zi o
zi i</w>
zep tejte</w>
země mi</w>
zelen ých</w>
ze vnitř</w>
ze sí
zdra vých</w>
zbožň uji</w>
začí nala</w>
zav la
zatra ceně</w>
zasáh nout</w>
zapoj ují</w>
zapla til</w>
zaměřova če</w>
zaměř uje</w>
zaměst ná
založen á</w>
zalo žen</w>
zak ó
zajím ala</w>
zaji šť
zah an
zachy tit</w>
zabý váme</w>
za ži
za vě
za třetí</w>
za táh
za stře
za myšlení</w>
za jisté</w>
za jist
za ja
za d</w>
za ch
za bali
z řej
z schi
zschi l
z rození</w>
z rakov
z pracovat</w>
z mý
z korum
z has
z ale
yn man</w>
y er</w>
xu ống.</w>
x ứ</w>
x ì</w>
x on</w>
x en</w>
wi ch</w>
we st</w>
w am
wam ba</w>
vů ni</w>
všim la</w>
věři la</w>
větr em</w>
věnu jeme</w>
vědě ly</w>
vědo mím</w>
věde ckého</w>
vě tu</w>
vě noval</w>
vě ky</w>
vě ji</w>
vě d</w>
vče l</w>
výži vě</w>
význa mu</w>
výzkum níky</w>
výro ba</w>
výno sy</w>
výmě nou</w>
výji mky</w>
výhra dně</w>
výchov a</w>
vý zev</w>
vý ko
ví ře</w>
ví tá
vá y</w>
vá noční</w>
vzájem nou</w>
vzděla ní</w>
vzdu chem</w>
vz kří
vyšet ření</w>
vyš ším</w>
vyvol alo</w>
využí vání</w>
vys lech
vyrábě l</w>
vynále zy</w>
vyjedná vání</w>
vyjadř ují</w>
vyjadř uje</w>
vydělá vá</w>
vybí ráme</w>
vybr ala</w>
vy řešení</w>
vy zved
vy zař
vy tá
vy stu
vy růst</w>
vy půj
vy mýš
vy hlí
vy h
vy drží</w>
vy chut
vti pů</w>
vrá tíme</w>
vrch ní</w>
vr tu
vr e</w>
vol ného</w>
vnitř ním</w>
vlast ními</w>
vl nu</w>
vizu alizace</w>
virtu álního</w>
vin na</w>
vi s</w>
vezmě me</w>
vesmí ry</w>
veli ké</w>
veli ká</w>
veli kostí</w>
vege tari
ved ete</w>
ve ro
vaši m</w>
van s</w>
val ds</w>
vakcí nu</w>
va jícího</w>
v ầy</w>
v ùi</w>
v ôi</w>
v óc</w>
v stát</w>
v stoupí</w>
v stoupit</w>
v rozen
v kou</w>
uživa tele</w>
uživa tel</w>
uživa tel
uči nila</w>
uz lu</w>
uvědomí te</w>
uvol nit</w>
uspě li</w>
uspoko jení</w>
ur čené</w>
ur čeno</w>
ur t</w>
upří m
uni knout</w>
uměle ckou</w>
umě lou</w>
umíst íme</w>
umož nit</w>
ultra fial
ukon čit</w>
ukaz ovat</w>
ubrou sek</w>
u zdra
u vedla</w>
u tlu
u my
u j</w>
u hod
u chy
u ce
těž kých</w>
těž kou</w>
těles a</w>
tě žit</w>
tě j
tý kajících</w>
typi cká</w>
ty pem</w>
tvr dit</w>
tuy ệt.</w>
tune lování</w>
tu ỵ</w>
tu ri
tu dy</w>
tu a</w>
tré n
trá vě</w>
trpí cí</w>
trans cenden
tra pné</w>
tr ỏ</w>
tr ọng.</w>
tr ù</w>
tr ét</w>
tr á</w>
toi let</w>
toho hle</w>
to s</w>
titu lky</w>
tisíci letí</w>
ti ště
ti sh</w>
ti ne</w>
ti ci</w>
ti chu</w>
thu ở</w>
th ứ.</w>
th ật.</w>
th ạo</w>
th ường.</w>
th êu</w>
tem ná</w>
tel ném</w>
techni cká</w>
te ku</w>
te c</w>
talen t
takov ou
takovou to</w>
tabu li</w>
ta mto</w>
t ản</w>
t ạ</w>
t ạ
t ů
t zmann</w>
t su
tsu nami</w>
t ovány</w>
t mu</w>
t ci</w>
số .</w>
sť te</w>
sy ne
svě tel</w>
svádě ní</w>
sušen ky</w>
subjek tů</w>
středi sko</w>
střed ově
střed ně</w>
stá vající</w>
stá ly</w>
stup ň
stu duje</w>
stra chem</w>
str a</w>
stov kách</w>
sto n</w>
stipendi um</w>
stih l</w>
sti ckého</w>
ster u</w>
ster s</w>
stej ní</w>
stavě li</w>
stanov it</w>
standar di
sta nic</w>
st ou</w>
st ku</w>
spotře by</w>
spolu pracovali</w>
spokojen ost</w>
spojen o</w>
spoj ovat</w>
spisova telé</w>
spisova telka</w>
spi rá
spektr um</w>
speci álně</w>
spe ku
sp ust
sp in
sp ali</w>
sp al</w>
souvi slost</w>
soused ů</w>
souhla sím</w>
soud kyně</w>
sou rozen
sou boru</w>
soft wa
soci álně</w>
sob o
sní žili</w>
sní t</w>
sní st</w>
sní mku</w>
sno b
sna hu</w>
směř ování</w>
smě rů</w>
smá l</w>
smu tné</w>
smlou va</w>
slu mů</w>
slov ům</w>
slo žení</w>
sled ováním</w>
sla né</w>
sko čí</w>
sklá dání</w>
sklá dají</w>
ske y</w>
simu lace</w>
sil ného</w>
signá lu</w>
sig nali
si oná
si licon</w>
si lami</w>
sho dou</w>
sho ck</w>
sha ram</w>
sfé ry</w>
setk ali</w>
setk ala</w>
sesta vit</w>
seni ory</w>
seb ral</w>
se veru</w>
sdíle jí</w>
schizofren i
sateli tní</w>
samoz řej
samosta tné</w>
sachuset ts</w>
sa r</w>
sa ni
sa mého</w>
sa há</w>
s ụt</w>
s ấm</w>
s ảnh</w>
s érie</w>
s á</w>
s ová</w>
s mo
s hal
s děl
s .com</w>
různoro dost</w>
různo rod
rych lo
rub s</w>
ru sharam</w>
ru milov
ru hé</w>
rozší ří</w>
rozší řili</w>
rozší řila</w>
rozší řená</w>
rozpo ru</w>
rozli čných</w>
rozhod ují</w>
rozhod nou</w>
rozhod nete</w>
rozděl ím</w>
rozdí lu</w>
roz trh
roz pu
roz pou
roz míst
roz ma
roz jeli</w>
rove k</w>
rov a</w>
rodin ám</w>
rodin né</w>
robo tiky</w>
robo tických</w>
ro vané</w>
ro kra
ri um</w>
ri l
ri ká
reži m</w>
reál ného</w>
reál ná</w>
rezi stence</w>
respek tu</w>
reprezen tují</w>
reduk ci</w>
reali tě</w>
re o</w>
re konstru
re cen
raz o</w>
rakov in
ra ser</w>
ra pi
ra ný</w>
ra du</w>
r ạch</w>
r èm</w>
r ãnh</w>
r aly</w>
qu ầy</w>
qu ar
qu a.</w>
pů lce</w>
přítel kyně</w>
přístup y</w>
přístup em</w>
příno sem</w>
pří mé</w>
pří liš
pří kaz</w>
přitažli vost</w>
přispí vá</w>
připra vil</w>
připo jí</w>
při řa
při vez
při pou
při měla</w>
při dává</w>
při dá</w>
při dala</w>
přetvá ře
přetr vá
přen ést</w>
přelo žili</w>
překá žek</w>
předpoklá dá</w>
předpo klad</w>
předlo žit</w>
předcho zích</w>
před ě
pře ži
pře šli</w>
pře šel</w>
pře z
pře stanou</w>
pře hled</w>
pře ci</w>
pře chodu</w>
pře chod</w>
pódi um</w>
pó l</w>
pís men</w>
pá s
pu jete</w>
pt ala</w>
ps ů</w>
práv em</w>
prá dlo</w>
prv ně</w>
prv ků</w>
prová díme</w>
provo z</w>
proved la</w>
prostřed ích</w>
prostřed kem</w>
prost ory</w>
prost orech</w>
prohlá šení</w>
programá toři</w>
prodá vali</w>
produ kujeme</w>
procháze la</w>
procen tech</w>
pro vaz</w>
pro těj
pro mění</w>
pro g
prezen tovat</w>
preferen ce</w>
pre fer
pravi la</w>
pravděpodob nější</w>
pra rodiče</w>
pr stů</w>
ppi nes</w>
poš lou</w>
pozo rovali</w>
pozi cích</w>
použí váním</w>
použi to</w>
pou š
potřebu ju</w>
posu nula</w>
postav u</w>
posou vá</w>
poslouch al</w>
poskyt l</w>
posed lý</w>
poroz uměli</w>
pora den
popi sují</w>
pomáh al</w>
pome ran
polovi ční</w>
polo měr</w>
pol ích</w>
poku šení</w>
pokrač ování</w>
pokou ší</w>
pohře b</w>
poh ání</w>
podpo řili</w>
podob á</w>
podob ní</w>
podob </w>
podnika telé</w>
podni k</w>
podi ví
podi vu</w>
pod stoupit</w>
pod pat
pocháze jící</w>
pochyb nosti</w>
pobí dek</w>
po řídili</w>
po ři
po zpátku</w>
po volání</w>
po volení</w>
po stře
po slá
po rá
po pro
po p</w>
po la
po kle
plý t
plo še</w>
plo dy</w>
ple te
pla vou</w>
pla tné</w>
pi šte</w>
pi va</w>
pi rá
pi ly</w>
ph iện</w>
ph ai</w>
per t</w>
per son
pen do</w>
partne rem</w>
par kov
par ale
pane l</w>
palu bě</w>
padá k</w>
pa ží</w>
pa sá
pa mi</w>
pa cha
p té
p t</w>
p po
oškli vé</w>
oxi de</w>
ová to</w>
ovlá dnout</w>
ovlá dané</w>
ovi tý</w>
ova cího</w>
ov ské</w>
ov o</w>
ou s
otáz kami</w>
otá čí</w>
oto čit</w>
oto čil</w>
otest ovali</w>
ot ví
ot cové</w>
osob ního</w>
osob nost</w>
osob </w>
organi smus</w>
orchestr </w>
or valds</w>
oprav ovat</w>
ono ho</w>
onemoc ně
on s</w>
omezen á</w>
ome zit</w>
oli u</w>
ohrom ná</w>
oh něm</w>
ofi ciální</w>
odpoví dat</w>
odo lnosti</w>
odmě n</w>
odkaz ů</w>
odha dy</w>
ode šli</w>
odchy lek</w>
od les
od cháze
ochran né</w>
obě d</w>
obyvatel stva</w>
obtíž ných</w>
obsa hovat</w>
obrá tit</w>
obrá ceně</w>
obrov ských</w>
obrov ského</w>
oblo ze</w>
oblo hy</w>
oblo hu</w>
obliče ji</w>
objek tivní</w>
obje vení</w>
obcho dů</w>
ob ří</w>
ob last
ob l
ob držela</w>
o pravi
o kur
o kr
o hrani
o dě
o chro
o -
ně kterými</w>
návra tu</w>
návr há
nástro jem</w>
násled ovalo</w>
násled ovala</w>
národ ního</w>
národ ních</w>
náro čnější</w>
nála dy</w>
nákla dní</w>
náhod a</w>
nábožen stvím</w>
nábožen ské</w>
ná vna
ná pis</w>
ná moř
ná le
ná h
nu d
nic al</w>
ni tric</w>
ni sh</w>
ni ny</w>
nho áng</w>
nh ỏ.</w>
nh ảm</w>
nh ại</w>
nh ăn</w>
nh áy</w>
nh à.</w>
nh am</w>
ngà y.</w>
ngu ỵ</w>
ngu ội</w>
ngo ặt</w>
ng ừ</w>
ng uyệt</w>
neštov i
nevidi telný</w>
nevidi telná</w>
nevi dom
neutr ální</w>
neu vědo
netopý ři</w>
nepo slou
neo pr
nemě n
nemo cem</w>
největ šího</w>
nejoblíbeně jších</w>
nejlep šími</w>
nej těžší</w>
nej me</w>
nej jednodušší</w>
nej dražší</w>
nedosta tky</w>
nebo jí</w>
neb ýt</w>
ne w
ne využi
ne stane</w>
ne rušen
ne roz
ne příjemné</w>
ne přátelé</w>
ne přišel</w>
ne násilí</w>
ne konečně</w>
ne dělat</w>
ne dá</w>
naži vo</w>
naš t
naz vaný</w>
navrh uje</w>
nauči lo</w>
nato mage</w>
nara zíte</w>
nar d</w>
napl nění</w>
namal oval</w>
nakre sli
naj du</w>
nahlí žet</w>
na růsta
na ráže
na rodí</w>
na prav
na povídá</w>
na p
na jící</w>
na inst
nainst al
na h
na dějí</w>
n ứt</w>
n ới</w>
n ể</w>
n ấc</w>
n ãy</w>
n syl
n sko</w>
n alá
mě níme</w>
mý ty</w>
mí ček</w>
mí rumilov
má nie</w>
má my</w>
mysl .</w>
my g
muzi kan
multi vesmíru</w>
multi taski
mrt vá</w>
mož nostmi</w>
moř ských</w>
moz ků</w>
moto rem</w>
momen tem</w>
moh u
modli t
mo tivy</w>
mo thy</w>
mo lo
mnoh ým</w>
mnoh ých</w>
mno ží</w>
mlu ví
mlu vy</w>
mladí k</w>
mlad ém</w>
min y</w>
min ovat</w>
milio nem</w>
mikro bů</w>
mikro -
mic ro</w>
mi te</w>
mi no
mi lo</w>
mi g
mezinárod ního</w>
metafo rou</w>
metaboli smus</w>
men tali
mei ster</w>
medicí ně</w>
medicí nu</w>
me ty</w>
me me</w>
materiá lech</w>
marketi ng
mara thon</w>
mana že
mamo grafie</w>
mal ovat</w>
magne ty</w>
ma to
ma tická</w>
ma nia</w>
m ịn</w>
m ặn</w>
m ạ</w>
m ường</w>
m út</w>
m ông</w>
m wood</w>
m ním</w>
m er
lékař ské</w>
lé čeb
lé n</w>
lár ního</w>
lu ng</w>
lot ta</w>
lo ži
lo komo
lo kali
ling vi
lin k</w>
liko pté
li á
li nie</w>
li m</w>
les ů</w>
len ým</w>
len ého</w>
lek cí</w>
led ni
le tým</w>
le tou</w>
le tou
le gen
lan d
lad well</w>
l ửng</w>
l ộng</w>
l ội</w>
l ấn</w>
l ý.</w>
l úng</w>
l ãi</w>
l ných</w>
l n</w>
kří žili</w>
kří del</w>
kři vka</w>
křeh ké</w>
ká zá
kvě ty</w>
kvan ti
kultu rním</w>
kultu r</w>
kuchy ni</w>
ku podivu</w>
ku p
krvá cení</w>
kraji na</w>
kr edi
koupi la</w>
kouk něte</w>
kor ti
konzul tan
kontrover zní</w>
kontro luje</w>
kontro le</w>
konkuren ce</w>
konf ron
koncer t</w>
koncentra ci</w>
kon tamin
kon stan
kon centr
komuni tou</w>
komplex nost</w>
komik sů</w>
koleg ů</w>
koleg ou</w>
ko čky</w>
ko zy</w>
ko rek
ko ly</w>
klá vesnice</w>
klou bů</w>
klou b</w>
kle sa
klasi fi
ki êm</w>
ki na</w>
kho é</w>
khi ết</w>
khi nh</w>
kh ăng</w>
kh ùng</w>
každoden ním</w>
kategori i</w>
katastrof ách</w>
katastrof y</w>
kara te</w>
kapitá l</w>
kapito lu</w>
kapi tali
kap sy</w>
kamen ě
kama rádi</w>
kam koliv</w>
kal ku
ka š
ka ze
ka y.</w>
ka ret</w>
ka pal
k ìa</w>
k wamba</w>
k vět</w>
k ley</w>
jí del</w>
jí címu</w>
jmen ovala</w>
jist ým</w>
ji lo</w>
ji ho
ji d</w>
jem ně</w>
jedin ě
jedin ém</w>
jed ova
jed ny</w>
je vu</w>
je mu</w>
jakého koli</w>
jaká koliv</w>
jaká koli</w>
jakou koli</w>
jader né</w>
jader ná</w>
j or
iệ n.</w>
islám ského</w>
inžený rů</w>
introver ti</w>
inspiro váni</w>
injek ční</w>
infek ci</w>
infek ce</w>
indi ká
in va
implan tát</w>
im pé
im bo
imbo razo</w>
ig n</w>
i ko
i du</w>
hři šti</w>
hy b
hvěz dou</w>
husto ty</w>
husto tu</w>
huma noi
hudeb ního</w>
hudeb ních</w>
hroma dění</w>
hroma dné</w>
hra ček</w>
hra nic</w>
hr dost</w>
horizon tu</w>
hor ním</w>
hor ká</w>
holči čka</w>
ho spi
ho j
ho díte</w>
hně v</w>
hna cí</w>
hloup é</w>
hladov ě
hladi na</w>
hla sů</w>
histori cky</w>
he slo
he likopté
har d
h ợ
h ội.</w>
h ằn</w>
h ả</w>
h òm</w>
h ình.</w>
h la</w>
h iên</w>
gu ver
gravi tační</w>
go og
gluco se</w>
gi molo
geo grafické</w>
gene tickou</w>
gará ži</w>
g ặt</w>
g ào</w>
g t</w>
g i</w>
fá z
fyzi cký</w>
ftal átů</w>
frek ven
fo ot</w>
finan ce</w>
fi gur
feromo ny</w>
fascin uje</w>
fak tů</w>
fak torem</w>
f rak
f lo
exponenci álně</w>
expedi ci</w>
ex tr
ex pan
evrop ské</w>
en to
en ky</w>
empati i</w>
emb ry
elektri ckých</w>
ekonomi cky</w>
ekologi ckých</w>
efektiv nější</w>
e-ma il</w>
e viden
e u</w>
e j</w>
e gypt
dělá ní</w>
dějin y</w>
dědi ctví</w>
dě ťátko</w>
dí l</w>
dá vám</w>
dá rek</w>
dá ni</w>
dá lku</w>
dynami ku</w>
dy ch
dvace ti
du sí
du ch</w>
du b
druh ých</w>
dr žím</w>
dr žení</w>
douf ali</w>
dotk nout</w>
dot com</w>
dosáh lo</w>
dostá vám</w>
doprav u</w>
donu tit</w>
dola rech</w>
dokumen ty</w>
dokon čil</w>
docí lit</w>
dobrovol ně</w>
do zadu</w>
do ru
do g
dneš ního</w>
dneš ka</w>
dlouhově kost</w>
disci plí
digitá lních</w>
di v</w>
dese tkrát</w>
depre si</w>
defin uje</w>
de en</w>
dcer u</w>
da tové</w>
da mu</w>
d ồi</w>
d ẫu</w>
d ấy</w>
d ưng</w>
d ým</w>
d ào</w>
d ními</w>
d kou</w>
d ine</w>
cír kev</w>
cí lům</w>
cyk lu</w>
cor ti
com plex</w>
col m</w>
co py</w>
co ck</w>
co ca
ck ly</w>
ck e</w>
civili zační</w>
ci a</w>
chá pe</w>
chy stá</w>
chuy ện.</w>
chová me</w>
cho díme</w>
chi ết</w>
chce š</w>
cha mi</w>
ch ọi</w>
ch ết.</w>
ch ằng</w>
ch ắt</w>
ch ật</w>
ch ảo</w>
ch ý</w>
ch óp</w>
ch ói</w>
ch ích</w>
ch ênh</w>
ch éo</w>
ch r
ch ala</w>
cen ím</w>
cen ture</w>
cel kovou</w>
car d</w>
ca o.</w>
c úng</w>
c ông.</w>
c tor</w>
c re</w>
c oby</w>
běž ný</w>
běž ném</w>
bí lých</w>
bá li</w>
bá la</w>
by rokra
buň ek</w>
burg u</w>
bud ová
bubli n</w>
brz o</w>
bou ř
boj ác
boj oval</w>
bo w
bo sonu</w>
bo rou
bo n
bo jíme</w>
bo jí</w>
bo d
blíz kosti</w>
bi la</w>
bez pochyby</w>
barié ru</w>
ban ké
bal an
bak alá
ba vili</w>
ba non</w>
ba da
b ục</w>
b ơ</w>
b àng</w>
b ran
b ob
b iệt.</w>
b em</w>
b ed
autono mie</w>
au x</w>
aspek ty</w>
as y
as bro</w>
architek tura</w>
arab ských</w>
ar s</w>
anga ž
ang ari</w>
an ů</w>
an ých</w>
ameri ckými</w>
ameri ckou</w>
am ba
ali zuje</w>
ali tu</w>
algorit mus</w>
ale s</w>
al ore</w>
al bum</w>
al -
aktivi tou</w>
ako rát</w>
akce pt
ak i</w>
agen da</w>
absol ven
a pe
a myg
a de
Západ ní</w>
Yor ker</w>
X u</w>
Wor mwood</w>
Willi ams</w>
Wil kins</w>
Wiki le
Wiki Le
Wi de</w>
Wa ter
W hole</w>
W angari</w>
Výcho dě</w>
Výcho dní</w>
Ve gas</w>
Val ley</w>
Va še</w>
V ới</w>
US B</w>
U y</w>
U nie</w>
Tur k</w>
Trinida d</w>
Tricerato ps</w>
Tra cy</w>
Tr uyền</w>
Ti ền</w>
Thu ật</w>
Th ương</w>
Tas mania</w>
Ta te</w>
Ta ta</w>
Ta i
TED M
TEDM ED</w>
T ừ</w>
T uy
T orvalds</w>
T o</w>
T iên</w>
T in
T ani
T am
T a</w>
T O</w>
T M</w>
Su per</w>
Sty gimolo
Star ck</w>
Spojen ými</w>
So ph
Singapu ru</w>
Sincla ir</w>
Sim pson</w>
She ena</w>
Sha w</w>
Se th</w>
Schwar zschil
Scho ol</w>
Sc rubs</w>
Sc ri
Sau nder
Sara jevo</w>
Sala am</w>
Sag meister</w>
S t.</w>
S pri
S er
S ene
S ed
S T
Rufu s</w>
Ru sko</w>
Rod ri
Robin son</w>
Ri u</w>
Ri dley</w>
Red dit</w>
Re u
Re be
Ra tan</w>
Ra ma
R á
R it
R am</w>
R C</w>
Q .</w>
Páki stán</w>
Prin ce</w>
Pri ckly</w>
Pre go</w>
Power Point</w>
Pla to</w>
Pitts burgh</w>
Photosho p</w>
Philadel phia</w>
Phi l</w>
Ph ục</w>
Ph ân</w>
Pen nsyl
Pe ar</w>
Parikr ma</w>
Pale stin
Pal lotta</w>
Pachyce phalo
Pa rusharam</w>
Pa me
P řed
P y
P ou
P AS
Olympi cs</w>
Oko lloh</w>
Okina wa</w>
Odysse us</w>
O kay.</w>
O L</w>
O 2</w>
Něme cko</w>
Ně mci</w>
Nor th</w>
Ne x
Ne il</w>
N ữ</w>
N ổ</w>
N ơi</w>
N O</w>
Mos ko
Mi tch
Mi ses</w>
Matthi eu</w>
Man ju</w>
Mal thu
Mal colm</w>
Maa thai</w>
Ma rie</w>
Ma pendo</w>
Ma dri
M ỹ.</w>
M ỗi</w>
M à</w>
M oh
M ill</w>
M a</w>
M BA</w>
Lu ân</w>
Lo is</w>
Linu x</w>
Lin us</w>
Lin d
Lim po
Le banon</w>
Law rence</w>
La tinh</w>
La tin
L ý</w>
Ká hi
[...]
