n g
n </w>
e </w>
t h
ng </w>
t </w>
i </w>
s </w>
. </w>
y </w>
n h
, </w>
c </w>
c h
o </w>
a </w>
d </w>
e r
t r
u </w>
m </w>
th e</w>
a n
à </w>
t i
nh </w>
o r
a l
a r
k h
ó </w>
e n
f </w>
i n
p h
p </w>
r e
o u
an d</w>
t o</w>
o n</w>
o n
o f</w>
e d</w>
ô ng</w>
g i
i ng</w>
er </w>
c á
e s</w>
i ệ
v à</w>
i n</w>
q u
i s</w>
a t</w>
a n</w>
ch </w>
c ó</w>
ô i</w>
l </w>
ộ t</w>
ê n</w>
r o
l à</w>
c ủ
củ a</w>
m ột</w>
l i
h a
s t
t ôi</w>
a t
ư ờ
ể </w>
or </w>
cá c</w>
th e
o m
ư ợ
s i
ớ i</w>
l o
e c
h o
ấ t</w>
o ng</w>
al </w>
l y</w>
a ti
th at</w>
d i
a c
kh ông</w>
v e</w>
ượ c</w>
w h
a y</w>
ú ng</w>
" </w>
ữ ng</w>
i t</w>
đ ược</w>
nh ững</w>
s e</w>
tr ong</w>
l e</w>
a s</w>
s t</w>
v i
n à
e n</w>
k </w>
ế t</w>
ã </w>
ch úng</w>
r i
l e
w i
ề u</w>
ạ i</w>
w </w>
en t</w>
I </w>
ở </w>
s u
ch o</w>
t s</w>
ườ i</w>
ng h
n o
- </w>
ạ n</w>
ế </w>
s h
đ ã</w>
ng ười</w>
o u</w>
th </w>
i ều</w>
ự </w>
ế n</w>
y ou</w>
t a</w>
ì nh</w>
nh ư
b u
ì </w>
t u
ề </w>
e l
p ro
s a
b i
f or</w>
' s</w>
th ể</w>
v ới</w>
d e
â n</w>
a nh</w>
g h
c u
r </w>
ị </w>
đ ó</w>
nà y</w>
ả i</w>
ầ n</w>
a b
n e
c e</w>
h ọ
ư ớ
ả </w>
ẽ </w>
ar e</w>
t o
ấ y</w>
er e</w>
t y</w>
w e</w>
b ạn</w>
m i
? </w>
s e
v er
b e
f i
0 </w>
c om
u y
l d</w>
â y</w>
a g
à nh</w>
u n
v iệ
ầ u</w>
á c</w>
á </w>
ati on</w>
th is</w>
s ẽ</w>
ố </w>
a s
ả n</w>
ứ c</w>
í nh</w>
ự c</w>
à m</w>
a m
đ ể</w>
c i
ướ c</w>
k i
à i</w>
c on
à o</w>
v ề</w>
p o
ố i</w>
s ự</w>
l àm</w>
s o</w>
r a</w>
d o
wi th</w>
e s
m u
ằ ng</w>
ườ ng</w>
b e</w>
n ó</w>
a d
a ng</w>
t er
c ông</w>
iệ n</w>
e x
al l</w>
kh i</w>
ư ơ
n ă
ố ng</w>
ậ t</w>
đ ộ
việ c</w>
ou t</w>
r e</w>
ơ n</w>
như </w>
ô </w>
ươ ng</w>
ề n</w>
o p
ha ve</w>
w as</w>
f or
m ent</w>
l u
ậ n</w>
ph ải</w>
v ào</w>
d u
t ừ
m e</w>
a m</w>
đ iều</w>
g o
a o</w>
k e</w>
w or
ý </w>
đ ến</w>
l l</w>
on s</w>
à ng</w>
h i
ti on</w>
s p
ou r</w>
ou n
ế u</w>
at e</w>
ó i</w>
ờ i</w>
ch i
m o
d o</w>
a p
họ </w>
the y</w>
on e</w>
d s</w>
s tr
t e
à n</w>
m à</w>
c o
từ </w>
e ar
ệ </w>
: </w>
ph á
m a
er s</w>
c an</w>
đ ị
' </w>
ụ </w>
m e
t a
ỉ </w>
ủ </w>
th er</w>
bu t</w>
đ ầu</w>
th u
t ed</w>
a u
ù ng</w>
á n</w>
n ói</w>
e t</w>
th ế</w>
p er
al ly</w>
nh iều</w>
í </w>
ậ p</w>
b y</w>
s ố</w>
h ơn</w>
ch ính</w>
v e
no t</w>
ộ </w>
' t</w>
h e</w>
như ng</w>
iệ u</w>
ử </w>
nă m</w>
nh à</w>
f ro
p e
ổ </w>
) </w>
ể n</w>
l ại</w>
ou ld</w>
( </w>
fro m</w>
l a
th i
ố c</w>
qu an</w>
tr ên</w>
p u
ơ </w>
kh o
i m
p re
e m</w>
ti ng</w>
ứ </w>
0 0
ộ c</w>
th ực</w>
đ ang</w>
r ằng</w>
b o
s o
ố n</w>
t er</w>
độ ng</w>
b ị</w>
đị nh</w>
r a
p ar
th ành</w>
cá ch</w>
v er</w>
ụ c</w>
tr i
đ ây</w>
kh ác</w>
n ước</w>
ặ c</w>
c ũ
gh t</w>
ư </w>
ch ỉ</w>
w e
v ì</w>
ổ i</w>
í ch</w>
s á
i t
ờ </w>
c ả</w>
s om
1 </w>
no w</w>
wh at</w>
ch uy
cũ ng</w>
â u</w>
ẻ </w>
m an
ă n</w>
c on</w>
ab out</w>
h iện</w>
ả m</w>
p or
n i
u ng</w>
ấ p</w>
r ất</w>
đ i</w>
th ấy</w>
p l
à y</w>
m or
ộ i</w>
bi ết</w>
th ere</w>
i r</w>
h àng</w>
ĩ </w>
g ì</w>
ụ ng</w>
the o</w>
ữ </w>
nà o</w>
họ c</w>
i f</w>
ê u</w>
á o</w>
ứ ng</w>
ạ o</w>
qu y
a i</w>
wh i
m y</w>
ar </w>
d ụng</w>
c ơ</w>
op le</w>
ọ i</w>
ồ ng</w>
k ing</w>
i ên</w>
g r
ữ a</w>
n ếu</w>
ă ng</w>
ấ n</w>
nh ất</w>
i c
ti ế
ợ p</w>
ể m</w>
an t</w>
f f
ạ t</w>
á i</w>
5 </w>
nh ân</w>
h ợp</w>
en ts</w>
ắ t</w>
phá t</w>
ả o</w>
ngh iệ
f u
ver y</w>
i d</w>
ư a</w>
ú c</w>
t ại</w>
pe ople</w>
ha s</w>
2 </w>
đ ối</w>
ng ày</w>
cá i</w>
d ing</w>
s s</w>
j u
gi a</w>
ậ y</w>
á ng</w>
ỏ </w>
tr ình</w>
ặ t</w>
tr ường</w>
e a
b ec
ư ở
d e</w>
wh en</w>
y ear
b ộ</w>
ph ần</w>
ưở ng</w>
ượ ng</w>
ơ i</w>
the ir</w>
mor e</w>
t ế</w>
y our</w>
ả ng</w>
th ông</w>
c ô</w>
th ứ</w>
x u
o ther</w>
sa u</w>
wi ll</w>
ể u</w>
ẫ n</w>
ò ng</w>
o l
ou r
m in
l ý</w>
ô n</w>
b ằng</w>
el l</w>
th ì</w>
ị ch</w>
nh ận</w>
com p
m ình</w>
ắ c</w>
h ành</w>
o d</w>
l ớ
đ ề</w>
ò n</w>
ồ i</w>
ti n</w>
c ần</w>
ố t</w>
li ke</w>
gh </w>
u p</w>
gi á</w>
th ời</w>
n am</w>
f in
u s
k s</w>
a i
ab le</w>
p ri
cu ộc</w>
v ậy</w>
ki nh</w>
iệ t</w>
ỹ </w>
ho w</w>
re c
t ính</w>
th ing</w>
1 9
whi ch</w>
l l
tr ước</w>
s ti
h is</w>
c re
f e
th o
n ên</w>
c es</w>
ag e</w>
ati ons</w>
gi ờ</w>
ọ ng</w>
h ình</w>
at ed</w>
c òn</w>
ha d</w>
â m</w>
s er
m á
m ạ
al i
w n</w>
ở i</w>
' re</w>
es s</w>
the se</w>
g u
ợ </w>
đ ồng</w>
y s</w>
e t
du c
au se</w>
qu a</w>
m b
r u
ệ n</w>
c oun
t e</w>
ha y</w>
w ere</w>
mu ốn</w>
ho ặc</w>
ả nh</w>
sh e</w>
ti me</w>
h ệ</w>
ng o
m ới</w>
k ết</w>
t ạo</w>
en ce</w>
ỏ i</w>
an ce</w>
t ài</w>
á nh</w>
un d
gi ới</w>
in ter
m s</w>
m ar
a u</w>
x </w>
lớ n</w>
% </w>
p p
nă ng</w>
ha i</w>
n u
ỗ i</w>
t ư</w>
h u
b ản</w>
ngh ĩ</w>
t ự</w>
3 </w>
c ấp</w>
som e</w>
c al</w>
e v
ju st</w>
s ử</w>
h ội</w>
v ụ</w>
nghiệ p</w>
d ay</w>
t ất</w>
v ấn</w>
vi ên</w>
t w
l ên</w>
ti ền</w>
on al</w>
g et</w>
s ản</w>
ng s</w>
bec ause</w>
w ould</w>
si nh</w>
en t
an i
a ng
tiế p</w>
ti es</w>
w ay</w>
m on
si on</w>
th ức</w>
sa id</w>
c ùng</w>
be en</w>
á ch</w>
th ường</w>
má y</w>
ch ức</w>
t ới</w>
wh o</w>
k e
ou gh</w>
o f
s ec
a f
ấ u</w>
b ởi</w>
the m</w>
m ọi</w>
s y
C h
oun d</w>
to àn</w>
in e</w>
ec t</w>
ó ng</w>
d ed</w>
phá p</w>
wor k</w>
đ ổi</w>
ec i
th ống</w>
ph i
ti ons</w>
m p
s c
ne w</w>
4 </w>
l iệu</w>
đ i
do anh</w>
fi r
h er</w>
ỷ </w>
th in
t ăng</w>
i ts</w>
an y</w>
en ti
ê m</w>
in to</w>
2 00
e i
b ảo</w>
lo o
l d
f ac
qu ốc</w>
b ắt</w>
xu ất</w>
ệ nh</w>
th an</w>
s ống</w>
tri ển</w>
l ed</w>
ar d</w>
d ự</w>
g e</w>
ồ n</w>
th ật</w>
thi ết</w>
u s</w>
- -</w>
th ay</w>
c ao</w>
sh </w>
8 </w>
d ân</w>
ỗ </w>
/ </w>
g e
ú t</w>
s ed</w>
ng u
g </w>
d ùng</w>
ỳ </w>
h e
l ượng</w>
o b
ắ n</w>
l li
tr ẻ</w>
tr ở</w>
s es</w>
al so</w>
ac k</w>
nh au</w>
; </w>
k now</w>
som e
s el
tr ị</w>
b ao</w>
sh all</w>
p a
c e
t ác</w>
a se</w>
go ing</w>
nh iên</w>
f a
qu á</w>
n o</w>
b áo</w>
li ên</w>
sá ch</w>
độ </w>
the n</w>
en d</w>
tr ọng</w>
c ầu</w>
t t
s in
ồ </w>
c ảm</w>
ù </w>
ợ i</w>
a d</w>
t ốt</w>
quy ền</w>
v es</w>
ch ủ</w>
tr ung</w>
d ịch</w>
cu l
v ing</w>
ou s</w>
ì m</w>
ho á</w>
6 </w>
ì n</w>
ho ạt</w>
g re
se e</w>
mo st</w>
ar y</w>
k ế</w>
gi an</w>
ử a</w>
c or
v ị</w>
é p</w>
00 0</w>
quy ết</w>
ổ ng</w>
an d
th u</w>
wh ere</w>
tu re</w>
sa o</w>
or i
thin k</w>
' m</w>
h ã
gi ải</w>
th áng</w>
o o
or s</w>
tw o</w>
ú </w>
w a
t ìm</w>
x em</w>
lo ại</w>
t ổ</w>
si g
m ay</w>
ĩ a</w>
iệ m</w>
i s
đi ểm</w>
á m</w>
ộ ng</w>
c âu</w>
m ặt</w>
com m
y ing</w>
th ích</w>
k ed</w>
b ất</w>
ễ n</w>
ph ương</w>
year s</w>
' ve</w>
tu r
chuy ển</w>
w s</w>
ci al</w>
ngo ài</w>
ph ân</w>
qu ả</w>
i l
man y</w>
0 0</w>
d ự
m an</w>
be t
ad e</w>
ả y</w>
o ver</w>
b ệnh</w>
d y</w>
n ay</w>
for m
uy ên</w>
al s</w>
c ould</w>
chuy ện</w>
ẳ ng</w>
fir st</w>
ẩ n</w>
at e
ẩ m</w>
7 </w>
ạ c</w>
m ents</w>
pre s
đ ường</w>
h ere</w>
nh ìn</w>
đ o
li c
on ly</w>
qu y</w>
at es</w>
ve lo
ex p
ma ke</w>
n ữa</w>
g o</w>
ch ang
ch u
v ẫn</w>
st u
ch ứng</w>
st s</w>
ắ ng</w>
t ập</w>
n ing</w>
ff er
ê </w>
n ơi</w>
ứ u</w>
tu y
th ị</w>
l ực</w>
đ ại</w>
gi ảm</w>
c ứu</w>
am e</w>
g en
sh i
t ình</w>
đ ều</w>
d er</w>
! </w>
ch i</w>
uy ền</w>
ti êu</w>
b à</w>
w ell</w>
un i
ạ ng</w>
wor ld</w>
sy st
ph òng</w>
tr an
mb er</w>
l a</w>
ngh ĩa</w>
1 0</w>
r ồi</w>
su r
ạ m</w>
l ập</w>
m ức</w>
t âm</w>
an s</w>
ạ ch</w>
I n
re ally</w>
de velo
c ar
l ần</w>
c al
h ạn</w>
đ ất</w>
k ỳ</w>
h ỏi</w>
ú p</w>
s on</w>
l es</w>
qu ản</w>
gi ao</w>
đ ưa</w>
ver n
h iệu</w>
b le</w>
ạ </w>
chi ế
n 't</w>
f e</w>
ướ ng</w>
v ed</w>
qu i
ă m</w>
or y</w>
re e</w>
ti ên</w>
9 </w>
g ọi</w>
b iệt</w>
lli on</w>
re d</w>
t ương</w>
b </w>
v ật</w>
ph ủ</w>
tr ợ</w>
l úc</w>
ati ng</w>
b an</w>
n ed</w>
p s</w>
st ar
ac e</w>
m ỗi</w>
ch ất</w>
é </w>
tr ả</w>
tr y</w>
pro b
đ ơn</w>
é t</w>
tr a
ọ n</w>
x e</w>
gi úp</w>
ho àn</w>
lo w
c k</w>
com e</w>
lu ật</w>
c ap
s ho
ch ưa</w>
ti ve</w>
l ời</w>
ati onal</w>
19 9
b ên</w>
ap p
ầ y</w>
di s
year </w>
d er
mu ch</w>
á t</w>
hã y</w>
ri ght</w>
c ổ</w>
ư u</w>
ch ương</w>
ch ế</w>
tr uyền</w>
por t</w>
tr u
gi ữa</w>
đ iện</w>
s ở</w>
w ant</w>
$ </w>
af ter</w>
re s</w>
g y</w>
ti ến</w>
v ài</w>
bi li
u se</w>
to án</w>
ar i
th r
d on</w>
S t
ừ ng</w>
gi áo</w>
s ing</w>
th er
h el
nh ỏ</w>
đ ô</w>
y êu</w>
on om
x ã</w>
di ffer
á p</w>
tu ally</w>
ta ke</w>
it 's</w>
h ết</w>
ph ụ</w>
develo p
tr e
b ình</w>
í t</w>
v i</w>
tr iệu</w>
e l</w>
l ợi</w>
pro duc
ẹ </w>
c lu
ph ép</w>
p i
u r
à u</w>
at er</w>
fu l</w>
mạ ng</w>
tho se</w>
ne ed</w>
f t</w>
kho ảng</w>
kho ản</w>
pro vi
s ay</w>
nh ập</w>
cu ối</w>
su ch</w>
N h
vern ment</w>
ec onom
ỉ nh</w>
c ố</w>
or g
t ưởng</w>
thu ật</w>
việ t</w>
b a</w>
wi th
ó c</w>
ò </w>
b án</w>
ầ m</w>
in i
chiế c</w>
go od</w>
op er
e st</w>
thi ngs</w>
ev en</w>
ve st
v o
mu a</w>
v ực</w>
ệ t</w>
ngh iên</w>
ha pp
r ing</w>
ừ a</w>
thu ộc</w>
nh iệm</w>
t al
er i
đ úng</w>
c an
d ẫn</w>
di ễn</w>
b ack</w>
tiế ng</w>
en c
f r
sá ng</w>
dự ng</w>
v ăn</w>
mu st</w>
c er
sh ould</w>
s si
b ỏ</w>
đ ặc</w>
T r
kh ả</w>
v en
' ll</w>
bu sin
ng ân</w>
x ây</w>
ứ a</w>
t en
ki ểm</w>
ti m
l ã
ư ới</w>
ó m</w>
l s</w>
ngh ệ</w>
ph ẩm</w>
g ần</w>
A </w>
c ess</w>
gi ống</w>
str u
l ing</w>
t or</w>
kh i
s ch
thr ough</w>
kh ó</w>
tr anh</w>
hi ểu</w>
phi ếu</w>
ng uyên</w>
om e</w>
ạ y</w>
th ương</w>
ễ </w>
ắ p</w>
m ục</w>
S </w>
chi ến</w>
for e</w>
T h
t ục</w>
lo w</w>
cu ng</w>
l ar
đ ặt</w>
ac tually</w>
ậ u</w>
ag a
t ổng</w>
f o
ặ p</w>
v al
ea ch</w>
org ani
in d</w>
cu r
đ ánh</w>
đị a</w>
th am</w>
c ent</w>
di d</w>
kh u</w>
ac ti
D </w>
y ou
chi ld
con tr
p r
tt le</w>
th êm</w>
li fe</w>
x ác</w>
an k</w>
te ch
s ức</w>
n ữ</w>
in vest
cá o</w>
f un
und er
su b
k ể</w>
hi m</w>
r y</w>
h ou
str y</w>
ạ nh</w>
e st
d at
m ất</w>
ph í</w>
ro w
v ốn</w>
re n</w>
m at
re l
ki ến</w>
go t</w>
ter s</w>
p le</w>
h ướng</w>
pro gr
per i
ng ay</w>
do wn</w>
f ri
st o
m ade</w>
prob le
i c</w>
o k</w>
k et</w>
từ ng</w>
Q u
e p</w>
ngh e</w>
c ứ</w>
im por
bi ến</w>
pro j
, 000</w>
ar e
ph ố</w>
some thing</w>
t ay</w>
P </w>
mạ nh</w>
nghiệ m</w>
tu ổi</w>
tr a</w>
pu t</w>
p le
loo k</w>
bi ểu</w>
we en</w>
di c
l and</w>
t ly</w>
x ảy</w>
re sp
z e</w>
ne t</w>
l in
nh i
syst em</w>
man ag
ec ts</w>
ti c
mi nh</w>
str i
busin ess</w>
t ử</w>
bet ween</w>
ằ m</w>
õ </w>
t ích</w>
t ên</w>
đ áng</w>
re a
đ ủ</w>
sá t</w>
m ẹ</w>
si de</w>
child ren</w>
ọ c</w>
ser vi
pu b
d ữ</w>
be ing</w>
li ttle</w>
b ài</w>
sa me</w>
ec tion</w>
cá </w>
b é</w>
đ ình</w>
po in
min i
l ấy</w>
g ây</w>
tran s
n ational</w>
po li
su re</w>
sp eci
wa ys</w>
s ĩ</w>
í n</w>
ngu ồn</w>
be fore</w>
ch ẳng</w>
ati ve</w>
go vernment</w>
mi llion</w>
ec ted</w>
e ment</w>
le ss</w>
b ố</w>
in form
ề m</w>
nh óm</w>
chang e</w>
ho ạch</w>
thu ế</w>
d eci
c en
ch í</w>
p e</w>
C </w>
ô m</w>
e ver
d ù</w>
t ượng</w>
tr ưởng</w>
mi t
it e</w>
m ang</w>
i l</w>
ấ m</w>
d a
c ảnh</w>
sel f</w>
bo dy</w>
as ed</w>
per cent</w>
la st</w>
th ree</w>
es s
bili ty</w>
h ear
gen er
w om
b ây</w>
st er</w>
e y</w>
ắ m</w>
r õ</w>
c lo
differ ent</w>
le ar
z ed</w>
us ed</w>
et nam</w>
lo t</w>
th ủ</w>
j o
in s</w>
ac t</w>
ế m</w>
lu ôn</w>
su p
2 0
impor t
ever y
2 0</w>
le a
stru c
d ent</w>
tr í</w>
it al</w>
l ệ</w>
k ỹ</w>
h </w>
di rec
ex am
5 0</w>
k es</w>
ou ght</w>
le t</w>
e very</w>
th ư</w>
in cre
kh ách</w>
c ộng</w>
su l
of fi
m ô</w>
x in</w>
ne t
è o</w>
b r
d on
d ec
th anh</w>
re ad
ar ound</w>
ng ành</w>
đ ồ</w>
ủ ng</w>
pub li
w ar
in clu
s m
dat a</w>
d ưới</w>
t es</w>
e se</w>
ậ m</w>
tr ái</w>
comp any</w>
w er</w>
cal led</w>
m ở</w>
on d</w>
ỡ </w>
lu ận</w>
e w</w>
h ôm</w>
inform ation</w>
h ộ</w>
s en
se t</w>
gi ả</w>
v ùng</w>
x ét</w>
ve l</w>
đ ạo</w>
n ền</w>
m er
k ý</w>
lo ng</w>
d ài</w>
k no
v en</w>
h ưởng</w>
an y
f fi
ớ </w>
P h
sti ll</w>
he al
k iện</w>
chu ẩn</w>
wh y</w>
ẩ u</w>
u e</w>
nh anh</w>
t y
for m</w>
ti c</w>
ne x
c a
d ục</w>
ch ọn</w>
ồ m</w>
ph ạm</w>
g ặp</w>
o l</w>
ch ắc</w>
do es</w>
c ửa</w>
vi r
g a
c our
b a
y ếu</w>
3 0</w>
pl an
is su
whi le</w>
uy ết</w>
V i
tu y</w>
ũ </w>
or t</w>
ị u</w>
T </w>
xu ống</w>
an other</w>
ou s
of f</w>
v u
St ate</w>
ẫ u</w>
i de
kh ỏi</w>
so ci
s our
ê ng</w>
d ụ</w>
. .</w>
kho a</w>
c l
lo gy</w>
com pu
p ic
g ồm</w>
d es</w>
e ng
thu ốc</w>
th ân</w>
ph ục</w>
vi ết</w>
gi ữ</w>
tr ách</w>
organi z
nu mber</w>
und er</w>
x ử</w>
coun try</w>
kh í</w>
N am</w>
ngh ị</w>
mon ey</w>
s ci
c ri
nex t</w>
ti ết</w>
import ant</w>
po si
me di
n am
st ate</w>
g n</w>
ch ar
ou t
di vi
ạ p</w>
o wn</w>
l ation</w>
d iện</w>
bu il
' d</w>
gr ou
d ễ</w>
b it</w>
ali ty</w>
í a</w>
t en</w>
ch ung</w>
d a</w>
to o</w>
en ter
ngh èo</w>
ch ịu</w>
hi gh
ế p</w>
N </w>
v ệ</w>
m ặc</w>
qu es
fa mi
f ol
ac coun
we e
ch ơi</w>
par ti
đ ời</w>
se ar
ro o
d i</w>
l ine</w>
kh ẩu</w>
tuy ệt</w>
đ ạt</w>
tr ang</w>
ai r
p t</w>
c ây</w>
hel p</w>
ea d</w>
v ô</w>
con si
t ối</w>
c ụ</w>
tri es</w>
tu ần</w>
e ms</w>
mar ket</w>
v ọng</w>
el s</w>
tech no
gh i</w>
o ver
ã i</w>
T ôi</w>
kh ai</w>
t ors</w>
par t</w>
k ind</w>
fin d</w>
develop ment</w>
enc y</w>
par t
hi ểm</w>
fi c
M ini
w ho
tr ạng</w>
comp le
d re
m ent
pl ace</w>
ẹ p</w>
sec u
t ín</w>
b ay</w>
st an
n ội</w>
c ải</w>
ta in</w>
t ỷ</w>
đ óng</w>
in v
lo gi
ap pro
đ âu</w>
resp on
di d
ã o</w>
shi p</w>
n s</w>
m ôi</w>
to day</w>
d anh</w>
th ử</w>
at u
M ỹ</w>
tim es</w>
In ter
l ar</w>
b or
w ater</w>
lo c
c àng</w>
o ld</w>
B ộ</w>
ch ết</w>
in du
th ú</w>
re gi
r ộng</w>
ne e
cap ital</w>
bet ter</w>
v </w>
a ch
de sig
ph ản</w>
ử i</w>
v in
. ..</w>
d in
j ob
p en
oo l</w>
w ri
n ối</w>
c a</w>
ti nh</w>
e ff
sa ys</w>
st ory</w>
ne ver</w>
i r
n er</w>
in f
gi ve</w>
co l
ri êng</w>
ac k
econom ic</w>
tr ò</w>
tr ực</w>
b ức</w>
as es</w>
chuy ên</w>
ci es</w>
gi ám</w>
việ n</w>
si ons</w>
h ỗ</w>
ữ u</w>
g row
do ing</w>
v í</w>
ent ly</w>
in ing</w>
h ữu</w>
b ri
g ửi</w>
Tr ung</w>
st a
đo ạn</w>
an c
v ừa</w>
i d
b ra
đ ôi</w>
ta x</w>
chi a</w>
ch ạy</w>
be li
đ ấy</w>
nh ớ</w>
r .</w>
đ ầy</w>
Qu ốc</w>
t ell</w>
ặ ng</w>
đ ứa</w>
k é
h ầu</w>
fe w</w>
gre at</w>
l ưu</w>
fi c</w>
m ỹ</w>
iệ p</w>
cur r
t al</w>
1 5</w>
ĩ nh</w>
for ei
coun tries</w>
publi c</w>
su y</w>
as s</w>
ph á</w>
b ro
heal th</w>
M </w>
ci ty</w>
l ịch</w>
f er
c le
l ẽ</w>
ó n</w>
al ways</w>
du y</w>
wor king</w>
n or
e 's</w>
happ en
ph ía</w>
l òng</w>
e duc
le vel</w>
po ssi
x a</w>
in ed</w>
g ra
â ng</w>
manag ement</w>
V iệt</w>
I 'm</w>
progr am
s al
ho a</w>
” </w>
st or
mu l
th úc</w>
sti tu
wom en</w>
ac cor
rec ei
en e
ự a</w>
re gu
invest ment</w>
t able</w>
sin ce</w>
f ound</w>
Nh à</w>
b àn</w>
. 000</w>
sh ed</w>
k en</w>
b er
sch ool</w>
exam ple</w>
le g
1 2</w>
hi gh</w>
bo th</w>
d ge</w>
ag es</w>
mi s
co ll
h ar
mi ght</w>
sc ri
bi g</w>
in a</w>
c ase</w>
th s</w>
t ức</w>
n ổi</w>
đ ảm</w>
v ận</w>
s .</w>
sh ar
th ái</w>
th at
ng ữ</w>
d d
1 0
st e
da ys</w>
l ao</w>
enter pri
re sul
con n
proble m</w>
t ỉnh</w>
with out</w>
H o
nh ạc</w>
gh ts</w>
w an
l âu</w>
don 't</w>
“ </w>
l o</w>
m àu</w>
qu ân</w>
d ạng</w>
con ti
b ác</w>
si ve</w>
proj ect</w>
ne ss</w>
h ồi</w>
e mp
re qui
acti vi
o c
ư ng</w>
n ão</w>
p er</w>
la w</w>
kho ẻ</w>
d ành</w>
th i</w>
ex peri
đ ông</w>
nhi ễ
fac t</w>
g ắng</w>
ki ếm</w>
c ăn</w>
uy ện</w>
ch ú</w>
ch ed</w>
ch ấp</w>
du ring</w>
d ri
ch o
19 8
ch ỗ</w>
w ent</w>
ư ỡ
c r
s how</w>
forei gn</w>
E </w>
si mp
ộ p</w>
si ng
gi ản</w>
a v
ch ống</w>
poin t</w>
la i</w>
b ước</w>
gi ấy</w>
comp ani
th ough</w>
so cial</w>
h ồ</w>
h ome</w>
vir on
A n
th ấp</w>
e ve</w>
đ a</w>
thi ếu</w>
l ab
el ec
c ực</w>
us ing</w>
Inter net</w>
b ảng</w>
đ ẹp</w>
st and</w>
an ds</w>
tho ại</w>
chi ld</w>
m en</w>
to ge
sm all</w>
read y</w>
ag o</w>
aga in</w>
v òng</w>
t on</w>
toge ther</w>
b rea
ượ t</w>
m en
C om
that 's</w>
net work</w>
gi ng</w>
A nh</w>
c ạnh</w>
ẩ y</w>
kh á</w>
tal k</w>
dự a</w>
f l
m ối</w>
or k</w>
th uyết</w>
b lo
c li
on es</w>
u m</w>
pro vin
ph ối</w>
th ần</w>
un ic
m ại</w>
đ ốc</w>
secu ri
nhiễ m</w>
c ậu</w>
t om
g g
phi m</w>
ch út</w>
n ông</w>
ti onal</w>
per son</w>
su c
cre di
ổ n</w>
vi et</w>
roo m</w>
with in</w>
of ten</w>
b an
wor ks</w>
c el
w al
lớ p</w>
hu man</w>
ỏ ng</w>
v ẻ</w>
li ght</w>
c ấu</w>
pu r
re as
độ c</w>
d r
en viron
đ àn</w>
we ver</w>
sa ng</w>
ho wever</w>
w ard</w>
t ỉ</w>
Mini stry</w>
an cial</w>
ro w</w>
ngo ại</w>
cour se</w>
fac e</w>
e ver</w>
techno logy</w>
c ou
o w
as k</w>
th ậm</w>
compani es</w>
fi ve</w>
st ed</w>
hou se</w>
bo ok</w>
val ue</w>
bu r
bu ổi</w>
re ad</w>
as se
ng er</w>
conti nu
pro cess</w>
đ ứng</w>
re sear
th ôi</w>
h al
e p
đ ọc</w>
b ased</w>
ti cal</w>
vu i</w>
khi ến</w>
1 00</w>
tr o
qu anh</w>
kh ăn</w>
en er
ec u
qu ay</w>
servi ces</w>
in e
N g
� </w>
k ỷ</w>
a way</w>
đ ấu</w>
su m
ear </w>
ch ân</w>
t ồn</w>
u p
fo od</w>
le v
p la
or der</w>
c are</w>
th ers</w>
m ẫu</w>
in st
d ents</w>
star t</w>
b ào</w>
độ i</w>
at t
m ắt</w>
ma king</w>
th ought</w>
t ố</w>
d one</w>
th ảo</w>
le ft</w>
de fin
go o
e qui
be g
x i
s ơ</w>
c ame</w>
g et
si c</w>
le ad
lã nh</w>
ide a</w>
syst ems</w>
P e
th ất</w>
im pro
lo cal</w>
be st</w>
fu l
s ư</w>
pro t
fin ancial</w>
f re
fami ly</w>
r àng</w>
i ce</w>
s ha
me ans</w>
thu ận</w>
wh e
job </w>
ch e
ki a</w>
g ái</w>
A r
ti on
su ốt</w>
c ập</w>
ar s</w>
y es</w>
f our</w>
en ough</w>
com pe
c ro
u l
grou p</w>
ate ly</w>
sa i</w>
in divi
D e
s k
ng ôn</w>
n ằm</w>
c all</w>
t ệ</w>
vi etnam</w>
t ội</w>
st er
ki ểu</w>
sec ond</w>
aga in
nh ằm</w>
L </w>
ab ly</w>
l ĩnh</w>
indivi du
m ềm</w>
tr ăm</w>
ter min
con t
t ting</w>
sup port</w>
1 .
đo án</w>
ch ắn</w>
b ổ</w>
b ed</w>
s is</w>
again st</w>
star ted</w>
im ple
ho à</w>
re al</w>
b l
an s
ù a</w>
đ au</w>
educ ation</w>
k er</w>
v ũ</w>
G i
v ari
r ate</w>
ã n</w>
ưỡ ng</w>
ci p
possi ble</w>
fe el</w>
v ay</w>
en ds</w>
d ầu</w>
or din
st om
ec tive</w>
au th
d om
su ất</w>
lo y
k ers</w>
ch ăm</w>
sour ces</w>
contr ol</w>
w at
per s
ve ly</w>
t ạp</w>
servi ce</w>
cen tr
n ợ</w>
sh are</w>
1 1</w>
b óng</w>
lo ài</w>
bec ome</w>
ộ n</w>
ac tion</w>
so lu
tr ời</w>
mb ers</w>
h ơi</w>
ngu y</w>
& </w>
g ar
c ar</w>
bi ển</w>
cu ốn</w>
pro f
mit te
e m
d ro
to à</w>
po wer</w>
to p</w>
en cies</w>
du ng</w>
ó p</w>
so át</w>
2 .
po pu
k ích</w>
c au
pri v
c ally</w>
v ời</w>
atu re</w>
h ead</w>
an al
m r.</w>
rec or
nh ật</w>
tur n</w>
l ỗi</w>
te ach
t ốc</w>
accor ding</w>
ri s
ti ện</w>
p as
wi t
a ch</w>
c am
vi de
r ou
lo ve</w>
t el
ma j
i es</w>
s ắp</w>
kh u
đ ẩy</w>
so f
s âu</w>
n er
ques tion</w>
pr in
2 5</w>
pl ac
in do
bi llion</w>
en ces</w>
Vi etnam</w>
al l
tr ông</w>
tri bu
lar ge</w>
me a
l ương</w>
gi ác</w>
z ation</w>
re por
li ve</w>
credi t</w>
am oun
ẵ n</w>
exp en
c s</w>
qu ỹ</w>
ffi cul
th iện</w>
se ver
grow th</w>
proble ms</w>
di fficul
do es
progr am</w>
si dent</w>
c ử</w>
o ff
con di
our s</w>
me an</w>
g lo
me mber</w>
et nam
bo o
beli eve</w>
s s
re pres
m a</w>
bra in</w>
U ni
compu ter</w>
m ong</w>
ch a</w>
to ld</w>
inter national</w>
ừ </w>
l ược</w>
al ready</w>
a bility</w>
si ty</w>
al e</w>
fol low
loo king</w>
B </w>
ke ep</w>
t àu</w>
le t
fun c
ng ồi</w>
ho l
4 0</w>
h ại</w>
ch âu</w>
th í</w>
who le</w>
ni ên</w>
in de
ll s</w>
b ank</w>
w ro
p ay</w>
lã i</w>
ha ving</w>
ng ủ</w>
t ải</w>
ro ss</w>
at ur
vi ew</w>
tu res</w>
ati on
ac i
è </w>
ò i</w>
c ận</w>
e ty</w>
thi ên</w>
st and
ob j
f ai
x ếp</w>
do ll
im p
T E
d ra
ab li
a ff
t ắc</w>
đ ích</w>
al le
V </w>
in come</w>
str e
s ẵn</w>
d ạy</w>
b ăng</w>
bu ộc</w>
kh ủng</w>
app lic
un ti
under stand</w>
l ạc</w>
provi de</w>
th ẩm</w>
est abli
es ting</w>
to ok</w>
x o
z </w>
mon ths</w>
V à</w>
did n</w>
activi ties</w>
s ợ</w>
d ấu</w>
fi ed</w>
di sa
fu ture</w>
n on
sel ves</w>
so l
en d
la ngu
e f</w>
tr úc</w>
bi ll</w>
buil ding</w>
h y</w>
ầ ng</w>
etnam ese</w>
e -
y et</w>
get ting</w>
eri can</w>
h ard</w>
R </w>
uni ver
parti cul
ng ôi</w>
tw are</w>
an ts</w>
thi r
g óp</w>
du ce</w>
com es</w>
s óc</w>
enti al</w>
cre ate</w>
on ce</w>
po or</w>
ai ds</w>
G o
wee k</w>
t ầng</w>
c es
qu ite</w>
a ir</w>
v ai</w>
ce p
kho án</w>
fi gu
O </w>
sever al</w>
con cer
n ầy</w>
in stitu
mạ ch</w>
vi si
or e</w>
qu ý</w>
b al
are a</w>
vide o</w>
unti l</w>
gener al</w>
ph i</w>
po lic
t ịch</w>
d òng</w>
N ew</w>
respon si
f ar</w>
sof tware</w>
as si
t -
u su
n ạn</w>
n e</w>
e f
gra ph
nh u
ru n</w>
ch á
whe ther</w>
ous ly</w>
co ver
ap er</w>
b ang</w>
hal f</w>
ch es</w>
goo ds</w>
h ậu</w>
inter est</w>
đo àn</w>
wan ted</w>
stu dy</w>
z ing</w>
th ập</w>
kh ắp</w>
in es</w>
tu al</w>
ol s</w>
proj ects</w>
ac cess</w>
gi r
ch iều</w>
tr ying</w>
li es</w>
mo ve</w>
l ựa</w>
te ly</w>
anal y
s ắc</w>
cle ar</w>
ma y
di es</w>
h er
ag encies</w>
J o
priv ate</w>
gi ven</w>
c ân</w>
đ ăng</w>
ph út</w>
y si
tuy ến</w>
the y
đ u
as ked</w>
v ượt</w>
fu r
sp ea
glo b
tr ì</w>
el d</w>
b ày</w>
comm uni
1 ,
li ving</w>
ke y</w>
ch ứ</w>
you ng</w>
ori ty</w>
en ing</w>
x úc</w>
securi ty</w>
organiz ations</w>
do c
ch ing</w>
đ ừng</w>
pa y
we 're</w>
se en</w>
ci r
ú i</w>
w on
ngh i
k ẻ</w>
b as
a st</w>
ni ght</w>
re port</w>
qu ality</w>
ki ds</w>
co st</w>
nh u</w>
kno w
m ật</w>
c k
R e
bi ên</w>
h and</w>
ful ly</w>
u ro
produc tion</w>
W e
ụ p</w>
m om
T ổng</w>
c ư</w>
i .</w>
6 0</w>
hou se
ph ù</w>
ng e</w>
n ec
cu stom
m ã</w>
ter m</w>
resear ch</w>
th ăm</w>
s m</w>
are as</w>
polic y</w>
d ence</w>
inclu ding</w>
pro per
thu ê</w>
po ver
an ti
t ả</w>
ch ỉnh</w>
u ống</w>
n iệm</w>
ra ther</w>
ac ross</w>
tech ni
w er
ma ch
h ạ</w>
ther e's</w>
pri ce</w>
l ater</w>
tr ừ</w>
comm on</w>
ké o</w>
pl an</w>
n ers</w>
m y
ti ểu</w>
ge st</w>
s ửa</w>
st ate
n al</w>
b iện</w>
re ma
m ôn</w>
kh uy
tr ải</w>
ngh ỉ</w>
te le
su pp
s or
ma kes</w>
* </w>
min u
mini str
ho ld</w>
y -
ph o
p ati
s ki
mo de
econom y</w>
ori es</w>
gi ai</w>
u .
tr ai</w>
w el
y .</w>
ri ghts</w>
at or</w>
n ame</w>
tr ánh</w>
pover ty</w>
nhu ận</w>
ke ts</w>
an n
vi ol
ph one</w>
r un
f f</w>
stu dents</w>
di se
M i
regu l
d ây</w>
se e
m it</w>
the m
inv ol
h ắn</w>
h and
d u</w>
chuy ến</w>
ch ứa</w>
s ort</w>
every thing</w>
ch ữa</w>
re ali
pr acti
curr ent</w>
nhi êu</w>
M ar
re duc
ta i</w>
de li
de termin
x uyên</w>
consi der
t ấn</w>
mat eri
m ón</w>
ch ồng</w>
bu i
me e
sci enti
ọ </w>
an im
com ing</w>
ter i
ph ê</w>
c ed</w>
str ic
ng .</w>
cá nh</w>
am ong</w>
may be</w>
đ êm</w>
en s</w>
ll ed</w>
con struc
indu stri
de vi
b ar
ta in
str ate
r út</w>
c ục</w>
ou th</w>
k ì</w>
d -
ad v
l ắng</w>
op en</w>
ad di
pro ce
nee ds</w>
200 0</w>
tr ận</w>
li st</w>
c ắt</w>
Ch ina</w>
any thing</w>
do cu
n ỗi</w>
bu d
đ áp</w>
p ed</w>
b ad</w>
tru y</w>
ag ency</w>
comm unic
a ver
s po
G </w>
đ ợi</w>
t ation</w>
enterpri ses</w>
g le</w>
ear ly</w>
sp e
th ẳng</w>
ng ắn</w>
wor ds</w>
su ng</w>
o thers</w>
n ặng</w>
a w
mul ti
kh ối</w>
produc ts</w>
ai l
qu ảng</w>
đ ào</w>
tr ụ</w>
leg al</w>
es ti
đ ột</w>
part ment</w>
par ents</w>
experi ence</w>
c er</w>
oper ation</w>
ng ăn</w>
tic le</w>
ị p</w>
indu stry</w>
di a</w>
x ung</w>
l ate</w>
m ùa</w>
ad dre
wor d</w>
f oo
desig n</w>
issu e</w>
b ốn</w>
ser ver</w>
h n</w>
õ i</w>
sec tor</w>
kh ám</w>
ec ti
x u</w>
dis cu
ad ministr
amoun t</w>
n atur
sto ck</w>
in t</w>
offi ce</w>
Pe ople</w>
pl ay</w>
ph ysi
má u</w>
bui ld</w>
c o</w>
sp ace</w>
ngh ề</w>
de b
organiz ation</w>
ó a</w>
s ẻ</w>
ar ly</w>
ta king</w>
emp loy
d ần</w>
d ru
bi r
n a
re co
g es</w>
ng ược</w>
im ag
li ke
difficul t</w>
an t
ph ức</w>
h ạt</w>
lear n</w>
pa st</w>
ag re
tr ad
mon th</w>
k ê</w>
prob ably</w>
K ỳ</w>
tho ả</w>
po sed</w>
mo ther</w>
t ờ</w>
l ệnh</w>
so ft</w>
ph ong</w>
f y</w>
ati c</w>
đ òi</w>
ma in
kh ởi</w>
G oo
e le
ch ữ</w>
ac y</w>
Ho a</w>
fo cu
t ái</w>
si te</w>
họ p</w>
x ấu</w>
y ed</w>
re sources</w>
n ửa</w>
ar t</w>
đ á</w>
langu age</w>
ex pres
min d</w>
h út</w>
pri ces</w>
lea st</w>
h y
b ánh</w>
fu ll</w>
c ases</w>
l á</w>
ti m</w>
D i
qu ần</w>
low er</w>
f er</w>
b ầu</w>
K </w>
ặ n</w>
environ ment</w>
nu ôi</w>
t ary</w>
st ance</w>
en ding</w>
mis sion</w>
co i</w>
high er</w>
sing le</w>
qu ic
g s</w>
fi l
si x</w>
posi tion</w>
nh iệt</w>
đ ỡ</w>
maj or</w>
indo ws</w>
you 're</w>
v ợ</w>
de a
ra di
đ ói</w>
ta ken</w>
re li
c op
ce pt</w>
o il</w>
b ab
F </w>
b ene
N o
l ái</w>
at s</w>
u es</w>
te st</w>
F r
ú a</w>
tr ao</w>
n .</w>
ar m
t ầm</w>
be au
t ô</w>
ph ổ</w>
d àng</w>
y er</w>
us d</w>
tr ade</w>
qu ar
ngh i</w>
l an</w>
h ours</w>
sa w</w>
lo ws</w>
id enti
t ận</w>
ch ị</w>
khi ển</w>
glob al</w>
ph óng</w>
nghi êm</w>
k in
tr ữ</w>
thin king</w>
tran sp
al most</w>
ab o
p ment</w>
ng ạc</w>
ener gy</w>
ac ts</w>
ne ws</w>
tra ining</w>
ph úc</w>
M a
ffi ci
v ation</w>
ri ed</w>
peri od</w>
ge ts</w>
5 00</w>
s ong</w>
d ate</w>
u. s.</w>
t ex
vi sion</w>
s le
K h
am es</w>
ra i
chang es</w>
l ắm</w>
pi ec
i m</w>
l an
ho ạ</w>
sá u</w>
F i
fr on
aver age</w>
to tal</w>
po t
3 .
p es</w>
g er</w>
n âng</w>
ld n</w>
nh ờ</w>
m ắc</w>
s li
pl es</w>
ch óng</w>
no thing</w>
stan ding</w>
mi ễn</w>
cer tain</w>
de f
ớ m</w>
th ous
ụ t</w>
sub j
g ni
1 8</w>
pre sident</w>
bo ard</w>
r ối</w>
C o
some one</w>
sen se</w>
mat ter</w>
c ess
h ạnh</w>
X </w>
ar ds</w>
usu ally</w>
th re
simp le</w>
m es
Goo gle</w>
speci al</w>
ê nh</w>
te am</w>
ment al</w>
M o
th ai</w>
t ty</w>
] </w>
wom an</w>
sour ce</w>
[ </w>
t ấm</w>
reas on</w>
au di
know le
sh ing</w>
tru e</w>
char ac
he ad
ail able</w>
b ại</w>
kno wn</w>
follow ing</w>
av ailable</w>
sur ance</w>
natur al</w>
g ốc</w>
d en
c ra
li g
ké m</w>
in te
8 0</w>
us ers</w>
co ordin
sci ence</w>
me mbers</w>
ph ạt</w>
n ộp</w>
w ha
st ates</w>
f ree</w>
incre ase</w>
chi ếu</w>
si tu
as soci
Com mitte
li ves</w>
ne w
khuy ến</w>
tal king</w>
par ty</w>
kh ích</w>
some times</w>
ty pe</w>
es p
đ ổ</w>
h iệp</w>
for d</w>
ta kes</w>
cul ture</w>
bu y</w>
li sh</w>
L u
ph iên</w>
w ed</w>
h ề</w>
x anh</w>
like ly</w>
chiế m</w>
we a
they 're</w>
con tribu
lev els</w>
al ong</w>
qu ang</w>
f el
el se</w>
k ính</w>
qu en</w>
ch ậm</w>
cel ls</w>
5 0
ec ting</w>
war ds</w>
does n</w>
t 's</w>
at ors</w>
l ễ</w>
ve ment</w>
poli tical</w>
chá u</w>
u ỷ</w>
th ách</w>
th ác</w>
fri ends</w>
e vi
parti cip
er ing</w>
oun ds</w>
si a</w>
at ten
n ỗ</w>
c .</w>
ex per
mer ic
condi tions</w>
al low
ị t</w>
fi eld</w>
y ork</w>
T he</w>
t ou
hi v</w>
d ường</w>
s sed</w>
for ms</w>
vi e
deci ded</w>
resul t</w>
l ộ</w>
doll ars</w>
Go vernment</w>
7 0</w>
th ank</w>
sto p</w>
nee ded</w>
kh ắc</w>
tt en</w>
su g
b ack
t ar
s ớm</w>
g ói</w>
in sp
l y
ho pe</w>
wro ng</w>
th ừa</w>
issu es</w>
go es</w>
tur ned</w>
po se</w>
deci sion</w>
th ắng</w>
I P</w>
v âng</w>
hear d</w>
ch alle
1 6</w>
– </w>
bi o
au tom
A T
inclu de</w>
si mi
U .
t ỏ</w>
nec ess
lin es</w>
con ver
ó t</w>
proce du
por tu
es tim
tuy ên</w>
ga ve</w>
happen ed</w>
1 3</w>
Y ork</w>
s ân</w>
mom ent</w>
ch ụp</w>
1 4</w>
đ em</w>
we b</w>
hã ng</w>
mi ền</w>
c ks</w>
p at
ng ton</w>
m ười</w>
ro ad</w>
ứ t</w>
soci ety</w>
nor m
th ụ</w>
op portu
gr ad
TE D</w>
te m
hol ds</w>
o s</w>
thir d</w>
kho á</w>
accoun t</w>
F in
ris k</w>
hear t</w>
cũ </w>
enterpri se</w>
v al</w>
h und
di sp
a chi
ll ing</w>
ch a
t ory</w>
ag ed</w>
A meric
ser ve</w>
bud get</w>
l ạ</w>
gr ound</w>
s àng</w>
se a</w>
car e
scri bed</w>
opportu ni
m ấy</w>
l í</w>
B u
o k
in ning</w>
U ỷ</w>
bab y</w>
P ro
ef for
w ing</w>
k ly</w>
g en</w>
è n</w>
cor por
be ha
shar es</w>
s ation</w>
poli ce</w>
ch ec
đ ương</w>
str o
d en</w>
c y
đ ức</w>
ment ation</w>
d õi</w>
to co
g ắn</w>
for ce</w>
e qu
al though</w>
mes sa
g l
am a</w>
đ ám</w>
ex ecu
blo od</w>
r ates</w>
th y</w>
é o</w>
ph ận</w>
pre ss</w>
d ers</w>
We b</w>
mea su
inst ead</w>
g ed</w>
qu e</w>
fun d</w>
đ o</w>
communi ty</w>
su per
gi n</w>
M ic
5 .
loo ked</w>
w ar</w>
tre at
i ght</w>
dise ase</w>
s ổ</w>
resul ts</w>
ng ờ</w>
com par
bu ồn</w>
b er</w>
mu sic</w>
ar gu
eci ally</w>
individu als</w>
ter ms</w>
mode l</w>
inter esting</w>
esp ecially</w>
E ng
com b
n y</w>
logi cal</w>
b ữa</w>
rel ated</w>
ủ i</w>
t .</w>
I 've</w>
me mor
h ôn</w>
v àng</w>
pre ci
clo se</w>
ea si
đ ảo</w>
re member</w>
e li
c ường</w>
Uni ted</w>
s trong</w>
fa v
pre tty</w>
lea ve</w>
ans wer</w>
them selves</w>
popu lation</w>
re si
l er</w>
tic s</w>
fur ther</w>
sig ni
s wit
me et</w>
in ese</w>
sa ying</w>
c am</w>
re ven
g ame</w>
t ộc</w>
t or
chu ỗi</w>
se qu
program m
n óng</w>
co sts</w>
b on
An d</w>
fa ther</w>
đ ảng</w>
h ải</w>
so on</w>
ki m</w>
grou ps</w>
de ta
b í</w>
p aper</w>
lo st</w>
out side</w>
t ent</w>
in side</w>
e sts</w>
it self</w>
h àm</w>
nh ắc</w>
a ging</w>
A m
du e</w>
direc tly</w>
B i
p ing</w>
happ en</w>
can not</w>
Mic ro
li st
hi story</w>
beha vi
as y</w>
pl ans</w>
mee ting</w>
in surance</w>
phá n</w>
for man
b ọn</w>
A fri
exp lo
ex change</w>
pa id</w>
b ring</w>
r ượ
c ười</w>
1 8
lu tion</w>
ar ri
tr ắng</w>
nh ẹ</w>
buil t</w>
A N
stri bu
ple ase</w>
r ời</w>
el ing</w>
d am
c le</w>
l ỗ</w>
boo ks</w>
ser i
ch ờ</w>
Ng ân</w>
00 0
h át</w>
W indows</w>
pp ed</w>
un e</w>
si ze</w>
ma in</w>
đ en</w>
tr ùng</w>
br an
ng ại</w>
Ch úng</w>
rượ u</w>
ic al</w>
non -
develop ing</w>
per forman
ne i
` </w>
4 .
qu i</w>
ther e
m ời</w>
dea th</w>
er y</w>
ei ther</w>
on ed</w>
h or
c ause</w>
ex i
ci ties</w>
ques tions</w>
centr al</w>
l uyện</w>
ớ t</w>
mi c</w>
ta x
hu y</w>
t ổn</w>
h ấp</w>
v ững</w>
cir cu
th ưởng</w>
ni ềm</w>
fron t</w>
li er</w>
bec om
ng -
P ar
ic s</w>
fri end</w>
en ded</w>
d ương</w>
C on
A pp
l ẫn</w>
d ưỡng</w>
9 0</w>
c la
minu tes</w>
d ance</w>
in dic
de mo
T ài</w>
pro ces
ẳ n</w>
ho sp
proper ty</w>
mi dd
cl ass</w>
sh ort</w>
ac tions</w>
s a</w>
mo der
man u
b ạc</w>
q </w>
lo nger</w>
every one</w>
an nu
tur al</w>
ni a</w>
ac e
develop ed</w>
P o
n ắm</w>
h ộp</w>
net works</w>
O h</w>
n ature</w>
rel ation
oper ating</w>
knowle dge</w>
hear </w>
en ted</w>
bec ame</w>
Ph i</w>
Micro soft</w>
j our
uy ệt</w>
s end</w>
f lo
e e</w>
fi ts</w>
do m</w>
can 't</w>
y our
program s</w>
particul ar</w>
c ơn</w>
20 10</w>
vi etnamese</w>
e y
sho ws</w>
imple mentation</w>
h ẳn</w>
pur ch
mor ning</w>
d ou
r ap
doc tor</w>
2 00</w>
2 ,
A l
ho ảng</w>
cu t</w>
ã y</w>
eff ect</w>
ươ i</w>
te l</w>
s ent</w>
produc t</w>
le y</w>
d ly</w>
performan ce</w>
v ẽ</w>
sti c</w>
recor d</w>
ini ti
h ea
di ed</w>
cover ed</w>
` `</w>
r o</w>
g n
can cer</w>
tra di
S u
pho to
l iệt</w>
continu e</w>
t ôn</w>
imp act</w>
mi li
Ch ính</w>
loo ks</w>
ọ t</w>
situ ation</w>
di stribu
ma il</w>
I s
199 9</w>
m er</w>
h ài</w>
đ ỏ</w>
pu l
fun ds</w>
f al
eng ine
th ôn</w>
gi àu</w>
di ngs</w>
li mi
wh ite</w>
ide as</w>
2 4</w>
ci vi
B o
st ers</w>
regul ations</w>
ori g
e asy</w>
beau ti
shi ngton</w>
ph ỏng</w>
con duc
h óa</w>
g ấp</w>
w on</w>
cap aci
w as
r an</w>
ap an</w>
provi des</w>
offi ci
x ương</w>
W i
de pen
run ning</w>
po wer
n ation</w>
ch ặt</w>
plac es</w>
am s</w>
th ải</w>
l ửa</w>
beg an</w>
stu ff</w>
l ạnh</w>
pres ent</w>
om e
hu r
c ầm</w>
bili ties</w>
air s</w>
go vern
ro bo
exp la
U </w>
rec ent</w>
uni ted</w>
reco gni
th ận</w>
sup por
p ac
S er
un it</w>
sig ned</w>
sch o
chang ed</w>
B ank</w>
ế ng</w>
ver s</w>
m àn</w>
construc tion</w>
S i
đ ĩa</w>
st an</w>
ph ó</w>
cre ated</w>
re qu
in ation</w>
func tion</w>
al u
200 5</w>
pic ture</w>
my self</w>
k iệm</w>
nh ảy</w>
0 s</w>
H I
ng àn</w>
de m
Am erican</w>
s ses</w>
happen s</w>
d el
figu re</w>
ear lier</w>
est er
v ac
speci fic</w>
fin ally</w>
en ed</w>
200 3</w>
è m</w>
ne y</w>
gi ết</w>
se par
fer ence</w>
W or
tr af
s sion</w>
fin e</w>
en tr
w o
la w
an ces</w>
s al</w>
piec e</w>
institu tions</w>
ch ào</w>
b ac
th ao</w>
t ây</w>
n ổ</w>
differ ence</w>
develo p</w>
cal cul
ar ti
kh ổ</w>
co de</w>
đi ển</w>
thi ểu</w>
elec tri
T ây</w>
ù i</w>
tr ac
app ear
o -
hu ỷ</w>
comple tely</w>
S .</w>
t ường</w>
on don</w>
mit ted</w>
in ten
est ed</w>
t ách</w>
imag ine</w>
h i</w>
t ướng</w>
re st</w>
your self</w>
invest ors</w>
ei ght</w>
B ri
A N</w>
addre ss</w>
did n't</w>
abo ve</w>
St ates</w>
wor k
mi cro
comm er
be h
necess ary</w>
n út</w>
es tic</w>
sec re
quic kly</w>
de al</w>
L i
p .</w>
sal es</w>
Đ iều</w>
wor kers</w>
us er</w>
trad ing</w>
te mp
khu ôn</w>
C P</w>
pre par
vi ous</w>
r ay</w>
wi fe</w>
house holds</w>
h on
grow ing</w>
c ú</w>
compe ti
bas is</w>
199 8</w>
Fin ance</w>
200 2</w>
me t</w>
e ffici
ba si
Nh ật</w>
enti re</w>
Ch âu</w>
wor ked</w>
si êu</w>
gi à</w>
a do
individu al</w>
beh ind</w>
\ </w>
medi a</w>
me th
subj ect</w>
sp end</w>
beauti ful</w>
as ing</w>
st ep</w>
s er</w>
de sp
col le
vi ce</w>
sá nh</w>
ex ac
d ừng</w>
accoun ting</w>
provin cial</w>
par ts</w>
1 00
t án</w>
m ái</w>
c ứng</w>
th iệu</w>
ou gh
hu man
f it</w>
ban ks</w>
m al
ar chi
treat ment</w>
en jo
wee ks</w>
tur ns</w>
qu ên</w>
ann oun
tre e</w>
simi lar</w>
industri al</w>
f -
b ắc</w>
au gh
un its</w>
s mo
kh ung</w>
h à</w>
che mi
ad a</w>
p tion</w>
th ịt</w>
ng ing</w>
ch u</w>
capaci ty</w>
t ù</w>
r ơi</w>
quy ển</w>
fir m</w>
simp ly</w>
L a
7 .
sur pri
solu tion</w>
e mer
vi d</w>
suc cess</w>
s ound</w>
en se</w>
lo ts</w>
suc cess
prot ection</w>
direc t</w>
wri te</w>
kin ds</w>
si l
e at</w>
3 5</w>
ỵ </w>
mach ine</w>
dom estic</w>
me ch
ch ấm</w>
7 5</w>
b ạo</w>
vo ice</w>
R o
beg inning</w>
am a
happ y</w>
thu ỷ</w>
struc ture</w>
stand ard</w>
manu fac
N or
200 8</w>
p lu
ter ri
no ti
gi ây</w>
fel t</w>
s ông</w>
m ê</w>
lear ning</w>
in al</w>
c ell</w>
c at
M e
E uro
C hi
8 .
provin ces</w>
he 's</w>
equi pment</w>
sh or
fa st</w>
basi cally</w>
nh é</w>
g as</w>
y ers</w>
k ịch</w>
t ật</w>
kh ảo</w>
200 4</w>
inte gr
ali zed</w>
t an</w>
r en
n úi</w>
l ầm</w>
l ưới</w>
pro mo
kh o</w>
di gi
c lear
i ty</w>
b s</w>
sig n</w>
exac tly</w>
H </w>
đ ài</w>
se ems</w>
s óng</w>
ro le</w>
k new</w>
exp ected</w>
F or
sch e
s y</w>
h ứng</w>
to m</w>
im medi
d uyệt</w>
ld ers</w>
ô -
won der
offici als</w>
n êu</w>
c ru
kh ái</w>
ec tions</w>
200 1</w>
ũ ng</w>
st ay</w>
pro gre
v ol
oun d
we b
T o
re mo
provi ded</w>
r an
in tro
Â u</w>
bal ance</w>
U. S.</w>
y ên</w>
thous ands</w>
me dic
al low</w>
appro ach</w>
am erican</w>
ba sic</w>
b ảy</w>
auth ori
wi de</w>
to wn</w>
pers onal</w>
pa in
meth od</w>
invol ved</w>
b all</w>
ate st</w>
e yes</w>
us es</w>
stre et</w>
le ad</w>
h an
establi sh
demo cr
applic ation</w>
signi fic
g ri
ac cep
App le</w>
s ell</w>
m ẽ</w>
s ạch</w>
dr in
tr ích</w>
st e</w>
lo ạn</w>
for ward</w>
eff ective</w>
ch ảy</w>
ag </w>
tri ed</w>
ev alu
state ment</w>
m ơ</w>
cou ple</w>
ch e</w>
cer tain
d ậy</w>
Ấ n</w>
r al</w>
hu ge</w>
fac i
defin i
ch ó</w>
asse ts</w>
B ắc</w>
tr ạm</w>
th iệt</w>
consi der</w>
ad ded</w>
xo á</w>
techni cal</w>
ru s</w>
li ed</w>
job s</w>
se ven</w>
medi cal</w>
il s</w>
ợ t</w>
we 've</w>
t ốn</w>
sur ve
in tel
ali for
ẹ n</w>
ti ềm</w>
b and</w>
str eng
pot ential</w>
kh ấu</w>
every body</w>
reduc tion</w>
re le
r ừng</w>
do or</w>
atten tion</w>
cá n</w>
con sul
t ạm</w>
sy n
strate gy</w>
f und
al loc
do w
fi le</w>
ự ng</w>
t ắt</w>
ca sh</w>
thu s</w>
ha ps</w>
focu s</w>
vi ty</w>
vi c
oper ations</w>
ni nh</w>
gu i
vi ll
rec ently</w>
vari ous</w>
tho át</w>
bi a</w>
as ks</w>
L e
w all</w>
impro ve</w>
P re
sho wn</w>
mon it
ma i</w>
addi tion</w>
1 7</w>
per haps</w>
h ands</w>
a .</w>
1 2
recei ved</w>
pro toco
me an
traf fic</w>
docu ments</w>
bor n</w>
ne l</w>
grad u
br ought</w>
wri tten</w>
th ầu</w>
t ảng</w>
poli cies</w>
i g
alifor nia</w>
sec on
ng ừng</w>
I S
19 </w>
d ar
bi nh</w>
tu n
mar kets</w>
fil m</w>
ấ c</w>
a vo
w ai
teach er</w>
m ed</w>
3 0
1 5
pay ment</w>
N et
compu ters</w>
u se
in no
c ản</w>
K i
spea k</w>
r ủi</w>
lear ned</w>
w in
de partment</w>
cul tural</w>
s cre
gre en</w>
b on</w>
C or
đ èn</w>
e mb
st age</w>
er a</w>
h ạng</w>
gi c</w>
ex tre
con sum
c ấm</w>
bo x</w>
bl ack</w>
= </w>
ườ n</w>
prof es
pro te
fin i
pl ant</w>
l ối</w>
stor e</w>
lo ss</w>
st ories</w>
comple te</w>
w ers</w>
g one</w>
C O
d y
bi ts</w>
R i
+ </w>
ski lls</w>
c à</w>
gi ỏi</w>
fre e
Vi etnamese</w>
spe e
ssi ons</w>
h our</w>
elec tr
ven tion</w>
ra nge</w>
ex port</w>
b ly</w>
H ội</w>
G ener
t àn</w>
fir ms</w>
er ed</w>
b y
re duce</w>
ch ép</w>
allow ed</w>
sle ep</w>
ph ẫu</w>
no te</w>
er al</w>
4 5</w>
ok ay</w>
en sure</w>
be gin</w>
M an
pre dic
ho àng</w>
pre v
gir ls</w>
b lu
O b
tr ại</w>
ab les</w>
sp ent</w>
ex ci
e ts</w>
b è</w>
á y</w>
physi cal</w>
x ed</w>
T i
ty pes</w>
sp i
th ầy</w>
some body</w>
plan ning</w>
m ate</w>
l ục</w>
k èm</w>
incre ased</w>
fic ation</w>
m ãi</w>
responsi bility</w>
gi ving</w>
ap an
anim als</w>
am e
shi ps</w>
off er</w>
b ật</w>
C ông</w>
sh e
s ou
- l
f all</w>
Y </w>
tr ồng</w>
đ ỉnh</w>
đ ẳng</w>
su sta
hi v
ch ối</w>
al one</w>
t end</w>
g óc</w>
signific ant</w>
si onal</w>
mo ving</w>
li nh</w>
c ăng</w>
Ph áp</w>
Ar ticle</w>
Afri ca</w>
w ou
v ỡ</w>
scho ols</w>
per f
cl as
ng ang</w>
deci sions</w>
su mp
re turn</w>
particul arly</w>
on y</w>
o ffer
let ter</w>
ex er
gir l</w>
g row</w>
applic ations</w>
anc ed</w>
E ar
Đ ộ</w>
sec tion</w>
securi ties</w>
regi on</w>
ì a</w>
th ơ</w>
form ed</w>
ch ủng</w>
sig n
s qu
ati ves</w>
anc y</w>
accoun ts</w>
dem and</w>
tr ưng</w>
fi re</w>
b -</w>
S o
mar y</w>
2 1</w>
w in</w>
ru les</w>
ng uyện</w>
an ci
t ồi</w>
sy m
mili tary</w>
Gener al</w>
v ân</w>
lo ạt</w>
com mitte
recei ve</w>
fe et</w>
th ước</w>
nei gh
bu s</w>
ty pic
ri ch</w>
on i
norm al</w>
comp on
pro duce</w>
desig ned</w>
ch ina</w>
at ory</w>
apan ese</w>
A u
wri ting</w>
pat ter
on ic</w>
consider ed</w>
Ch inese</w>
st -
memor y</w>
g an</w>
wal k</w>
d ang
a k</w>
1 6
limi ted</w>
b ền</w>
inf lu
ab or
tran si
poin ts</w>
pati ent</w>
midd le</w>
gh ế</w>
messa ge</w>
materi als</w>
pa in</w>
ngo ái</w>
inter ested</w>
wat ch</w>
ac tive</w>
m oun
gi ọng</w>
cen ter</w>
S y
qu án</w>
e mo
year -
v el
sc ale</w>
stric t</w>
up on</w>
relation ship</w>
ng re
m p</w>
ent al</w>
contr act</w>
ự u</w>
đ iệp</w>
pp ing</w>
atu res</w>
Americ a</w>
ũ i</w>
i ll
d ư</w>
reven ue</w>
po l
a de
sel f-
l àng</w>
im port</w>
gu y</w>
expres sion</w>
ad s</w>
Eng lish</w>
tr ou
li ter
l ack</w>
tur y</w>
hel d</w>
ex ten
val u
ti ệ
st af
measu res</w>
s ting</w>
fr ame</w>
N A</w>
3 ,
there fore</w>
su dd
se em</w>
nu mbers</w>
ci ti
quar ter</w>
provi sions</w>
cer ti
ad ver
repor ts</w>
f le
mi lli
m ing</w>
h us
at ta
annu al</w>
/ aids</w>
Wor ld</w>
19 7
tru c
khu ẩn</w>
j a
chi m</w>
G re
radi o</w>
hiv /aids</w>
t óc</w>
gi ó</w>
repres ent
ner ship</w>
es ses</w>
sur vi
sti cs</w>
hosp ital</w>
z z
h o</w>
Mini ster</w>
pro mi
m as
expen di
read ing</w>
h ối</w>
faci li
v y</w>
h a</w>
er r
vi ễn</w>
staf f</w>
prof it</w>
moder n</w>
materi al</w>
cen tury</w>
0 .
' '</w>
so ld</w>
ar m</w>
appro pri
D a
supp ly</w>
r ound</w>
m .</w>
deci de</w>
c ãi</w>
Y ou</w>
ti ci
gi ành</w>
evi dence</w>
sa fe
gr an
L ondon</w>
J u
le gi
concer ned</w>
chec k</w>
ru ral</w>
ng ly</w>
f arm
t i</w>
fe eling</w>
tu ỳ</w>
g ro
é n</w>
wi sh</w>
re p
in vi
O K</w>
tr i</w>
se tt
pers on
an a</w>
rea ch</w>
in fr
S te
v ết</w>
requi red</w>
requi re
repor ted</w>
procedu res</w>
adv ant
to wards</w>
manufac tur
cri sis</w>
kh án</w>
bu ôn</w>
custom ers</w>
N e
3 1</w>
logi es</w>
lo an</w>
cor rec
ri se</w>
or ing</w>
does n't</w>
ver sity</w>
regu lar</w>
re ly</w>
practi ce</w>
co ver</w>
ch ặn</w>
T V</w>
th ượng</w>
th ảm</w>
C ar
ex por
bu l
x ong</w>
ta ins</w>
sp ending</w>
ou d</w>
l ặp</w>
communic ation</w>
teri a</w>
l ạm</w>
dri ve</w>
or e
200 9</w>
responsi ble</w>
m ừng</w>
m ag
enc our
any one</w>
stand ards</w>
t ec
sm all
app ly</w>
dru g</w>
cul ar</w>
chu ột</w>
3 00</w>
th ưa</w>
mar k</w>
ld n't</w>
do ạ</w>
de scri
cour t</w>
con f
sho wed</w>
s ứ</w>
chang ing</w>
ag ri
wor th</w>
f ell</w>
bi le</w>
ari es</w>
a -
see ing</w>
r r
I 'll</w>
D ec
4 00</w>
th ẻ</w>
st ation</w>
re fl
l ec
sear ch</w>
sk in</w>
exer ci
cou ldn</w>
seri ous</w>
mech ani
exp ect</w>
a in</w>
vo lu
st ant</w>
d ứt</w>
N gh
199 0</w>
st op
nh ãn</w>
devi ces</w>
visi t</w>
teach ers</w>
s ốt</w>
qu í</w>
conn ection</w>
HI V</w>
spe ed</w>
L AN</w>
vi ously</w>
l ay</w>
ali ties</w>
O S</w>
opportuni ty</w>
ab solu
Ob ama</w>
Ear th</w>
pro po
incre di
compe tent</w>
commer cial</w>
AT M</w>
se x</w>
m ãn</w>
lar gest</w>
hu ấn</w>
ti êm</w>
k êu</w>
fami lies</w>
be low</w>
as truc
activi ty</w>
und p</w>
De partment</w>
o x
la ws</w>
s ạn</w>
ex pl
environ mental</w>
de gre
pla ying</w>
d ding</w>
A f
ti li
ch oo
we st</w>
ci l</w>
ch ín</w>
b ờ</w>
su me</w>
ev en
citi z
ch ers</w>
thr ough
tele vision</w>
dec lar
N ó</w>
r is</w>
defin ed</w>
b ậ
si on
i te
de ad</w>
bon ds</w>
b ru
ặ m</w>
p sy
In dia</w>
đ e</w>
oc cu
gi ận</w>
photo graph
ou se</w>
nh ánh</w>
ama zing</w>
2 3</w>
2 2</w>
ri es</w>
3 2</w>
mo vi
l ính</w>
k ĩ</w>
trans fer</w>
s sing</w>
m ắn</w>
lab or</w>
cha el</w>
infr astruc
s an</w>
ne arly</w>
in ess</w>
happen ing</w>
f lu
success ful</w>
offi cial</w>
5 %</w>
ar ticle</w>
Đ ông</w>
wan ts</w>
e d
conn ected</w>
I D
v ườn</w>
t asks</w>
str ation</w>
ep ing</w>
deb t</w>
car ry</w>
bậ c</w>
n a</w>
fre qu
con fi
ch ance</w>
program me</w>
g er
bo t
al -
Jo hn</w>
6 .
ac qui
val ues</w>
tu ân</w>
m ale</w>
fi sh</w>
as tic</w>
su n
re fu
kh ổng</w>
d ò</w>
hu ống</w>
ho li
hi m
h it</w>
comple x</w>
H i
robo t</w>
power ful</w>
c y</w>
l ẻ</w>
brea k</w>
bo y</w>
s ữa</w>
s ót</w>
g ation</w>
am er
gi ấc</w>
r ẻ</w>
ow ned</w>
effor ts</w>
cam p
N G</w>
re comm
obj ect</w>
k ỉ</w>
char ge</w>
b ớt</w>
sump tion</w>
ev ed</w>
compar ed</w>
b ãi</w>
Committe e</w>
m ảnh</w>
cá p</w>
se ly</w>
curr ently</w>
G e
ne ar</w>
Committe es</w>
199 7</w>
ster n</w>
ng ừa</w>
agre ement</w>
ad d</w>
vi t
m ưa</w>
l -
fin al</w>
lead ers</w>
k ênh</w>
fav or
ap ers</w>
ap e</w>
accor dance</w>
T H
star ting</w>
s mi
prin ci
is n</w>
b ối</w>
audi ence</w>
W a
th ở</w>
t úi</w>
scienti fic</w>
issu ed</w>
gre ater</w>
certain ly</w>
c ặp</w>
vi rus</w>
fol low</w>
ớ p</w>
rai se</w>
sho p</w>
s wi
inde pen
contr ol
con clu
1 4
st ati
scienti sts</w>
immedi ately</w>
committe e</w>
c ài</w>
P ri
Af gh
sy mp
sh es</w>
ali zation</w>
J apan</w>
200 7</w>
wi se</w>
sal e</w>
g a</w>
at tribu
đu ổi</w>
tra in</w>
new sp
gr and
cau sed</w>
c ỡ</w>
Ch ri
under standing</w>
lo se</w>
l ành</w>
clear ly</w>
c ẩn</w>
sc o</w>
pres sure</w>
l ồ</w>
g ate</w>
e es</w>
đ ựng</w>
wo od</w>
who se</w>
me tho
busin esses</w>
Đ ại</w>
im age</w>
ho t</w>
gu ar
e o</w>
univer se</w>
sa fe</w>
r ac
m r</w>
i led</w>
fer red</w>
wa it</w>
vac c
house hold</w>
h ào</w>
en ch</w>
cli ent</w>
sc op
d ĩ</w>
stri es</w>
ea h</w>
digi tal</w>
al ter
ý t</w>
r ắc</w>
g ợi</w>
v ong</w>
ob lig
univer sity</w>
progre ss</w>
la yer</w>
al lows</w>
ac ci
ố m</w>
tru st</w>
tr ứng</w>
stu dies</w>
ho od</w>
bo dies</w>
b ề</w>
b i</w>
tra vel</w>
mini stry</w>
bro ad
be y
at us</w>
s ati
lin k</w>
y ester
was n</w>
se xu
him self</w>
v ĩ</w>
st ly</w>
pati ents</w>
infrastruc ture</w>
ch ạm</w>
bey ond</w>
v an</w>
v a</w>
sol ve</w>
sa ve</w>
ecti vely</w>
am p</w>
pre scribed</w>
fe der
ber t</w>
al ing</w>
1 /
ệ ch</w>
mu m</w>
I I</w>
mea sure</w>
ho lders</w>
dow n
B ản</w>
li fe
en ter</w>
di an</w>
G od</w>
prot ect</w>
hi ển</w>
gi ves</w>
bene fits</w>
t ám</w>
s -
mo d
ke pt</w>
c ing</w>
ati vely</w>
ti ngs</w>
th uyền</w>
Cor por
tradi tional</w>
sym bo
si an</w>
devi ce</w>
kh uyên</w>
d p</w>
sh ou
our selves</w>
di e</w>
re form</w>
ph ấn</w>
U S
I B
ni ce</w>
men ted</w>
yester day</w>
ngh ìn</w>
n ations</w>
h è</w>
fin ance</w>
fi f
Nh ưng</w>
un ch</w>
st on</w>
hus band</w>
cli mate</w>
B ạn</w>
ị nh</w>
on line</w>
man age</w>
li ền</w>
gener ation</w>
for tun
e al
d ặm</w>
analy sis</w>
C an
in put</w>
đ àm</w>
ser ies</w>
n c
m unic
determin e</w>
administr ation</w>
respon se</w>
civi l</w>
de t
d ai
u n</w>
hund red</w>
co ld</w>
car s</w>
appropri ate</w>
af ter
re gar
com for
wha t's</w>
hi ếm</w>
plan et</w>
hund re
M on
t ask</w>
st y
s mar
reas ons</w>
de p
B an</w>
requi re</w>
avo id</w>
ur ban</w>
sti pul
posi tive</w>
as king</w>
an e</w>
administr ative</w>
addi tional</w>
me ly</w>
f our
direc tor</w>
ch àng</w>
behavi or</w>
f ru
s outh</w>
ey e</w>
ch ốt</w>
at temp
we ight</w>
bran ches</w>
ad ul
C oun
h at</w>
f am
c row
b le
ó .</w>
t ặng</w>
c ard</w>
bri dge</w>
bi g
ã ng</w>
wonder ful</w>
w are</w>
inclu des</w>
ch án</w>
Lu ật</w>
te ver</w>
e .</w>
doll ar</w>
ser v
kh áng</w>
go ti
tr ống</w>
si tting</w>
pre vious</w>
chi ef</w>
200 6</w>
inv esti
t wi
h ảo</w>
becom es</w>
A c
wha tever</w>
m ươi</w>
h ỏng</w>
ch an
av a</w>
Corpor ation</w>
techno logies</w>
reali zed</w>
j </w>
tel ling</w>
ha ir</w>
eff ects</w>
S outh</w>
kh ẳng</w>
ic es</w>
d ong</w>
ser ved</w>
oun ded</w>
orig inal</w>
lead ing</w>
is ting</w>
form er</w>
sug ge
s low
popu lar</w>
nh ấn</w>
H ar
đu a</w>
ther n</w>
provin ce</w>
m enti
k ịp</w>
bu n
đ iệu</w>
đ iên</w>
r ati
noti ce</w>
ng es</w>
mini ster</w>
on to</w>
ex isting</w>
cho ice</w>
th ù</w>
obj ects</w>
enc ed</w>
do ssi
cre ating</w>
E x
B ra
đ ón</w>
z er
stu dent</w>
m ũi</w>
through out</w>
sto od</w>
ra id</w>
m uni
str ang
se ts</w>
per c
camp ai
wro te</w>
ti sh</w>
stan ces</w>
nam ed</w>
lo ng-
l at
ate g
associ ated</w>
ab </w>
IB M</w>
requ est</w>
r y
oper ate</w>
high -
d ày</w>
go al</w>
La w</w>
2 8</w>
reli gi
ne goti
gi ảng</w>
sp read</w>
ordin ary</w>
intro duc
gg er</w>
fi ght</w>
dru gs</w>
Ch úa</w>
sk y</w>
s on
inter net</w>
easi ly</w>
cal ls</w>
ro se</w>
l and
to ols</w>
pre gn
hundre ds</w>
h ứa</w>
for ces</w>
t led</w>
s ph
prev ent</w>
manag er</w>
m es</w>
mi les</w>
g dp</w>
app ear</w>
U S</w>
r ace</w>
p an
tom or
t on
sec tors</w>
g ames</w>
wor ld
tre es</w>
sor ry</w>
qu o
n ine</w>
lar ger</w>
ce ment</w>
ơ m</w>
đ ằng</w>
use ful</w>
thu a</w>
si des</w>
ng ài</w>
mo ved</w>
mi l
func tions</w>
di sti
bot tom</w>
th an
sati s
m ỏ</w>
ve st</w>
transp ort</w>
small er</w>
sel ling</w>
equ al</w>
e nh
b út</w>
N i
s we
nu clear</w>
ari ly</w>
anc ing</w>
a x
đ ạp</w>
y a</w>
vill age</w>
phi ền</w>
expen sive</w>
Is ra
it ation</w>
co ff
sc en
nam es</w>
employ ees</w>
A d
t an
speci es</w>
tiệ c</w>
th iệp</w>
in ju
cá m</w>
conf lic
ac tual</w>
I 'd</w>
proces sing</w>
p ass</w>
kno ws</w>
i or</w>
e di
challe nge</w>
N D</w>
Ch ủ</w>
tru th</w>
th ang</w>
reali ze</w>
ni ngs</w>
mo l
mi sta
g uy
dam age</w>
assi stance</w>
pas sed</w>
A R
e ding</w>
t á</w>
require ments</w>
desp ite</w>
si t</w>
inde x</w>
i ngs</w>
exp an
di ag
d ying</w>
4 0
tomor row</w>
il lu
adver ti
ack son</w>
ac cu
Pre sident</w>
spee ch</w>
ser vation</w>
lo ans</w>
1 7
ú m</w>
plan ts</w>
gh t
contr acts</w>
menti oned</w>
m ực</w>
f low</w>
cor p.</w>
tr ầm</w>
sh e's</w>
sh are
requi res</w>
over all</w>
en ly</w>
c ờ</w>
N ational</w>
year- old</w>
tr ú</w>
ta ined</w>
separ ate</w>
S e
đ ai</w>
tu de</w>
tiế c</w>
str ess</w>
nà ng</w>
l ad
f ear</w>
C entr
bir th</w>
ani stan</w>
N o</w>
su s</w>
par ties</w>
p ack
o d
tho ải</w>
susta in
ele ments</w>
b es</w>
re st
op ini
mar i
de posi
b ase</w>
l atest</w>
inst ance</w>
gi ày</w>
C ol
big gest</w>
ar r
ng ũ</w>
kho áng</w>
ex cept</w>
enti ally</w>
amer ic
t ụ</w>
provi ding</w>
m i</w>
inter ests</w>
h om
establi shed</w>
am in</w>
L o
et c</w>
de ep</w>
c ậy</w>
z es</w>
l ọc</w>
l ây</w>
k es
om s</w>
mi gr
e ly</w>
augh ter</w>
an u
af raid</w>
pa ir</w>
iệ ng</w>
in c
ha m</w>
ga in</w>
even tually</w>
F ace
đ ãi</w>
z y</w>
web site</w>
safe ty</w>
h uyết</w>
feder al</w>
coun t</w>
ali st</w>
D NA</w>
2 7</w>
đị ch</w>
kh ứ</w>
gh tly</w>
er ship</w>
advant age</w>
re ality</w>
plac ed</w>
ph a</w>
foo t
e pi
anim al</w>
C u
surve y</w>
s ỹ</w>
l âm</w>
jo hn</w>
hã i</w>
ch air
b ận</w>
a h</w>
T he
let 's</w>
hol ding</w>
colle ge</w>
a id</w>
tr à</w>
inde ed</w>
cont ent</w>
condi tion</w>
re mar
re lev
plan e</w>
or ge</w>
ho ang</w>
h ồng</w>
coordin ate</w>
c ột</w>
doc tors</w>
cy cle</w>
certi fic
W e</w>
t óm</w>
rema in</w>
le ment</w>
h ẹn</w>
gener ally</w>
el ds</w>
ec t
com mit
c ateg
b ò</w>
vi êm</w>
ng ers</w>
n ấu</w>
m iệng</w>
lu m
l ệch</w>
hea vy</w>
em ed</w>
effor t</w>
do g</w>
comp la
cla im
charac ter</w>
a head</w>
8 0
f la
enjo y</w>
b ắn</w>
atta ched</w>
x ạ</w>
vie ws</w>
t ĩnh</w>
pu tting</w>
min e</w>
milli ons</w>
go ld</w>
de mon
b re
b ơi</w>
trou ble</w>
str ai
so li
ne g
multi ple</w>
coll ection</w>
blu e</w>
am m
19 6
su sp
mi ếng</w>
maj ority</w>
m ùi</w>
B ar
10 .
ve ments</w>
te mber</w>
re pe
qu a
mini stries</w>
guy s</w>
al o
y i
tem por
l ũ</w>
b ù</w>
S ha
tuy ển</w>
sur y</w>
su n</w>
m óc</w>
le ng
l ặng</w>
clo ck</w>
E n
wa shington</w>
rea ched</w>
tr àn</w>
lã ng</w>
in struc
choo se</w>
xo ay</w>
wor se</w>
rel ations</w>
b el
Di rec
manag ed</w>
dat ab
s úng</w>
resear chers</w>
qu à</w>
expla in</w>
agre ed</w>
Qu ỹ</w>
mạ c</w>
le ss
coordin ation</w>
199 6</w>
uni on</w>
ra q</w>
pa th</w>
li ved</w>
fai lu
ch ừng</w>
ac ks</w>
Face book</w>
mor t
m ảng</w>
k a</w>
guar an
po st</w>
i se</w>
form ation</w>
Centr al</w>
B er
ol der</w>
ng on</w>
j e
M c
4 ,
tele phone</w>
si ght</w>
ri age</w>
pl at
ki lled</w>
d ị</w>
c ổng</w>
K en
vu l
pri me</w>
lic en
l ừa</w>
Afgh anistan</w>
thu ần</w>
mo vement</w>
l ộn</w>
k o</w>
ju sti
fa ster</w>
co operation</w>
chá y</w>
cau ses</w>
bo m</w>
b ão</w>
b ond</w>
y eah</w>
st atus</w>
O r
ru le</w>
nh .</w>
minu te</w>
legi s
determin ed</w>
wel l-
intel lig
b ồi</w>
S o</w>
mu ộn</w>
mo di
follow ed</w>
dis covered</w>
di nh</w>
b one</w>
5 ,
cri tical</w>
you 've</w>
wou ldn</w>
ver sion</w>
th ờ</w>
mol ecu
on e-
cle an</w>
A S
w ind</w>
tu red</w>
str ing</w>
pu ts</w>
pers ons</w>
le ts</w>
estim ated</w>
bi es</w>
b ạch</w>
announ ced</w>
G er
ho st</w>
ff er</w>
en try</w>
e mber</w>
co o
Th ông</w>
P a
M I
H a
C ha
tri al</w>
sh u
par ent</w>
ev o
su ffer
shar ed</w>
man aging</w>
c ents</w>
authori ties</w>
N I
1 -
part ners</w>
má t</w>
mo bile</w>
high ly</w>
bu ying</w>
t le</w>
lo ad</w>
Ph one</w>
purch ase</w>
b éo</w>
Da vid</w>
tr òn</w>
o i</w>
m ét</w>
d or</w>
s day</w>
gh ép</w>
d le</w>
concer n</w>
ck y</w>
cip al</w>
Kh ông</w>
I t</w>
tem per
pe ace</w>
incre asing</w>
in ts</w>
becom ing</w>
V ND</w>
u ne
t t</w>
m ass</w>
fu n</w>
alter n
H u
l ắp</w>
in -
ea st</w>
corpor ate</w>
T hu
J ava</w>
D o
B C</w>
x âm</w>
sur face</w>
r ào</w>
h ưu</w>
conn ect</w>
c les</w>
W ell</w>
Th ủ</w>
sum mer</w>
str a
s ent
in ci
Wa shington</w>
B a
Đ ức</w>
si tes</w>
r ãi</w>
metho ds</w>
invest ments</w>
con sumption</w>
comp lic
coff ee</w>
c able</w>
bo ys</w>
ther net</w>
recei ving</w>
list en</w>
heal thy</w>
TE D
ng ựa</w>
hi ến</w>
hel ped</w>
ban king</w>
H ình</w>
G u
Đ ó</w>
Á </w>
qu es</w>
no body</w>
exerci se</w>
engine ering</w>
dra w</w>
dar k</w>
te ach</w>
perf ect</w>
ear s</w>
bene fit</w>
b om
ưỡ i</w>
tex t</w>
protoco l</w>
oc cur
ng ọn</w>
fund am
di strict</w>
c -
K a
2 9</w>
w indo
tu ý</w>
scop e</w>
pro sp
mar ried</w>
gen e
T a
ti a</w>
profes sional</w>
lab or
en ty</w>
d .</w>
car bon</w>
an o</w>
8 ,
wea ther</w>
tr ục</w>
mean ing</w>
T u
procedu re</w>
pres sion</w>
H ải</w>
li ar</w>
citiz ens</w>
Euro pe</w>
đ ốt</w>
t ắm</w>
se p
pic tures</w>
per form</w>
nh ịp</w>
kh ía</w>
form ing</w>
di sc
ali a</w>
ad vi
li ghts</w>
dou b
char ges</w>
cam era</w>
T CP</w>
M u
E thernet</w>
th ro
ter ed</w>
im ages</w>
h en
AN D</w>
6 5</w>
stre am</w>
o ce
no tes</w>
L iên</w>
s àn</w>
s en</w>
produc ed</w>
ho tel</w>
fr ame
e th
ag ement</w>
a st
r ying</w>
pub lic
mat ch</w>
ic o</w>
flo or</w>
con ference</w>
chair man</w>
auth ority</w>
archi tec
S a
P al
C ir
tr ào</w>
s ợi</w>
aff ected</w>
sudd enly</w>
sche du
relev ant</w>
ki ên</w>
gi ường</w>
enti tled</w>
In vest
sub si
ni c</w>
man i
li mit</w>
l t</w>
expendi ture</w>
ev ent</w>
kh ớp</w>
kh uyết</w>
A ID
mach ines</w>
ch ẽ</w>
ch er</w>
199 5</w>
đ ắt</w>
vi a</w>
th âm</w>
qu át</w>
pur pose</w>
or ed</w>
o ther
g ọn</w>
fri end
fin ding</w>
c ket</w>
att ack</w>
Th ế</w>
wa ste</w>
tic les</w>
the ory</w>
re ti
phá i</w>
opportuni ties</w>
distribu tion</w>
ch úc</w>
b ought</w>
ê -
k m</w>
g ỗ</w>
f ly</w>
ch ai</w>
7 ,
psy cho
gu id
er ous</w>
Th ương</w>
đ ợt</w>
ma p</w>
defini tion</w>
compon ents</w>
challe nges</w>
Invest ment</w>
wai ting</w>
r ăng</w>
ng ón</w>
er e
aw are</w>
Mi chael</w>
I ran</w>
C alifornia</w>
198 8</w>
ar ra
ap preci
spea king</w>
e ds</w>
direc tion</w>
clo sed</w>
ag ree</w>
đ ùa</w>
ph </w>
mar ke
inter nal</w>
hou ses</w>
y o</w>
sing ly</w>
m ệnh</w>
logi c</w>
extre mely</w>
dro p</w>
con sequ
bor der</w>
ỗ n</w>
s ms</w>
ld er</w>
fam ous</w>
fac es</w>
2 6</w>
windo w</w>
v ở</w>
th ói</w>
m ù</w>
thous and</w>
t v</w>
k o
gh ting</w>
fa ir</w>
docu ment</w>
d iệu</w>
cont ents</w>
chi p</w>
ar ms</w>
C S
đ ập</w>
vol un
sha pe</w>
n on</w>
199 4</w>
1 50</w>
l in</w>
i nh
d ọc</w>
col or</w>
ce le
w ear</w>
t ment</w>
ru p
de scribed</w>
ch el
J e
s low</w>
h ỗn</w>
c ựu</w>
viol ence</w>
tion ary</w>
s ounds</w>
l as
h n
e uro
dri ving</w>
differ ences</w>
ste ps</w>
rema ins</w>
pe an</w>
h ương</w>
as signed</w>
appro ved</w>
t áo</w>
munic ations</w>
fac tors</w>
exper ts</w>
dai ly</w>
ch ở</w>
Fi g</w>
sty le</w>
ri ver</w>
jo int</w>
holi day</w>
exper im
x ứng</w>
vul ner
pri mary</w>
li e</w>
P hi
volu me</w>
p al
mar riage</w>
ite ms</w>
coll abor
W hat</w>
st em</w>
campai gn</w>
6 00</w>
te a</w>
r ác</w>
neigh b
m as</w>
impro vement</w>
elec om
di o
d ối</w>
I O
tr ack</w>
l ưng</w>
ex tra</w>
deta ils</w>
cont ex
ar en</w>
publi shed</w>
mi d
frame work</w>
app lied</w>
sp or
programm es</w>
amoun ts</w>
th es</w>
in c</w>
f low
dom in
cop y</w>
bor row
absolu tely</w>
ụ i</w>
đ ậu</w>
pic k</w>
de si
Nor th</w>
đ ống</w>
tre ated</w>
sh el
au r
au l</w>
as sume</w>
I raq</w>
H T
usu al</w>
symp tom
swit ch</w>
r ửa</w>
inclu ded</w>
guaran te
bu sh</w>
a bilities</w>
movi e</w>
l ying</w>
jo in</w>
imple ment</w>
i ll</w>
ha ven</w>
fe atures</w>
ev ents</w>
ce ed</w>
z il</w>
se emed</w>
re view</w>
nor th</w>
g ori
arri ved</w>
un less</w>
ste in</w>
sol di
regi stration</w>
hand le</w>
h ổ</w>
ge o
con sci
ai l</w>
ad ju
199 3</w>
1 3
op ened</w>
monit oring</w>
manag ers</w>
el es</w>
curr ency</w>
charac teri
att le</w>
Uni versity</w>
t àng</w>
t ally</w>
rai sed</w>
lar ly</w>
gr ade</w>
equi val
ap s</w>
AID S</w>
con ven
j apanese</w>
fi xed</w>
f ers</w>
el ection</w>
din ner</w>
ac cept</w>
J ackson</w>
D N</w>
se c</w>
rel atively</w>
re g
gi es</w>
explo itation</w>
ev ening</w>
b ụng</w>
anu ary</w>
T ha
ượ n</w>
v é</w>
su it</w>
farm ers</w>
ap pe
tr ea
to -
teach ing</w>
ta ining</w>
solu tions</w>
scre en</w>
p age</w>
ng ed</w>
lin ed</w>
achi eve</w>
Dec ree</w>
A P
ti ny</w>
s ations</w>
m ệt</w>
kh óc</w>
h uyện</w>
ch r
ter r
tal ked</w>
ta u
sho wing</w>
ri ce</w>
ra in</w>
human s</w>
h ư</w>
and wi
ướ p</w>
pp er</w>
out put</w>
ki d
continu ed</w>
b ưu</w>
R ob
đ áo</w>
th ả</w>
ser vers</w>
p in</w>
organi ze</w>
k í</w>
gu st</w>
co ngre
ướ t</w>
t ori
ng ưỡng</w>
l ands</w>
ju d
f ying</w>
ap ore</w>
De velo
9 .
w to</w>
offer ed</w>
democr acy</w>
Đ ây</w>
lea ving</w>
indepen dent</w>
drin k</w>
di stance</w>
Cir cular</w>
ỗ ng</w>
we al
vo c
tax es</w>
symptom s</w>
p ounds</w>
manufactur ing</w>
ex tra
T P</w>
x ưa</w>
peri o
effici ent</w>
ati cally</w>
ac cur
B ro
6 ,
000 .000</w>
wal king</w>
tal ks</w>
posi te</w>
gu ess</w>
gran ted</w>
e ating</w>
c in
vi su
v ỏ</w>
tr ộn</w>
mi ssions</w>
ke eping</w>
high est</w>
h ùng</w>
con tra
car ried</w>
blo ck</w>
b ông</w>
T ri
D u
ộ m</w>
t ter</w>
gi án</w>
degre e</w>
con centr
a z
198 9</w>
s cu
pol lution</w>
m ạo</w>
le o</w>
establish ment</w>
c úm</w>
T e
Ch ar
đ ền</w>
star ts</w>
b loc
aga z
s ụp</w>
remo te</w>
regi me</w>
gre w</w>
ess ential</w>
c m
app ed</w>
am bi
tre at</w>
phi c</w>
o .</w>
exam ples</w>
clo thes</w>
brea k
0 ,
ther ap
re -
nu r
fortun ately</w>
fi s
fi ll</w>
ele ment</w>
de sti
trans actions</w>
stru gg
resp ect</w>
ob viously</w>
l ò</w>
ig nor
Tr ade</w>
T R
é m</w>
tu ng</w>
ng ã</w>
fi les</w>
ear nings</w>
co ol</w>
c ked</w>
buil dings</w>
ve -
tr ưa</w>
repres ent</w>
qu ê</w>
competi tion</w>
communi ties</w>
argu ment</w>
Ngh ị</w>
Ch ris</w>
vari ety</w>
u .</w>
mod els</w>
lead er</w>
inv ent
foo t</w>
so ạn</w>
recor ds</w>
m ây</w>
execu tive</w>
comp li
ba bies</w>
acci dent</w>
shar ing</w>
industri es</w>
gori th
chemi cal</w>
wat ching</w>
gen cy</w>
g ởi</w>
ex ico</w>
evalu ation</w>
de ar</w>
con cept</w>
c lin
bu ýt</w>
b ột</w>
M ột</w>
Đ ầu</w>
u tili
ri er</w>
rest aur
deli very</w>
circu m
rel ation</w>
failu re</w>
discu ssion</w>
cri min
b ếp</w>
ac ces
th ợ</w>
ster ed</w>
sph ere</w>
kh ô</w>
govern ments</w>
dang erous</w>
cep tion</w>
ad es</w>
A ng
te en</w>
stop ped</w>
long- term</w>
fai led</w>
T his</w>
sen si
prote in</w>
leng th</w>
invest ed</w>
g y
Th ái</w>
Isra el</w>
C am
to ber</w>
tho ái</w>
ng ầm</w>
li c</w>
dy na
d aughter</w>
consi st
ac ting</w>
tuy ết</w>
to ward</w>
n ét</w>
figu res</w>
d ạ</w>
chi c
ve hi
tr ỏ</w>
stipul ated</w>
sche me</w>
p in
ma kers</w>
i b
for est</w>
s se
im possible</w>
conver sation</w>
cl assi
b en
asse mb
anti -
ớ n</w>
vit amin</w>
tic ally</w>
st one</w>
ound ation</w>
ngh iện</w>
me ant</w>
jour ney</w>
establish ments</w>
custom s</w>
ch ard</w>
bran ch</w>
aci fic</w>
tar get</w>
st eri
se as
op ening</w>
mo bili
head s</w>
3 3</w>
m c
happ iness</w>
Tr ái</w>
sexu al</w>
part ner</w>
neg ative</w>
f air
exi st</w>
employ ment</w>
c ưới</w>
at a</w>
asse ss
re serve</w>
pu sh</w>
prof ess
particip ation</w>
k ẹ
I t's</w>
th a</w>
sustain able</w>
oc ca
k y</w>
fami liar</w>
electri city</w>
Can ada</w>
2 5
1 ,000</w>
ẫ y</w>
đ ệ</w>
you 'll</w>
ven ture</w>
tou ch</w>
s ắt</w>
ha m
form al</w>
aff ect</w>
ma ster</w>
in stru
ecti ves</w>
demon str
datab ase</w>
d ược</w>
c ảng</w>
I E
— </w>
y l
tt on</w>
no de</w>
mat u
m ộ</w>
m agaz
l ỏng</w>
free dom</w>
every where</w>
custom er</w>
contex t</w>
comm un
b ùng</w>
a mi
ta il</w>
prepar ed</w>
li ber
ki d</w>
ari ty</w>
Americ ans</w>
tur ning</w>
se tting</w>
o da</w>
l ô</w>
experi ment</w>
err or</w>
L E
re ve
incre ases</w>
fi elds</w>
d ness</w>
ber g</w>
s at</w>
pla yed</w>
lead ership</w>
l ang</w>
khi ếp</w>
g ỡ</w>
d ao</w>
M r.</w>
tr ượt</w>
pre si
o h</w>
m èo</w>
gui de</w>
fini shed</w>
di men
cor e</w>
al gorith
un k</w>
por tion</w>
p on
lo s</w>
har d
e mail</w>
discu ssed</w>
d áng</w>
d iệt</w>
H ồi</w>
n ation
mu r
l i</w>
influ ence</w>
Develo pment</w>
poin ted</w>
lin ked</w>
ev ol
bi gger</w>
as p
- based</w>
wi lling</w>
sho t</w>
po wers</w>
patter n</w>
hel ps</w>
e ments</w>
ch ap
b b
and a</w>
ad ap
C ó</w>
ủ y</w>
trans action</w>
th ri
pa ying</w>
n one</w>
ho ãn</w>
con stitu
typic ally</w>
fa shi
al ed</w>
tr act</w>
su e</w>
part nership</w>
h ụt</w>
electr onic</w>
ch en</w>
care er</w>
9 5</w>
sen ior</w>
r ation</w>
mil k</w>
loc ation</w>
inf lation</w>
ic ally</w>
for get</w>
eri a</w>
diag no
Fr ench</w>
ù m</w>
wal ked</w>
su m</w>
re source</w>
mi ts</w>
d ad</w>
cor respon
propo sal</w>
k ín</w>
is n't</w>
in vest</w>
de man
d ọn</w>
to ol</w>
tau ght</w>
sur g
ser ves</w>
sc ar
par k</w>
ng ẫu</w>
m el
liter ally</w>
list ening</w>
i a</w>
h ằng</w>
gu n</w>
eth nic</w>
D A</w>
4 8</w>
x y</w>
symbo l</w>
lã o</w>
insp ection</w>
do w</w>
coun ter
N T</w>
đ ắn</w>
vi ngs</w>
se v
m ì</w>
inter pre
co lum
b at
W </w>
tri p</w>
st ations</w>
re stric
re mi
qua ke</w>
is ing</w>
inter face</w>
gl ass</w>
for ced</w>
fis cal</w>
ear th</w>
colle ag
TH E</w>
- year-old</w>
ò a</w>
re ver
g ánh</w>
ear ing</w>
tw o-
th ổ</w>
si x
s u</w>
piec es</w>
newsp aper</w>
la un
in si
favor ite</w>
et ary</w>
e th</w>
consul t
Nh ững</w>
I P
transi tion</w>
strai ght</w>
po or
ju dge</w>
defin e</w>
d ịp</w>
circu it</w>
appro val</w>
appear s</w>
ẻ o</w>
we ap
te sts</w>
medic ine</w>
mat ters</w>
f ts</w>
deli ver
d ãy</w>
analy sts</w>
D P</w>
10 ,000</w>
secre t</w>
li ều</w>
inno vation</w>
expen ses</w>
conduc t</w>
as sum
any body</w>
S p
th ô</w>
langu ages</w>
go als</w>
c ốc</w>
a th
Bi ll</w>
y el
sto cks</w>
plu s</w>
ox y
ho an</w>
fac tory</w>
equi ty</w>
ab road</w>
transp or
marke ting</w>
eli min
co m</w>
E ast</w>
ul tim
p are</w>
nh ắn</w>
f are</w>
disp u
struc tures</w>
perc ent
offi ces</w>
comp ly</w>
ch âm</w>
bac teria</w>
vir tual</w>
tel ls</w>
ha o</w>
ex press</w>
ch inese</w>
C our
ụ n</w>
vo te</w>
tu ệ</w>
th ăng</w>
pre pare</w>
reduc ed</w>
r ent</w>
pri ority</w>
ng o</w>
import ance</w>
h ome
ex clu
Coun cil</w>
typic al</w>
tr ần</w>
t ân</w>
shi ft</w>
r in
p apers</w>
lar ge
k er
fun ding</w>
effici ency</w>
can ada</w>
sup posed</w>
easi er</w>
dise ases</w>
bro ther</w>
ade qu
trans mission</w>
sur ing</w>
hel ping</w>
gh ét</w>
cri me</w>
c ắp</w>
sho es</w>
mo stly</w>
mechani sm</w>
def ense</w>
ch ẩn</w>
W hi
tr ốn</w>
ph en
main tain</w>
lab </w>
5 5</w>
đ eo</w>
regi onal</w>
p -
om as</w>
de stro
da vid</w>
any way</w>
O F</w>
ô i.</w>
x i</w>
squ are</w>
sli ghtly</w>
or ders</w>
n ém</w>
j apan</w>
integr ated</w>
her e's</w>
gra phic</w>
fr an
L an</w>
st ar</w>
per sp
lea ves</w>
l ông</w>
evo lution</w>
we i
vacc ine</w>
s ăn</w>
oce an</w>
l ượt</w>
d ính</w>
c ướp</w>
beau ty</w>
R us
won der</w>
th ỉnh</w>
st ack</w>
sig ns</w>
recor ded</w>
prin t</w>
pac ket</w>
other wise</w>
n ar
fi re
comfor table</w>
b row
b ad
z one</w>
vi nh</w>
sa vings</w>
rap id</w>
ph ổi</w>
let ters</w>
incredi ble</w>
comm une</w>
state -
mi ss</w>
men ting</w>
fol lows</w>
complic ated</w>
ci an</w>
ch am
architec ture</w>
ali sts</w>
00 ,000</w>
z i
th ép</w>
state ments</w>
reven ues</w>
pres sed</w>
norm ally</w>
me mb
kh ẩn</w>
identi fy</w>
d th</w>
conn ections</w>
c alifornia</w>
as set</w>
K ế</w>
đ ếm</w>
uni que</w>
po ses</w>
m ượn</w>
focu sed</w>
er t</w>
dre am</w>
bro ken</w>
b led</w>
H ọ</w>
C ity</w>
ti s
t úc</w>
sli de</w>
rele ased</w>
mb </w>
{ </w>
x ô</w>
vu a</w>
ven ess</w>
twi ce</w>
stati stics</w>
sev ere</w>
sa ge</w>
ri ty</w>
reas on
qu e
nà y.</w>
legis lation</w>
j ones</w>
insp i
impro ved</w>
ill ness</w>
ha ng</w>
fe male</w>
blo g</w>
to tally</w>
smar t</w>
ex emp
dec re
correc t</w>
cont act</w>
clo sely</w>
anci sco</w>
6 0
techni ques</w>
poli tics</w>
mu si
m ous</w>
l am
k et
f light</w>
car rying</w>
bu sy</w>
ad ed</w>
S h
P lan
Bra zil</w>
tr ôi</w>
than ks</w>
expor ts</w>
establi sh</w>
der ed</w>
S mi
temper ature</w>
t ần</w>
share holders</w>
in ary</w>
c ỏ</w>
al d</w>
In tel</w>
000 ,000</w>
un d</w>
sc ape</w>
promi se</w>
pro ve</w>
on -
gar den</w>
eng lish</w>
cau ght</w>
Ng ười</w>
H ãy</w>
zer o</w>
tra vel
st mas</w>
medi um</w>
lo ved</w>
l ôi</w>
l er
comp en
c ôn</w>
S am
F e
th ánh</w>
s ắm</w>
ow ner</w>
k i</w>
it able</w>
g ương</w>
c ất</w>
af ford</w>
tho ảng</w>
sug gest</w>
programm ing</w>
nh ạy</w>
mp ing</w>
fe es</w>
en ting</w>
cra ft</w>
communic ate</w>
be l</w>
8 00</w>
re turned</w>
oun ding</w>
ne ur
n ắng</w>
g à</w>
conflic t</w>
W est</w>
K ore
reg ard</w>
re ment</w>
promo te</w>
nh ựa</w>
mu sc
mor al</w>
lic ense</w>
cri tici
cele br
ar my</w>
wor ry</w>
tr ấn</w>
s ơn</w>
organi zed</w>
discu ss</w>
ca st</w>
L in
3 6</w>
si ster</w>
s co
ris ks</w>
repres ents</w>
n n</w>
ar ray</w>
ado p
E R
C ộng</w>
ụ m</w>
no on</w>
incre a
at trac
ô- la</w>
x ăng</w>
ti s</w>
recogni ze</w>
pre hen
ph ones</w>
nh ẫn</w>
inf ected</w>
dro pped</w>
d ated</w>
50 ,000</w>
sti ck</w>
comple ted</w>
bi d</w>
S ecu
An dro
4 4</w>
si ck</w>
secon ds</w>
protoco ls</w>
proces ses</w>
le -
increa singly</w>
h ẹp</w>
go tten</w>
ali ve</w>
ad vice</w>
Pri me</w>
4 2</w>
-l r
them ati
po st
po p</w>
p asse
oper ator</w>
mis sing</w>
li br
k ar
facili ties</w>
w w
strate gies</w>
pre vention</w>
le x
khi ếu</w>
cli ents</w>
be d
a war
- rr
pro cess
nu tri
gi ấu</w>
fai l</w>
experi ences</w>
cou ldn't</w>
c ốt</w>
agri cultural</w>
ro ck</w>
ki ll</w>
kh en</w>
jour n
inf ection</w>
hur t</w>
ho ả</w>
Y ou
Bri tish</w>
-lr b-</w>
z en</w>
sur r
streng th</w>
opini on</w>
lo sing</w>
kho ảnh</w>
gu e</w>
f as
expres sions</w>
cer e
car ds</w>
c p</w>
are ly</w>
Pro toco
tempor ary</w>
r on</w>
lu ỹ</w>
kh óa</w>
intellig ence</w>
fi lled</w>
educ ational</w>
v ú</w>
remi tt
messa ges</w>
me at</w>
inter view</w>
i Phone</w>
encour age</w>
crow d</w>
con vin
charac ters</w>
B e
’ </w>
x es</w>
ter nal</w>
t ươi</w>
str alia</w>
qu anti
invi ted</w>
gg s</w>
cá t</w>
ch ấn</w>
can did
appro ach
ag gre
Par is</w>
Andro id</w>
quic k</w>
op s</w>
nh ượng</w>
lu ồng</w>
inc enti
ear th
cre ates</w>
ve get
th ùng</w>
speci alized</w>
some where</w>
sett lement</w>
resp ond</w>
gen e</w>
d àn</w>
H iệp</w>
8 5</w>
20 12</w>
1 %</w>
wor st</w>
won 't</w>
su ffici
stor age</w>
sp ir
rou ter</w>
ma xi
m outh</w>
in t
g al
dre ss</w>
di pl
chu r
ch al
S tr
C P
3 7</w>
v ải</w>
sub stan
sp ort</w>
slow ly</w>
s ôi</w>
corpor ation</w>
ch ợ</w>
3 8</w>
tar ge
ru ption</w>
represent ative</w>
qu ét</w>
introduc ed</w>
ve mber</w>
regi ons</w>
pac kets</w>
oblig ations</w>
fac tor</w>
O R
C i
đ ó.</w>
tr uyện</w>
ter y</w>
ru ột</w>
proper ties</w>
li t</w>
li sts</w>
estim ates</w>
econom i
der ly</w>
Bu t</w>
th ọ</w>
terri ble</w>
ow nership</w>
k en
hu nger</w>
er o
y o
plat form</w>
per mit</w>
impro ving</w>
imple mented</w>
dec ade</w>
cla im</w>
care fully</w>
S O
F A</w>
qu ali
pu ll</w>
offi cer</w>
occu r</w>
he at</w>
er -
ent ation</w>
e ties</w>
de ep
d âm</w>
ch ìa</w>
b right</w>
adul ts</w>
a bu
S co
A s
í m</w>
Ý </w>
un c
ty -
ste el</w>
sig nal</w>
ke e
g or
conven i
c ương</w>
Ô ng</w>
z er</w>
remar k
rap id
pri son</w>
min ds</w>
mi ssi
g ay</w>
divi ded</w>
bi dding</w>
T ư</w>
Protoco l</w>
đ âm</w>
spo kes
s ory</w>
ll er</w>
e u</w>
T al
tion ing</w>
thre e-
super vi
strang e</w>
sp ec
ser t</w>
pro fits</w>
nh ũng</w>
elecom munications</w>
el a</w>
du ces</w>
v es
op ti
ng u</w>
n ảy</w>
ho ại</w>
equival ent</w>
cat ch</w>
we 'll</w>
t u</w>
rema ining</w>
patter ns</w>
m ày</w>
initi al</w>
in j
fundam ental</w>
consum er</w>
con tains</w>
J apanese</w>
D r.</w>
wee k
t ab
speci fic
sol ved</w>
se ssion</w>
s an
ro oms</w>
re vo
hand ling</w>
eli ngs</w>
ch ăng</w>
any where</w>
w earing</w>
su gg
stor es</w>
ma th</w>
l en</w>
communic ations</w>
adv ance</w>
Ồ </w>
w age</w>
v ang</w>
trea sury</w>
spor ts</w>
sep tember</w>
ob vious</w>
lo sses</w>
li pp
lab our</w>
ki stan</w>
gr ant</w>
g am
fe elings</w>
eng ine</w>
disti nc
com prehen
assess ment</w>
Plan ning</w>
tr ol</w>
terr ori
percent age</w>
m ờ</w>
l ưỡng</w>
l le</w>
hear ing</w>
fi x</w>
dr am
disa pp
a im
C ác</w>
4 7</w>
vi ces</w>
transp ar
tr ộm</w>
l au
invent ory</w>
h ô</w>
dossi ers</w>
d ội</w>
ani a</w>
ag u
S ch
A sia</w>
đ à</w>
x óm</w>
t ons</w>
run s</w>
princi ple</w>
leg s</w>
l át</w>
g ment</w>
dri ver</w>
cle an
americ a</w>
W ar</w>
z a</w>
thre at
th -
rapid ly</w>
kh ôi</w>
eff ectively</w>
coll ap
ch ênh</w>
ap par
C H
5 ,000</w>
st ated</w>
sp ring</w>
s anc
ra u</w>
pay ments</w>
mas sive</w>
logi st</w>
fi ghting</w>
equi ti
depen ding</w>
cho ices</w>
tri c</w>
sup pose</w>
soldi ers</w>
rele ase</w>
mini mum</w>
m ến</w>
low -
l ent</w>
ho le</w>
ali ze</w>
agri culture</w>
v .
r t</w>
pres ented</w>
plan ned</w>
est ate</w>
en ess</w>
ei gh
beli eved</w>
U NI
Pe ter</w>
M exico</w>
z on
viol ations</w>
ton ight</w>
ri sing</w>
ri c</w>
mee tings</w>
gre atest</w>
exci ting</w>
d ent
con stant</w>
any more</w>
after noon</w>
6 4</w>
1 000</w>
ừ u</w>
wi lli
w oo
v n
te ch</w>
stu dying</w>
ng ập</w>
di ver
commit ment</w>
b ó</w>
P aul</w>
B r
5 -
v or
mo ti
lã m</w>
incredi bly</w>
gr amm
fal se</w>
e u
củ ng</w>
chap ter</w>
ch air</w>
Direc tor</w>
' clock</w>
neigh bor
ne ar
min eral</w>
hosp it
divi d
distribu ted</w>
cu p</w>
circum stances</w>
c ấy</w>
c king</w>
c ers</w>
ap art</w>
w indows</w>
profess or</w>
princi ples</w>
n or</w>
expl or
cor ner</w>
c as
bri nging</w>
b ing</w>
T C</w>
P er
A L
9 9</w>
thu ẫn</w>
ph e</w>
ki l
k ong</w>
gener ated</w>
fi ci
clas ses</w>
civi li
be ar</w>
altern ative</w>
C a
substan ti
pro posed</w>
n ướng</w>
h ồn</w>
four th</w>
ene ver</w>
emp ty</w>
d ám</w>
3 %</w>
wh enever</w>
practi cal</w>
no ise</w>
l f</w>
cra zy</w>
coll ect</w>
O ffi
th ằng</w>
te m</w>
sugge sted</w>
se l</w>
mo m</w>
kho an</w>
kh át</w>
k u
gi am</w>
el li
deta il</w>
cre ative</w>
colleag ues</w>
attemp t</w>
W al
Euro pean</w>
D o</w>
20 11</w>
yi eld</w>
sequ ence</w>
li gh
h un
dec ades</w>
contribu te</w>
chel sea</w>
b ar</w>
adv anced</w>
Smi th</w>
N ếu</w>
đ ồi</w>
á u</w>
un fortunately</w>
stan tly</w>
st y</w>
popu l
p ao</w>
ma themati
m ỏi</w>
hi bi
han oi</w>
extra ordinary</w>
e dge</w>
divi sion</w>
di o</w>
dec line</w>
Gi ám</w>
G r
đ ớn</w>
tr ương</w>
t ch</w>
suppor ted</w>
strate gic</w>
reco very</w>
pres ence</w>
no tic
expen se</w>
compu ting</w>
chan nel</w>
F und</w>
pri son
nh ắm</w>
n ề</w>
l ap
identi fied</w>
gro wn</w>
dis ci
deli ver</w>
d an</w>
ci ous</w>
associ ation</w>
adequ ate</w>
z on</w>
surg ery</w>
se t
moun tain</w>
ma ker</w>
ic k</w>
dipl om
bas sa
am bassa
T hi
D I</w>
stre ets</w>
persp ective</w>
p en</w>
obj ectives</w>
nei ther</w>
mon y</w>
in ch</w>
i P
g ent
fl u</w>
f ant
er a
d án</w>
coun ter</w>
beli ev
2 %</w>
ser ving</w>
possi bility</w>
ow ners</w>
in ven
graph </w>
experi enced</w>
concer ns</w>
adverti sing</w>
Bo ard</w>
3 4</w>
199 1</w>
wea k</w>
unic ef</w>
stitu te</w>
qu ận</w>
depen ds</w>
d ential</w>
continu es</w>
ac ted</w>
S an</w>
Ge orge</w>
B ảo</w>
Đ ất</w>
was n't</w>
thre at</w>
r am</w>
possi bly</w>
mp ed</w>
mo thers</w>
li sted</w>
l ers</w>
justi ce</w>
fac ts</w>
f ted</w>
ene my</w>
econom ies</w>
cal ling</w>
bo at</w>
wea k
vie wed</w>
under stood</w>
t ủ</w>
regu lation</w>
ra w</w>
ple a
l ou
g án</w>
fu el</w>
ess entially</w>
du ty</w>
cre ation</w>
at on</w>
ag ue</w>
T ổ</w>
Đ ảng</w>
tru ly</w>
relation ships</w>
pain ting</w>
ng ột</w>
n ạp</w>
i ci
graph y</w>
ga ther
el derly</w>
cri teria</w>
H eal
- up</w>
À </w>
vu ông</w>
re ci
ne uro
loc alities</w>
dom ain</w>
der i
co -
Nh a</w>
Ki nh</w>
u y</w>
stor ed</w>
il ing</w>
foot ball</w>
fal ling</w>
dd en</w>
d ã</w>
c ưỡng</w>
bi lli
L os</w>
G DP</w>
198 0</w>
t esting</w>
sor ts</w>
ri d</w>
reduc ing</w>
o logy</w>
nà n</w>
le s
kh úc</w>
intel lec
for e
f arm</w>
coll ected</w>
be at</w>
autom at</w>
M A
đ áy</w>
vic ti
sho ps</w>
s w
produc ing</w>
fi cial</w>
estim ate</w>
dou ble</w>
declar ation</w>
ap pl
F ri
9 ,
wit ter</w>
tre pr
trepr ene
ph ú</w>
n ấm</w>
loc ated</w>
know ing</w>
her self</w>
fe ed</w>
de st</w>
control led</w>
at ti
Ser vices</w>
C I
199 2</w>
tion ally</w>
pre ce
par a
n ở</w>
lu ân</w>
kh ôn</w>
inst al
fl at</w>
desti nation</w>
deb ts</w>
accep ted</w>
J </w>
5 3</w>
® </w>
tr ễ</w>
se as</w>
re turns</w>
mi chal
michal ak</w>
il legal</w>
gen der</w>
fre sh</w>
fini sh</w>
deb ate</w>
de mic</w>
com ment</w>
ag e
T ur
who m</w>
ti vity</w>
spo ke</w>
pre mi
large ly</w>
hou sing</w>
exci ted</w>
de le
conduc ted</w>
compon ent</w>
beg ins</w>
arti st</w>
ari an</w>
X -
… </w>
visi ble</w>
supp lies</w>
part ments</w>
main ly</w>
m r
gr am</w>
gi ặt</w>
S ci
P u
vo i</w>
sp ac
offer ing</w>
ng ọt</w>
l unch</w>
j une</w>
inno v
ex tent</w>
disci pl
d ary</w>
congre ss</w>
H à</w>
subj ects</w>
smo king</w>
secre tary</w>
r ẽ</w>
produc tive</w>
mp loy
mar ch</w>
l or
ki t
d ry</w>
no ted</w>
nh ầm</w>
mu lation</w>
lo ng
en or
en i
emo tional</w>
de al
c m</w>
as sign
W ester
Thu ỵ</w>
Ng a</w>
2 50</w>
ợ n</w>
valu able</w>
pro per</w>
po ll
p el
ei gn</w>
an xi
an tly</w>
N E
K .</w>
C E
tre o</w>
tr ăng</w>
therap y</w>
surpri sed</w>
sug ar</w>
s n
s ac
lin ks</w>
fair ly</w>
ex ternal</w>
con servation</w>
auth enti
al ty</w>
C ục</w>
xi nh</w>
to ken</w>
suffer ing</w>
secu re</w>
r i</w>
mort g
gen es</w>
ga p</w>
ambassa dor</w>
we stern</w>
volun te
tri ết</w>
es cap
de s
Man agement</w>
M r</w>
C D</w>
5 8</w>
weal th</w>
viol ation</w>
th row</w>
sub mit</w>
sen ding</w>
restaur ant</w>
mar ks</w>
ma gic</w>
m ập</w>
j ac
eng aged</w>
en treprene
b read</w>
achi e
V ăn</w>
war m</w>
struc tion</w>
so ph
mi êu</w>
mag ne
gener ate</w>
g ạo</w>
fac ing</w>
confi dence</w>
c ụm</w>
att acks</w>
anal o
H ợp</w>
đ am</w>
y en</w>
tu s</w>
tra ined</w>
th ấu</w>
pe op
no w
mo ves</w>
in duc
comp as
co ng
clu b</w>
appear ed</w>
andwi dth</w>
a sia</w>
đ ô-la</w>
vi lle</w>
to pi
st able</w>
ro ll</w>
ra ising</w>
pl astic</w>
p it
ous ness</w>
m ac
loo p</w>
dec ember</w>
ch ìm</w>
cap it
ac ade
100 ,000</w>
wh ere
victi ms</w>
th ly</w>
swit ching</w>
state- owned</w>
regi stered</w>
n én</w>
m ẩu</w>
m ưu</w>
instruc tions</w>
el ed</w>
bra ins</w>
Ph át</w>
8 %</w>
seri ously</w>
se at</w>
rou gh
f ting</w>
con fu
c als</w>
aff airs</w>
Gi áo</w>
6 %</w>
đ </w>
stri ngs</w>
shor t
s ers</w>
provi sion</w>
per forming</w>
ori ties</w>
institu tional</w>
impor ted</w>
for th</w>
difficul ties</w>
de dic
comb ined</w>
clas s
b ụi</w>
Heal th</w>
1 2.
vulner able</w>
te en
responsi bilities</w>
op posite</w>
mechani sms</w>
l ending</w>
hard ware</w>
gene tic</w>
direc tors</w>
crimin al</w>
clo ser</w>
cau sing</w>
T witter</w>
O R</w>
u r</w>
tr ật</w>
si ble</w>
s at
m or</w>
hom es</w>
fun ny</w>
exam ination</w>
es day</w>
cor ruption</w>
co oper
cap i
calcul ation</w>
b ách</w>
b andwidth</w>
H ol
C ơ</w>
198 7</w>
-rr b-</w>
ỉ a</w>
ô la</w>
pre fer</w>
l ường</w>
gramm ar</w>
electri c</w>
don e
certific ates</w>
S tu
P C</w>
ẫ m</w>
} </w>
wi de
v enti
tu i
techni que</w>
suffici ent</w>
some how</w>
she et</w>
ri ers</w>
revo lution</w>
flow ers</w>
earth quake</w>
D ar
ệ m</w>
v ội</w>
ro bert</w>
rel ative</w>
re scu
practi ces</w>
monit or</w>
laun ched</w>
h ạch</w>
f ar
dis k</w>
com modi
ch úa</w>
at mo
a po
R u
ô tô</w>
weap ons</w>
une mploy
see k</w>
se y</w>
ru b
repor ting</w>
re ference</w>
pur poses</w>
pregn ancy</w>
phi lo
magaz ine</w>
m ò</w>
ex cel
deposi t</w>
c ỗ</w>
bru ary</w>
M id
Eng land</w>
5 1</w>
đ ồn</w>
xu ân</w>
stan ds</w>
so lar</w>
s or</w>
per mits</w>
ori ented</w>
no des</w>
me ters</w>
in stein</w>
illu str
di et</w>
cre te</w>
consequ ences</w>
com mitted</w>
Ken ya</w>
C s</w>
wor ried</w>
th ịnh</w>
po ly
particip ants</w>
op en
o be
it i</w>
investi g
en 't</w>
ans wer
a ys</w>
In du
3 D</w>
2 ,000</w>
survi ve</w>
sugge sts</w>
sho o
s la
ro ads</w>
regar ding</w>
p a</w>
ng ưng</w>
institu tion</w>
fashi on</w>
e k</w>
descri be</w>
ch ann
attribu tes</w>
app le</w>
ali sm</w>
ằ n</w>
trans fers</w>
t ories</w>
spo t</w>
sign als</w>
si ties</w>
s i</w>
remark able</w>
re place</w>
posi tions</w>
p acific</w>
notic ed</w>
min ation</w>
me t
j ing</w>
f ed</w>
d ịu</w>
V iện</w>
6 -
regi ster</w>
no se</w>
nh ỉ</w>
me tal</w>
li p</w>
fle xi
era dic
disa p
bir th
ati vity</w>
R E
M P
4 6</w>
th ổi</w>
simp li
p ages</w>
necess arily</w>
lu cky</w>
imp lic
di versity</w>
competi tive</w>
t ate</w>
seas on</w>
prot ected</w>
particip ate</w>
h àn</w>
exp and</w>
e lev
disp lay</w>
disa ster</w>
bir ds</w>
b ê</w>
auth or</w>
4 3</w>
visu al</w>
t í</w>
sudd en</w>
su red</w>
signi fi
sent ence</w>
repres ented</w>
imple menting</w>
consum ers</w>
claim s</w>
cap able</w>
borrow ing</w>
bo ss</w>
ani c</w>
al co
T im
Po int</w>
soci o-
r ắn</w>
qu ãng</w>
muni cipal</w>
ho pe
fur ni
con cep
chemi cals</w>
bro wn</w>
bo tt
đ ế</w>
í u</w>
to i
ti ll</w>
pu ty</w>
mo on</w>
min ority</w>
li ability</w>
fe wer</w>
dra wing</w>
do gs</w>
cro ss</w>
consi sts</w>
bro ke</w>
b ực</w>
ac u
đ ẻ</w>
ur s</w>
star s</w>
ph ase</w>
op tions</w>
mista ke</w>
m ũ</w>
l õi</w>
ju mp</w>
in sul
h ung</w>
f at</w>
emer gency</w>
di vor
deta iled</w>
contra st</w>
comb ination</w>
am ed</w>
air port</w>
7 0
4 9</w>
20 x
ưở i</w>
w o</w>
v ắng</w>
tou ri
the tic</w>
mi x
ea p</w>
de e
d ồn</w>
com man
ag s</w>
Ser ver</w>
Offi ce</w>
L R</w>
tain ment</w>
subsi di
recogni zed</w>
philo soph
per man
pas s
om en
m m</w>
j ect</w>
integr ation</w>
gi ãn</w>
ga ins</w>
em ph
de aling</w>
d ates</w>
alloc ation</w>
alloc ated</w>
. .
vi -
sal ary</w>
poli tici
n ại</w>
li con</w>
cu ri
comprehen sive</w>
ban k
anci ent</w>
S ar
they 've</w>
si r</w>
knowle d
gi en</w>
enc ing</w>
cel er
care ful</w>
brea st</w>
C N
1 35</w>
wou ldn't</w>
sel ection</w>
man ner</w>
k y
ch est</w>
b ound</w>
ar re
đ ỗ</w>
z o
x ứ</w>
win ter</w>
ngo an</w>
hi stor
eri es</w>
b ag</w>
ac celer
So ci
z u
v ard</w>
tu m</w>
t ough</w>
t ari
si mul
sat elli
pre viously</w>
orig in
off ers</w>
nh a</w>
mo tor</w>
l am</w>
is land</w>
h ầm</w>
drin king</w>
compen sation</w>
bun ch</w>
bro thers</w>
b ẩn</w>
as sa
app ing</w>
acqui si
R O
H e
Gi ấy</w>
D E
v able</w>
tri ck</w>
to ả</w>
techno logical</w>
signifi can
pla yers</w>
licen ses</w>
law yers</w>
g ã</w>
exp ect
c ker</w>
T rea
Chri stmas</w>
you th</w>
ti le</w>
t ter
rou ti
qui et</w>
n om
kit chen</w>
environ ments</w>
en ni
dossi er</w>
d ạo</w>
achi eved</w>
To m</w>
B BC</w>
đ ạc</w>
x im
trans l
sensi tive</w>
mu ối</w>
maxi mum</w>
m àng</w>
kh ói</w>
jour nal</w>
comm ents</w>
back ground</w>
au gust</w>
Inter national</w>
Fr ance</w>
tion ed</w>
termin al</w>
significan tly</w>
secon dary</w>
nh àng</w>
ju ly</w>
gr as
categ ory</w>
ar bi
and -
Wi ki
Wester n</w>
The y</w>
T I
198 6</w>
đo ạt</w>
đ â
y 's</w>
univer sal</w>
tu ne</w>
stri ke</w>
sa ving</w>
recei pt</w>
re gre
pro of</w>
pack age</w>
mis sed</w>
m âu</w>
lo ck</w>
l ê</w>
hy dro
fl ying</w>
expendi tures</w>
desig ning</w>
chur ch</w>
chi ết</w>
c ei
ang ry</w>
T ro
7 %</w>
rou ting</w>
r are</w>
po sse
invest or</w>
ib m</w>
gradu ate</w>
commun es</w>
car rier</w>
c ắm</w>
ans wers</w>
S ection</w>
M E
A i</w>
ế ch</w>
ta ng
pro mp
pre -
le g</w>
kee ps</w>
fund ed</w>
for ec
enti rely</w>
ch eap</w>
cen ters</w>
bl ind</w>
O S
ù n</w>
v is</w>
tr e</w>
th ắt</w>
si zed</w>
scen e</w>
sa m
phen omen
over seas</w>
ng ợi</w>
gi ft</w>
fas cin
dra wn</w>
develop ers</w>
compas sion</w>
the ast</w>
th in</w>
suppor ts</w>
sig ning</w>
ro me</w>
r ung</w>
no vel</w>
mean while</w>
intro duce</w>
de preci
d ous</w>
bi lls</w>
ari a</w>
V ì</w>
For eign</w>
wa ke</w>
u pper</w>
transpor tation</w>
tr end</w>
ti red</w>
tex </w>
surpri se</w>
ssi ve</w>
schedu le</w>
p ound</w>
ment ary</w>
lu ng</w>
ha s
gre at
foo ds</w>
degre es</w>
deep ly</w>
cu s</w>
B O
wri ter</w>
wel come</w>
th áo</w>
th ám</w>
str et
shor t-
ngu i
m ồ</w>
in comes</w>
i i</w>
fac ed</w>
en e</w>
di scri
b o</w>
UNI X</w>
N ig
đ ệm</w>
val id</w>
tis sue</w>
ti sm</w>
t ựu</w>
soci eties</w>
na vi
k iệt</w>
is m</w>
in dia</w>
f oundation</w>
econom ics</w>
ec o
done sia</w>
don ors</w>
calcul ated</w>
c ab
ac tors</w>
H el
G rou
CO 2</w>
5 7</w>
v a
tur ing</w>
ti ves</w>
th ính</w>
specific ally</w>
rou ters</w>
obj ective</w>
ho o
h en</w>
h all</w>
c anh</w>
br and</w>
b attle</w>
appro xim
ap ar
ad ding</w>
Re gu
Pa kistan</w>
N a
G P
E instein</w>
u nh
tra v
t ted</w>
t ang</w>
sub -
se ven
resi dents</w>
re la
proper ly</w>
m ạn</w>
le ase</w>
l ac
im posed</w>
hy po
hor se</w>
gu il
engine ers</w>
contribu ted</w>
contr ols</w>
con tain</w>
bri ngs</w>
arm ed</w>
Bri tain</w>
A ri
4 %</w>
wel fare</w>
roo t</w>
reli ef</w>
per formed</w>
ke y
g ers</w>
deliver ed</w>
cro ss
cover ing</w>
con stra
arbi tr
am ent</w>
ac tor</w>
Ser vice</w>
5 6</w>
5 2</w>
3 -
yel low</w>
wat ched</w>
pla yer</w>
p ag
ne sses</w>
n ọ</w>
kh éo</w>
intellec tual</w>
fru it</w>
fant astic</w>
declar ed</w>
bad ly</w>
S und
M L</w>
A t
su res</w>
mo tor
mag ni
kil ome
jo ined</w>
expla ined</w>
emer ging</w>
dre w</w>
child hood</w>
au lt</w>
C re
Ang eles</w>
Afri can</w>
Ả </w>
t ations</w>
re move</w>
on ing</w>
lad y</w>
investi gation</w>
hn son</w>
guid ance</w>
friend ly</w>
fin ancing</w>
fe ver</w>
fe ature</w>
experim ents</w>
ex plan
dic tionary</w>
contribu tion</w>
comp are</w>
ati n</w>
Th omas</w>
M or
B oo
3 9</w>
1 20</w>
sp on
oc tober</w>
ng ực</w>
logi sts</w>
har der</w>
go ld
gg ed</w>
deman ds</w>
cu tting</w>
consist ent</w>
atmo sphere</w>
ag er</w>
you nger</w>
tw enty</w>
supp le
sp lit</w>
sing apore</w>
pri or</w>
pregn ant</w>
pic ked</w>
om i
m óng</w>
ll a</w>
k ins</w>
họ a</w>
ha ven
cir cul
atur day</w>
Rob ert</w>
M ur
Ch i</w>
thin ks</w>
tar gets</w>
smo ke</w>
sm ell</w>
pre fer
m ming</w>
l ướt</w>
k a
in sec
con fir
comple xi
c ai</w>
Ri chard</w>
9 0
ế c</w>
wide ly</w>
war ning</w>
p et</w>
nor thern</w>
ngh ịch</w>
l ondon</w>
immedi ate</w>
g ab
con tain
arri ve</w>
Mi nh</w>
v ast</w>
un like</w>
surpri sing</w>
suppor ting</w>
ski ll</w>
rati o</w>
passe ngers</w>
m on</w>
less ons</w>
g ging</w>
di sh</w>
democr atic</w>
d n
coun cil</w>
con crete</w>
a sian</w>
S ở</w>
x el</w>
t ôi.</w>
stro nger</w>
s ướng</w>
rema ined</w>
re cur
khuy nh</w>
is on</w>
identi ty</w>
hu b</w>
g m</w>
e ing</w>
ci ans</w>
chic ago</w>
bo ards</w>
N ông</w>
Ma c</w>
tax i</w>
spokes man</w>
sa mp
religi ous</w>
ne u
lipp ines</w>
haven 't</w>
fri day</w>
fr ames</w>
di c</w>
d ne
corpor ations</w>
consider ation</w>
am ing</w>
N go
wi re</w>
spir it</w>
re forms</w>
physi cs</w>
photograph </w>
m d
lu i</w>
fe eding</w>
fal ls</w>
es .</w>
disa bled</w>
co ast</w>
certific ate</w>
c lic
N D
Fi gu
vari able</w>
th áp</w>
tan e
ta bility</w>
samp le</w>
sa d</w>
opti mi
en tries</w>
dri ven</w>
don or</w>
c at</w>
bur n</w>
b ám</w>
arra ng
S M
N A
x í</w>
world wide</w>
v ặt</w>
t ant</w>
sel ected</w>
s '</w>
nh i</w>
newsp apers</w>
me al</w>
lu m</w>
in c.</w>
guarante e</w>
g as
d ải</w>
c ated</w>
be ings</w>
autom aton</w>
air craft</w>
S we
O x
M al
Figu re</w>
D ay</w>
w ine</w>
ultim ately</w>
tex as</w>
t ông</w>
lead s</w>
d ors</w>
com mon
bir d</w>
behavi our</w>
b ong</w>
Uni on</w>
Ho w</w>
A b
7 00</w>
2. 0</w>
1 st</w>
wa ve</w>
ti me
th ạch</w>
s .
r ưỡi</w>
plea sure</w>
pas sing</w>
i -
gi ật</w>
doub t</w>
dne sday</w>
ar ticles</w>
ap poin
Tim es</w>
Ph ần</w>
L ab
F u
00 .000</w>
topi c</w>
se ment</w>
re solution</w>
pl enty</w>
m ỏng</w>
libr ary</w>
l ùi</w>
extre me</w>
cho col
at o
accur ate</w>
R a
Net work</w>
N H</w>
t úng</w>
m ẻ</w>
frequ ently</w>
d ency</w>
co very</w>
ad ing</w>
J us
đi ền</w>
v án</w>
terri tory</w>
t ị</w>
sti mul
sel s</w>
re pair</w>
re action</w>
m -
ex </w>
b al</w>
ap ri
absolu te</w>
J ames</w>
I f</w>
Bro wn</w>
đ ạn</w>
ti vi</w>
re pu
poin ter</w>
oxy gen</w>
mu se
mon etary</w>
mode m</w>
l augh
g õ</w>
fe e</w>
es tion</w>
dec lined</w>
chann els</w>
c ởi</w>
authori zed</w>
adop ted</w>
J anuary</w>
A DN</w>
20 %</w>
the less</w>
st am
sp ar
rough ly</w>
radi ation</w>
no i</w>
j i
initi ative</w>
hospit als</w>
ex ceed</w>
du mping</w>
N S
H e</w>
7 2</w>
ã nh</w>
stu ck</w>
scienti st</w>
ng ắm</w>
mon thly</w>
li ver</w>
li qu
inform al</w>
gr and</w>
eng age</w>
e g
clo sing</w>
ad y</w>
Kore a</w>
Chri sti
C D
B ab
3 ,000</w>
z z</w>
to ler
sch em
molecu les</w>
gi ant</w>
explor ation</w>
difficul ty</w>
conti n
consider able</w>
characteri stics</w>
attribu te</w>
appreci ate</w>
V ậy</w>
Te ch
ắ c-
đ ôla</w>
trad ers</w>
spi ri
sc r
re fer
por ts</w>
pi lot</w>
op tion</w>
l àn</w>
kho ác</w>
im er</w>
heal th
fe els</w>
enor mous</w>
electri cal</w>
desi re</w>
argu e</w>
B al
5 4</w>
ta ste</w>
t ò</w>
streng th
stor m</w>
ro man
rel ay</w>
recomm end
reason able</w>
pro secu
n ai
measu red</w>
l ận</w>
khi ếm</w>
excel lent</w>
every day</w>
dra ft</w>
cre ativity</w>
continu ing</w>
compe t
cl oud</w>
cha in</w>
c ụt</w>
bio logy</w>
assemb ly</w>
Sy stem</w>
Pal esti
A l</w>
đu ôi</w>
vo ices</w>
quar ters</w>
las er</w>
ha d
gu ard</w>
f lows</w>
enter ed</w>
co al</w>
chu ông</w>
ch ục</w>
assign ment</w>
anti cip
T iên</w>
K hoa</w>
Chi c
A T</w>
wi ld</w>
the -
socio- economic</w>
re ward</w>
qu ái</w>
occu p
f di</w>
ch ri
capi ta</w>
and er</w>
ad mi
M ay</w>
IO N</w>
ử ng</w>
Ú c</w>
w inning</w>
so il</w>
s and</w>
prin cipal</w>
po ol</w>
pi ano</w>
pa int</w>
organi sations</w>
ner v
n -
mal es</w>
kh ơi</w>
g ác</w>
fi ngers</w>
evol ved</w>
cor p</w>
assi st</w>
an ni
Ste ve</w>
Char les</w>
ơ n.</w>
swit ched</w>
sho pping</w>
s ốc</w>
religi on</w>
regu larly</w>
qu ĩ</w>
prepar ation</w>
pre scri
person nel</w>
ou ri
mi cs</w>
l ồng</w>
inten ded</w>
ho l</w>
f at
coo king</w>
birth day</w>
awar eness</w>
a c</w>
Tri ều</w>
S tre
4 -
ễ u</w>
v ọt</w>
univer sities</w>
se mi
s út</w>
ph àn</w>
ou ghts</w>
nh ị</w>
nh ạt</w>
me ani
m òn</w>
khi êu</w>
incenti ves</w>
he o</w>
dis covery</w>
dec ree</w>
con stantly</w>
c ong</w>
at tract</w>
all en</w>
ag ent</w>
Whi te</w>
T O</w>
In formation</w>
Ha iti</w>
D el
C l
4 1</w>
đo an</w>
x ách</w>
wal ls</w>
tre men
t s
t our</w>
t ape</w>
st ence</w>
smi th</w>
se ttle</w>
l h
inven ted</w>
hea vi
gh ten
comm and</w>
at ch</w>
Q </w>
O ly
I n</w>
ò m</w>
to k
ti ễn</w>
refl ect</w>
pro fi
l ụt</w>
inv esting</w>
ho pes</w>
exi sts</w>
er als</w>
defini tely</w>
char ged</w>
0 1</w>
wat er
ru pt</w>
refu sed</w>
re plac
pho to</w>
ob tain</w>
m ổ</w>
la ke</w>
indic ate</w>
f loo
expl ore</w>
cu ồng</w>
cover age</w>
compet ence</w>
cli mb
cl ou
ch ăn</w>
beli ef</w>
b ones</w>
N H
Grou p</w>
Dec ember</w>
ỏ a</w>
Đ i
u al</w>
sou thern</w>
re vi
p ra
on ics</w>
nh o</w>
law yer</w>
exam ine</w>
ec tor</w>
dyna mic</w>
cour ses</w>
categ ories</w>
am in
Qu y</w>
Ngo ại</w>
H y
H er
Ger many</w>
su ffer</w>
robo ts</w>
r ồ
pla ys</w>
organiz ing</w>
o th</w>
n ôn</w>
mi a</w>
m ọc</w>
k -
h òn</w>
g la
g ent</w>
engine er</w>
di al</w>
dang er</w>
d ges</w>
bloc ks</w>
Mar ch</w>
unemploy ment</w>
su ici
s ưu</w>
s qui
nh ở</w>
mi ty</w>
li a</w>
ho lder</w>
h ước</w>
depreci ation</w>
dedic ated</w>
al y
ad voc
D on
Com mission</w>
Bi g</w>
wi s
wa sh</w>
valu ed</w>
trans ferred</w>
star r</w>
sh ore</w>
regul atory</w>
les son</w>
le men</w>
l ật</w>
ki lling</w>
invol ving</w>
est er</w>
de sk
de pression</w>
bu re
bri lli
b ơm</w>
asp ects</w>
adul t</w>
a thy</w>
S ep
w an</w>
visi ted</w>
un able</w>
u nex
te sted</w>
suc ceed</w>
stru ck</w>
sta bility</w>
s lo
rec ep
r arely</w>
nh att
ng hai</w>
n át</w>
mom ents</w>
ga ined</w>
fif th</w>
expan sion</w>
ear ned</w>
by te</w>
b ọc</w>
ans as</w>
and y</w>
am i</w>
Th ống</w>
T ok
Oly mp
M R
M A</w>
20 20</w>
ắc- xin</w>
z he
week end</w>
wa ves</w>
ta i
t elecommunications</w>
stu died</w>
ri a</w>
pr oud</w>
offi cers</w>
occur s</w>
ob </w>
mech an
ma d</w>
li kes</w>
l ặn</w>
kẹ t</w>
h ôi</w>
e thi
Nig eria</w>
Mid dle</w>
As soci
đ ực</w>
v ắc-xin</w>
pres entation</w>
perf ec
pe dia</w>
ng ốc</w>
l úa</w>
inspi red</w>
h ét</w>
ex cu
ex act</w>
allow ing</w>
US D</w>
Kh i</w>
Cu stom
6 2</w>
50 .000</w>
10 %</w>
ô ng.</w>
é c</w>
vi ếng</w>
si vely</w>
sc al
sa ved</w>
pro portion</w>
ph ì</w>
perman ent</w>
neur ons</w>
n an
in tui
dri ves</w>
b ell</w>
ali an</w>
P i
I D</w>
ẽ n</w>
đ úc</w>
w ages</w>
under lying</w>
tr ắc</w>
ti tle</w>
the sis</w>
targe ted</w>
ri de</w>
purch ased</w>
n ản</w>
n is</w>
issu ing</w>
govern ance</w>
frequ ency</w>
fi es</w>
expres sed</w>
ef s</w>
brea th</w>
archi t
acquisi tion</w>
J une</w>
8 -
we dding</w>
ti e</w>
t ựa</w>
stati sti
shar p</w>
se es</w>
r anh</w>
out standing</w>
n ồng</w>
mista kes</w>
mach in
ir on</w>
inter s</w>
gradu ally</w>
gi e</w>
en for
comb at</w>
approxim ately</w>
alco hol</w>
a side</w>
Tr ường</w>
N ội</w>
stom ach</w>
sta ke</w>
see king</w>
ph en</w>
par </w>
or al</w>
mi rr
mi d-
lab el</w>
g ối</w>
execu tion</w>
enter tainment</w>
de partments</w>
cr y
class room</w>
argu ments</w>
Sam sung</w>
M ĩ</w>
Lu ân</w>
y u
viol ent</w>
spea ker</w>
sp ecu
promo tion</w>
prepar ing</w>
ph ẳng</w>
pe di
p uni
l ũng</w>
kh ỉ</w>
ite m</w>
indic ators</w>
fin dings</w>
contribu tions</w>
autom atically</w>
R A
Mar tin</w>
M us
I M
tr ừng</w>
t c</w>
s ụt</w>
s úc</w>
nhatt an</w>
ng ộ</w>
men tion</w>
j anuary</w>
ir s</w>
ha te</w>
guid el
g ãy</w>
exten sion</w>
es sion</w>
eradic ation</w>
differ ently</w>
complexi ty</w>
St an
Regu lation</w>
R es
J er
20 ,000</w>
shu t</w>
rou te</w>
ni êm</w>
ng uy
movi es</w>
j ames</w>
gar et
for ever</w>
d enti
con serv
comp ati
bo ttle</w>
be lo
apri l</w>
abu se</w>
a th</w>
W o
Th ượng</w>
T ại</w>
Qu ản</w>
N G
C ap
C T</w>
199 0s</w>
- year</w>
Đ ôn</w>
t ùng</w>
st a</w>
so phi
roo ts</w>
represent atives</w>
ra il
on e
lh q</w>
invol ves</w>
im a</w>
hy dr
gran ting</w>
equ ally</w>
du ties</w>
comp il
centr e</w>
att end</w>
al li
Tok yo</w>
MI T</w>
M at
M ary</w>
Ju ly</w>
F re
wei gh
vehi cle</w>
strugg le</w>
sch ol
r ét</w>
qu in
pu zz
mo vements</w>
li ked</w>
l ấp</w>
ci garet
accep ting</w>
D eci
Custom s</w>
C lin
B ur
Au stralia</w>
so es</w>
remo ved</w>
r ỗng</w>
ol a</w>
mo tion</w>
lat eral</w>
it .</w>
instru ments</w>
inf ections</w>
gi ơ</w>
g ắt</w>
g ates</w>
fic it</w>
cop ies</w>
at en</w>
al- level</w>
ac knowled
Tal k</w>
Si ng
C enter</w>
3 /
y al</w>
v. v</w>
tu be</w>
r ene
po st-
ke ys</w>
f lower</w>
exten ded</w>
dea ths</w>
coll ecting</w>
bor row</w>
S ec
N AS
I T
9 %</w>
x h</w>
tr iều</w>
tim ate</w>
ster y</w>
n ó.</w>
n an</w>
l ờ</w>
l en
k em</w>
d less</w>
conclu sion</w>
chuy ền</w>
c ry</w>
Tech no
Sund ay</w>
Sci ence</w>
Deci sion</w>
D ương</w>
C on</w>
6 8</w>
ươ n</w>
x ưởng</w>
r ộn</w>
m anh</w>
li ngs</w>
kar ta</w>
impor ts</w>
go lf</w>
g ạt</w>
ear n</w>
desig ns</w>
algorith m</w>
a .
B a</w>
wi ngs</w>
un usual</w>
te ams</w>
pri vi
predic t</w>
on y
mi chael</w>
g un
exper t</w>
dis cover</w>
dep end</w>
cu ộn</w>
compe te</w>
co at</w>
chocol ate</w>
be t</w>
b ội</w>
analy st</w>
2. 5</w>
19 70</w>
v ắc</w>
t ớ</w>
t òa</w>
sho ck</w>
re ferred</w>
photo s</w>
p ace</w>
p .
mort ality</w>
m ouse</w>
land scape</w>
l ăn</w>
l ùng</w>
furni ture</w>
de ficit</w>
chu a</w>
ch ọc</w>
announ cement</w>
ab s
Wi lli
In stitute</w>
In dian</w>
A gri
198 5</w>
ver i
ris m</w>
read s</w>
rea ching</w>
pro to
pot entially</w>
per mission</w>
no tion</w>
musc les</w>
me ta
limi ts</w>
l t
j .</w>
hu ng
ho ping</w>
h eight</w>
emo tions</w>
de duc
cu sto
com mission</w>
ch y</w>
bur ning</w>
be sides</w>
b ốc</w>
b ble</w>
as tr
Sep tember</w>
Ox ford</w>
K ing</w>
B el
2 -
10 .000</w>
ẹ o</w>
where as</w>
v ương</w>
transpar ency</w>
to w
th oughts</w>
stu r
streng then</w>
sle eping</w>
sh i</w>
r ạp</w>
produc tivity</w>
pl ed</w>
perfec tly</w>
nh ặt</w>
lu s</w>
inter act</w>
in puts</w>
human ity</w>
ge orge</w>
fer tili
el se
ea stern</w>
d ẻo</w>
cra sh</w>
cam p</w>
T ra
Par ty</w>
M ặt</w>
50 %</w>
đ ôn</w>
tro ops</w>
stro ngly</w>
ngh ẽn</w>
nerv ous</w>
m úa</w>
labor ers</w>
inter ven
iP ad</w>
ga -
g al</w>
fi ve-
ex am</w>
epi demic</w>
economi sts</w>
direc ted</w>
dam aged</w>
d ốc</w>
ch ước</w>
back up</w>
H en
C ô</w>
tremen dous</w>
t ẩy</w>
simi larly</w>
sa u
pur su
prin ted</w>
mp s</w>
mo de</w>
ini a</w>
h ố</w>
g .
den i
del ay</w>
chu ộng</w>
bi ke</w>
ang er</w>
accu sed</w>
W hy</w>
Sa har
S an
L a</w>
wi ld
v ả</w>
v ạch</w>
v ated</w>
tic ket</w>
t ables</w>
situ ations</w>
requ ests</w>
r ồ</w>
ph u</w>
par ame
machin ery</w>
le ge</w>
l ánh</w>
im m
gi ang</w>
for ests</w>
emb arr
defin es</w>
c ạn</w>
brea king</w>
b ỏng</w>
au ss</w>
aff ects</w>
Trea sury</w>
S T
O c
Fri day</w>
ti ous</w>
ti ce</w>
suc ce
scho ol
pay able</w>
opini ons</w>
e ggs</w>
dn nn</w>
am p
O k
N ăm</w>
M in
M er
v ỗ</w>
su itable</w>
pu s</w>
or dered</w>
occur red</w>
m ad
la unch</w>
inh er
i ted</w>
ho ài</w>
hi ll</w>
heavi ly</w>
har dly</w>
happ i
err ors</w>
ear ed</w>
e e
de -
ce -
c kets</w>
b ắp</w>
a p</w>
L ao</w>
B ei
9 8</w>
19 60</w>
st le</w>
st ages</w>
soli d</w>
sc an
re serves</w>
par tly</w>
lat ter</w>
l ắc</w>
divor ce</w>
direc tory</w>
coll ective</w>
appear ance</w>
Q uyết</w>
E d
Bo ston</w>
z ones</w>
y ết</w>
trans lation</w>
tradi tion</w>
th or
sub sequ
sol ving</w>
resp ectively</w>
pe are</w>
no ver</w>
negoti ations</w>
mi xed</w>
mari ly</w>
in ner</w>
figu red</w>
ex po
des k</w>
de ad
consider ing</w>
con venti
bi c</w>
b ổng</w>
americ ans</w>
addre sses</w>
No bel</w>
M ac
Cour t</w>
9 6</w>
1 1
ủ a</w>
vehi cles</w>
v ây</w>
ur o</w>
t onom
s in</w>
reli able</w>
perc ei
mit ting</w>
l ân</w>
kes peare</w>
k in</w>
h uy
evalu ate</w>
dispu te</w>
chi ps</w>
broad cast</w>
break fast</w>
billi ons</w>
ab sor
Vi r
Su n</w>
O pen</w>
Kh o</w>
8 4</w>
zhe imer</w>
v als</w>
survi val</w>
s ke
ro b
re less</w>
pe ace
ne dy</w>
loc ations</w>
kh e</w>
jo y</w>
i ds</w>
hi dden</w>
euro pe</w>
discu ssions</w>
ani sh</w>
U L
Re public</w>
Clin ton</w>
C y
8 8</w>
ten s</w>
stu dio</w>
st ac
spac es</w>
s now</w>
pen sion</w>
pe ngu
moun tains</w>
me ter</w>
ll -
liqu id</w>
hand led</w>
guidel ines</w>
forei g
fin ite</w>
col ors</w>
autom o
atti tude</w>
ang eles</w>
Sing apore</w>
M O
L ee</w>
Con trol</w>
Agri culture</w>
A C
. com</w>
to x
swe et</w>
sta yed</w>
some what</w>
rec ru
process or</w>
prin ting</w>
fin ds</w>
dre ams</w>
di se</w>
annu ally</w>
ai m</w>
Str auss</w>
Mur ray</w>
CP U</w>
A ma
y an</w>
x on</w>
to a</w>
r ô</w>
pu lled</w>
pri marily</w>
mi x</w>
lu c
health care</w>
fo ld</w>
en da</w>
disti ngui
di alo
arti sts</w>
Ka hn</w>
Ch rome</w>
B en</w>
8 6</w>
đ ặn</w>
ur al</w>
sal t</w>
por t
manufactur ers</w>
li ft</w>
kẹ o</w>
jo in
imm une</w>
h ệt</w>
di t</w>
collabor ation</w>
car to
c kho
abs ence</w>
O DA</w>
thir ty</w>
speci fied</w>
short- term</w>
se i
schem es</w>
re placed</w>
ra ging</w>
pain ful</w>
or o
muse um</w>
ja karta</w>
hon est</w>
fi sh
dic tion</w>
cooper ative</w>
contr over
consci ous</w>
claim ed</w>
brow ser</w>
appl ying</w>
To à</w>
trans mitted</w>
rồ i.</w>
produc ers</w>
or ang
n ine
li mit
inju ry</w>
i re</w>
fel low</w>
e ded</w>
d r</w>
cover s</w>
consci ousness</w>
ce l</w>
bur g</w>
boo st</w>
ar ing</w>
a bi
Man aging</w>
7 6</w>
7 -
sett led</w>
ph arm
p il
n ơ</w>
lin ing</w>
li ce</w>
la u</w>
fif ty</w>
f an</w>
di stric
cham pi
bu ồng</w>
bio logical</w>
agre ements</w>
af ri
Bu sh</w>
1. 5</w>
ti vely</w>
re min
le 's</w>
l ỡ</w>
import antly</w>
ho t
gl as
g lu
conventi onal</w>
addre ssed</w>
Ne w
Mus li
Har vard</w>
Fr ancisco</w>
9 00</w>
6 3</w>
tr úng</w>
substanti al</w>
rep lic
pas ses</w>
out come</w>
net working</w>
ne ver
lu lar</w>
j agu
graph ics</w>
fo li
fai th</w>
explan ation</w>
ea se</w>
d ắt</w>
cho sen</w>
bro ad</w>
b loo
ab and
a vi
W il
Qu e
G al
D ân</w>
CN N</w>
5 9</w>
y ard</w>
wor ker</w>
v ươn</w>
unex p
un likely</w>
tr ội</w>
tr ends</w>
sophi sti
ph ác</w>
over -
ori da</w>
org an</w>
l áng</w>
in k</w>
exp ects</w>
end ers</w>
dis bur
d ũng</w>
construc t</w>
circu its</w>
certain ty</w>
bri tish</w>
ani zation</w>
Stre et</w>
No kia</w>
Com pu
đ ới</w>
ven dors</w>
v ĩnh</w>
st ori
remitt ances</w>
recomm end</w>
re d
quo te</w>
purch ases</w>
pre me</w>
poor est</w>
on er</w>
ng ắt</w>
m ỡ</w>
m ấu</w>
m atic</w>
l on</w>
inter action</w>
imp acts</w>
g ross</w>
di um</w>
be gun</w>
attrac tive</w>
ath le
acqui red</w>
ver sus</w>
ti les</w>
t ống</w>
t ê</w>
t ants</w>
spo ken</w>
sil ence</w>
p ly</w>
op position</w>
o ngo
li qui
her o
fr ag
enc ry
embarr as
el ected</w>
dio xin</w>
control ling</w>
cm mi</w>
ar ts</w>
Tro ng</w>
T hur
M y</w>
B en
vo ted</w>
vill ages</w>
v ali
tur nover</w>
trans formation</w>
super vision</w>
r áp</w>
pl ate</w>
perio ds</w>
over come</w>
ng ơi</w>
mul tic
mer chan
l ợn</w>
en suring</w>
electr onics</w>
disp la
de puty</w>
c ối</w>
b inary</w>
au tonom
R ural</w>
No w</w>
H ey</w>
Gre at</w>
v ậ
v ất</w>
tru m</w>
tri llion</w>
trans mit</w>
suffer ed</w>
resul ting</w>
requ ested</w>
pas sion</w>
oper ators</w>
neighbor hood</w>
n ốt</w>
medic ations</w>
meani ng
lo g</w>
la id</w>
huy nh</w>
ha u
g ạch</w>
g inia</w>
f i</w>
e c</w>
depen dent</w>
cm c</w>
candid ate</w>
au tism</w>
acade mic</w>
Th at</w>
Jus tice</w>
I S</w>
H ouse</w>
Com p
C al
ti ed</w>
te eth</w>
swi mming</w>
suici de</w>
stitu tion</w>
r ụng</w>
profes sion
per su
ongo ing</w>
ng a</w>
n ữ
m ộng</w>
l ly</w>
ja zz</w>
hon or</w>
gener ations</w>
g ìn</w>
fav or</w>
es sed</w>
dis count</w>
cu re</w>
c bs</w>
brilli ant</w>
ar en't</w>
a ysi
Tr ans
Thi ên</w>
Mon day</w>
Mar k</w>
8 7</w>
6 6</w>
4 ,000</w>
200 1-
đ ụng</w>
x ing</w>
who 's</w>
v ẹn</w>
v ate</w>
ul ture</w>
toi let</w>
the a
t land</w>
syst em
see ds</w>
re memb
pre ven
pe tro
mortg age</w>
mor e
l ds</w>
ho ng</w>
di stur
cu ts</w>
b ú</w>
b ound
b la
ag ers</w>
X in</w>
Th ank</w>
T ex
T T
Secu rity</w>
R S
E gy
D ata</w>
resp ective</w>
prot ecting</w>
pro ved</w>
par alle
la yers</w>
k ne
jagu ar</w>
h cmc</w>
g li
ev ing</w>
desk top</w>
cap abilities</w>
c ắn</w>
c ơm</w>
be er</w>
appoin tment</w>
appar ently</w>
Q U
K o
. ...</w>
ẹ t</w>
x ỉ</w>
satelli te</w>
rescu e</w>
ran dom</w>
person ally</w>
per si
or es</w>
ob tained</w>
n as
memor ies</w>
he a</w>
goo gle</w>
fe ed
f allen</w>
du ration</w>
dra w
der ing</w>
confir med</w>
aw ful</w>
as ant</w>
ad ds</w>
NAS A</w>
Ger man</w>
zon a</w>
y n</w>
trans form</w>
thu ng</w>
thir d-
swi m</w>
stric tly</w>
s lu
recogni tion</w>
n ô</w>
mo du
m ụn</w>
kilome ters</w>
kh ao</w>
guil ty</w>
fr ancisco</w>
fa st
en thu
en a</w>
dram atic</w>
de leg
convin ced</w>
co gni
clin ical</w>
as sy</w>
algorith ms</w>
In donesia</w>
10 ,
x ơ</w>
v ựng</w>
th ầm</w>
t z</w>
su rely</w>
so viet</w>
sing ing</w>
si licon</w>
pres ents</w>
le an</w>
f ab
exemp tion</w>
bo b</w>
b ling</w>
b att
ac ked</w>
Go vern
A pri
ì nh.</w>
x à</w>
success fully</w>
re j
p ou
migr ants</w>
mar ine</w>
mar g
lo sed</w>
j im</w>
insec ts</w>
i ng
histor ical</w>
expect ations</w>
di r
cap ability</w>
bu m</w>
bo w
Nh ân</w>
H ai</w>
A D
ề ng</w>
y ours</w>
vn d</w>
thi ck</w>
t ù
sta bili
sh y</w>
politici ans</w>
more over</w>
me tic</w>
ma gi
m ĩ</w>
life time</w>
k up</w>
enthu si
enjo yed</w>
encour aged</w>
di ly</w>
det ect</w>
de ter
b á</w>
an i</w>
am o
ag enda</w>
Ta x</w>
MR I</w>
L AN
H y</w>
Đi ển</w>
x ích</w>
whi te
tro gen</w>
tou rism</w>
recomm ended</w>
r ập</w>
p ack</w>
multi -
mon day</w>
matu re</w>
l ậu</w>
imag ination</w>
gu ests</w>
fa ke</w>
el ling</w>
e missions</w>
disa gre
de fe
cop y
cere mony</w>
b n</w>
X .
Tr an
F o
B ình</w>
so -
se -
sc ore</w>
repu tation</w>
pu shed</w>
po cket</w>
invol ve</w>
institu te</w>
in o
enfor cement</w>
en able</w>
d ại</w>
brea thing</w>
adju st
ac com
ab str
M ul
Jo e</w>
Fin ancial</w>
Chic ago</w>
Apri l</w>
Ama zon</w>
A ff
wis dom</w>
utili ty</w>
tr o</w>
ta ke
st ones</w>
spec trum</w>
smi le</w>
r ational</w>
nutri tion</w>
nu mer
lu ck</w>
lab eled</w>
l ề</w>
l ót</w>
inju red</w>
hel p
graph ical</w>
ge l</w>
che aper</w>
c ation</w>
be ach</w>
b low</w>
arti ficial</w>
ap es</w>
ag ents</w>
St and
O ne</w>
H z</w>
Gi áng</w>
D ell</w>
C up</w>
x ướng</w>
veget ables</w>
trav eling</w>
recei ves</w>
port foli
p id</w>
nhiễ u</w>
migr ation</w>
mar ked</w>
loc ked</w>
inten sive</w>
f ears</w>
ex tend</w>
ex hibi
emp lo
divi de</w>
distric ts</w>
con vic
co ok</w>
bo ston</w>
ap p</w>
S ự</w>
P H
Hen ry</w>
Gi ao</w>
you 'd</w>
w a</w>
ten ance</w>
syn chr
surve ys</w>
sub mitted</w>
se min
re struc
ra in
n arr
mon o
liter ature</w>
impro vements</w>
hor ri
gi áng</w>
func tional</w>
fi shing</w>
divid ends</w>
di ty</w>
d ệt</w>
ch ances</w>
bom b</w>
be half</w>
ani el</w>
You Tu
Oc tober</w>
L ad
IS DN</w>
F S</w>
En viron
Ch ương</w>
Bei jing</w>
5 .000</w>
1 3.
wer en</w>
v ượng</w>
t acti
s ors</w>
reco ver</w>
re tail</w>
qu alities</w>
pro por
pre ferred</w>
n ụ</w>
le ep</w>
lap top</w>
initi ally</w>
hi stori
exi stence</w>
et es</w>
eal and</w>
dep th</w>
d ỗ</w>
commit ments</w>
bri ef</w>
b in</w>
au c
ag an</w>
ac id</w>
W ar
Th ật</w>
E ver
De mo
C ảm</w>
Ad am</w>
7 9</w>
7 3</w>
1 1.
z e
the ater</w>
ta -
ski lled</w>
shou ldn</w>
pri ced</w>
presi dents</w>
pla y
ou raging</w>
li an</w>
l ăng</w>
implic ations</w>
har m</w>
h âm</w>
h tt
fil ms</w>
en ab
el ine</w>
discipl ine</w>
cur ri
compar ison</w>
b ấy</w>
b ì</w>
ado pt</w>
R om
P or
F a
E duc
ẵ ng</w>
visi ting</w>
under ground</w>
th ỏa</w>
st ea
st airs</w>
ri ties</w>
ri gh
repres enting</w>
khi êm</w>
g on
g all
do zen</w>
do l
deposi ts</w>
c af
app y</w>
ag en</w>
IE T
HT TP</w>
wh er
vir uses</w>
tiệ m</w>
s ons</w>
ro of</w>
resi stance</w>
recor ding</w>
pro file</w>
plan es</w>
oun ce</w>
oo k</w>
ngre di
n i</w>
le man</w>
kho ai</w>
k ông</w>
inf ant</w>
i ngredi
g t</w>
f lies</w>
evi l</w>
emo tion</w>
eff ecti
e quality</w>
descri ption</w>
d ẹp</w>
ch .</w>
calcul ate</w>
bo xes</w>
assum ing</w>
ado ption</w>
L atin</w>
H aw
GP S</w>
B ang
trac king</w>
tok yo</w>
te ars</w>
sp er
sam ples</w>
pre serve</w>
photograph s</w>
phenomen on</w>
od d</w>
never theless</w>
meta ph
magne tic</w>
gla d</w>
fic ations</w>
fa x</w>
excu se</w>
ex ce
di ab
der son</w>
bi cycle</w>
b óc</w>
asse ss</w>
addre ssing</w>
acti vation</w>
T 1</w>
S ou
Or g
L ạp</w>
vir tu
un clear</w>
so le
remar ks</w>
rec ession</w>
preci ous</w>
phá o</w>
on ous</w>
lo aded</w>
h cm</w>
favor able</w>
ex cess</w>
effecti veness</w>
dialo gue</w>
dee per</w>
d ở</w>
d or
d am</w>
cy cles</w>
cross -
compla ints</w>
comfor t</w>
ca ke</w>
bal anced</w>
Wiki pedia</w>
K or
J im</w>
Indu stry</w>
C ực</w>
Ar chi
Aff airs</w>
9 2</w>
1 25</w>
ố p</w>
un t</w>
sta ying</w>
sophisti cated</w>
sha pes</w>
sh ima</w>
se ats</w>
pu re</w>
promi sed</w>
organi c</w>
op pon
k ni
invi te</w>
hi re</w>
cir cle</w>
c ừu</w>
b át</w>
YouTu be</w>
Rus sia</w>
# </w>
wi reless</w>
v ant
ti ble</w>
th ắc</w>
stu re</w>
sh er</w>
s can</w>
s als</w>
require ment</w>
re ha
pl as
origin ally</w>
org ans</w>
oblig ation</w>
natur ally</w>
molecu le</w>
matu rity</w>
le x</w>
k ansas</w>
fi led</w>
discri mination</w>
dimen sional</w>
concep ts</w>
c ớ</w>
c in</w>
c ac
believ es</w>
approach es</w>
Thur sday</w>
Sch ool</w>
L O
sen ate</w>
schedu led</w>
quanti ty</w>
po sted</w>
p m</w>
micro soft</w>
l ột</w>
im pres
ho les</w>
h ổng</w>
h ori
fundam ent
execu tives</w>
equiti zation</w>
else where</w>
dec entr
coun tr
conveni ent</w>
chr onic</w>
as pi
apar tment</w>
ag on</w>
Th ổ</w>
T ony</w>
Re search</w>
C .</w>
Associ ation</w>
9 7</w>
30 %</w>
198 0s</w>
ị a</w>
ạ i.</w>
Đ ào</w>
vi- rút</w>
v ịnh</w>
tù y</w>
t ance</w>
se ments</w>
scen ari
routi ne</w>
r òng</w>
of -
ngu e</w>
nghi êng</w>
mi ce</w>
main tenance</w>
labor atory</w>
ir ri
hy per
hi de</w>
h ít</w>
goo d
eg g</w>
de l</w>
cor n</w>
comb ine</w>
ch ằm</w>
ar di
C ập</w>
C ái</w>
B ởi</w>
6 1</w>
1 .000</w>
z ar
visi tors</w>
tor al</w>
so i</w>
sh a</w>
reve aled</w>
reti rement</w>
regar dless</w>
pro found</w>
pri orities</w>
ph ím</w>
p airs</w>
no vember</w>
moder ni
lo g
le um</w>
l y-
ju di
j er
inci dent</w>
help ful</w>
ha bi
h uyền</w>
g ấu</w>
g ments</w>
bl ame</w>
be es</w>
aysi a</w>
accoun ted</w>
Y e
Sha kespeare</w>
I s</w>
F oundation</w>
A P</w>
ấ y.</w>
đâ y.</w>
ê n.</w>
Ô i</w>
we ir
to pic
t ụng</w>
remitt ance</w>
recur sive</w>
pro duces</w>
op posed</w>
ol ina</w>
nhi ếp</w>
mi d</w>
l ưỡi</w>
kh ăng</w>
hor m
gi ềng</w>
fi ber</w>
el abor
desig ner</w>
ch ợt</w>
all y-
Tex as</w>
S to
M y
H ồ</w>
H an
198 4</w>
wh el
vậ y.</w>
vac ation</w>
tou ched</w>
satis fied</w>
rever se</w>
recommend ations</w>
provi ders</w>
op y</w>
new ly</w>
l oud</w>
ki ềm</w>
in ations</w>
i st</w>
gh ê</w>
fur ther
fr ench</w>
fai ling</w>
elec tions</w>
d ancing</w>
consul ting</w>
chic ken</w>
ch ester</w>
ba th
anxi ety</w>
an z
Ho ward</w>
Au gust</w>
đ ắp</w>
ves sels</w>
ve ter
ten nis</w>
sha ke</w>
sh ment</w>
sh ell</w>
s ưởi</w>
re fer</w>
ra p</w>
pro pose</w>
per mitted</w>
par ser</w>
ob serv
mu ỗi</w>
m ầm</w>
hi er
h .</w>
fi nger</w>
ex posed</w>
eri c</w>
elimin ate</w>
desig ners</w>
con figu
bur den</w>
bri ef
appe al</w>
advant ages</w>
N S</w>
Mo z
Fe bruary</w>
Di gi
Demo cr
6 7</w>
vi tal</w>
v o</w>
t all</w>
r ỉ</w>
ple asant</w>
on t</w>
o sity</w>
o m</w>
l éo</w>
l ated</w>
has n</w>
great ly</w>
g ộp</w>
g ũi</w>
g ate
fri ghten
fi lling</w>
farm er</w>
fai ls</w>
fac tories</w>
expan ding</w>
dre xel</w>
con taining</w>
common ly</w>
ch ôn</w>
ca -
ban ned</w>
ar a</w>
and er
an no
aim ed</w>
V en
S E
J ones</w>
Dar win</w>
Co ngre
Chi ến</w>
xo ắn</w>
u ms</w>
tane ously</w>
t ao</w>
sel ect</w>
se ph</w>
r ễ</w>
per ception</w>
ob stac
nar row</w>
le f
j ack</w>
it es</w>
i le</w>
htt p</w>
ge or
fascin ating</w>
explo sion</w>
employ ed</w>
d al</w>
cre atures</w>
correc tly</w>
conver t</w>
b ồn</w>
ar ed</w>
answer ed</w>
S ky
Ok ay</w>
Educ ation</w>
8 2</w>
zz a</w>
tu ỷ</w>
tr ai
statisti cal</w>
st or</w>
ra ft</w>
qu ấy</w>
phi a</w>
pat ent</w>
mi ser
lo vely</w>
le ased</w>
k g</w>
k .</w>
gar d
foreig ners</w>
feed back</w>
emb assy</w>
el son</w>
cru cial</w>
compati ble</w>
commer ce</w>
b ỗng</w>
analo g</w>
Techno logy</w>
Soci alist</w>
M P</w>
J ane</w>
I m
CO M</w>
Ar ab</w>
9 1</w>
20 th</w>
100 .000</w>
. 000.000</w>
đ ứt</w>
z ab
val ley</w>
tu ỵ</w>
stu pid</w>
restric tions</w>
refu ge
refl ected</w>
pu shing</w>
prob ability</w>
pro pag
mi ll
mal aria</w>
head ed</w>
had n</w>
gh é</w>
en z
di str
decre ase</w>
conduc ting</w>
cho se</w>
c b-</w>
b ón</w>
Tha t's</w>
I r
HT ML</w>
H àn</w>
Digi tal</w>
B ên</w>
u ốn</w>
u g
tr ừu</w>
t ước</w>
ri ll</w>
re l</w>
r ực</w>
po e
mu tual</w>
li ament</w>
ki e</w>
ine quality</w>
gre en
g ated</w>
focu sing</w>
f ounded</w>
de sert</w>
co s
an k
accu mul
a dian</w>
W all</w>
? '</w>
9 4</w>
7 7</w>
200 ,000</w>
đi êu</w>
willi am</w>
wa shing</w>
ta il
r ệt</w>
pri ze</w>
poin ting</w>
p to
oo m</w>
lo t
intellig ent</w>
h ái</w>
gr ate
expan ded</w>
destro yed</w>
critici sm</w>
contr ary</w>
con soli
compil er</w>
ch -
bur st</w>
bu yers</w>
bat tery</w>
b ộc</w>
asp ect</w>
as sign</w>
an -
ac compli
a y
Lad en</w>
D is
vi br
ur gent</w>
tr iệt</w>
ten ds</w>
shi rt</w>
sha ped</w>
sha me</w>
secre ts</w>
restruc turing</w>
represent ation</w>
par king</w>
over whel
oper ates</w>
om ic</w>
mu la</w>
mo o
mo i</w>
min erals</w>
mi le</w>
mathemati cs</w>
mar ket
la dies</w>
l ứa</w>
l ơ</w>
hung ry</w>
gre e
em power
el ly</w>
e z</w>
do se</w>
direc tions</w>
di cal</w>
d ged</w>
chemi stry</w>
cal end
c ats</w>
brea ks</w>
b ế</w>
b ers</w>
an ce
S aturday</w>
N FA</w>
L ong</w>
E ric</w>
9 -
2 6
work shop</w>
v òi</w>
tr ọn</w>
susp ended</w>
sur ge
sec tions</w>
s cul
s ary</w>
quar ter
mini sters</w>
ki ng
kho ái</w>
expla ins</w>
el led</w>
dis cre
da y
compli ance</w>
ch èn</w>
c ine
back bone</w>
ang le</w>
a k
T S</w>
S P
Ch ỉ</w>
Bar ack</w>
9 3</w>
world 's</w>
unexp ected</w>
un known</w>
touri sts</w>
ti se</w>
sp ect
s ương</w>
pro xy</w>
pr on
open -
nor ms</w>
nghiệ t</w>
musc le</w>
mac ro
k ìa</w>
jo ke</w>
in qui
gro ws</w>
gr ams</w>
fic tion</w>
facili ty</w>
f li
enc ouraging</w>
determin ing</w>
construc ted</w>
com mu
collap se</w>
c ả
bu st</w>
bo w</w>
as is</w>
ai red</w>
accep table</w>
V âng</w>
OS I</w>
No vember</w>
D an</w>
Ci sco</w>
C op
20 15</w>
we l</w>
war ned</w>
vari ables</w>
t ated</w>
sil on</w>
sc and
satis fac
sac ri
publi can</w>
pu p
process ors</w>
on e's</w>
nữ a.</w>
nh ào</w>
mi rac
ju mped</w>
instal led</w>
in tran
hope fully</w>
hon est
gu est</w>
gi ble</w>
fu tures</w>
flexi ble</w>
fin ed</w>
euro pean</w>
employ ee</w>
domin ant</w>
dir ty</w>
dimen sions</w>
confi dent</w>
con vention</w>
clic k</w>
ci a</w>
cen tu
cap ture</w>
c and
bur gh</w>
arre sted</w>
ad mit</w>
We dnesday</w>
We b
Cam bridge</w>
B ang</w>
v áy</w>
v ell</w>
tru ck</w>
thre w</w>
t ụt</w>
sy l
sto ckho
sil ver</w>
set ts</w>
separ ated</w>
ro ws</w>
re store</w>
r ỡ</w>
pro mul
nh ược</w>
nec k</w>
navi gation</w>
merchan dise</w>
mea suring</w>
mb le</w>
m ồi</w>
lo west</w>
instru ment</w>
gi ọt</w>
f easi
continu ous</w>
celebr ate</w>
cas ting</w>
candid ates</w>
be have</w>
assum ed</w>
alle y</w>
T here</w>
Cour se</w>
B A</w>
í p</w>
wi desp
widesp read</w>
v ụn</w>
u b
tre ating</w>
tr ùm</w>
topic s</w>
thu r</w>
smar t
rep lied</w>
re covered</w>
ple ased</w>
paralle l</w>
n ứt</w>
n ative</w>
musi cal</w>
min ing</w>
low ing</w>
l ều</w>
l end</w>
inten se</w>
indic ates</w>
in form</w>
h ân</w>
glob alization</w>
gi áp</w>
for mul
escap e</w>
cri tics</w>
clou ds</w>
b ọ</w>
b ìa</w>
as ting</w>
Lab or</w>
Environ ment</w>
B ec
1 10</w>
đ ậm</w>
war ner</w>
u said</w>
trans formed</w>
tr áng</w>
ster ing</w>
st ol
si ck
rel and</w>
re y</w>
radi cal</w>
r ốt</w>
r ũ</w>
n t</w>
multic ast</w>
mo tors</w>
me als</w>
li ty</w>
ki ngs</w>
indepen dence</w>
ide al</w>
ga ther</w>
further more</w>
fle w</w>
f oun
f ans</w>
el i</w>
di arr
de v
comm it</w>
ax y</w>
an ne</w>
al bum</w>
air lines</w>
a e
V ic
Sec re
Que en</w>
LE D</w>
G ar
A lex
2 4
vulner ability</w>
so ngs</w>
shi re</w>
r ating</w>
pe ak</w>
nh ức</w>
neighb ors</w>
munic ation</w>
mini steri
legi timate</w>
le st</w>
ki êm</w>
ju ven
inform ed</w>
grand mother</w>
gi l
divid end</w>
determin ation</w>
d ai</w>
cro ps</w>
cour age</w>
co lli
attemp ts</w>
ali ban</w>
achie vements</w>
P r
J on
Govern or</w>
G ates</w>
Fi g.
AP I</w>
7 4</w>
w r
to ạ</w>
to s</w>
the me</w>
tal ent</w>
sp an</w>
sou p</w>
reha bili
psycho logy</w>
po t</w>
pass word</w>
or a</w>
mi ld</w>
man n</w>
le sc
j unk</w>
it arian</w>
indic ated</w>
h ơn.</w>
glas ses</w>
gather ed</w>
form at</w>
f esti
expo sure</w>
ex ception</w>
diab etes</w>
curi ous</w>
can e</w>
bor ing</w>
bo y
b ầy</w>
am or
af for
W are</w>
U. K.</w>
U K</w>
T T</w>
Po st</w>
M ad
At lan
ế .</w>
x ôi</w>
vide os</w>
tu esday</w>
tr ân</w>
ti n
th ấm</w>
out comes</w>
my stery</w>
m aps</w>
k ore
ju ry</w>
instruc tion</w>
im muni
ha bits</w>
h ận</w>
fo ster</w>
flu id</w>
es ome</w>
enter ing</w>
ent y-
ele ph
de als</w>
cul tures</w>
conflic ts</w>
con ci
chu setts</w>
c óc</w>
b ang
allow ance</w>
W at
So cial</w>
S hi
Ne ws</w>
F I
E li
Cre dit</w>
Comp any</w>
đ ố</w>
tr age
susp ect</w>
spo ts</w>
sp are</w>
so- called</w>
se ed</w>
provi der</w>
programm ers</w>
pi lls</w>
nh o
ngh ênh</w>
ne s
mr s</w>
ly wood</w>
le e</w>
kid ney</w>
inter views</w>
gr ounds</w>
for gotten</w>
ff ers</w>
de bit</w>
com e
cli p</w>
cel lular</w>
bl an
bi lateral</w>
ba se
b by</w>
avo i
au l
att or
applic able</w>
a se
Z </w>
R ập</w>
Nh ĩ</w>
K im</w>
I A</w>
F l
E lec
đi nh</w>
wri ters</w>
t ím</w>
quy ến</w>
portfoli o</w>
neu tr
mis m</w>
la y
in vention</w>
fr ac
for tune</w>
dri vers</w>
dic ally</w>
com posite</w>
bac teri
b óp</w>
auth ors</w>
ag ram</w>
acti vely</w>
IS P</w>
Ch à</w>
A B</w>
♫ </w>
đo ái</w>
zab eth</w>
x ộn</w>
x ám</w>
x á</w>
valu ation</w>
v ã</w>
v .</w>
ten sion</w>
t ack
rup t
ori gin</w>
numer ous</w>
ne ts</w>
min or</w>
insp ect</w>
hã m</w>
har m
exper tise</w>
ch ày</w>
bur ns</w>
be long</w>
bar riers</w>
am end
achie vement</w>
ach e</w>
a tri
Mi ke</w>
8 3</w>
7 1</w>
5 00,000</w>
ạ n.</w>
we 'd</w>
vo ting</w>
traf fic
tai wan</w>
t ơ</w>
se gment</w>
s andwi
public ly</w>
pu late</w>
physi cally</w>
om ing</w>
ni ght
ng ạch</w>
n ano</w>
mi es</w>
ly n
le ver
lab els</w>
gui ding</w>
es trogen</w>
diplom atic</w>
dec l
coun ted</w>
conserv ative</w>
chec king</w>
au to</w>
as leep</w>
ad just</w>
acces sible</w>
Th ứ</w>
P ol
P A</w>
Olymp ic</w>
Ma nhattan</w>
De f
D L</w>
BO T</w>
A i
8 9</w>
10 -
war s</w>
ultim ate</w>
t ating</w>
supp lement</w>
subsi dies</w>
si zes</w>
si m
shel f</w>
qu ầy</w>
p ts</w>
ow ns</w>
occa sion
m ốc</w>
m in</w>
l on
kh âu</w>
h òa</w>
h ò</w>
gen ome</w>
for mula</w>
execu ted</w>
eri ty</w>
entreprene urs</w>
diagno sed</w>
coun ts</w>
conver ted</w>
citiz en</w>
char les</w>
centr es</w>
cam er
ca su
c i</w>
b lin
assi stant</w>
appro ve</w>
an ony
M ars</w>
H am
B ob</w>
Al zheimer</w>
AT ION</w>
x íu</w>
th ắn</w>
syn tax</w>
sun light</w>
r ớt</w>
r and
pol lu
ph ô</w>
n av
ki êng</w>
ic a</w>
i ble</w>
ev </w>
enh ance</w>
emer ged</w>
coun ting</w>
correspon ding</w>
b ướ
associ ations</w>
ag g
ado lesc
Y es</w>
SO I</w>
S wit
P en
N .</w>
Is la
D ự</w>
Congre ss</w>
B lu
B T</w>
A .</w>
đ ính</w>
đ an</w>
á c.</w>
visi ts</w>
vir tually</w>
tw el
tro it</w>
tic kets</w>
ti t
swit ches</w>
strugg ling</w>
sc ru
roman tic</w>
promo ting</w>
par is</w>
now ad
nowad ays</w>
mu sh
lt d</w>
lo ãng</w>
l .</w>
gr ass</w>
fro zen</w>
fo x</w>
down load</w>
do ts</w>
disa d
di am
de sc
d ời</w>
compu l
ci ls</w>
c ộ</w>
Tu esday</w>
T es
S al
P as
M il
L àm</w>
Đ ược</w>
£ </w>
with draw
vi sa</w>
tu ples</w>
ss an</w>
re fers</w>
quy ên</w>
particip ating</w>
pain tings</w>
orang e</w>
or g</w>
nh ã</w>
n es</w>
n ang</w>
main taining</w>
m ess</w>
loc ality</w>
kin son</w>
hydro gen</w>
ha cker</w>
friend ship</w>
fortun ate</w>
exci te
exam ined</w>
ex ti
en ro
educ ated</w>
disad vant
de struction</w>
de sh</w>
de fici
cry st
cor d</w>
constra ints</w>
conn ecting</w>
con fer
co ck
b ags</w>
ast oni
al leg
ag ged</w>
ac compani
Z ealand</w>
T ất</w>
P acific</w>
Org anization</w>
MA C</w>
For d</w>
E E</w>
E DI</w>
C A</w>
wit ness</w>
volun tary</w>
v ứt</w>
uni form</w>
u m
t esti
symbo ls</w>
s ô</w>
ro les</w>
ri chard</w>
profession als</w>
proces sed</w>
plan ted</w>
p lic
n au
n .
mo od</w>
fr au
decl are</w>
concentr ated</w>
clin ton</w>
calend ar</w>
busin ess
bu bble</w>
b age</w>
air plane</w>
acci dents</w>
Or din
K ar
9 /
6 ,000</w>
1 30</w>
wher ever</w>
trans late</w>
threat ened</w>
st ems</w>
pi zza</w>
ph un</w>
petro leum</w>
occasion ally</w>
o logical</w>
legis l
le tting</w>
lau gh</w>
ignor e</w>
ho o</w>
hi ếp</w>
ex cep
drin ks</w>
d les</w>
cogni tive</w>
c d</w>
bank rupt
b ênh</w>
audi o</w>
au stralia</w>
as m</w>
T aliban</w>
Si nh</w>
S NA</w>
z ens</w>
xi de</w>
well- being</w>
un certainty</w>
ter ing</w>
tang ible</w>
t one</w>
squ ee
ri di
re duces</w>
qu it</w>
propo sals</w>
pro hibi
priv acy</w>
possi bilities</w>
po sing</w>
pas sion
p y
nh am</w>
mirr or</w>
mi cr
metho do
meaning ful</w>
m o</w>
innov ative</w>
inci dence</w>
gab it</w>
frequ ent</w>
flo ating</w>
fir m
ff s</w>
eri al</w>
emph a
dre ssed</w>
distinc t</w>
disapp ear</w>
defin ing</w>
d t</w>
cre w</w>
contain er</w>
competi tors</w>
co tton</w>
clo thing</w>
c ống</w>
c ước</w>
bud gets</w>
beli efs</w>
ba ker</w>
b ốt</w>
ari ties</w>
ali zing</w>
acqui re</w>
ach es</w>
ace u
An derson</w>
A sian</w>
Đ úng</w>
whe el</w>
ti zed</w>
surr ounding</w>
st ors</w>
s ỏi</w>
ru sh</w>
r ough</w>
ph ường</w>
off set</w>
occa sion</w>
nh ường</w>
jo hnson</w>
integr ate</w>
in sti
h l
fla sh</w>
fa thers</w>
desp er
cri mes</w>
conclu de</w>
commodi ty</w>
colum n</w>
ch ả</w>
c ưng</w>
aff ecting</w>
abo ve-
a qu
Ordin ance</w>
M and
K e
H ong</w>
D V
A n</w>
5 /
3 50</w>
19 75</w>
ớ i.</w>
z ers</w>
wonder ed</w>
ve y</w>
v ợt</w>
v ịt</w>
ti er</w>
su b</w>
sing er</w>
shi pping</w>
scul p
rep ly</w>
rel ate</w>
recei vable</w>
r ab
prote ins</w>
plan ets</w>
p ap
organi sms</w>
n ếp</w>
m ou
leg ally</w>
kh an</w>
han ded</w>
h ăng</w>
h óc</w>
h ec
fu ll-
dro ve</w>
def ects</w>
dec or
d ẫu</w>
cr ying</w>
classi fied</w>
cal m</w>
caf e</w>
c ay</w>
bed room</w>
b ăm</w>
archit ect</w>
app lies</w>
anni ver
Wo w</w>
T er
20 .000</w>
đ ượ
đ è</w>
x en</w>
weir d</w>
w are
ver sions</w>
tr án</w>
tori a</w>
terrori sm</w>
s ét</w>
reci pi
re served</w>
ra ys</w>
poe try</w>
pe st</w>
pe p
nur se</w>
near by</w>
n âu</w>
measu rement</w>
life style</w>
in di
identi cal</w>
horm one</w>
gri d</w>
grate ful</w>
gir l
gi le</w>
fru str
f ra
destro y</w>
def ence</w>
d ập</w>
coun sel
copy right</w>
ch arity</w>
bal lo
atten ded</w>
ari th
all -
ali sation</w>
administr ators</w>
V ương</w>
V I
Ri o</w>
No .</w>
H ọc</w>
C ulture</w>
0 2</w>
x ế</w>
w et</w>
v ary</w>
u a</w>
tu mor</w>
tr action</w>
ti p</w>
th ề</w>
th ơm</w>
tal y</w>
syn the
sustain ability</w>
sum mari
sear ching</w>
satisfac tion</w>
satis fy</w>
sal aries</w>
row ing</w>
repor ters</w>
rec y
plat forms</w>
pe er</w>
part ner
magni tude</w>
logi cally</w>
issu ance</w>
i .
họ ng</w>
grand father</w>
forei gn
d ant</w>
curri cu
commodi ties</w>
co operate</w>
bl ack
bi e</w>
b au
ad o</w>
accep tance</w>
W ol
Ti me</w>
T or
Net Ware</w>
LAN s</w>
Hol lywood</w>
Co de</w>
A ra
0 5</w>
ỉ m</w>
voc ational</w>
up grad
ti ght</w>
ter -
su spi
strength ening</w>
sto ck
sha nghai</w>
s ought</w>
ri ses</w>
restaur ants</w>
repe at</w>
r am
presi dential</w>
pharm aceu
ph ra
ph er
p o</w>
our ing</w>
ob serve</w>
mur der</w>
memor i
limit ations</w>
lea f</w>
i sol
gra in</w>
gen i
gather ing</w>
forec ast</w>
flo od</w>
exten sive</w>
dep loy
bure au
ate -
as ka</w>
ambi gu
Y or
Willi am</w>
U g
Secu rities</w>
D en
D .</w>
C E</w>
1. 2</w>
x óa</w>
w .
volunte ers</w>
v ag
tri als</w>
to ps</w>
th ạo</w>
t am</w>
s ườn</w>
refu se</w>
qu ỵ</w>
qu ặc</w>
predic ted</w>
ph er</w>
pen alty</w>
pa tri
o S</w>
ng ô</w>
n d</w>
mo squi
mer rill</w>
mb led</w>
in ser
i OS</w>
ho sts</w>
g ai</w>
foreign -
exp ecting</w>
ex hi
cop per</w>
compla int</w>
collap sed</w>
ch ay</w>
bu tton</w>
bac ked</w>
arrang ements</w>
arra nged</w>
argu ed</w>
anti bio
al ties</w>
a bun
Q oS</w>
Phi lippines</w>
M ẹ</w>
I taly</w>
Co ngo</w>
A L</w>
đu ối</w>
Đ </w>
war ming</w>
w .</w>
vie wing</w>
v ẫy</w>
v n</w>
u t
te dly</w>
surr ounded</w>
stro ke</w>
sk i</w>
share holder</w>
s éc</w>
read ers</w>
promi ses</w>
pl er</w>
p t
noti fy</w>
ng ớ</w>
mini stic</w>
mini mi
main tained</w>
main frame</w>
lu xu
loy d</w>
licen sing</w>
li abilities</w>
j i</w>
introduc tion</w>
insul in</w>
inju ries</w>
in i</w>
home work</w>
hel lo</w>
fol ks</w>
fir st-
el l
economi st</w>
do ors</w>
deter ministic</w>
deri ved</w>
dele te</w>
def en
d ation</w>
curricu lum</w>
conver sations</w>
conclu ded</w>
chec ked</w>
can cel
achi eving</w>
accompani ed</w>
T CT</w>
Sco tland</w>
Ph ó</w>
M an</w>
Kor an</w>
G ab
F D
Col a</w>
1 80</w>
you .</w>
up set</w>
tori al</w>
stipul ations</w>
speci fy</w>
sou theast</w>
six -
sig nature</w>
sh ine</w>
r able</w>
per pe
ne ath</w>
mar ry</w>
m ậu</w>
m ông</w>
m t</w>
kid der</w>
ir ation</w>
ho p</w>
ful ness</w>
do or
disa sters</w>
de pressed</w>
d able</w>
co ol
c ke
base ball</w>
as tro
ar chy</w>
Pro ject</w>
M is
L ou
L ar
Ho àng</w>
C I</w>
độ n</w>
đ òn</w>
you ng
under neath</w>
tr op
syl v
ste ady</w>
sp reading</w>
resul ted</w>
r ated</w>
ngo s</w>
ju ice</w>
j r</w>
is lands</w>
inter medi
inh eri
in visible</w>
i ter
h ell</w>
gi fts</w>
gh ted</w>
establi shing</w>
disa bilities</w>
conveni ence</w>
cont amin
committe es</w>
col our</w>
challe nging</w>
ch ớp</w>
cap tain</w>
campai g
b ẫy</w>
N 1</w>
Com munications</w>
Ch ứng</w>
7 8</w>
30 ,000</w>
2 1st</w>
197 0s</w>
wal ks</w>
u ps</w>
ti mely</w>
t ôm</w>
t at
sp ite</w>
scar ed</w>
quali fied</w>
purch asing</w>
pla in</w>
phra se</w>
pac ked</w>
n ới</w>
mor s</w>
mechan ical</w>
l aughter</w>
h an</w>
g ậy</w>
for mity</w>
e uro</w>
descri bes</w>
ci ted</w>
car riers</w>
by e</w>
brea the</w>
bor ders</w>
audi ting</w>
aim s</w>
X ã</w>
Tr ời</w>
Ph òng</w>
Li by
IE EE</w>
B on
2. 3</w>
2, 5</w>
- to-
wor e</w>
weak ness</w>
vic tory</w>
vic tim</w>
tox ic</w>
th èm</w>
th al</w>
sá o</w>
supple ments</w>
sub scri
s p</w>
s enti
regre t</w>
rac ing</w>
ques tion
po is
philosoph y</w>
ph ơi</w>
pe ter</w>
nh ục</w>
fi red</w>
ec tors</w>
det ection</w>
de par
d âng</w>
d ating</w>
char ter</w>
ch ốc</w>
ch airs</w>
car ries</w>
bur ger</w>
bri dges</w>
b àng</w>
aggre ssive</w>
a xi
R w
Net scape</w>
NE T</w>
M ari
In di
Gre en
E con
D om
C S</w>
Al i</w>
‘ </w>
ờ n</w>
đ ắm</w>
y land</w>
vir al</w>
targe ting</w>
subsidi ary</w>
sub stance</w>
su its</w>
so le</w>
s wal
reve al</w>
respon ses</w>
r hy
quarter ly</w>
pres sing</w>
oper ational</w>
nu mb
ng ư</w>
n ẵng</w>
mor gan</w>
lic op
lad el
l ội</w>
khi nh</w>
he licop
h ở</w>
four -
fl ag</w>
diarr hea</w>
di gni
deli ber
configu ration</w>
con tained</w>
bo eing</w>
anniver sary</w>
adju sted</w>
Stan ford</w>
No vell</w>
K aren</w>
Con struction</w>
CS DL</w>
A h
19 50</w>
Ở </w>
tr ệ</w>
tho áng</w>
thi ếp</w>
tempor arily</w>
sugg estion</w>
su ối</w>
stol en</w>
sh ear
separ ately</w>
sa ble</w>
s ờ</w>
s wee
re in
r us
popul ations</w>
ph ồng</w>
ph ế</w>
ou ter</w>
organiz ational</w>
ng ẩn</w>
nee dle</w>
mr s.</w>
lyn ch</w>
lev y</w>
inter vention</w>
inst all</w>
ha bit</w>
h ông</w>
h ence</w>
go to</w>
gi ếng</w>
g ang</w>
exti nc
eng agement</w>
dram atically</w>
diagno sis</w>
di ffer</w>
demonstr ate</w>
cor tex</w>
cl ini
ch ích</w>
ch ì</w>
can *</w>
bul k</w>
b arely</w>
ang u
afri ca</w>
N O
M S</w>
K H
G ul
En ter
D ere
Cl ause</w>
B ell</w>
B I
Ad ministr
2 /
xo a</w>
v ách</w>
up date</w>
unh appy</w>
tri gg
tion ality</w>
ti ps</w>
sylv ania</w>
sum mary</w>
soldi er</w>
sion -
shar ks</w>
sen ds</w>
ro yal</w>
repe ated</w>
rej ected</w>
re stor
re mind</w>
r âu</w>
publi shing</w>
predic table</w>
par se</w>
pa ths</w>
ol ine</w>
ng ườ
mar ker</w>
less ly</w>
journ alists</w>
inter rup
inheri ted</w>
hi lls</w>
hear ts</w>
gold en</w>
g .</w>
excite ment</w>
dro me</w>
del a
d uyên</w>
curr encies</w>
cop e</w>
col n</w>
chec ks</w>
ch ro
ch es
ces sive</w>
ble eding</w>
b in
anti- dumping</w>
all er
al lo
W om
V an</w>
V LAN</w>
M ôi</w>
Dere k</w>
Co lum
Chi le</w>
õ ng</w>
work stations</w>
wonder ing</w>
w is</w>
vol ati
trad ed</w>
ta .</w>
su peri
stop s</w>
sil ent</w>
re turning</w>
rail way</w>
r à</w>
poll en</w>
ph ony</w>
ob s</w>
m ình.</w>
li ghting</w>
l úng</w>
journ alist</w>
her o</w>
gen u
ea th</w>
dis order</w>
d son</w>
cor ri
concentr ate</w>
civili zation</w>
centu ries</w>
cei ling</w>
bu cks</w>
ber y</w>
b ến</w>
autom atic</w>
ap ps</w>
aff air</w>
V À</w>
S W</w>
In surance</w>
F er
80 %</w>
40 %</w>
x é</w>
wi der</w>
un comfortable</w>
twel ve</w>
travel ed</w>
tr àng</w>
t ã</w>
stockho lders</w>
se al</w>
scand al</w>
re solve</w>
physi ci
par sing</w>
ob se
mor ris</w>
li ps</w>
le .</w>
law ful</w>
ladel phia</w>
hi red</w>
go ver
free ly</w>
for got</w>
fe bruary</w>
ex it</w>
entr opy</w>
e aten</w>
det ected</w>
con sen
cli mb</w>
b ấm</w>
alloc ate</w>
X- quang</w>
S he</w>
S S
Palesti ne</w>
M el
Bri an</w>
Ar thur</w>
2 .000</w>
198 2</w>
1. 3</w>
ế t.</w>
đ ạm</w>
ì u</w>
v ớ</w>
tu des</w>
tr as
thea tre</w>
prosp erity</w>
oc t</w>
o t</w>
ngo ặc</w>
mobili ze</w>
mo ther
mer ely</w>
men op
magaz ines</w>
m ãnh</w>
leg acy</w>
in o</w>
impres sive</w>
hi ts</w>
gent lemen</w>
execu te</w>
effici ently</w>
ec e</w>
do t</w>
dispu tes</w>
disap pointed</w>
d ồi</w>
colum bia</w>
cle ver</w>
c ự</w>
bi as</w>
ber ry</w>
aw esome</w>
as sumption</w>
arith metic</w>
am ine</w>
air line</w>
Y a
T it
St ar
S pain</w>
K ong</w>
H P</w>
G ore</w>
G lo
E a
197 9</w>
yu an</w>
x ít</w>
v ờ</w>
v ặn</w>
to ngue</w>
ti ger</w>
t less</w>
sump tions</w>
subsequ ent</w>
str ain</w>
spea kers</w>
resi dence</w>
recep tion</w>
re volu
plas tics</w>
pic king</w>
peop le's</w>
parti al</w>
par aly
op tical</w>
metaph or</w>
met als</w>
m ỉm</w>
loo se</w>
li êu</w>
jo ining</w>
inf l
hor ses</w>
histori c</w>
def ault</w>
consul tation</w>
choo sing</w>
c ọ</w>
associ ate</w>
ap pointed</w>
ann a</w>
U. N.</w>
U R
T im</w>
Sy stems</w>
Ste phen</w>
Jo hn
IM F</w>
I t
Ex change</w>
C ri
wor thy</w>
wi red</w>
tra ins</w>
thu ỵ</w>
thu r
sour cing</w>
s na
re tro
re medi
r ò</w>
public ans</w>
pro test</w>
pro pri
pi le</w>
par ticles</w>
oxy to
on a</w>
offici ally</w>
n ắp</w>
mu st
licen sed</w>
influ enced</w>
hal f-
ev in</w>
er 's</w>
ec tion
du st</w>
dic t</w>
di stant</w>
del ta</w>
con cei
ch ật</w>
bureau cr
b ẩm</w>
b les</w>
ar rest</w>
and hi</w>
abstr act</w>
V C</w>
Ug anda</w>
U E</w>
Swe den</w>
St .</w>
Sahar a</w>
S ĩ</w>
Ng ài</w>
N u
E U</w>
10 1</w>
ê- in</w>
x -
wor n</w>
vo tes</w>
ti an</w>
t ẻ</w>
sti g
sor ted</w>
shar ply</w>
rehabili tation</w>
r ts</w>
qu ấn</w>
po inters</w>
person ality</w>
oxyto cin</w>
oper a</w>
nur ses</w>
no v</w>
nh ét</w>
nec es
ne gl
medic ation</w>
manag es</w>
m 2</w>
lex ical</w>
l ọt</w>
in sert</w>
glo be</w>
ger many</w>
facili tate</w>
exemp t</w>
evi d
ep silon</w>
en di
den sity</w>
cour ts</w>
confi sc
concer t</w>
compu te</w>
circul ation</w>
c ồn</w>
b ể</w>
b ạn.</w>
attribu ted</w>
announ ce</w>
Y eah</w>
Tra ining</w>
S im
R oc
J ac
IET F</w>
Fr ank</w>
CE O</w>
ờ i.</w>
x ấp</w>
wi shes</w>
wat ers</w>
vi l</w>
vacc ines</w>
v ế</w>
u x</w>
tr es</w>
to ll</w>
th ủy</w>
ta p</w>
struc tural</w>
stret ch</w>
sk y
shoo t</w>
ro bust</w>
rec k
re act</w>
psycho logical</w>
oun ced</w>
optimi stic</w>
occu pi
ob served</w>
o tic</w>
o ste
o id</w>
nu ốt</w>
no where</w>
ni ghts</w>
min orities</w>
m al</w>
head quarters</w>
go m</w>
ff ed</w>
employ ers</w>
do zens</w>
diver si
dev ast
convin ce</w>
con sume</w>
compul sory</w>
co des</w>
cho áng</w>
che ese</w>
cap tured</w>
c n
bu ried</w>
bed ded</w>
bath room</w>
ar range</w>
ap parent</w>
T ru
Stu dent
P rin
I d</w>
6 9</w>
đ ê</w>
zer land</w>
v ine</w>
third- quarter</w>
thir ds</w>
th ai
sc ores</w>
pup ils</w>
po lar</w>
pi pel
pi pe</w>
pi lots</w>
pan el</w>
pa ys</w>
ol dest</w>
mon d</w>
memb ership</w>
l ăm</w>
l amp</w>
inv ent</w>
interven tions</w>
insti nc
in ches</w>
in ate</w>
ho ped</w>
h in
g -
fu r</w>
exclu sive</w>
emph asis</w>
bre e
bene fici
ba th</w>
ase an</w>
appreci ation</w>
advi sed</w>
adap t</w>
Student Id</w>
S áu</w>
S us
D S</w>
3. 5</w>
- CP</w>
war ded</w>
v or</w>
tru sted</w>
transpar ent</w>
that .</w>
stam ps</w>
simul taneously</w>
se ssions</w>
sci ences</w>
resi dential</w>
replac ement</w>
ra sh</w>
profi table</w>
phi ến</w>
perio dic</w>
pengu ins</w>
ou ts</w>
ni ssan</w>
ni e</w>
neighb or</w>
ne ys</w>
my steri
mode st</w>
mat ches</w>
ke ley</w>
j o</w>
j ackson</w>
inter faces</w>
inf ants</w>
in tri
in tr
in et</w>
hy gi
hi ring</w>
h r
faci al</w>
eng land</w>
eli gible</w>
diver se</w>
dis ks</w>
diag ram</w>
defini tions</w>
cy ber
cro p</w>
con formity</w>
commer ci
chi gan</w>
car ing</w>
behavi ors</w>
b ùn</w>
b ã</w>
astr onom
aband oned</w>
a ward</w>
a h
Y u
T re
T elecommunications</w>
T as
HI V
000 -
ử u</w>
đi .</w>
withdraw al</w>
touri st</w>
to y</w>
thro at</w>
they 'll</w>
t ết</w>
su san</w>
st es</w>
scenari o</w>
recei ver</w>
reali stic</w>
r ỗi</w>
pro ven</w>
prison ers</w>
prison er</w>
ph ật</w>
o tc</w>
nh ọc</w>
ne gie</w>
min us</w>
mb ling</w>
m ìn</w>
li on</w>
let t</w>
invol vement</w>
inter -
in sured</w>
ha sh</w>
gradu ated</w>
gr ay</w>
fin anci
equi pped</w>
enni um</w>
deni ed</w>
dec lining</w>
d augh
d .
cl ari
ch ặng</w>
ch ậu</w>
br ands</w>
bar rier</w>
b and
at oms</w>
as sumptions</w>
ad b</w>
ac comp
ab c</w>
a 1</w>
R ome</w>
M I</w>
L au
Jo hnson</w>
Gre en</w>
2. 2</w>
1 40</w>
0 6</w>
ị n</w>
đ ọng</w>
vo ters</w>
uni fied</w>
tri ps</w>
the ses</w>
take over</w>
sta ke
sm alle
smalle st</w>
shou lder</w>
shor tly</w>
sexu ality</w>
s ni
restric ted</w>
regar ded</w>
read er</w>
re solved</w>
re conci
r ation
po em</w>
peace ful</w>
oper ated</w>
obstac les</w>
ng ụ</w>
molecu lar</w>
ment ally</w>
me kong</w>
lli ps</w>
li min
la desh</w>
inf er
in fri
im pe
holi days</w>
hi ếu</w>
g ội</w>
fif teen</w>
elev ation</w>
e go</w>
develop ments</w>
deci ding</w>
credi tors</w>
controver si
contribu ting</w>
consult ancy</w>
constitu tion</w>
con fron
colum ns</w>
co ast
clas sic</w>
ch ướng</w>
c ọc</w>
c ược</w>
bi te</w>
behavi oral</w>
ae da</w>
a sts</w>
Sy ria</w>
Rw anda</w>
J ack</w>
Enter pri
Co ca</w>
7 /
wai ted</w>
un cle</w>
trai ts</w>
thro wn</w>
t ar</w>
t ag</w>
shar k</w>
s úp</w>
rel atives</w>
rel ating</w>
pu lling</w>
prote sters</w>
pro -
pre limin
phi lippines</w>
pay ers</w>
o y
no m</w>
mon i
m ar</w>
ly n</w>
li f
la p</w>
kh ác.</w>
k ép</w>
induc tive</w>
im al</w>
harm ful</w>
gh en</w>
g ence</w>
fran kly</w>
evo lu
equ ation</w>
enti ties</w>
el ls</w>
disc our
determin es</w>
deci des</w>
datab ases</w>
concer ning</w>
con ce
co ach</w>
char t</w>
br ac
bo ar
bankrupt cy</w>
ato es</w>
antibio tics</w>
am ple</w>
adjust ment</w>
abo li
X ây</w>
I NG</w>
Fi re
F O
Egy pt</w>
E m
C L
A bra
đu n</w>
y e</w>
u ter
ther land</w>
t ăm</w>
susta in</w>
sick ness</w>
sel ls</w>
sacri fi
ru ồi</w>
rene w
preci sely</w>
po w
par ity</w>
oc curr
ne x</w>
nation ally</w>
mar ath
m ăng</w>
lo ves</w>
le ments</w>
l ọ</w>
jud gment</w>
in sight</w>
im f</w>
hi p</w>
gradu ates</w>
fu sion</w>
fri ger
desig n
cro ssing</w>
conn ecti
communi st</w>
com promise</w>
ch éo</w>
camer as</w>
c ành</w>
c tu
apo logi
an n</w>
a than</w>
a 2</w>
Wi de</w>
P RO
P P
P M</w>
G ra
5 00
3 000</w>
work station</w>
wi l
ven tures</w>
v ướng</w>
v as
ur ine</w>
u ters</w>
tradi tionally</w>
tra it</w>
tow ns</w>
thai land</w>
th ôi.</w>
sugg esting</w>
sti cks</w>
st atic</w>
specu lation</w>
san itation</w>
r al
que en</w>
proce eds</w>
preven ting</w>
ol ds</w>
od ds</w>
mee ts</w>
medic ines</w>
kore a</w>
ignor ed</w>
gra vity</w>
g ently</w>
fast est</w>
f ound
exp i
exhibi tion</w>
e tr
demon stration</w>
def end</w>
cu t
crimin als</w>
com position</w>
cho àng</w>
c enti
boo k
bo ats</w>
analy ze</w>
ab dom
W in
T y
S en
Par k</w>
P O
Mo bile</w>
K y
Def ense</w>
Ar ticles</w>
- r
ur ged</w>
tu m
to sh</w>
teen agers</w>
t ably</w>
sou l</w>
shi p
sa v
ri ngs</w>
refl ects</w>
pri de</w>
percei ved</w>
pe ts</w>
partner ships</w>
parame ters</w>
p c</w>
om on</w>
moun tain
m á</w>
m am
lo ads</w>
lan e</w>
l loyd</w>
inten tion</w>
inte ger</w>
gener ating</w>
g enti
ful fill</w>
fab ric</w>
f arms</w>
escap ed</w>
es try</w>
encour ages</w>
en velo
en ables</w>
climb ed</w>
ch ánh</w>
ch ol
ch at</w>
calcul ations</w>
c ad
borrow ed</w>
be i
be ars</w>
b eria</w>
b ases</w>
attrac ted</w>
arri val</w>
arrang ement</w>
ann y</w>
ani an</w>
Ye men</w>
Y o
Tha il
Secre tary</w>
Pu b
Mul ti
Ho à</w>
G ol
B ưu</w>
B à</w>
Alex ander</w>
A ll</w>
0 3</w>
ú n</w>
õ m</w>
vi etnam
ver se</w>
treat y</w>
to ys</w>
to wer</w>
thre sho
ter ies</w>
succe eded</w>
su it
si sters</w>
shear son</w>
sen ator</w>
se man
ro cks</w>
regul ated</w>
regi mes</w>
rec re
re friger
qu it
qu est</w>
passion ate</w>
par ks</w>
or dan</w>
nam ely</w>
ministeri al-level</w>
mer ge</w>
loo kup</w>
list ened</w>
in ated</w>
horri ble</w>
hear t
h ei
g us
fr ance</w>
devi l</w>
dela yed</w>
d ỡ</w>
col or
ca ve</w>
ax it</w>
al i</w>
T hành</w>
I N
Ho ả</w>
FD DI</w>
D L
Cha p
ú ng.</w>
y l</w>
wan ting</w>
v á</w>
tru cks</w>
to po
thi er</w>
t su
sper m</w>
speci alists</w>
spea ks</w>
smo oth</w>
shel ter</w>
sco w</w>
r ải</w>
prelimin ary</w>
pl ates</w>
p lot</w>
obe sity</w>
ob ama</w>
no te
nh ấp</w>
nh ăn</w>
n sylvania</w>
mi gh
mat er
m ates</w>
m all</w>
lan ded</w>
k ẹp</w>
initi atives</w>
govern mental</w>
glob ally</w>
floo ds</w>
f red</w>
ey e
e ks</w>
dro pping</w>
discu ssing</w>
deci sion-
cru de</w>
cro ssed</w>
con sent</w>
ch ạp</w>
bor der
b úa</w>
b y-
V alley</w>
U .</w>
T G
P E
N ữ</w>
L ook</w>
Glo bal</w>
G B</w>
Fl orida</w>
D ri
CO M
Bu d
B roo
A ir
7 50</w>
100 %</w>
1. 4</w>
- scale</w>
win ner</w>
tax able</w>
t ố
substanti ally</w>
stand ardi
stan ley</w>
resear cher</w>
re agan</w>
r ally</w>
poli tan</w>
ph o</w>
nh au
nguy en</w>
m ô
lo ading</w>
li hood</w>
l u</w>
k ìm</w>
j ail</w>
hel en</w>
ful bright</w>
flu ctu
f ought</w>
ex changes</w>
deli cious</w>
cou ples</w>
comp ound</w>
com posed</w>
centr ally-
cac bon</w>
ca p</w>
bac ks</w>
auc tion</w>
att acked</w>
as y
al an</w>
after wards</w>
accoun tability</w>
Thail and</w>
Su preme</w>
Q aeda</w>
G o</w>
Bu dd
Br on
8 1</w>
20 50</w>
, 000,000</w>
à .</w>
z ations</w>
yo ta</w>
yl or</w>
ww w.
u sage</w>
tsu nam
treat ments</w>
tr an</w>
to es</w>
syn drome</w>
st un
short age</w>
refuge es</w>
re im
r ảnh</w>
programm er</w>
privi lege</w>
peop les</w>
or d</w>
n ón</w>
mit su
min i</w>
ma c</w>
li um</w>
le u
jud ges</w>
in adequate</w>
he ating</w>
guarante ed</w>
gar bage</w>
ga- 3</w>
func tionality</w>
es the
elecom munication</w>
dro ps</w>
compe ting</w>
col i</w>
classi fication</w>
cigaret te</w>
associ ates</w>
ar i</w>
appar atus</w>
ad der</w>
Y our</w>
Thu ế</w>
O il</w>
Ki ểm</w>
I tem</w>
G as</w>
E D</w>
D FA</w>
B ol
5 00.000</w>
đ ẽ</w>
x ăm</w>
tr ess</w>
toler ance</w>
thre ats</w>
t to</w>
t ank</w>
st amp</w>
some time</w>
smart phone</w>
shou lders</w>
ridi cul
rememb ered</w>
re tain</w>
re sig
r atu
quo ted</w>
qu an
ph r
p i</w>
p an</w>
ou l</w>
or ches
off en
ng er
may or</w>
lu gg
lan ding</w>
kh ông.</w>
je wel
ingredi ents</w>
induc tion</w>
han a</w>
h ưng</w>
gui ded</w>
gu ards</w>
gar age</w>
fundament ally</w>
ex pedi
emp athy</w>
em bedded</w>
do p
dis orders</w>
digni ty</w>
den se</w>
deal t</w>
co stly</w>
ch én</w>
ca che</w>
c ôi</w>
bri tain</w>
boo m</w>
authenti cation</w>
at ar</w>
ap ples</w>
Ng uy
M ọi</w>
Isra eli</w>
G I
C amer
B in</w>
ụ a</w>
work force</w>
white water</w>
tradi tions</w>
trad es</w>
to bac
t p</w>
surge on</w>
stri al</w>
sen ses</w>
sc rap
sc ar</w>
rec all</w>
re tained</w>
re b
rai ses</w>
pur sue</w>
pul se</w>
poli ce
po sts</w>
pen etr
ni an</w>
ma u</w>
m éo</w>
m c</w>
li sa</w>
lec ture</w>
k ệ</w>
im pression</w>
gi ục</w>
g ót</w>
fun eral</w>
et ti</w>
ess ence</w>
enh agen</w>
end or
digi t</w>
conn ects</w>
cong ratu
conduc tor</w>
conclu sions</w>
co st-
clo th</w>
cine ma</w>
bott les</w>
bar a</w>
b c</w>
audi t</w>
at lan
ac le</w>
Wom en</w>
W AN</w>
Se a</w>
S ao</w>
P an
Kore an</w>
K er
Hel en</w>
Gul f</w>
Del hi</w>
: 30</w>
2. 4</w>
đ ắc</w>
Ô NG</w>
vari ation</w>
un fair</w>
tri x</w>
the ore
th ủng</w>
ten tion</w>
tax ation</w>
t ful</w>
su bur
sto pher</w>
sil ly</w>
shu a</w>
resi li
reim bur
radi o
qu ỷ</w>
pri ori
premi um</w>
preci se</w>
ph ôi</w>
passe nger</w>
om p
min es</w>
ment -
l ant</w>
kho át</w>
inter active</w>
inj ection</w>
hu mor</w>
gras s
enti ty</w>
e ag
domin ated</w>
di shes</w>
demonstr ated</w>
conver sion</w>
consult ants</w>
consequ ence</w>
consen sus</w>
clu ster</w>
clini c</w>
climb ing</w>
cam pus</w>
bo dia</w>
b anh</w>
ag ging</w>
Tas mani
P N</w>
N ations</w>
Musli m</w>
M oun
M bits</w>
M bit</w>
Liby a</w>
Le go</w>
Jo seph</w>
Is land</w>
I V</w>
I V
Cy rus</w>
Ari sto
Afgh an</w>
8 ,000</w>
40 ,000</w>
198 1</w>
y a
wri tes</w>
wor lds</w>
wi ring</w>
up dated</w>
uni ons</w>
tu bes</w>
tr au
to oth</w>
ste pped</w>
sp inal</w>
shoo ting</w>
sha dow</w>
sh ri
scen es</w>
sal ad</w>
s lower</w>
ri cher</w>
resig nation</w>
re productive</w>
ra nging</w>
r ad
public ation</w>
pre val
phi êu</w>
orig ami</w>
mam mo
m ớ</w>
m ere</w>
lugg age</w>
l un
kho ang</w>
j unc
j a</w>
inte l</w>
hol dings</w>
hi o</w>
f ault</w>
emer ge</w>
e leg
distinc tion</w>
deliver ing</w>
da y-
d âu</w>
d ào</w>
contain ers</w>
consi sting</w>
comple tion</w>
chi ên</w>
characteri stic</w>
centrally- run</w>
car pet</w>
b ọt</w>
attor ney</w>
an e
W hen</w>
Sar ah</w>
S ol
S Q
S E</w>
R ed</w>
Man chester</w>
H ệ</w>
G hana</w>
Char lie</w>
Ch í</w>
Cap ital</w>
B ir
B I</w>
Ac ti
4 50</w>
u. s</w>
tr èo</w>
tal ents</w>
tab let</w>
t z
sho cked</w>
sen der</w>
sa m</w>
re actions</w>
puzz le</w>
ph ere</w>
ngh én</w>
moo dy</w>
mi ti
me g
l ations</w>
jo ints</w>
in finite</w>
ho sti
ho ll
fr action</w>
flexi bility</w>
fi li
explo it</w>
en counter</w>
d ì</w>
d ale</w>
củ </w>
cả .</w>
credi ts</w>
cre am</w>
controversi al</w>
co w</w>
cl er
c ạo</w>
bal ances</w>
b ars</w>
ac ne</w>
a sion</w>
Ti ến</w>
Th ực</w>
San ta</w>
O K.</w>
M in-
Le on
Compu ter</w>
1 1/
- B
° </w>
wa shed</w>
u mb
time -
termin als</w>
sub stances</w>
ste ering</w>
spiri tual</w>
so oner</w>
schol ar
s c</w>
ri ght
r ồng</w>
q in
qin tex</w>
pack ages</w>
out sourcing</w>
o sa
ng ặt</w>
mobili zation</w>
min d
join t-
jo e</w>
intui tive</w>
in tosh</w>
hor mon
gr ati
go d</w>
gi ầy</w>
fran k
fr ank</w>
fil ter</w>
experi encing</w>
enh ouse</w>
du al</w>
d af
consider ably</w>
clo se
cigaret tes</w>
chro mo
c ling</w>
c kers</w>
bound aries</w>
bor ne</w>
Tran sport</w>
Me dic
Je sus</w>
H o</w>
Do anh</w>
A G
: 00</w>
5 000</w>
! '</w>
ó c-
ww w</w>
ven dor</w>
v ẩn</w>
v ần</w>
v ạn</w>
tri cks</w>
traffic king</w>
tr ọ</w>
tr ơn</w>
to tal
tab lets</w>
surpri singly</w>
supervi se</w>
struc tured</w>
st ent</w>
s ửng</w>
s chi
ri ding</w>
rea ches</w>
re luc
ra .</w>
r ã</w>
pres ent
pi one
nà o.</w>
min ent</w>
m ỳ</w>
m ons</w>
le h
int enti
gr u
gr ab
g aps</w>
for um</w>
exerci ses</w>
emb race</w>
eco system</w>
dol ph
dar k
crow ded</w>
contin ent</w>
com missi
c ửu</w>
bu cket</w>
bru sh</w>
b ơ</w>
b li
al together</w>
ag e-
U n
Th ánh</w>
Ne ander
I .</w>
B TO</w>
1/ 2</w>
xu ôi</w>
whe at</w>
weal thy</w>
w ol
v ors</w>
t te</w>
sh -
secon dly</w>
rhy th
re al-
prescri ption</w>
poor ly</w>
pas sage</w>
pain ted</w>
ng ọc</w>
ner ves</w>
narr ative</w>
li sting</w>
ken nedy</w>
inter esti
incenti ve</w>
i ting</w>
hypo thesis</w>
gun s</w>
gi cal</w>
fu els</w>
educ ate</w>
e dings</w>
disapp eared</w>
di stor
coordin ating</w>
con firm</w>
ch ev</w>
ce ly</w>
bướ m</w>
b ôi</w>
anony mous</w>
ai la
ad mitted</w>
accur ately</w>
acces sion</w>
Sp anish</w>
S am</w>
Pri ze</w>
P ow
P au
Me dical</w>
ME NT</w>
Le ague</w>
Isla mic</w>
I G
G en
Fu ku
DV D</w>
Christi an</w>
C ho
Ac cess</w>
4. 5</w>
0 4</w>
yi elds</w>
ves sel</w>
ug ly</w>
tsunam i</w>
trans missions</w>
tim ing</w>
suppor ters</w>
sun day</w>
stor y
spon sor
sh rin
secu red</w>
ri chest</w>
religi ons</w>
rela x</w>
re signed</w>
r in</w>
r ence</w>
publi sh</w>
plu g</w>
per forms</w>
par en
ob servation</w>
nhau .</w>
ngườ i.</w>
new born</w>
ner ve</w>
n áo</w>
n ai</w>
multi media</w>
mi ng
mas sa
m me
m exico</w>
life -
kni fe</w>
kho e</w>
kh ốn</w>
k iều</w>
it y-
in cur
ic k
har b
gr ace</w>
fi ling</w>
fe males</w>
failu res</w>
exi sted</w>
enjo ying</w>
don ald</w>
cá u</w>
c tic</w>
bu ll
brief ly</w>
b ỉ</w>
b ands</w>
ax is</w>
aw k
anxi ous</w>
anim ation</w>
ali ke</w>
adju sting</w>
T o</w>
SQ L</w>
S om
R ight</w>
M B</w>
L ine</w>
K evin</w>
Hi ggs</w>
Han oi</w>
50 s</w>
200 .000</w>
198 3</w>
1, 5</w>
ấ t.</w>
Ư Ợ
đượ c.</w>
x ì</w>
with draw</w>
wi res</w>
well- known</w>
war t</w>
ul tras
tu ber
temp le</w>
susta ined</w>
str essed</w>
ste al</w>
stake holders</w>
slow ing</w>
si ts</w>
rele ases</w>
r s</w>
r d</w>
pass words</w>
p tions</w>
nh ủ</w>
ng rich</w>
na -
midd lemen</w>
methodo logy</w>
le i
k ề</w>
introduc ing</w>
inte gers</w>
im pose</w>
ho ạn</w>
he si
he 'd</w>
ha z
gui des</w>
gh ter</w>
ger man</w>
ga ining</w>
fin anced</w>
expl oring</w>
epi so
en za</w>
dom s</w>
distribu te</w>
disbur sements</w>
den ted</w>
del ays</w>
de grad
cop i
con secu
ch ùm</w>
ch ell</w>
can adian</w>
calcul ating</w>
bu ffer</w>
broad casting</w>
be side</w>
b roo
ari se</w>
ar do</w>
and re
V e
Mon t
Hi gh</w>
H on
Fre e
Dri ve</w>
Cop enhagen</w>
Com mer
Ar my</w>
Ar genti
19 th</w>
x ài</w>
v ou
v els</w>
tw enty-
tr ặc</w>
sup er</w>
speci fication</w>
so ver
sil k</w>
she ep</w>
sc ary</w>
s ảnh</w>
s wa
ro lls</w>
ro lling</w>
ro lled</w>
op ens</w>
obse ssed</w>
nh ạo</w>
moder ate</w>
manufactur er</w>
mal aysia</w>
m ali
lea ther</w>
l à
l ack
k le</w>
hormon es</w>
h ả</w>
evolu tionary</w>
et te</w>
en coun
du plic
do i</w>
di son</w>
contamin ated</w>
comman ds</w>
chri stmas</w>
ca stle</w>
bl ank</w>
b ra</w>
awar ded</w>
ap i
alo ng
a wa
Tha nh</w>
Pub lic</w>
Pas cal</w>
Ng ày</w>
N elson</w>
M OS</w>
I N</w>
F DA</w>
Cha ir
Car olina</w>
CS I</w>
Ber keley</w>
30 -
3 7
20 -
1/ 3</w>
1. 1</w>
ở m</w>
woo ds</w>
wei gh</w>
vi c</w>
vi able</w>
ur ge</w>
tra de
tobac co</w>
thor ough
thi s.</w>
th ế.</w>
ten ded</w>
t b
stri p</w>
st al
ske p
sep g</w>
safe ly</w>
ru ling</w>
re sort</w>
profes sion</w>
privi leg
poor er</w>
pl ying</w>
phi llips</w>
p ru
negoti ate</w>
mu lus</w>
le asing</w>
kne e</w>
ine ffici
hi tting</w>
har vest</w>
gr ab</w>
gi eo</w>
geo graphical</w>
f ence</w>
enab led</w>
electr on</w>
e .
dri ll</w>
dr unk</w>
d row
com pression</w>
bei jing</w>
be am</w>
autonom y</w>
ate dly</w>
appe ti
am ended</w>
administr ator</w>
ad dy</w>
a. m.</w>
Lin ux</w>
L .
I .
For ce</w>
Ea stern</w>
70 %</w>
2 5%</w>
19 30</w>
đ ốm</w>
wel ling</w>
v hl
ti ze</w>
th ẳ
t ạ</w>
t ments</w>
stri king</w>
so ap</w>
si de
s ưng</w>
ri vers</w>
re views</w>
re sume</w>
proto type</w>
promp tly</w>
produc tions</w>
power ed</w>
po s</w>
ph anh</w>
p un
p aul</w>
ox y</w>
off shore</w>
ng ửi</w>
ng ục</w>
n ếm</w>
n é</w>
multi ple
mo bility</w>
midd le-
mathemati cal</w>
macro economic</w>
m ắng</w>
lu ngs</w>
li ght
le ague</w>
las ting</w>
l ại.</w>
kh ép</w>
ke o</w>
guarante es</w>
gri ty</w>
gal axy</w>
found ations</w>
fo ssi
flow ing</w>
evalu ating</w>
cur ve</w>
countr y
consi st</w>
col on
classi cal</w>
ch op
certi fied</w>
bro ker
acknowled ged</w>
Prin ce</w>
P ho
Ken nedy</w>
K u
J obs</w>
J a
IP X</w>
Fr ont</w>
F i</w>
D S
C lar
B ây</w>
Abra ham</w>
đ ậy</w>
w ound</w>
vin ce</w>
un ci
ta- min</w>
t ative</w>
su es</w>
ster one</w>
st en</w>
sin s</w>
shou ldn't</w>
she ets</w>
secon d-
sandwi ch</w>
s aturday</w>
ro cket</w>
r ổ</w>
prosp ection</w>
prefer ential</w>
pin k</w>
pen ding</w>
par ag
n ến</w>
moti vation</w>
ma ging</w>
m l</w>
lo ving</w>
lic it</w>
laugh ing</w>
l ách</w>
kin dness</w>
ke l</w>
isol ated</w>
invi tation</w>
inter actions</w>
in direct</w>
hygi ene</w>
ha med</w>
g àu</w>
evalu ated</w>
en du
dra fting</w>
de ser
daugh ters</w>
con test</w>
capaci ties</w>
c ưỡi</w>
bo dy
av aila
availa bility</w>
ambi tious</w>
al y</w>
accur acy</w>
X- ray</w>
Vir ginia</w>
Po le</w>
Ngh iên</w>
MO N</w>
J an
Inter face</w>
Gi a</w>
Eli zabeth</w>
D .
C T
C A
An drew</w>
A do
1 5.
đ àng</w>
z o</w>
wee kly</w>
volunte er</w>
v ar
terri bly</w>
t n
susp ected</w>
sti mulus</w>
st at
smi ling</w>
sli des</w>
s ọ</w>
s and
rou tes</w>
requi ring</w>
re viewed</w>
quin tile</w>
per cep
or ph
off enders</w>
mạ </w>
mountain ous</w>
luxu ry</w>
ki ller</w>
j an</w>
inno cent</w>
influ enza</w>
indic ation</w>
identi fi
hoo ds</w>
head ing</w>
h ủy</w>
gre enhouse</w>
fin es</w>
fi res</w>
eng ines</w>
elabor ate</w>
e o
e d-
e ager</w>
decision- making</w>
de tec
collabor ative</w>
cl ay</w>
bi an</w>
be ating</w>
b ạ</w>
assa ul
ami d</w>
altern atives</w>
affor dable</w>
UL L</w>
Rus sian</w>
K in
I reland</w>
Ari zona</w>
Al pha</w>
60 ,000</w>
ườ ng.</w>
đ ục</w>
óc- môn</w>
work shops</w>
ven ue</w>
vel t</w>
ve X</w>
v omi
un changed</w>
tu als</w>
tro politan</w>
tr êu</w>
tex t
terrori sts</w>
ten dency</w>
techni cally</w>
sent ences</w>
repor ter</w>
psy chi
provin ci
prin ter</w>
pp y</w>
pl ing</w>
ph y</w>
occupi ed</w>
nguy ễn</w>
neces sity</w>
mar t</w>
m g</w>
lo sis</w>
li fted</w>
li ci
khu ất</w>
intran et</w>
insp iration</w>
gate way</w>
fir ing</w>
fe eds</w>
ex cessive</w>
er ly</w>
doub led</w>
differ enti
develop er</w>
clu bs</w>
clean ing</w>
c ẩu</w>
bene ficial</w>
b ạt</w>
atten ding</w>
approach ed</w>
alloc ations</w>
ali stic</w>
ad dic
Z im
V E
TG T</w>
N ULL</w>
N C</w>
L y
Haw ai
E l
Do g</w>
C C</w>
A M</w>
3. 3</w>
3. 1</w>
wr apped</w>
win d
under taken</w>
un prece
u cp</w>
tr ù</w>
th rowing</w>
ten der</w>
te ens</w>
sugg es
spee ds</w>
so lation</w>
sho ts</w>
seman tic</w>
ridicul ous</w>
revi sed</w>
reti red</w>
repe atedly</w>
re vol
r èn</w>
pu mp</w>
prot ective</w>
pharmaceu tical</w>
per -
pe trol</w>
mat ched</w>
marath on</w>
kno cked</w>
kh ùng</w>
inte grity</w>
in corpor
im provi
hun ting</w>
high way</w>
he pati
he mis
gener ous</w>
fru its</w>
ev es</w>
edi tor</w>
ear ning</w>
d ưa</w>
d anc
con dem
co ding</w>
ch ment</w>
cat astro
cat alo
cal ci
by tes</w>
bra in
ble -
ben ch
at t</w>
ar kansas</w>
ali sed</w>
ac knowledge</w>
ac ies</w>
V al
S har
Nor den</w>
K bit</w>
Ever est</w>
E .
Chi ld
Ch er
Bang ladesh</w>
Aristo tle</w>
15 %</w>
1/ 4</w>
đ ầm</w>
Đ ừng</w>
yl on</w>
wo ke</w>
win ds</w>
wi ves</w>
wel ls</w>
volu mes</w>
un ve
trage dy</w>
th west</w>
th ough
sub ordin
strang ers</w>
speci alist</w>
six th</w>
sin k</w>
shor ter</w>
sal omon</w>
ro om
re tri
r ams</w>
q ing</w>
proj ected</w>
ng st</w>
n ộ</w>
n p
mill ennium</w>
ki es</w>
inv ali
imag ined</w>
i sts</w>
ho óc-môn</w>
ho ành</w>
gu lf</w>
grass roots</w>
expla ining</w>
discri min
disc losed</w>
dis rup
di ễu</w>
depar ture</w>
da q</w>
cu ps</w>
consum ing</w>
consecu tive</w>
cau tion</w>
bu y-
broad er</w>
belo ngs</w>
ba chev</w>
b ồ</w>
b ẩy</w>
atu te</w>
ant i</w>
amo ngst</w>
U T
T ele
T anz
R ec
Pow er
N ame</w>
Mac intosh</w>
M it
L e</w>
Fuku shima</w>
D ầu</w>
Col lege</w>
Acti veX</w>
A S</w>
90 %</w>
8 /
197 6</w>
ơ -
ũ a</w>
Đ ài</w>
x ả</w>
whi st
whe els</w>
wer en't</w>
weap on</w>
weak nesses</w>
vomi ting</w>
viol ating</w>
unprece dented</w>
tw ear</w>
tt g</w>
transl ated</w>
thur sday</w>
th ừng</w>
terrori st</w>
sub stitute</w>
sp a
serv ants</w>
separ ation</w>
se velt</w>
scri pt</w>
sal es
red und
re fin
re al
r at</w>
r ank</w>
progre ssive</w>
pp ers</w>
photograph y</w>
perio dically</w>
p anic</w>
nh ấc</w>
ng ẫm</w>
n ell</w>
n 1</w>
mo date</w>
m ốt</w>
lo sure</w>
liber al</w>
ju ris
inter viewed</w>
in tent</w>
i maging</w>
hi ll
hero es</w>
hepati tis</w>
has n't</w>
gi ous</w>
foo twear</w>
epi de
el ler</w>
din osa
dark ness</w>
curi osity</w>
con form</w>
coast al</w>
be aring</w>
b ừa</w>
b all
answer ing</w>
al arm</w>
ai ring</w>
accom modate</w>
acces sing</w>
a ins</w>
Trans fer</w>
Res er
Po lice</w>
N ex
M E</w>
I cel
H ồng</w>
Don ald</w>
Chair man</w>
Ch o</w>
C H</w>
Bi ble</w>
A lice</w>
3 .000</w>
1. 8</w>
Đ ồng</w>
whe el
ver tical</w>
ve .</w>
vari es</w>
v in</w>
under water</w>
tu a</w>
te ar</w>
synchr oni
suc ces
st .</w>
sexu ally</w>
sco tt</w>
sa ke</w>
s ony</w>
s nia</w>
refl ecting</w>
rati ngs</w>
quan tum</w>
promi sing</w>
po ckets</w>
pen sions</w>
par ib
parib as</w>
or bit</w>
o ph
ng ây</w>
negoti ation</w>
near est</w>
mer ger</w>
m ati
libr aries</w>
li ers</w>
li -
kh ử</w>
j et</w>
j amin</w>
intermedi ate</w>
instal lation</w>
illu sion</w>
identi fying</w>
i nhi
hu ýt</w>
ho ok</w>
ho i</w>
gras p</w>
girl friend</w>
geni us</w>
g au
fre sh
execu ting</w>
exam s</w>
ex tract</w>
emb ar
elec tro
disagre e</w>
di stances</w>
defe at</w>
d ép</w>
critici zed</w>
control ler</w>
confu sion</w>
cho le
champi on</w>
c ans</w>
c ables</w>
belo nging</w>
ban kers</w>
av a
atti tudes</w>
att ack
Sus an</w>
R ay</w>
N ày</w>
H àng</w>
D aniel</w>
B il
B E
Ac t</w>
A my</w>
A lex</w>
1 4.
1 1-
we dnesday</w>
vi dia</w>
vhl ss</w>
uy ến</w>
uter us</w>
up grade</w>
umb re
tuber cu
thẳ m</w>
ten ed</w>
tack le</w>
t ap
super market</w>
sli pped</w>
sli p</w>
she er</w>
sanc tioning</w>
s mu
ri cane</w>
resp ected</w>
resi stant</w>
rel ational</w>
r on
prosp ect</w>
pi ll
off -
nine teen</w>
nh ộn</w>
nh ì</w>
n 2</w>
musi cian</w>
mix te</w>
marg ins</w>
la und
ki êu</w>
kh ống</w>
k u</w>
inst ant</w>
hea p</w>
foreign- invested</w>
expor ted</w>
evol ve</w>
elimin ated</w>
decre ased</w>
deal ers</w>
d ang</w>
consist ently</w>
c úi</w>
c òi</w>
bure au</w>
bi ếm</w>
b ẻ</w>
atta ch</w>
at eral</w>
along side</w>
TR UE</w>
Re uters</w>
R S</w>
I T</w>
I II</w>
G ad
Fr an
E 1</w>
Direc tors</w>
Di stribu
De puty</w>
Com muni
Camer on</w>
A gency</w>
7 ,000</w>
. '</w>
ƯỢ C</w>
z al
whi sp
vir ginia</w>
tubercu losis</w>
threat ening</w>
th ốt</w>
th ful</w>
t ạng</w>
stitu tes</w>
stig ma</w>
stan ts</w>
sho wer</w>
se gments</w>
s light</w>
s k</w>
s ar
r ang</w>
profess ors</w>
prin ce</w>
poli o</w>
pan cre
or n</w>
oce ans</w>
nh ồi</w>
nh át</w>
nes see</w>
negoti ating</w>
nee dles</w>
mon key</w>
mix ture</w>
mid night</w>
messa ging</w>
m ê-
li est</w>
it age</w>
in som
im men
govern or</w>
genu ine</w>
gard ens</w>
for bi
farm ing</w>
f ate</w>
ess or</w>
enthusi asm</w>
eni x</w>
emplo y</w>
ec k</w>
develo ps</w>
dat agram</w>
custo dy</w>
confu sed</w>
chu i</w>
automo bile</w>
allow ances</w>
alli ance</w>
adv ances</w>
accoun table</w>
ac cent</w>
Si licon</w>
Ro s
Pre ss</w>
P op
NO T</w>
L E</w>
Is lam</w>
Gab by</w>
F ir
D es
Col om
Bro ad
Archi tec
0 9</w>
- and-
Đ ƯỢC</w>
Â N</w>
x ở</w>
ver b</w>
us al
usal em</w>
ur b
tri bes</w>
trans mitting</w>
to ái</w>
ti ghtly</w>
thi êng</w>
survi ved</w>
ss ance</w>
shi fted</w>
sen sors</w>
sc ored</w>
sanc tions</w>
s quar
re publican</w>
re ments</w>
qu ẩn</w>
prote sts</w>
politici an</w>
pati ence</w>
p it</w>
p au
nh óc</w>
mô t</w>
mom en
migr ant</w>
mi ngly</w>
men u</w>
loc ate</w>
le ton</w>
l ầu</w>
l ấn</w>
inter ior</w>
ine vi
illustr ate</w>
identi fication</w>
for estry</w>
focu ses</w>
fav our</w>
exam ining</w>
ev a</w>
ethi cal</w>
enz y
entr ance</w>
e tho
dyna mics</w>
design ated</w>
de lic
d ẳng</w>
d ental</w>
convic ted</w>
broker age</w>
brea st
bi shi</w>
be ta</w>
ar o
ag os</w>
Sp eci
O per
Mc C
H ans</w>
Fr anc
B an
6 .000</w>
1 60</w>
0 7</w>
y wood</w>
w and
v õng</w>
v ôi</w>
v ani
under -
umbre lla</w>
tun nel</w>
tor ate</w>
su ýt</w>
simpli city</w>
s ố
s b
ro pe</w>
re de
ran e</w>
ra i</w>
provinci al-level</w>
pre ference</w>
po et</w>
pit ch</w>
pi ll</w>
pas sport</w>
om y</w>
o we</w>
o 'clock</w>
ni k</w>
neighb ours</w>
nav y</w>
midd le
mi sc
lici tly</w>
l ụa</w>
join tly</w>
interpre tation</w>
interesti ngly</w>
hy bri
hot els</w>
happi er</w>
gent le</w>
g ear</w>
frighten ed</w>
foun der</w>
fl at
fa st-
f .</w>
experim ental</w>
es say</w>
dom ains</w>
dio xide</w>
di ngly</w>
det ecting</w>
dd le</w>
d è</w>
cul ti
cu a</w>
continu ously</w>
contin ental</w>
cong estion</w>
colli sion</w>
chole ster
ch s</w>
bur ned</w>
bo l
be ef</w>
ballo on</w>
b am
attemp ted</w>
as on</w>
anticip ated</w>
ag o
V ụ</w>
Tes z
Sha nghai</w>
R evolution</w>
Qu ảng</w>
P Cs</w>
IO NS</w>
Fe der
D on</w>
Cu ộc</w>
4 .000</w>
16 .
0 8</w>
Ủ A</w>
wit nesses</w>
wild life</w>
ti um</w>
ti more</w>
t ational</w>
suppor tive</w>
stre ams</w>
stop ping</w>
sp reads</w>
ris en</w>
ren o
rema in
r ats</w>
publi ci
pp i</w>
pe ti
par ado
organi sation</w>
op tic</w>
op ia</w>
ol y
n ướ
mu ôn</w>
miser able</w>
mil ton</w>
menop ause</w>
md gs</w>
mar tin</w>
ma ils</w>
m ác</w>
m ask</w>
li p
lea ks</w>
le xi
l ặt</w>
l r
kho ăn</w>
kh ỏ
insom nia</w>
in tend</w>
ignor ance</w>
i ri
i lli
gg ling</w>
fu ng
fascin ated</w>
et ly</w>
envelo pe</w>
enh anced</w>
employ er</w>
distingui sh</w>
dis po
di ck</w>
de serve</w>
d dy</w>
ch ải</w>
c ch
bio diversity</w>
bene fi
bas ing</w>
b áu</w>
auth or
ari zona</w>
an ch
ai ssance</w>
ac cru
Tur key</w>
Tit anic</w>
Nh ư</w>
It alian</w>
H om
H i</w>
CO R
C ỦA</w>
B ay</w>
A -
3 00
đ ốn</w>
đ ấy.</w>
Đ ịa</w>
Đ ể</w>
wor ries</w>
v õ</w>
tố t.</w>
the ories</w>
th omas</w>
te gr
tane ous</w>
tal e</w>
t tered</w>
sá p</w>
strength ened</w>
stimul ate</w>
ste am</w>
sacrifi ce</w>
sa fer</w>
ru shed</w>
replac ing</w>
rati os</w>
r h
quanti ties</w>
promo ted</w>
produc er</w>
pi gs</w>
pat ents</w>
p y</w>
over night</w>
open- source</w>
on ai
omp son</w>
no tation</w>
nghi ền</w>
net t</w>
n it
mo s</w>
main stream</w>
lo go</w>
like wise</w>
li ons</w>
im pressed</w>
ill a</w>
gr ants</w>
gener ates</w>
gar et</w>
f ounding</w>
er o</w>
equiti zed</w>
eng aging</w>
di sh
de pic
d r.</w>
cri pt</w>
col ored</w>
cir cles</w>
chu ồn</w>
chu ối</w>
c lar
bi ting</w>
avi ation</w>
at omic</w>
assemb le</w>
arti stic</w>
al ge
T a</w>
S N
Mand ela</w>
G or
E m</w>
Ar t</w>
An n</w>
7. 5</w>
3. 2</w>
200 6-
2. 6</w>
1 3,
Đ iện</w>
zo ph
war r
vi al</w>
v ỉa</w>
use um</w>
up dates</w>
u ri
tri be</w>
trans form
tr </w>
t es
system atic</w>
str alian</w>
sk u
se .</w>
s ủa</w>
rub ber</w>
ro gate</w>
re o</w>
quali fications</w>
pursu ant</w>
pipel ine</w>
peri ph
para di
p. m.</w>
p unc
p u</w>
over head</w>
open ness</w>
o p</w>
nu cle
non terminal</w>
nation wide</w>
momen tum</w>
mc ca
m amm
ko ta</w>
interpre ted</w>
ini ty</w>
i mit
hun t</w>
ho án</w>
gor ous</w>
gor bachev</w>
g ớm</w>
equ als</w>
docu mented</w>
displa ys</w>
da wn</w>
con qu
compla in</w>
comman der</w>
ch ess</w>
care gi
car pen
bu g</w>
bra zil</w>
bon us</w>
be an</w>
bb les</w>
b ăn</w>
b en</w>
awk ward</w>
as sured</w>
all as</w>
aci ous</w>
US B</w>
T ự</w>
S in
Pro f
N a</w>
N N
M ã</w>
M useum</w>
M T</w>
Indu strial</w>
F or</w>
Distribu ted</w>
De troit</w>
Chap ter</w>
who le
war ran
tr ói</w>
tis sues</w>
t elecommunication</w>
superi or</w>
sta dium</w>
ssi ppi</w>
sett ling</w>
schi zoph
s ler</w>
respon ded</w>
remin ded</w>
prosp ects</w>
prohibi ted</w>
proce edings</w>
pro vo
no is
ngo ạn</w>
ng uyệt</w>
nau sea</w>
mater nal</w>
manufac ture</w>
m apping</w>
l ượ
l ately</w>
khuy a</w>
kh </w>
insp ecting</w>
ic e
hea ven</w>
ham burger</w>
ha nging</w>
feasi bility</w>
ev al</w>
enc losed</w>
en qing</w>
el and</w>
educ ating</w>
diam ond</w>
desi red</w>
den o
country side</w>
concentr ation</w>
cn tt</w>
cli ff</w>
cir cular</w>
c attle</w>
bu yer</w>
bu ry</w>
blo gs</w>
be e</w>
bacteri al</w>
b .</w>
au to
architec tural</w>
ambigu ous</w>
accompli shed</w>
_ </w>
Wil son</w>
W right</w>
Th er
T om
Sahar an</w>
S her
S au</w>
Ro ger</w>
Par kinson</w>
O E
L i</w>
L an
J our
G andhi</w>
Elec tr
E mp
Bab a</w>
Atlan tic</w>
Architec ture</w>
Ado be</w>
3 2
25 ,000</w>
ề u.</w>
x ay</w>
vn d
two- thirds</w>
tri nh</w>
trans fer
tit les</w>
thorough ly</w>
they 'd</w>
th ối</w>
th ình</w>
t- hand</w>
survi vors</w>
supervi sing</w>
streng ths</w>
stea dily</w>
ssi onal</w>
shi fting</w>
sett lements</w>
sau ce</w>
respon ding</w>
reli ance</w>
refer ences</w>
re wards</w>
rap e</w>
rac es</w>
r age</w>
puni shment</w>
pro ph
pre tend</w>
pre dat
por table</w>
pi g</w>
ph ẫn</w>
persu ade</w>
pa tho
oper ni
o sis</w>
musi cians</w>
le ans</w>
k lyn</w>
ino is</w>
il a</w>
hori zon
hon ey</w>
h ẻo</w>
gi ngrich</w>
geor gi
func tioning</w>
f rea
er ra</w>
enjo y
ene mies</w>
eleph ant</w>
ed ges</w>
di ce</w>
depen dence</w>
deleg ation</w>
coun sel</w>
corri dor</w>
contr actors</w>
con temporary</w>
compar able</w>
co s</w>
ch at
calci um</w>
bo ther</w>
bo t</w>
archit ects</w>
ar thri
amp li
al es</w>
Tanz ania</w>
S qu
Mini stries</w>
M ục</w>
K en</w>
Gi gabit</w>
Fa therland</w>
C operni
B row
App le
AL L</w>
A F
3 65</w>
3 0s</w>
199 3-
0 -
- like</w>
ấ ng</w>
Ả N</w>
wor rying</w>
web sites</w>
vi sions</w>
tri gger</w>
transp lant</w>
th ặng</w>
th ắp</w>
temper atures</w>
t ness</w>
sur plus</w>
sur ge</w>
strai ght
straight forward</w>
soci alist</w>
semi -
scr atch</w>
satelli tes</w>
s- based</w>
ru led</w>
ri sky</w>
re servation</w>
rati fied</w>
rai g</w>
r aci
pur suit</w>
prot ects</w>
prin ts</w>
pan demic</w>
pa th
out break</w>
oppon ent</w>
op oro
o th
nh úng</w>
ng ự</w>
nai ls</w>
micro scope</w>
mi st</w>
mer ged</w>
mb er
man ville</w>
ma ke
m ộc</w>
laugh ed</w>
l m</w>
jac ket</w>
industri alization</w>
hur ry</w>
home less</w>
gh dad</w>
frau d</w>
fol k</w>
fire wall</w>
fi nger
fav ouri
est -
es cal
emb ry
ef f</w>
di e
dent ally</w>
dd led</w>
cor ti
compu ted</w>
chi êm</w>
cele bri
campaig ns</w>
bi tter</w>
be aten</w>
b ới</w>
b ai</w>
argu ing</w>
appreci ated</w>
appear ing</w>
ang ered</w>
analy tical</w>
am ate
al a</w>
aci ds</w>
abor tion</w>
Ya hoo</w>
Y ear</w>
V ene
V AT</w>
Soci ety</w>
RO M</w>
R on
Me kong</w>
Le wis</w>
L L</w>
L H
K ho
John ny</w>
J H</w>
Enterpri se</w>
E IA</w>
D ad</w>
C hur
B us
B lo
80 ,000</w>
5. 5</w>
15 ,000</w>
1 2,
ỳ nh</w>
xo áy</w>
u. s.
twi sted</w>
tri cal</w>
trac ks</w>
tr apped</w>
ti veness</w>
th ony</w>
te sto
te am
t ản</w>
t ch
sum mit</w>
sof a</w>
ser o
see ks</w>
ro ad
resi st</w>
rep airs</w>
re sident</w>
r ầy</w>
qu ạ</w>
qu ad
pou red</w>
pi ty</w>
pi e</w>
pho sph
nh ện</w>
ng ness</w>
mirac le</w>
mat ching</w>
khỏ e</w>
kh mer</w>
jo kes</w>
imp lies</w>
hier archy</w>
hi ên</w>
hi ding</w>
ha ir
fra gile</w>
festi val</w>
fat al</w>
expor ting</w>
explo ited</w>
expect ancy</w>
en ters</w>
dou ble-
dis charge</w>
di g</w>
da y's</w>
d are</w>
cor al</w>
coordin ated</w>
come dy</w>
car ro
car dio
bu ses</w>
b end</w>
at ers</w>
acti vated</w>
V er
TED x
T .</w>
St ack</w>
Sco tt</w>
S au
P ER
No .
Mo on</w>
M a</w>
M D</w>
K bits</w>
Jo shua</w>
J ava
Ge or
E ve</w>
E thi
E .</w>
C ách</w>
Bron x</w>
B hu
A ssi
5. 2</w>
2 2
19 00</w>
1. 6</w>
- cô</w>
đ c</w>
w rap</w>
vie wer</w>
v ấp</w>
v ành</w>
un necessary</w>
transi t</w>
tr út</w>
ti de</w>
thresho ld</w>
testo sterone</w>
t as</w>
symp athy</w>
sugges tions</w>
ssi vely</w>
some day</w>
shi pment</w>
se pt</w>
sc i</w>
sc ep
remain der</w>
re sign</w>
pro s
pre servation</w>
pr o</w>
pot atoes</w>
post al</w>
poly phen
ple x</w>
pep far</w>
p ause</w>
oppon ents</w>
nh ờn</w>
mani fe
long est</w>
like lihood</w>
lic k</w>
laund ry</w>
l íu</w>
l ít</w>
king dom</w>
kid n
ker nel</w>
in tru
in stantly</w>
in s
hier archi
habi t
gr am
gh etti</w>
for mulation</w>
foot print</w>
fo cal</w>
f lights</w>
ex trac
en de
dr ama</w>
dam n</w>
correspon dent</w>
compar ing</w>
ch ót</w>
bor ed</w>
bo ld</w>
be ar
bal ls</w>
b ít</w>
b b</w>
autonom ous</w>
as sure</w>
al ph
al ore</w>
ac king</w>
ab ad</w>
Wal es</w>
W K</w>
T ar
S of
S S</w>
Palesti nian</w>
J ill</w>
IP v
Hawai i</w>
Har ry</w>
Fir st</w>
F TP</w>
Ed ward</w>
E S
D ai
Coun cils</w>
Ben jamin</w>
AR E</w>
3/ 4</w>
- level</w>
ẽ o</w>
đ ấm</w>
z oom</w>
x ông</w>
wit ne
wat t</w>
veri fy</w>
us x</w>
ultras ound</w>
tu ple</w>
to dd
th ẹn</w>
t ởm</w>
suit case</w>
su preme</w>
ste aling</w>
sle pt</w>
signific ance</w>
si b
shi rts</w>
sec toral</w>
sb v</w>
s ập</w>
s ma
s &</w>
qui etly</w>
pu t
prosecu tors</w>
pro cu
pro be</w>
predic tions</w>
ple dged</w>
phi lip</w>
ph ớt</w>
opti mism</w>
oper ands</w>
no -
ni ty</w>
measu rements</w>
mani pul
lr b</w>
lin ear</w>
ligh ted</w>
lever age</w>
l én</w>
l as</w>
k ẽ</w>
k k
inter f
interf ere</w>
inter connected</w>
inspi ring</w>
insi sted</w>
inevi table</w>
iP od</w>
hydr o</w>
helicop ter</w>
gen o
g ốm</w>
g ôn</w>
g i</w>
frequ encies</w>
fr am</w>
fl orida</w>
fi x
ex -
el vis</w>
dop amine</w>
disa bility</w>
dimen sion</w>
di ve</w>
deman ding</w>
cu mul
consum ed</w>
condi tional</w>
ci de</w>
chi êu</w>
che mo
ch ói</w>
ch è</w>
can cel</w>
cam ps</w>
ca de
c ence</w>
bow l</w>
blo wn</w>
avoi ding</w>
ati es</w>
an thro
abun dant</w>
above- mentioned</w>
Wol fram</w>
Tr ắng</w>
TT -B
T ết</w>
T S
Stand ard</w>
R ou
Par liament</w>
P ic
O me
Ma y
MI N
Gre ece</w>
E T</w>
B ru
B E</w>
Argenti na</w>
60 %</w>
6 /
1, 500</w>
1 70</w>
-l cb-</w>
- time</w>
ỉ u</w>
đi ềm</w>
x ảo</w>
veget able</w>
v s</w>
v an
th ản</w>
t ê-in</w>
synthe sized</w>
sur rogate</w>
supp lied</w>
str ess
simp lest</w>
sim pler</w>
seven th</w>
sel ler</w>
s ếp</w>
s q
ri val</w>
refl ection</w>
re se
re publicans</w>
ra -
proce ed</w>
posse ssion</w>
polic y
po ster</w>
pe a
parag ra
par liament</w>
pac king</w>
oporo sis</w>
on ally</w>
occur ring</w>
ngh ẹt</w>
ne a
mu d</w>
mor ality</w>
modi fied</w>
mode ms</w>
mitsu bishi</w>
mi ly</w>
me tric</w>
lon ely</w>
lo ses</w>
leh man</w>
laun ching</w>
kne es</w>
kee per</w>
k ra
k oo
juven ile</w>
je ans</w>
it ance</w>
is ra
in scribed</w>
hã nh</w>
histor ically</w>
happi ly</w>
geo logical</w>
forbi dden</w>
exp licit</w>
ecti ous</w>
dec ent</w>
dead ly</w>
de c</w>
d in</w>
d 's</w>
custo m</w>
cr c</w>
compen s
co ins</w>
clo sure</w>
che que</w>
ch ase</w>
bel t</w>
b ành</w>
arri ves</w>
ar ising</w>
ag a</w>
ad venture</w>
accom mod
a nh
Tesz ler</w>
Ph ật</w>
P art</w>
P S</w>
O s
N ep
Jer usalem</w>
Ch e
A O</w>
8 0s</w>
19 45</w>
. org</w>
-r cb-</w>
ì .</w>
â t</w>
wha t
w rest
tu p</w>
thri ft</w>
th ảy</w>
th ạc</w>
th à</w>
termin ation</w>
stri kes</w>
sp ra
sp ends</w>
sho e</w>
sa g</w>
ro cke
re tail
pres sures</w>
prefer ences</w>
physi cian</w>
pengu in</w>
pal ace</w>
p esti
o graphic</w>
nu m</w>
nhu ộm</w>
nh àm</w>
nas daq</w>
n ín</w>
mi le
me tropolitan</w>
m ép</w>
m ph
ki ck</w>
investig ating</w>
int esti
indic ating</w>
in donesia</w>
human itarian</w>
hom o
ha ckers</w>
grand parents</w>
g on</w>
for give</w>
firm ly</w>
fa ther
exerci sing</w>
ex tr
es thetic</w>
ero x</w>
entreprene ur</w>
el la</w>
demo graphic</w>
d an
củ i</w>
correspon dence</w>
compla ined</w>
col m</w>
ch ớ</w>
ch ẵn</w>
can cers</w>
cal ories</w>
c úng</w>
buil ds</w>
be ver
axi es</w>
ation .</w>
assess ments</w>
arthri tis</w>
arra ys</w>
adver se</w>
ad diction</w>
acu te</w>
a 's</w>
Wat son</w>
W ang</w>
The y
T ừ</w>
T CH
S H
L ý</w>
L and</w>
Icel and</w>
H ere</w>
G l
Ex ample</w>
D ou
Ci vil</w>
Ch an
C ro
C AP
Bud get</w>
An tar
A BC</w>
3. 6</w>
12 /
1 1,
→ </w>
ị .</w>
zu ela</w>
woo den</w>
w l</w>
trav els</w>
transi stor</w>
to p-
that cher</w>
t ates</w>
t age</w>
swe at</w>
sti pulate</w>
spect acu
spa ghetti</w>
sle y</w>
sho w
se mination</w>
s no
ri e</w>
ren der</w>
re son
re m
rad ar</w>
r ách</w>
r or</w>
qu ạt</w>
pu lation</w>
pro state</w>
pri cing</w>
pl c</w>
pap er
out -
our ce</w>
ori entation</w>
on ically</w>
nois y</w>
nh ọn</w>
nh áy</w>
ne o</w>
mysteri ous</w>
mi ller</w>
mb s</w>
market place</w>
mar gin</w>
magni fi
là m.</w>
low ed</w>
l ốp</w>
l ười</w>
kh ốc</w>
j ava</w>
i. e.</w>
honest y</w>
her itage</w>
ham mad</w>
h án</w>
gal axies</w>
g ập</w>
frustr ated</w>
fossi l</w>
exp ec
evid ences</w>
ent -
dou gal</w>
desp air</w>
declar ations</w>
coun ty</w>
con ces
co her
clean ed</w>
ci on</w>
carto on</w>
bur g
bu tter
be ans</w>
approach ing</w>
alle vi
aggre gate</w>
a unt</w>
Yor ker</w>
Th ời</w>
Sp ace</w>
S D
Ri ver</w>
R IS
Qu ân</w>
P la
NA M</w>
N ick</w>
Mont ana</w>
Jour nal</w>
J en
He ads</w>
C òn</w>
C ao</w>
Ber lin</w>
7 0s</w>
1. 7</w>
ợ m</w>
Ư Ớ
đi ếc</w>
đ ắng</w>
đ ành</w>
wor th
vou chers</w>
vi- ta-min</w>
v òm</w>
un certain</w>
un believ
ti tude</w>
ther lands</w>
tan ks</w>
t our
sub tle</w>
strang er</w>
stor ms</w>
stock -
soci ally</w>
shri mp</w>
sha m
sha king</w>
seri al</w>
sen sor</w>
sc at
s ải</w>
ru de</w>
rr b</w>
rec al
reali zing</w>
re build</w>
rand om
r ãnh</w>
py ra
proj ections</w>
pre mature</w>
p ted</w>
p p</w>
ou tr
ordin arily</w>
or i</w>
op er</w>
ngu ội</w>
n ãy</w>
memori al</w>
me tres</w>
le m</w>
interpre ter</w>
inh abi
in stances</w>
hu mili
hu bs</w>
hand y</w>
gree ted</w>
fre ight</w>
fl ouri
en u
elimin ating</w>
ear ns</w>
dra wings</w>
devast ating</w>
democr ats</w>
d ough</w>
d and
contribu tes</w>
con ta
chemo therapy</w>
ch íp</w>
ch anh</w>
ce .</w>
bench mark</w>
ben eath</w>
b last</w>
b ail
avi an</w>
astoni shing</w>
assi sting</w>
as ser
appe aling</w>
ad or</w>
U p</w>
T A</w>
Musli ms</w>
M assa
L et</w>
Hy per
H ea
G TGT</w>
C an</w>
A ll
4 /
3 5
2001- 2010</w>
2. 1</w>
.. .
Ủ y</w>
ô- n
y te</w>
y ce</w>
x ắn</w>
x áo</w>
world -
w ounded</w>
w ins</w>
tr ace</w>
tim acy</w>
there by</w>
t ạc</w>
t ta</w>
synchr onous</w>
supp liers</w>
su ite</w>
stor ing</w>
soci o
smi led</w>
sh er
sen sation</w>
schizoph ren
satis factory</w>
s wing</w>
ru ff</w>
recipi ent</w>
ran king</w>
ra q
r ìu</w>
r ìa</w>
pow der</w>
pic tured</w>
particip atory</w>
oni a</w>
on .</w>
nutri ents</w>
nh ĩ</w>
ng ủi</w>
ng ent</w>
neur on</w>
massa chusetts</w>
manufac tured</w>
manag erial</w>
ma ster
ma il
legisl ative</w>
key board</w>
k ok</w>
k it</w>
investi gate</w>
inf ectious</w>
in land</w>
in cu
impor ting</w>
im per
i ii</w>
hu tton</w>
honest ly</w>
grad es</w>
gent leman</w>
gene tics</w>
ge ment</w>
g ân</w>
fran chi
for ty</w>
financi ally</w>
es a</w>
eri an</w>
ent ary</w>
divi sions</w>
deli ghted</w>
de o</w>
d d</w>
cu ả</w>
cre ature</w>
cr ay</w>
coo ked</w>
controver sy</w>
comp elling</w>
coll ectively</w>
cab inet</w>
c ăm</w>
bra ve</w>
bom bs</w>
body 's</w>
at al</w>
accu mulation</w>
a ero
W here</w>
T et</w>
R A</w>
Leon ardo</w>
L AT
K ur
Je an</w>
IE S</w>
I -
Fi le</w>
E i
E 2</w>
De partments</w>
Co ke</w>
Boo le</w>
B lack</w>
A s</w>
3. 4</w>
196 0s</w>
12 ,000</w>
woo d
willi ams</w>
vas cular</w>
v u</w>
use less</w>
tr á</w>
ton in</w>
tho lic</w>
th ỏ</w>
t ứ</w>
t ches</w>
syn thetic</w>
sub way</w>
su ited</w>
sty les</w>
ster eo
sta ys</w>
ss y</w>
sp in</w>
sing le-
sib lings</w>
ru m
roo ge</w>
ro ng</w>
rescu ed</w>
recogni zes</w>
r u</w>
qu al
pro stitution</w>
prece ding</w>
physici st</w>
paradi gm</w>
p our</w>
p on</w>
p ants</w>
out look</w>
oste oporosis</w>
nu ts</w>
ng ào</w>
ne st</w>
n ard</w>
m ặn</w>
m ài</w>
lea p</w>
judi cial</w>
j eal
it ative</w>
intri gu
inter nationally</w>
incur red</w>
i ft</w>
heal thier</w>
he 'll</w>
har vard</w>
f ame</w>
et on</w>
emp ire</w>
duc k</w>
dic tion
descri bing</w>
d ging</w>
d ently</w>
cy lin
cri ed</w>
cr ack</w>
cont acts</w>
consult ant</w>
consul t</w>
congre ssional</w>
communic ating</w>
co ali
c s
br on
boar ding</w>
bi ds</w>
benefici aries</w>
bar ak</w>
back wards</w>
am ination</w>
a wards</w>
The se</w>
T E</w>
Ste wart</w>
OR B</w>
L IS
J ay</w>
H ur
H all</w>
Fire fox</w>
Child ren</w>
C O</w>
Bec ause</w>
B S</w>
Ad dress</w>
A cade
197 8</w>
18 .
15 5</w>
ậ t.</w>
Đ o
year- olds</w>
win ners</w>
web ber</w>
w rec
veter ans</w>
v as</w>
ty ping</w>
trop ical</w>
transi tions</w>
trans mit
tra p</w>
tra gic</w>
the- counter</w>
sur gical</w>
sh in
ro g
reli ability</w>
re warded</w>
re public</w>
r ót</w>
que ue</w>
preval ence</w>
practi cing</w>
police man</w>
photograph er</w>
pas sive</w>
over- the-counter</w>
or us</w>
moti v
mobili zing</w>
mobili zed</w>
maxi mi
magnifi cent</w>
li ation</w>
lec tures</w>
la h</w>
kno ck</w>
juris diction</w>
invali ds</w>
inter ference</w>
inten sity</w>
innov ations</w>
holl ywood</w>
head ache</w>
hand les</w>
h áo</w>
good bye</w>
gold man</w>
gen eric</w>
gas oline</w>
fat ty</w>
evi dent</w>
encoun tered</w>
econom ically</w>
e tri
e able</w>
down turn</w>
deploy ed</w>
deal er</w>
dea f</w>
de ple
dand ruff</w>
cor respond</w>
cop ying</w>
conver tible</w>
compar ative</w>
coll ecti
co in</w>
clin ics</w>
chi nh</w>
celebr ated</w>
bu ồm</w>
bl adder</w>
assi sted</w>
ance stors</w>
analy zer</w>
analo gy</w>
amend ment</w>
al ter</w>
accor d</w>
acceler ated</w>
V o
Sky pe</w>
S wi
S ur
S ti
S CSI</w>
N ên</w>
Mar ket</w>
M Hz</w>
L et
Is lands</w>
HI Ệ
Be etho
B ệnh</w>
B lack
8. 1</w>
30 .000</w>
16 ,
14 ,
- related</w>
ổ i.</w>
ỏ m</w>
đ u</w>
vir út</w>
v ãn</w>
v ác</w>
u tter
ty pe
tu re
three- dimensional</w>
th al
teri or
so l</w>
slow down</w>
sk et
situ ated</w>
sham po
se a
s ói</w>
recommend ation</w>
reali zation</w>
r ations</w>
r ance</w>
qu ery</w>
poli tically</w>
pack aging</w>
p raise</w>
ou red</w>
om ed</w>
ng ươi</w>
na sty</w>
minimi ze</w>
micro -
ma nhattan</w>
m ẹo</w>
loc ally</w>
lo a</w>
leu ke
leuke mia</w>
k ling</w>
junc tion</w>
ju mping</w>
j uni
inter section</w>
in dian</w>
impro ves</w>
illustr ates</w>
họ .</w>
hou ston</w>
he al</w>
ha mp
g ei
ful filling</w>
fel ler</w>
f ool</w>
f ati
expor ters</w>
ev acu
ent agon</w>
en ey</w>
displa yed</w>
di sin
desi rable</w>
dep lo
denti st</w>
de terior
da vis</w>
credi ted</w>
com ed</w>
colleag ue</w>
child ren
challe nged</w>
cha ins</w>
cat ching</w>
car bon
bu l</w>
bloc ked</w>
bar re
b ou
at ories</w>
assum es</w>
assaul t</w>
arbitr ary</w>
amend ments</w>
air planes</w>
advoc acy</w>
advi se</w>
a- pacific</w>
a nh.</w>
US A</w>
U N
Sy l
S he
Phi ladelphia</w>
New ton</w>
Mat t</w>
Ir anian</w>
Inter ior</w>
H op
H 1
H1 N1</w>
Gre ek</w>
Gr and</w>
G il
G ary</w>
E l</w>
Broo klyn</w>
8. 2</w>
á .</w>
yi el
y ards</w>
wit z</w>
wel comed</w>
vie wers</w>
tre aties</w>
tre al</w>
tra sh</w>
tic a</w>
thu mb</w>
there of</w>
theore tical</w>
than k
tele scope</w>
t ít</w>
t ched</w>
subsequ ently</w>
stre am
sp r
so m</w>
sever ely</w>
sen sory</w>
sculp ture</w>
s ore</w>
ro bi</w>
respon dents</w>
resp ects</w>
rel ates</w>
re pay</w>
re mitted</w>
r ành</w>
ques tioned</w>
preven ted</w>
pe au</w>
ow a</w>
om a</w>
ob sole
ng ả</w>
neighbor ing</w>
nan o
nam ent</w>
n ail</w>
moti vated</w>
m ỉ</w>
lou is</w>
lot tery</w>
ki ss</w>
khi ết</w>
j it
j ec
it 'll</w>
interpre t</w>
indic ator</w>
in sur
high- tech</w>
her e.</w>
hemis phere</w>
head er</w>
he ter
gri ef</w>
grand children</w>
gi àn</w>
g ục</w>
g ases</w>
fo g</w>
f an
exhi bit</w>
docu mentary</w>
dis missed</w>
def end
dam ages</w>
cra shed</w>
counter fe
copi ed</w>
coll ateral</w>
col oni
co le</w>
cholester ol</w>
certi fication</w>
cam peau</w>
ca the
bu tt
bre ed</w>
bas ket</w>
b read
b lowing</w>
b agg
appeti te</w>
al ert</w>
ad er</w>
Zim bab
W ho</w>
Vir tual</w>
Vic toria</w>
Tal ks</w>
Ste ven</w>
S put
S pi
Ma h
M other</w>
M G</w>
K it
Hu ng
H O
Go od</w>
COM MON</w>
C U</w>
Bab ylon</w>
B .
Assi stance</w>
Ara bic</w>
6. 5</w>
2006- 2010</w>
20 30</w>
20 13</w>
ọ a</w>
xi a</w>
tt -
tou gh
ti ne</w>
terr or</w>
swa p</w>
sti cking</w>
sp ell</w>
so c
sku ll</w>
shi pped</w>
scre ening</w>
scr at
sa chs</w>
s ally</w>
ri ch
reti re</w>
reli eve</w>
regul ators</w>
proj ection</w>
prece dence</w>
pic nic</w>
persi stent</w>
parame ter</w>
pal m</w>
orches tra</w>
ng ấy</w>
ng le</w>
na to</w>
monit ored</w>
mer ch
mb ly</w>
mar king</w>
manu al</w>
m ers</w>
luc ki
loc ks</w>
le an
la sh</w>
je an</w>
j an
infl amm
immen se</w>
ill ance</w>
i ses</w>
i e</w>
họ c.</w>
hierarchi cal</w>
had n't</w>
ha w
h ốc</w>
gra ve</w>
gi ới.</w>
ge ome
g ầy</w>
ful fi
form ally</w>
fol ded</w>
fi tted</w>
f s</w>
f bi</w>
expec tation</w>
enti ve</w>
enni fer</w>
encry ption</w>
embarras sed</w>
el der</w>
eff ected</w>
dr ag</w>
d ê</w>
cop ing</w>
con ception</w>
co ded</w>
ch ồn</w>
cer y</w>
car t</w>
cal if</w>
c ẩm</w>
bloc king</w>
bb ing</w>
b ịt</w>
aw a</w>
authenti c</w>
arri ving</w>
alter ed</w>
ac c</w>
Tr ưởng</w>
Swit zerland</w>
St ar</w>
So viet</w>
R ồi</w>
R I
Pro t
P ep
Massa chusetts</w>
Lin k</w>
Lin coln</w>
Li fe</w>
L CS</w>
Hi ll</w>
G az
F C</w>
F AL
Du tch</w>
D ong</w>
Communi st</w>
Colom bia</w>
Car l</w>
Acade my</w>
197 3</w>
12 -
ươ m</w>
ê t</w>
wi shing</w>
wi dth</w>
wh it
ware house</w>
vu ốt</w>
under stands</w>
u ph
u h</w>
u bi
to l</w>
thi ef</w>
surve illance</w>
stret ched</w>
stea k</w>
sponsor ed</w>
so vo</w>
sm ells</w>
scar ce</w>
scal es</w>
s ounded</w>
rob bery</w>
reve als</w>
remo ving</w>
regul ate</w>
ra is
qu ad</w>
promp t</w>
pro ving</w>
pr inters</w>
plac ing</w>
p ecu
occup ation</w>
occa sions</w>
no tari
mb ai</w>
mar vel
mani pulation</w>
ma trix</w>
li able</w>
law son</w>
la zy</w>
l ens</w>
ko zy</w>
justi fy</w>
insi ghts</w>
inqui ry</w>
illustr ated</w>
i sed</w>
i raq</w>
head lines</w>
gene tically</w>
ge sture</w>
favouri te</w>
f lip</w>
extinc t</w>
exp licitly</w>
ex hau
episo de</w>
embarras sing</w>
em bo
ear liest</w>
def ect</w>
decentr alization</w>
dec o
d read
cumul ative</w>
complic ations</w>
clu sters</w>
cha os</w>
ch ốn</w>
bro ker</w>
bri be</w>
believ ing</w>
beauti fully</w>
bas ket
b áng</w>
asse ssed</w>
apologi ze</w>
ang les</w>
alph ab
ad mini
accep ts</w>
X ô</w>
T ed</w>
Su dan</w>
Sput nik</w>
SH ALL</w>
Ome ga-3</w>
Nor thern</w>
N ature</w>
Jer ry</w>
J az
I van</w>
Hi ến</w>
FAL SE</w>
Egy p
D y
Bus iness</w>
B la
B .</w>
3 60</w>
2 3
197 7</w>
1, 8
ể .</w>
đâ u.</w>
Đ ế</w>
xu ẩn</w>
war ding</w>
wa ste
volati lity</w>
vo ca
uni ty</w>
u li
tran sc
topo logy</w>
ti gation</w>
thi ền</w>
tex tile</w>
ten se</w>
tari ff</w>
tar es</w>
tacti c</w>
t p.
t apes</w>
su ms</w>
s lot</w>
ru t</w>
reason ably</w>
re actor</w>
propo fo
propofo l</w>
po ll</w>
pen alties</w>
organi sm</w>
om er
oly mp
ng âm</w>
new s
my th</w>
mon ia</w>
mon e
missi le</w>
meg api
lượ m</w>
lucki ly</w>
lli van</w>
li fting</w>
lab s</w>
la wn</w>
ki lo
kh ắt</w>
jer sey</w>
interrup ted</w>
inter acting</w>
influ ences</w>
imag in
hec tares</w>
har ry</w>
har d-
h ức</w>
gl ori
gi êng</w>
f ea
end angered</w>
disc losure</w>
dis semination</w>
din burgh</w>
dec lines</w>
crow ds</w>
counter parts</w>
correspon ds</w>
constitu te</w>
comp ile</w>
comb ining</w>
clu e</w>
civi c</w>
ch óc</w>
c ough</w>
buy- out</w>
atten dance</w>
arti cul
ani um</w>
analy zed</w>
am bul
accor dingly</w>
V P</w>
V M</w>
Star bucks</w>
St atute</w>
Squ are</w>
Sim on</w>
S LR</w>
Ph ải</w>
Olymp ics</w>
O n
ND -CP</w>
M L
L À</w>
In ter</w>
I sa
Ethi opia</w>
D re
D i</w>
D D
D -
C ru
A poll
-rr b</w>
ề nh</w>
đ ự
ô -</w>
zar re</w>
zal ez</w>
wo w</w>
willi ngness</w>
wh ales</w>
wh ale</w>
wa sted</w>
vac u
utili ties</w>
us sels</w>
up unc
un pleasant</w>
u no
tp. hcm</w>
ther ed</w>
t ụi</w>
spiri ts</w>
spectacu lar</w>
sho ok</w>
sero tonin</w>
sent enced</w>
school ing</w>
s ùng</w>
s l
reci pe</w>
qu ặng</w>
pri mi
presi dency</w>
pol is</w>
ple dge</w>
pat ch</w>
par o
par enting</w>
pa ine
paine webber</w>
p es
overwhel med</w>
over sight</w>
one- third</w>
non e
none theless</w>
ni xon</w>
neuro science</w>
ne c</w>
na ked</w>
me d
mar row</w>
li ve
le ver</w>
l ố</w>
ke en</w>
jewel ry</w>
j un
j am</w>
inten si
in ti
in er</w>
im my</w>
im mer
i con
heal ing</w>
har dest</w>
gen s</w>
g host</w>
g ating</w>
free zing</w>
fr anc
fle sh</w>
fac ul
f ancy</w>
exten ding</w>
ex ag
en -
ele mentary</w>
edi tion</w>
dru m</w>
distingui shed</w>
disap poin
dis covering</w>
dec ep
de voted</w>
co smo
clear ed</w>
carpen ter</w>
can al</w>
c ằn</w>
c led</w>
c b</w>
bu dd
bu bbles</w>
be et
bar gain</w>
b ent</w>
avoi ded</w>
audi ences</w>
at er
as hamed</w>
an at
an a
air o</w>
af fili
accomp lish</w>
ac upunc
ab s</w>
a tric</w>
Z u
T hai</w>
T en
Su u</w>
Si erra</w>
Sar kozy</w>
S ue</w>
S ir</w>
S ir
Ros ling</w>
Pe ace</w>
P s</w>
Ob ject</w>
Net ware</w>
N an
Mu mbai</w>
Mo m</w>
Medic ine</w>
L angu
J es
IT U</w>
I raq
Gu ard</w>
G M</w>
D I
Beetho ven</w>
Ba ghdad</w>
B order</w>
A ir</w>
9 9.
6 50</w>
6 0s</w>
197 4</w>
1. 8
Ừ </w>
Ứ C</w>
ƯỚ C</w>
w en</w>
vali ds</w>
v ụng</w>
v ùi</w>
te t</w>
t we
t am
susp en
surve yed</w>
super -
sun ny</w>
sun der
sub set</w>
star ing</w>
sta kes</w>
sh ers</w>
ri ous</w>
restor ation</w>
remin der</w>
reluc tant</w>
recogni zing</w>
reb els</w>
rea dily</w>
re side</w>
re places</w>
ra ins</w>
quin tiles</w>
pre sti
por trait</w>
po ison</w>
pa tr
pa ste</w>
pa ins</w>
or -
numb ered</w>
no vels</w>
nh ích</w>
ng ạt</w>
neutr al</w>
ne at</w>
n in
mani pulate</w>
m s
m ess
m ation</w>
liber ty</w>
lea k</w>
ki lls</w>
khu ấy</w>
kh ánh</w>
is a</w>
investig ations</w>
inf lows</w>
imag ery</w>
im prison
il legally</w>
i ra</w>
i an</w>
hybri d</w>
hosti le</w>
hori zon</w>
gu t</w>
gra ins</w>
g ặt</w>
ff e
f aul
expor t-
exclu sively</w>
ex changed</w>
equ itable</w>
encour agement</w>
e ased</w>
dra ws</w>
down town</w>
defin ite</w>
de vo
d ạn</w>
cu te</w>
cooper atives</w>
confer encing</w>
con tem
col ony</w>
co la</w>
c andy</w>
bur nham</w>
bul ous</w>
bud dy</w>
bu gs</w>
bre eding</w>
br al</w>
ble w</w>
bi zarre</w>
b ịp</w>
athle tes</w>
app li
an ten
an nex</w>
ai ling</w>
accumul ated</w>
TR O
Syl via</w>
Ro yal</w>
R ach
O s</w>
O A</w>
N ai
Mi chigan</w>
M ạch</w>
Ky i</w>
In valids</w>
Green land</w>
Gi ải</w>
Eng ine
Car negie</w>
Cam bodia</w>
CD C</w>
C ám</w>
Al bert</w>
6 25</w>
3 00,000</w>
10 8</w>
-l i</w>
- 2</w>
đ ả</w>
Đ an</w>
â n.</w>
young est</w>
upgrad ing</w>
un fortunate</w>
u d</w>
ty .</w>
tu mors</w>
travel ling</w>
tr al</w>
tor onto</w>
ti ệt</w>
ta stes</w>
sor tium</w>
so e</w>
sanc tion</w>
s ỉ</w>
s ment</w>
s ank</w>
ran ks</w>
publi sher</w>
pu b</w>
pro minent</w>
percep tions</w>
p ence</w>
out lined</w>
observ ations</w>
ne th</w>
n ồi</w>
n ạ</w>
misc arri
micr o</w>
mi sunder
man kind</w>
ma id</w>
m ồm</w>
ll ment</w>
leng ths</w>
lan es</w>
la sts</w>
k age</w>
jud ged</w>
in tangible</w>
hu go</w>
hal lu
h m</w>
gro cery</w>
g ật</w>
frighten ing</w>
five- year</w>
ff y</w>
fe tus</w>
fav our
fam ine</w>
f c</w>
f a</w>
explo ded</w>
equival ence</w>
engine ered</w>
eigh t-
du l</w>
dis semin
direc ting</w>
dinosa urs</w>
di ving</w>
den om
deman ded</w>
consist ency</w>
consequ ently</w>
con sin</w>
compu tational</w>
cl ause</w>
c ô-la</w>
bro c
bound ary</w>
bl amed</w>
b ấp</w>
b ô</w>
as th
ami e</w>
ambi tion</w>
adverti sement</w>
addi tionally</w>
activi sts</w>
W ei
Vene zuela</w>
Ven ice</w>
They 're</w>
Tasmani an</w>
Sto ck</w>
Ser bia</w>
Se attle</w>
S un
RA ID</w>
R ất</w>
PP P</w>
P VC</w>
O ce
Nep al</w>
NS F</w>
N ƯỚC</w>
McC ain</w>
Mal aysia</w>
M s</w>
H ill
FO X
Dis ney</w>
Ch el
COR BA</w>
C ab
50 -
4 5
đ ũa</w>
í c</w>
year gin</w>
w rin
voca bul
vit ably</w>
vi et
val ve</w>
v ắt</w>
v on</w>
v ector</w>
ul tra
ub nd</w>
u pri
trou bled</w>
tri vial</w>
tor n</w>
to an</w>
teri or</w>
symp a
st en
spokes woman</w>
ro shima</w>
repe ti
re stored</w>
r ầm</w>
ques tioning</w>
qu ăng</w>
pro position</w>
pro li
primi tive</w>
post p
particip ated</w>
paren theses</w>
out puts</w>
ous in</w>
orig ins</w>
or dering</w>
of s</w>
nor theast</w>
nh áp</w>
ng ạo</w>
met aboli
ll in</w>
list en
li tigation</w>
le m
l ửng</w>
l ầy</w>
l is</w>
j ol
insi st</w>
ine vitably</w>
in complete</w>
imprison ment</w>
ill nesses</w>
hi l
h ran</w>
gh ten</w>
geor gia</w>
gam bling</w>
for cing</w>
ffer son</w>
feasi ble</w>
f u</w>
exi can</w>
exclu ding</w>
eleg ant</w>
dri lling</w>
disp er
direc tories</w>
decre ases</w>
construc ting</w>
compu tation</w>
co w
chu ộc</w>
cham ber</w>
centr alized</w>
celebr ation</w>
carto ons</w>
care ers</w>
break through</w>
break down</w>
basket ball</w>
bar bara</w>
ation -
ati cs</w>
arbitr age</w>
app endi
analy zing</w>
V ật</w>
U y</w>
To yota</w>
Speci al</w>
SN MP</w>
Ph ụ</w>
Nor way</w>
Ngh ệ</w>
N L</w>
Moz art</w>
Mo ore</w>
M es
Langu age</w>
K ông</w>
J ordan</w>
F ro
F ami
F OR</w>
F G</w>
E s
E G</w>
Direc tory</w>
Colum bia</w>
Bi ển</w>
Administr ation</w>
7 5%</w>
2 8
15 ,
Đo àn</w>
yo to</w>
we d
viol ate</w>
un es</w>
u t</w>
tr y
tour nament</w>
thi êu</w>
thi ng
ther ine</w>
th ốn</w>
ten sions</w>
te c</w>
suspen sion</w>
su spend</w>
squee ze</w>
so cks</w>
six ty</w>
simpli fy</w>
shi fts</w>
sequ ences</w>
se xy</w>
robo tic</w>
ri ng
ri dge</w>
ran ked</w>
r s.</w>
promp ted</w>
percei ve</w>
p neu
offen sive</w>
occa sional</w>
nu t</w>
nhi ều.</w>
ne koo
nekoo sa</w>
mo bi
mi ll</w>
men stru
mechan ics</w>
md g</w>
man s</w>
mag net</w>
low ered</w>
liqui dity</w>
ke i</w>
j ar
intui tion</w>
initi ated</w>
inher ent</w>
in expensive</w>
i solation</w>
high light</w>
hallu cin
h ời</w>
guil t</w>
glu co
g ăng</w>
g an
fro g</w>
fri ed</w>
fol ding</w>
fi a</w>
ep ers</w>
en 's</w>
el le</w>
dis cover
diplom acy</w>
din ing</w>
diction aries</w>
del u
deduc tion</w>
de x</w>
d aniel</w>
cor ners</w>
contr ac
cont amination</w>
consci ously</w>
con doms</w>
claim ing</w>
che ap
ch asing</w>
cand le</w>
c ousin</w>
bloo d
bio technology</w>
bank rupt</w>
bagg age</w>
b ời</w>
b ịch</w>
b our
an cies</w>
an cement</w>
air ports</w>
advoc ate</w>
adolesc ents</w>
Zimbab we</w>
Si beria</w>
Sau di</w>
Re publican</w>
Prot ection</w>
Prof essor</w>
No t</w>
N T
M ê-
Ju li
Fo x</w>
Fami ly</w>
D am
Chan nel</w>
Ch en</w>
C ậu</w>
B ob
Atlan ta</w>
Ar ctic</w>
9 ,000</w>
15 -
10 2</w>
00 00</w>
- chia</w>
your selves</w>
year- earlier</w>
x ịt</w>
vocabul ary</w>
vari eties</w>
v ời.</w>
v ũng</w>
u m-
u k</w>
tu cky</w>
trigg ered</w>
tr unk</w>
tho ạt</w>
th ỉu</w>
t ator</w>
sur faces</w>
stro ng
spi ro
sour i</w>
smo kers</w>
si mulation</w>
sensi ble</w>
scholar ship</w>
regar ds</w>
re payment</w>
r ốn</w>
pu -chia</w>
propor tional</w>
programm ed</w>
po le</w>
ple ss</w>
pic ks</w>
pen ny</w>
paraly zed</w>
ou ses</w>
obe se</w>
o hio</w>
o c</w>
ngo ặt</w>
new bor
n ó
moderni zation</w>
micro phone</w>
mi r</w>
mal nutrition</w>
ma sters</w>
m ously</w>
k ỵ</w>
inten tions</w>
inst all
il es</w>
i gn</w>
human i
heter o
he ated</w>
fre e-
fla vor</w>
figu ring</w>
e ter</w>
distur bing</w>
di ac</w>
desper ately</w>
depen dency</w>
coun tless</w>
connecti vity</w>
confisc ated</w>
collecti ble</w>
co tt
class rooms</w>
ch ổi</w>
cere bral</w>
cen sor
cel ona</w>
c t
bir ths</w>
bi kes</w>
bau m</w>
back ward</w>
b ưởi</w>
b én</w>
b at</w>
appe als</w>
an esthe
ambul ance</w>
alge bra</w>
age ous</w>
acceler ate</w>
ac o</w>
V I</w>
U s</w>
T wo</w>
Su b
S pri
Pe op
O N</w>
N FS</w>
Ma ya</w>
Kh u</w>
H À
Franc is</w>
D s</w>
Chur ch</w>
C raig</w>
Bal i</w>
BI OS</w>
B ase</w>
A I
80 2.
3. 7</w>
3, 5</w>
20 .
2. 8</w>
17 ,
10. 000.000</w>
1, 2</w>
0. 1</w>
đi ếu</w>
zz y</w>
x ao</w>
war m
un ted</w>
tun n
tui tion</w>
threat en</w>
termin ate</w>
tal ented</w>
ta chi</w>
t át</w>
t ancy</w>
swe pt</w>
stra ins</w>
ster dam</w>
spi ll</w>
slow ed</w>
ski rt</w>
si e
sear s</w>
scop es</w>
scan ner</w>
sc apes</w>
sa dness</w>
ro ses</w>
ri sh
re stra
re minds</w>
r ộ</w>
publi city</w>
propo sing</w>
propag anda</w>
peri al</w>
per fu
pe ters</w>
pancre atic</w>
oni an</w>
ob taining</w>
ng ần</w>
neur al</w>
n bc</w>
mush rooms</w>
min imal</w>
mari time</w>
lin king</w>
justi fied</w>
j ar</w>
ir relevant</w>
inter network</w>
ineffici ent</w>
ine a</w>
identi fies</w>
i dio
hu t</w>
hi -cô</w>
her e
hand -
h ăm</w>
gu m</w>
gl aci
geo graphic</w>
g eria</w>
floo ding</w>
fish er
expedi tion</w>
exag ger
dr ank</w>
discre tion</w>
di ff
den y</w>
dead line</w>
d ney</w>
corti sol</w>
cor relation</w>
consoli dated</w>
consi ders</w>
competi tiveness</w>
comp iled</w>
clean er</w>
chol as</w>
c ô
c ali
bu tter</w>
boy friend</w>
bel ly</w>
ban on</w>
b úp</w>
b bed</w>
assign ments</w>
assemb led</w>
an .</w>
advi ser</w>
adjust ments</w>
adap ted</w>
activi st</w>
absor b</w>
a f</w>
Wal ker</w>
V PN</w>
Ta ylor</w>
TI A</w>
Pep si</w>
M AN
L iệu</w>
IO P</w>
H and
E dinburgh</w>
Chi ef</w>
Chel sea</w>
Bi o
Ad v
A re</w>
5. 3</w>
20x 1</w>
2 7
1 50,000</w>
. D.</w>
Đ Ị
y ếm</w>
y le</w>
x ổ</w>
won *</w>
weigh s</w>
wea ker</w>
virtu e</w>
v ãng</w>
v áng</w>
v am
u -
tw ins</w>
trou bles</w>
tow n
tou ching</w>
ti zation</w>
thi ng.</w>
there .</w>
th ể.</w>
t ỉa</w>
sp li
sover ei
sole ly</w>
sa dly</w>
s ound
ro ber
ren dered</w>
re lies</w>
promul gated</w>
priv ately</w>
policy makers</w>
poli te</w>
plan ting</w>
philosoph er</w>
perpe tual</w>
pe tty</w>
pan els</w>
p sy</w>
oo h</w>
on ship</w>
on ate</w>
off s</w>
obsole te</w>
noti ces</w>
ngh ouse</w>
negl ect</w>
má nh</w>
mul ti</w>
min ded</w>
middle ware</w>
me -
md g
mcca w</w>
m eri
lou dly</w>
ligh ter</w>
li u</w>
lam bert</w>
lac king</w>
la -
l ộng</w>
l ẫy</w>
l ẩn</w>
j am
int act</w>
ingredi ent</w>
indic ations</w>
in vo
immuni zation</w>
hon our</w>
ho u</w>
go v</w>
gi ễu</w>
gard ening</w>
g ì.</w>
fi er
fa bulous</w>
enh ancing</w>
ende av
enab ling</w>
empower ment</w>
electr om
ed .</w>
du ty-
dolph ins</w>
dis solved</w>
di ence</w>
di aper</w>
defen sive</w>
de struc
de serves</w>
dang ers</w>
dam aging</w>
custom i
cru el</w>
credi bility</w>
consult ations</w>
con n</w>
commun ity-
close st</w>
ch in</w>
cch c</w>
car es</w>
capit al-
c c</w>
bu ông</w>
b ench</w>
authori zation</w>
attrac ting</w>
attemp ting</w>
at chi</w>
ari ans</w>
an mar</w>
alleg ations</w>
accoun tant</w>
a wake</w>
Te hran</w>
St ati
S ony</w>
O D
Me e
M au
La ke</w>
Ju lian</w>
Gr ade</w>
De posi
D ol
Coun ty</w>
Co ast</w>
CAP TCH
Bhu tan</w>
A lan</w>
4. 2</w>
2, 500</w>
196 9</w>
1 7.
- pu-chia</w>
- free</w>
z able</w>
x ào</w>
wor ms</w>
w esti
vi an</w>
v ung</w>
under take</w>
ubi quit
u el</w>
tri cs</w>
tn mt</w>
tili ty</w>
ti mber</w>
thi c</w>
th uyên</w>
terri fied</w>
teach es</w>
tari ffs</w>
t ảo</w>
t ưới</w>
t als</w>
stabili ze</w>
si de-
sha ping</w>
sel fish</w>
see mingly</w>
san ta</w>
s ẹo</w>
s sin
s as</w>
ri gi
resili ence</w>
rene wed</w>
reduc tions</w>
re strict</w>
re ject</w>
r án</w>
prosecu tion</w>
pron ounced</w>
prev ents</w>
pil es</w>
ph oned</w>
parti ally</w>
oun dly</w>
on au
observ ance</w>
ngu ỵ</w>
moun ted</w>
mi cally</w>
mas sage</w>
magne ts</w>
magi cal</w>
m ỉa</w>
m mer</w>
lic s</w>
le op
l ượn</w>
ke epers</w>
k ét</w>
inj ecting</w>
inher itance</w>
in timate</w>
in sufficient</w>
hal f
gover n</w>
gl as</w>
far ther</w>
f eared</w>
explo iting</w>
end all</w>
encry pted</w>
en cap
encap sul
eigh ty</w>
ec raft</w>
domin ate</w>
deliber ately</w>
deci sive</w>
cos me
constitu tional</w>
comp ounds</w>
com po
coali tion</w>
ca ffe
c tion</w>
c tica</w>
brow sers</w>
broc coli</w>
boo t</w>
bar rel</w>
bar k</w>
b ịa</w>
at traction</w>
at i</w>
ar on</w>
ap point</w>
announ cing</w>
anno yed</w>
am ins</w>
alloc ating</w>
ali en</w>
ab normal</w>
a ster
Wor ld
War ren</w>
W i</w>
U r
T ai
Stan ley</w>
Sou theast</w>
S pe
S c
Reser ve</w>
RA M</w>
R en
O scar</w>
ND S</w>
N AT
Mo scow</w>
M e</w>
Lo ve</w>
L aw
K ì</w>
Ju lia</w>
H al
Ge ographic</w>
Compu ting</w>
CI A</w>
B ài</w>
B et
Apoll o</w>
AS E
A C</w>
20 ,
0. 5</w>
độ ng.</w>
zi lian</w>
y am
westi nghouse</w>
weigh ed</w>
week ends</w>
war n</w>
vit amins</w>
vide o
v ent</w>
ur inary</w>
uli ani</w>
ubiquit ous</w>
transfer ring</w>
trans forming</w>
to oth
tho a</w>
them es</w>
th ompson</w>
t é</w>
subsidi aries</w>
su scep
su ed</w>
strugg led</w>
sh ining</w>
se aled</w>
scan ning</w>
sa il
s now
roo ted</w>
ri vals</w>
rela xed</w>
re fund</w>
r ậm</w>
quo tas</w>
pot ent</w>
pois oning</w>
po land</w>
pen nsylvania</w>
pe l</w>
parado x</w>
p lo
overwhel ming</w>
oun dings</w>
on e.</w>
oblig atory</w>
ob struc
nor m</w>
non- market</w>
ni ck</w>
nh ổ</w>
neighbor hoods</w>
n ate</w>
mush room</w>
modi fy</w>
micro wave</w>
mi ên</w>
li ng
le pto
ki ô</w>
juni or</w>
inspi re</w>
inflamm ation</w>
inde xes</w>
in su
hu e</w>
home town</w>
ho sted</w>
he mo
hau l</w>
ha i
gluco se</w>
gli mp
gall on</w>
fi gh
exhau sted</w>
exce eds</w>
en sures</w>
emo tionally</w>
electrom ag
di ều</w>
daf i</w>
cr am
cr ack
contr acting</w>
con spir
con dom</w>
commissi oned</w>
collabor ate</w>
co ck</w>
clu es</w>
char ging</w>
car olina</w>
c âm</w>
broo ks</w>
bro kers</w>
bo o</w>
blo gger</w>
bel l
b ục</w>
b bon</w>
applic ants</w>
ani sm</w>
al lies</w>
abi de</w>
a sive</w>
a sh</w>
X. 500</w>
Th í</w>
TRO NG</w>
T uni
Som alia</w>
S how</w>
Rus sell</w>
Re gi
OE CD</w>
Mar shall</w>
Lu ther</w>
Lar ry</w>
L Ý</w>
K yoto</w>
Jon athan</w>
In tegr
H Đ
H S
H .
Gi ờ</w>
G ER
Fo od</w>
Do w</w>
Di ana</w>
D oc
D AR
C ảnh</w>
Blu e
B J</w>
An thony</w>
5. 1</w>
197 2</w>
18 ,
ú y</w>
ú c.</w>
z i</w>
witne ssed</w>
wi pe</w>
wel l
un lea
un collectible</w>
through put</w>
th ét</w>
testi mony</w>
t ầu</w>
t ony</w>
suspi cious</w>
succes ses</w>
soverei gn
sovereign ty</w>
sh it</w>
s welling</w>
s burg</w>
ry sler</w>
ri bat
ribat i</w>
reimbur sement</w>
recipi ents</w>
po ta
po lls</w>
plu nged</w>
pe ers</w>
paragra ph</w>
or age</w>
on ds</w>
ol len</w>
ol d-
oblig ed</w>
navi gate</w>
n ần</w>
mp er</w>
mp anz
mon u
mid st</w>
micro bes</w>
ma dele
m ửa</w>
lig ence</w>
li êng</w>
le in</w>
large -scale</w>
la kes</w>
l ình</w>
ki cked</w>
khu ếch</w>
j on
iệ c</w>
isra el</w>
inter rupt</w>
inser ted</w>
indepen dently</w>
in son</w>
id en</w>
ic y</w>
hur ricane</w>
hill ary</w>
h our
h d
gover ning</w>
geo graphy</w>
form ats</w>
fil m
fe min
favour able</w>
f ec
et t</w>
ep a</w>
emp iri
eli te</w>
easi est</w>
eag le</w>
ea h.</w>
dow ns</w>
domin ance</w>
do ses</w>
di lem
der ick</w>
deni al</w>
den ed</w>
credi ble</w>
cr an
correc tion</w>
constra ined</w>
con science</w>
com ings</w>
col ours</w>
cler k</w>
circu s</w>
chri sti
children 's</w>
child -
che at</w>
ch ộp</w>
ch ảo</w>
ch el</w>
capit alism</w>
ca- na-
bur nt</w>
bom b
bi om
bi cycles</w>
be ds</w>
batt le
b re</w>
autom ata</w>
anticip ation</w>
anthro po
ama zed</w>
ach ing</w>
abdom en</w>
a hu
Ti ếng</w>
T em
Sy n
Swi ss</w>
Stand ards</w>
R yan</w>
Qu an</w>
Oce an</w>
Nai robi</w>
Mad rid</w>
Lo an</w>
L. A.</w>
L im
Ki ng
Ka tr
Jon as</w>
Gra ham</w>
Gad dafi</w>
For bes</w>
F oo
E van</w>
E uro</w>
Deposi t</w>
Democr atic</w>
D r</w>
Con stitution</w>
Cha mp
Bu ff
Blu e</w>
Bar celona</w>
B ul
ASE AN</w>
A sse
9 0s</w>
8. 6</w>
5. 000.000</w>
4. 1</w>
4, 5</w>
197 1</w>
1, 4</w>
/ AIDS</w>
- x
ự c.</w>
Ề </w>
Đ ạo</w>
À I</w>
x ốp</w>
x y
wi shed</w>
wi d
what so
vari ations</w>
tran et</w>
t b</w>
specific ations</w>
si ết</w>
set tings</w>
ser vo
se af
sa atchi</w>
ri tuals</w>
ri ages</w>
revolu tionary</w>
rememb ering</w>
re me
ral ph</w>
raci al</w>
r ặng</w>
qual itative</w>
qu eries</w>
pt k
psycho logist</w>
pro lo
predic tion</w>
po ly</w>
photograph ed</w>
ph el
offer ings</w>
occurr ences</w>
ng uyền</w>
n d-
my ce
mur der
mod eling</w>
miscarri age</w>
mean time</w>
m iệt</w>
lor d</w>
lac ed</w>
l anh</w>
inter fer
illu min
i si
hor ror</w>
harb or</w>
h é</w>
gener osity</w>
g le
form erly</w>
festi vals</w>
f ter</w>
exp on
em .</w>
elev ator</w>
eco logical</w>
du ỗi</w>
du m</w>
divi ding</w>
distribu ting</w>
dish on
destro ying</w>
desti ny</w>
dec k</w>
d ơi</w>
d n</w>
cur acy</w>
con vey</w>
colon ies</w>
co ws</w>
ci des</w>
chi mpanz
chec k
che ques</w>
ch ọi</w>
ch ê</w>
casu al</w>
car go</w>
c ày</w>
c age</w>
business man</w>
bu t
ban ana</w>
back yard</w>
authenti city</w>
au tum
athle te</w>
as surance</w>
ari ses</w>
ap ec</w>
andre w</w>
anc ou
agre es</w>
ad mission</w>
acti vate</w>
acqui ring</w>
X. 25</w>
Tor onto</w>
T ế</w>
T âm</w>
St ation</w>
Sou thern</w>
Sh in</w>
Pi er
Nguy en</w>
Mc Donald</w>
I Q</w>
H as
Gi ới</w>
GER D</w>
Fr ank
Ever y
E d</w>
Coperni cus</w>
Chri stopher</w>
Can adian</w>
B each</w>
A A</w>
6 4
4 8
19 .
đ ãng</w>
Đ ỏ</w>
ô- tê-in</w>
wand ering</w>
v. v.</w>
ur ing</w>
unemploy ed</w>
unbeliev able</w>
ty pho
ts burgh</w>
tri cky</w>
transpor ted</w>
th án</w>
sw ollen</w>
success or</w>
sub tree</w>
strate gi
sto le</w>
ste ep</w>
st al</w>
so da</w>
sle ep
shou ted</w>
sho cking</w>
sensi tivity</w>
scr am
sci c</w>
sc ans</w>
s ational</w>
routi ne
resp ir
replic ation</w>
ren e</w>
remo val</w>
re fined</w>
r ạng</w>
quali fy</w>
public -
propor tion
procu rement</w>
pr ô-tê-in</w>
pi pes</w>
ph u
p 135</w>
ow ning</w>
ori c</w>
ob scu
o gil
o ck</w>
ni k
nh ốt</w>
ne o
nar row
n ôi</w>
mon keys</w>
ming ham</w>
min d-
mel lon</w>
megapi xel</w>
mal a</w>
lif esp
l ment</w>
j u</w>
inter state</w>
in ability</w>
im migrants</w>
hon ored</w>
hon ey
ham mer</w>
ha ble</w>
great -
graph s</w>
fur t</w>
frac ture</w>
for -
ff e</w>
fati gue</w>
et c.</w>
es sing</w>
er .</w>
epide mics</w>
enthusi astic</w>
el li</w>
e- mail</w>
e ats</w>
do od
den unci
demonstr ates</w>
delic ate</w>
de troit</w>
de emed</w>
d ấy</w>
d ưng</w>
d man</w>
conven tions</w>
contrac ep
congratu lations</w>
confer ences</w>
cock tail</w>
chi ll</w>
chi ck
che ating</w>
ch à</w>
ch ang</w>
cen tered</w>
c ưa</w>
bu ys</w>
broad ca
br is</w>
bloo dy</w>
bi ased</w>
au ti
asth ma</w>
asse ssing</w>
as tically</w>
anticip ate</w>
ancou ver</w>
allo ween</w>
ai de</w>
ag oni
admi re</w>
acupunc ture</w>
acceler ating</w>
absor bed</w>
W oo
Tr uyền</w>
Ther e's</w>
TT-B TC</w>
T ạng</w>
S I</w>
S A</w>
R am
R NA</w>
R 2</w>
PO P</w>
Ni nh</w>
N et</w>
Mu barak</w>
Moz illa</w>
Mi ller</w>
M ình</w>
M CI</w>
Li ver
La kota</w>
Je wish</w>
J .</w>
Ho sp
HIV /AIDS</w>
H ome</w>
H alloween</w>
Feder al</w>
Electr onic</w>
Econ omic</w>
DE C</w>
D al
Cu ba</w>
CP I</w>
C airo</w>
Budd hi
Antar ctica</w>
Al fred</w>
A R</w>
40 .000</w>
200 3
196 7</w>
196 4</w>
00 s</w>
- in-
' I</w>
ĐỊ NH</w>
à ng.</w>
y ong</w>
work place</w>
wor m</w>
who ever</w>
wheel chair</w>
whatso ever</w>
ver bal</w>
vacc ination</w>
utili zation</w>
up ward</w>
un predictable</w>
twi st</w>
tr on</w>
to xi
to wel</w>
tion -
ti l
th òi</w>
th ed</w>
t ac
sti p
sti cky</w>
st ag
soli ci
soc cer</w>
sen i
sei zed</w>
se in</w>
scre aming</w>
rub bi
roo sevelt</w>
respon ds</w>
replic ate</w>
remedi ation</w>
re servo
r ental</w>
ques ting</w>
pu rely</w>
pu r</w>
priv ati
pre sum
pre served</w>
pou l
posi tively</w>
pen ici
pa kistan</w>
pa d</w>
p ond</w>
p act</w>
ow ed</w>
over due</w>
op tim
nướ u</w>
nà i</w>
non sense</w>
ng à
negoti ated</w>
ne a</w>
n ực</w>
n ặc</w>
multi ply</w>
multi p
mu s
mortg aged</w>
mi lls</w>
lor ry</w>
long evi
la ying</w>
l ở</w>
l acks</w>
ja w</w>
invi ting</w>
investig ators</w>
inter n
illu stration</w>
i on</w>
hypo the
horizon tal</w>
hn ar</w>
hen ry</w>
he els</w>
habit at</w>
ha zar
h ns</w>
gon na</w>
gi uliani</w>
gh test</w>
georgi a-pacific</w>
g ào</w>
g el
fru stration</w>
for est
ethi cs</w>
es ar</w>
emplo ying</w>
el o</w>
e. g.</w>
e me</w>
don ated</w>
di mini
dem o</w>
defe ated</w>
cool ing</w>
conta gious</w>
construc ts</w>
comb ines</w>
clar k</w>
chr onous</w>
chel le</w>
ch úng.</w>
celebri ty</w>
car ed</w>
can -
ca kes</w>
c ật</w>
c ào</w>
bul let</w>
boo ts</w>
barre ls</w>
bal ancing</w>
bac king</w>
ba hnar</w>
ani ty</w>
ac tress</w>
X i
Pe ter
Ni ke</w>
Neander thal</w>
Mu hammad</w>
Kh an</w>
K elly</w>
In dex</w>
IPv 6</w>
G G</w>
F OR
Democr ats</w>
D O
C ầu</w>
Asse mbly</w>
6. 2</w>
4 00,000</w>
3 75</w>
3 4
196 2</w>
10, 000,000</w>
10 /
1, 000,000</w>
0. 2</w>
ơ c</w>
đ t</w>
y er
x ói</w>
with drawn</w>
ver bs</w>
u re
trac es</w>
total ed</w>
ten u
teen age</w>
symp tom</w>
surr oundings</w>
su al</w>
str ous</w>
stipul ates</w>
ss ly</w>
spiro sis</w>
sp y</w>
sign aling</w>
sho p
scat tered</w>
s ẩy</w>
s ành</w>
s ài</w>
routine ly</w>
ri o
remark ably</w>
refu sal</w>
reconci liation</w>
reason ing</w>
r ùa</w>
question nai
pur ple</w>
proli fer
prescri be</w>
pre judi
popul arity</w>
phr ases</w>
ph ích</w>
per or</w>
penici llin</w>
pecu liar</w>
par ticle</w>
p- pin</w>
p ale</w>
ogil vy</w>
occurr ence</w>
o od</w>
o ids</w>
nu ối</w>
non deterministic</w>
newbor ns</w>
n ấp</w>
n áu</w>
migh ty
me ga
me e</w>
magi cian</w>
madele ine</w>
m ộ
low- cost</w>
lo ét</w>
ll ers</w>
liter ary</w>
lin coln</w>
li vi
less ness</w>
le mon</w>
law rence</w>
lan thro
lad der</w>
l ự</w>
l enders</w>
joint- venture</w>
integr ating</w>
ho óc</w>
hazar dous</w>
han dic
foo lish</w>
fo ol
f led</w>
extra ordinarily</w>
exce eding</w>
er up
en dom
empower ed</w>
disappoin tment</w>
democr acies</w>
danc ers</w>
cro ws</w>
cri ses</w>
cosme tics</w>
coo kies</w>
contra dic
con front</w>
con fined</w>
compla ining</w>
compati bility</w>
com ic</w>
co sting</w>
clear ance</w>
civili an</w>
che ated</w>
caregi vers</w>
c t</w>
c els</w>
bu ll</w>
breast feeding</w>
bo iling</w>
bio logists</w>
bel la</w>
bat teries</w>
author itarian</w>
au g
at -
ar v</w>
aqu atic</w>
ap agos</w>
anc o</w>
analy ses</w>
alleg ed</w>
ali zes</w>
al zheimer</w>
al titude</w>
adap tation</w>
acade my</w>
a a</w>
T ea
T B</w>
Stati stics</w>
St ate-
Sir i</w>
P ra
O f</w>
Nor man</w>
N P</w>
M áy</w>
M U
Let 's</w>
Le one</w>
K ansas</w>
Hosp ital</w>
H ạ</w>
Gal apagos</w>
E C</w>
E C
CAPTCH A</w>
C as
Boo lean</w>
Ai mee</w>
A B
8 000</w>
5. 6</w>
4. 4</w>
4 G</w>
30 -year</w>
2. 7</w>
2 32</w>
1. 5
00 6</w>
ẽ m</w>
ươ c</w>
â ng.</w>
xu a</w>
vol tage</w>
viol in</w>
vietnam net</w>
vacu um</w>
v l
tur bul
tu ned</w>
tr ướng</w>
tr im
the ft</w>
ta ils</w>
ta h</w>
t ột</w>
t ý</w>
t ô
system atically</w>
suscep tible</w>
succe eds</w>
subj ective</w>
su ck</w>
sti cally</w>
spac ecraft</w>
sor ting</w>
so ared</w>
short comings</w>
sel ecting</w>
sc ent</w>
roman ce</w>
righ t.</w>
regi sters</w>
refriger ator</w>
refer ring</w>
reci pro
re questing</w>
re current</w>
random ly</w>
ra y
pursu ing</w>
promo tes</w>
prof oundly</w>
pr one</w>
poul try</w>
po se
phi lanthro
ph ông</w>
pen is</w>
para chu
p ouring</w>
over weight</w>
om ics</w>
ob serving</w>
note book</w>
non- governmental</w>
near -
nd- cp</w>
n ạt</w>
multi lateral</w>
motor ola</w>
mix ing</w>
min um</w>
mighty mice</w>
mb o</w>
man eu
man del
man 's</w>
m ầu</w>
lo ver</w>
li ễu</w>
k ẽm</w>
k les</w>
k el
k able</w>
jo seph</w>
jo ins</w>
it ary</w>
institu tes</w>
in voices</w>
in tra
in consistent</w>
impe ach
imp ati
im al
il le</w>
i reland</w>
ho bby</w>
har moni
hamp shire</w>
gradu al</w>
gr ound
g es
fo stering</w>
flo at</w>
excep tions</w>
ent .</w>
end less</w>
el f</w>
dread ful</w>
dispo sal</w>
diam onds</w>
di rt</w>
di gest</w>
dec ei
d ger</w>
cylin der</w>
cu shi
cri tically</w>
countr y's</w>
counsel or</w>
continu ally</w>
confron ted</w>
com pressed</w>
characteri zed</w>
ch ùi</w>
c úp</w>
c key</w>
bam boo</w>
bail out</w>
b are</w>
automo tive</w>
attack er</w>
att acking</w>
arm ing</w>
arbitr ation</w>
ar t
app rais
ap or
alu minum</w>
al in</w>
al .</w>
aff ection</w>
We 're</w>
W H
V ol
U sha
Th ị</w>
Str ing</w>
SO NET</w>
S ad
Rach el</w>
R oo
R ick</w>
P residents</w>
P at
Net BIOS</w>
Mon etary</w>
Ko sovo</w>
K ir
J ennifer</w>
J eff</w>
I ri
I Z
F BI</w>
D CE</w>
Con nec
Bo snia</w>
Apple Talk</w>
5, 000,000</w>
4. 3</w>
2/ 3</w>
ệ p</w>
đ óm</w>
Á C</w>
y tes</w>
whi sky</w>
war fare</w>
wal let</w>
w ear
vo y
vest ed</w>
v óc</w>
un safe</w>
tur b
tre ats</w>
transi stors</w>
trac ked</w>
th ụt</w>
temp er</w>
super computer</w>
sub net</w>
sub mission</w>
sti r
ster eo</w>
st ation
spr int</w>
spec im
sp elling</w>
so ta</w>
smar ter</w>
slu ms</w>
sig ma</w>
sha do
ser ge
sei zu
se tup</w>
s ầm</w>
rubbi sh</w>
ru mors</w>
rhyth m</w>
redund ant</w>
recomm ends</w>
real m</w>
re au</w>
radio active</w>
r as
puni shed</w>
pre serving</w>
pre fix</w>
pon t</w>
pl au
ph y
pack ard</w>
oun ces</w>
op enly</w>
on able</w>
off spring</w>
nh ậm</w>
nh út</w>
n elson</w>
myce lium</w>
mor i
mar s</w>
man date</w>
ma -
m are</w>
lot te</w>
lo b
lac ked</w>
la under
la sted</w>
l ức</w>
ki stan
intran ets</w>
in stability</w>
he w
hand ful</w>
h -
gon zalez</w>
go tta</w>
gen cies</w>
full- time</w>
fi tting</w>
fab ri
f ear
expi red</w>
exam inations</w>
ener y</w>
el ders</w>
edi tors</w>
du plex</w>
divor ced</w>
dispu ted</w>
discover ies</w>
dis counts</w>
di êm</w>
deplo y</w>
deli vers</w>
de pres
d f</w>
cur y</w>
conspir acy</w>
condem ned</w>
con junction</w>
co ke</w>
bul b</w>
broad ly</w>
br ad
bom bing</w>
bo iled</w>
b ai
atta chment</w>
at tr
ar rog
appl ause</w>
anti ne</w>
alphab et</w>
aller gic</w>
al lu
admini stered</w>
a to</w>
Y acc</w>
V ịnh</w>
U l
U B
To àn</w>
TED Talks</w>
TED Talk</w>
T ình</w>
T huỷ</w>
T ax
S chu
R el
P D
Na than</w>
Mini sters</w>
Mat the
Mar garet</w>
MI ME</w>
M as
Integr ated</w>
HIV -
Gal axy</w>
D M</w>
Ca tholic</w>
Boo k</w>
B ố</w>
B or
8. 4</w>
8 00
7. 1</w>
4 00
2 50,000</w>
196 8</w>
12. 5</w>
12 %</w>
10 5</w>
ừ m</w>
ớ c</w>
y east</w>
y ar
x ẻ</w>
x âu</w>
w right</w>
volati le</w>
ve to</w>
v ét</w>
v at</w>
transi tional</w>
to day's</w>
time .</w>
thu ỳ</w>
tho i</w>
therap ies</w>
tax payers</w>
t arily</w>
syn tactic</w>
suspi cion</w>
stro kes</w>
sti cal</w>
ste phen</w>
spee ches</w>
sle e
sin c
simi l
sign atures</w>
si t
si ans</w>
shou ting</w>
short ages</w>
seas onal</w>
schizophren ia</w>
scal p</w>
s ộ</w>
s ali
ru gu
rugu ay</w>
ro man</w>
ri co</w>
respir atory</w>
repor tedly</w>
recei pts</w>
rec la
quanti tative</w>
qu ất</w>
pul ses</w>
proble matic</w>
privileg ed</w>
pra yer</w>
posse ss</w>
po x</w>
po sting</w>
ph an</w>
p r</w>
p om
op ar
o s
ni sh</w>
ni ck
nh e
ng ửa</w>
ng ượng</w>
mosqui to</w>
mo lisa</w>
mandel a</w>
m ụ</w>
longevi ty</w>
ll o</w>
lepto spirosis</w>
kin der
k m2</w>
jud gments</w>
ju ana</w>
it -
ir regular</w>
infer tility</w>
indu l
incorpor ated</w>
inci dents</w>
in corporate</w>
in berg</w>
imp ly</w>
ha us
ha t
h ốt</w>
h int</w>
h ers</w>
grati tude</w>
gradu ation</w>
govern ed</w>
goo dness</w>
go s</w>
gi ờ
gen ous</w>
g ad
free ze</w>
follow -up</w>
fair ness</w>
et ta</w>
est e
es oph
emer gence</w>
dr ought</w>
dr one</w>
don ations</w>
din kins</w>
demonstr ators</w>
def ending</w>
dee pest</w>
d ặt</w>
counter -
comp rise</w>
commu ne
citiz en
chu ồng</w>
cho p</w>
ch er
cab ling</w>
bru ce</w>
bal timore</w>
az ep
autum n</w>
assa ssin
as er</w>
[...]
