e </w>
s </w>
t h
d </w>
n </w>
e r
o </w>
th e</w>
i n
t </w>
の </w>
a n
, </w>
. </w>
。 </w>
e d</w>
a </w>
o r
y </w>
o f
、 </w>
of </w>
h i
に </w>
a r
る </w>
a t
a l
e n
は </w>
a s</w>
i n</w>
た </w>
o n
と </w>
r e
er </w>
t o</w>
) </w>
( </w>
an d</w>
i </w>
o n</w>
を </w>
s t
a m
て </w>
し </w>
い </w>
g </w>
i t
r o
が </w>
で </w>
れ </w>
u r
w as</w>
in g</w>
） </w>
（ </w>
年 </w>
i s</w>
u n
u </w>
or </w>
a k
c h
h e</w>
a s
e s</w>
al </w>
e c
i c
a n</w>
i on</w>
o m
e m
e n</w>
s h
i l
な </w>
っ </w>
l e</w>
u s
あ </w>
e s
a t</w>
o s
p er
o k
a c
th </w>
s u
o l
a g
o w
e l
a d
' </w>
a i
m </w>
a p
も </w>
り </w>
ら </w>
さ </w>
" </w>
T he</w>
al l
o u
i s
i m
i g
i v
c e</w>
en t</w>
hi </w>
i r
う </w>
0 </w>
A </w>
er e</w>
e t
at ion</w>
i d
ch </w>
・ </w>
2 </w>
1 </w>
n o</w>
y o
w i
en t
b y</w>
a b
am e</w>
す る</w>
hi s</w>
S h
th at</w>
1 9
月 </w>
f or</w>
3 </w>
w h
」 </w>
「 </w>
e v
l y</w>
t ed</w>
u m
5 </w>
c l
d i
4 </w>
c on
o v
per i
日 </w>
e ar
wi th</w>
i on
ro m</w>
く </w>
j i</w>
b u
- </w>
p le</w>
代 </w>
: </w>
k </w>
i t</w>
I n</w>
f rom</w>
p l
め </w>
H e</w>
8 </w>
f or
ec t
o d</w>
u g
t er</w>
r i
7 </w>
it y</w>
本 </w>
th er</w>
r in
er s</w>
6 </w>
u d
re s
a d</w>
' s</w>
at ed</w>
o un
a w
u k
ar e</w>
o g
a in
J ap
u l
p ro
o c
国 </w>
s o</w>
か ら</w>
1 8
子 </w>
w ere</w>
a v
y o</w>
a y</w>
ur e</w>
o d
b e
i k
e x
o p
こ と</w>
c om
w hi
o t
t r
後 </w>
i st
u c
a i</w>
け </w>
え </w>
I t</w>
家 </w>
9 </w>
a in</w>
u t
a y
n o
e st
re f
K yo
そ の</w>
b ec
き </w>
人 </w>
em ple</w>
es e</w>
ar y</w>
at e</w>
ど </w>
i sh
f am
I </w>
il y</w>
都 </w>
e p
ら れ</w>
Kyo to</w>
hi m
か </w>
whi ch</w>
o ur
日 本</w>
よ </w>
o -
行 </w>
寺 </w>
市 </w>
th e
b e</w>
in ce</w>
T h
on e</w>
山 </w>
e i
a st
や </w>
wh o</w>
s t</w>
al so</w>
わ </w>
E m
ar </w>
S t
a f
a -
peri od</w>
な ど</w>
o b
京 都</w>
C h
e f
fam ily</w>
ん </w>
P ro
c all
s e
all y</w>
p os
ag e</w>
i es</w>
per or</w>
こ の</w>
r an
c hi
O </w>
名 </w>
l </w>
s u</w>
i f
氏 </w>
q u
d er</w>
ow n</w>
th is</w>
e d
T emple</w>
er n
時 代</w>
田 </w>
つ </w>
j o</w>
m an
w or
i z
n ame</w>
p o
ic </w>
t s</w>
p </w>
en d
in g
ig h
C ity</w>
皇 </w>
call ed</w>
p r
治 </w>
道 </w>
Em peror</w>
も の</w>
os hi
d o</w>
ref ect
m ent</w>
I m
es t</w>
at ion
川 </w>
in e</w>
re c
K A
お </w>
0 0
no t</w>
Pro v
p res
』 </w>
『 </w>
位 </w>
peri al</w>
Jap an
ic e</w>
as s
g h
b er</w>
s hi
P refect
h e
i y
y ear
天 皇</w>
bec ame</w>
s on</w>
at t
Jap an</w>
p or
cl an</w>
h ad</w>
ま た</w>
us e</w>
o ther</w>
Japan ese</w>
S hi
者 </w>
st r
ad e</w>
or i</w>
p ar
ou t</w>
an g
Prov ince</w>
us ed</w>
H is</w>
i al</w>
av e</w>
的 </w>
た め</w>
d s</w>
学 </w>
er ed</w>
R A</w>
am a</w>
Prefect ure</w>
ol l
t im
e g
ま </w>
中 </w>
m e
上 </w>
下 </w>
町 </w>
ac t
部 </w>
間 </w>
社 </w>
方 </w>
all </w>
ok u</w>
院 </w>
of f
ug h
i -
bu t</w>
er v
ev er</w>
一 </w>
長 </w>
em </w>
駅 </w>
iv e</w>
l d</w>
r it
府 </w>
o ol
1 5
K an
ov ern
or y</w>
原 </w>
b l
b o
Im perial</w>
内 </w>
ば </w>
ou s</w>
e t</w>
e a
d ing</w>
af ter</w>
aw a</w>
s p
at er</w>
在 </w>
H I
よ う</w>
f ir
こ れ</w>
om e</w>
it ion</w>
e w
立 </w>
地 </w>
化 </w>
和 </w>
せ </w>
ch ool
T ak
ow ever</w>
物 </w>
時 </w>
in to</w>
1 6
だ </w>
t er
ar d</w>
on g</w>
み </w>
s id
os hi</w>
rin e</w>
ac e</w>
ar a</w>
for m
e -
事 </w>
す </w>
il l
d es
ak a</w>
St ation</w>
re t
s ec
： </w>
ur ing</w>
k n
1 0</w>
an t</w>
em ber</w>
所 </w>
県 </w>
ish ed</w>
u -
ur a</w>
ol d</w>
p e
s erv
軍 </w>
城 </w>
期 </w>
B ud
re g
u e</w>
Bud d
じ </w>
野 </w>
k i</w>
u n</w>
be en</w>
用 </w>
線 </w>
I n
ち </w>
大 </w>
h ave</w>
ak u</w>
a z
K am
chool </w>
e a</w>
l oc
定 </w>
il </w>
へ </w>
第 </w>
tim e</w>
戸 </w>
f l
宮 </w>
言 </w>
g overn
T ok
er n</w>
n ed</w>
w e
igh t</w>
d is
明 治</w>
成 </w>
d uc
ak e</w>
g e</w>
it s</w>
es s</w>
2 00
T his</w>
o to</w>
門 </w>
A M
ai d</w>
el y</w>
at su
条 </w>
h as</w>
京 </w>
前 </w>
t en</w>
ent s</w>
通 </w>
fir st</w>
王 </w>
h o
th ere</w>
am i</w>
i or</w>
P rin
ir </w>
J un
e y
es s
o y
臣 </w>
ス </w>
Y oshi
M in
H owever</w>
見 </w>
sh o</w>
1 7
f f
kn own</w>
Sh in
神 </w>
en ce</w>
d ed</w>
ak i</w>
en g
ic al</w>
s ur
合 </w>
e i</w>
ow </w>
oun d</w>
con t
m on
三 </w>
m ade</w>
wh en</w>
多 </w>
t ion</w>
称 </w>
O n</w>
su ch</w>
任 </w>
u s</w>
ou gh
ch o</w>
1 2</w>
ab l
m in
a il
s un
r ed</w>
di ed</w>
t y</w>
year </w>
1 1</w>
W A
ion s</w>
ン </w>
b ro
b el
元 </w>
u p</w>
as hi
g en
業 </w>
d uring</w>
c i
s aid</w>
Budd hi
来 </w>
f </w>
po in
c or
記 </w>
O T
the y</w>
政 </w>
sh u</w>
b r
生 </w>
出 </w>
書 </w>
s e</w>
on g
S an
ak u
s el
号 </w>
分 </w>
S HI
0 0</w>
会 </w>
ル </w>
t w
S U
w ay</w>
t ing</w>
ai r
re l
K U
ast le</w>
an k</w>
1 2
法 </w>
our t</w>
T A
ー </w>
説 </w>
cl ud
ま で</w>
し か
the ir</w>
g r
s y
on d</w>
o ple</w>
os e</w>
目 </w>
ac hi</w>
作 </w>
a ther</w>
E do</w>
呼 </w>
W A</w>
in c
良 </w>
明 </w>
主 </w>
ul t
ok </w>
oll ow
郎 </w>
b et
藩 </w>
ar m
しか し</w>
ew </w>
A f
Sh rine</w>
ag a</w>
com m
c oun
k o</w>
a use</w>
正 </w>
場 </w>
bu il
流 </w>
置 </w>
Prin ce</w>
o h
or ig
re e</w>
pro v
1 3
ow er</w>
an ce</w>
p u
現 在</w>
est abl
off ic
こ </w>
a ugh
for e</w>
in clud
M I
f ollow
村 </w>
Y am
D ai
ur al</w>
s c
力 </w>
G en
om ain</w>
江 戸</w>
i ed</w>
u ary</w>
宗 </w>
び </w>
二 </w>
Ch in
pe ople</w>
世 </w>
ar i</w>
ation s</w>
F U
Af ter</w>
ect ion</w>
島 </w>
govern ment</w>
父 </w>
造 </w>
k s</w>
st or
p ri
十 </w>
i ous</w>
he ad</w>
西 </w>
r y</w>
J I
安 </w>
/ </w>
re m
語 </w>
- ji</w>
倉 </w>
in t
ay s</w>
su k
iv ed</w>
ing s</w>
we en</w>
R ank</w>
w rit
f ather</w>
ou ld</w>
藤 原</w>
ation al</w>
at a</w>
al s</w>
か っ</w>
度 </w>
s chool</w>
s ame</w>
入 </w>
as hi</w>
車 </w>
g ro
bet ween</w>
ap p
l ater</w>
式 </w>
er s
A l
os t</w>
屋 </w>
ac k</w>
ず </w>
t o
as t</w>
o od</w>
要 </w>
区 </w>
館 </w>
平 </w>
an d
E </w>
l e
des c
s i
ain s</w>
暦 </w>
en d</w>
男 </w>
ab le</w>
re as
ar t
year s</w>
an s
st at
神 社</w>
ov er</w>
hi r
WA RA</w>
it ed</w>
g o</w>
m or
or s</w>
ch ar
S u
d augh
; </w>
S A
sid e</w>
j in
e k
N ag
U n
権 </w>
gen er
man y</w>
str uc
th ough
士 </w>
un der</w>
津 </w>
el d</w>
ろ </w>
1 5</w>
朝 </w>
st y
h er</w>
げ </w>
族 </w>
女 </w>
c ent
st em</w>
Th ere</w>
d e
f u</w>
FU JI
su b
c c
t emple</w>
1 4
c ur
tw o</w>
ion al</w>
ap poin
文 </w>
元 年</w>
el l</w>
ab out</w>
il l</w>
su m
daugh ter</w>
母 </w>
面 </w>
on ly</w>
com p
at su</w>
D A</w>
理 </w>
d ai
o j
hi gh
u m</w>
よ り</w>
k ed</w>
ch ang
G A
loc ated</w>
er e
sh in
ト </w>
昭 和</w>
C astle</w>
官 </w>
画 </w>
er y</w>
2 0</w>
像 </w>
1 0
d ec
Buddhi st</w>
ea th</w>
b as
y u</w>
establ ished</w>
u re
S en
ig n
o z
FUJI WARA</w>
c er
命 </w>
堂 </w>
us t</w>
el </w>
sy stem</w>
bec ause</w>
pos ition</w>
or d</w>
T O
A r
M as
石 </w>
N A
su cc
教 </w>
sty le</w>
文 化</w>
b or
使 </w>
d ay</w>
心 </w>
c o
ef </w>
a j
por t
r on
持 </w>
手 </w>
orig in
d eath</w>
ist er</w>
歳 </w>
ak ura</w>
動 </w>
形 </w>
s ome</w>
等 </w>
as a</w>
高 </w>
ac hi
an s</w>
iy a</w>
e y</w>
々 </w>
蔵 </w>
18 6
OT O</w>
際 </w>
uk i</w>
E n
M ar
u ro
ec t</w>
d ep
st ar
j in</w>
appoin ted</w>
il it
n am
知 </w>
T en
v is
1 3</w>
体 </w>
師 </w>
l ine</w>
ran k</w>
em ent</w>
経 </w>
an y</w>
ad a</w>
ic hi
an c
us hi</w>
Y or
L ine</w>
品 </w>
sec ond</w>
ik e</w>
th ro
H ei
18 7
A s</w>
M A
j a</w>
O s
性 </w>
従 </w>
sh og
d r
園 </w>
御 </w>
O n
H id
ic hi</w>
t e</w>
O k
数 </w>
東 </w>
A m
l ed</w>
T SU
N i
C hi
ear </w>
Jun ior</w>
阪 </w>
そ れ</w>
守 </w>
m o
t ain</w>
身 </w>
術 </w>
c ap
pres s</w>
G r
光 </w>
hi m</w>
m ar
c ar
19 9
l es</w>
制 </w>
th em</w>
派 </w>
能 </w>
serv ed</w>
室 </w>
iz ed</w>
writ ten</w>
di ff
戦 </w>
ain ed</w>
l it
att le</w>
J u
木 </w>
ri ed</w>
a u
er red</w>
ar ea</w>
n ing</w>
o t</w>
1 8</w>
as u</w>
1 4</w>
as h
c ourt</w>
奈 良</w>
ef t</w>
対 </w>
v ar
c an</w>
x </w>
f e
口 </w>
と も</w>
em on
mor e</w>
A n
t y
pro duc
N ara</w>
井 </w>
al e</w>
T ai
校 </w>
む </w>
h eld</w>
wi th
去 </w>
sel f</w>
p re
op </w>
場 合</w>
m ov
er i
D omain</w>
ent ly</w>
u p
g re
g iv
en c
p ol
べ </w>
T an
W ard</w>
tr ans
利 </w>
路 </w>
par t</w>
s he</w>
i p
t it
H I</w>
ok i</w>
wh ere</w>
2 1</w>
四 </w>
jin ja</w>
味 </w>
th en</w>
1 7</w>
～ </w>
d er
t e
次 </w>
th ree</w>
om </w>
18 8
st ation</w>
1 6</w>
iv ers
p rin
al ace</w>
ok u
義 </w>
幕 府</w>
arm y</w>
it e</w>
K or
楽 </w>
om o</w>
ul ar</w>
f ac
as e</w>
紀 </w>
thro ugh
W h
3 0</w>
m other</w>
o in
th an</w>
ec ted</w>
衛 </w>
娘 </w>
F uk
19 4
源 </w>
d en</w>
H o
ar ound</w>
殿 </w>
頭 </w>
f our
集 </w>
o per
C on
ult ural</w>
el l
e br
su p
M ei
吉 </w>
di rec
N O
yo un
though </w>
受 け</w>
18 9
an e</w>
大 学</w>
m at
N AM
w ar
00 0</w>
郡 </w>
pu bl
i b
con sid
将 </w>
F u
19 8
bor n</w>
親 王</w>
用 い</w>
職 </w>
sh rin
be g
is hi
t ic
l and</w>
r ice</w>
N or
us e
歌 </w>
州 </w>
s ev
鉄 道</w>
ilit ary</w>
y ama</w>
em s</w>
外 </w>
史 </w>
Kam akura</w>
ad d
A c
ure s</w>
f oun
永 </w>
l d
pl es</w>
v i
19 </w>
st ory</w>
f ul
um i</w>
u b
uk e</w>
follow ing</w>
保 </w>
2 8</w>
su g
for m</w>
t em
f e</w>
大 臣</w>
A pr
th ir
A s
鎌 倉</w>
Apr il</w>
w ell</w>
実 </w>
desc ri
新 </w>
o th
c ame</w>
at ing</w>
sh a</w>
s ed</w>
shi p</w>
aku fu</w>
r ap
O m
土 </w>
字 </w>
R </w>
2 5</w>
ぶ </w>
wi fe</w>
S ak
giv en</w>
s hi</w>
ea ch</w>
2 4</w>
令 </w>
l ord</w>
at es</w>
th ern</w>
pl ac
S chool</w>
Os aka</w>
u- ji</w>
T ad
Tok yo</w>
水 </w>
d ev
O t
n um
v ol
勢 </w>
pl ace</w>
MI NAM
C om
他 </w>
to ok</w>
Mar ch</w>
an ts</w>
h on
務 </w>
S him
b ir
k yo</w>
at o</w>
pri est</w>
be ing</w>
MINAM OTO</w>
a ch
M or
Shi g
設 </w>
平 安</w>
北 </w>
Wh en</w>
buil t</w>
ov e</w>
i w
or der</w>
l ike</w>
岡 </w>
弟 </w>
pos t</w>
ail way</w>
l ar
a h
c t
Mei ji</w>
2 3</w>
bro ther</w>
徳 </w>
sh rine</w>
台 </w>
lit er
whi le</w>
色 </w>
盛 </w>
est iv
cor ding</w>
c oll
W ar</w>
m ilitary</w>
com pl
気 </w>
A t</w>
m ain</w>
S e
側 </w>
port ant</w>
s m
ar o</w>
で き</w>
res id
2 2</w>
re et</w>
g u
K I</w>
葉 </w>
ig ned</w>
includ ing</w>
p ass
K in
h a</w>
N o
約 </w>
ar u</w>
ム </w>
J an
con struc
us hi
ok a</w>
賀 </w>
学 校</w>
cer emon
東 京</w>
料 </w>
s ou
k ing</w>
M it
Jan uary</w>
ivers ity</w>
m is
s om
sp ec
Y AM
H i
馬 </w>
app ear
GA WA</w>
th ose</w>
ear ly</w>
ad op
ro w
巻 </w>
end ed</w>
u ally</w>
him a</w>
d own</w>
tit le</w>
k ami</w>
源 氏</w>
表 </w>
K ei
in d
aw </w>
ま れ</w>
h er
将 軍</w>
b akufu</w>
d ef
am ur
五 </w>
star ted</w>
l eft</w>
p ain
19 5
m ost</w>
diff er
2 7</w>
ere fore</w>
A k
Hei an</w>
offic ial</w>
o od
統 </w>
続 </w>
様 </w>
ish </w>
ty p
頃 </w>
N ob
系 </w>
関 </w>
through </w>
員 </w>
H O
uc hi</w>
e ed
19 0
Chin ese</w>
su l
it su</w>
is t</w>
ist r
19 7
継 </w>
f i
S ad
S ai
乱 </w>
res p
cur r
ut e</w>
ep t
wor d</w>
ol og
th ese</w>
な お</w>
D ec
oc i
ir ed</w>
l in
chi ld
er al</w>
初 </w>
s on
or d
領 </w>
崎 </w>
S he</w>
当 </w>
Sh og
form ed</w>
Y o
re n</w>
徳 川</w>
H A
consid ered</w>
is hi</w>
as s</w>
n ew</w>
2 6</w>
信 </w>
him self</w>
ret ur
u st
c re
k a</w>
b ed</w>
var ious</w>
河 </w>
w ent</w>
O ct
chi ef</w>
s ol
k oku</w>
an o</w>
un i</w>
g er</w>
ur o</w>
跡 </w>
仁 </w>
en ed</w>
g ran
f in
進 </w>
考 え</w>
s ince</w>
死 </w>
ob er</w>
at ive</w>
H on
2 9</w>
Oct ober</w>
sec t</w>
旧 暦</w>
司 </w>
P alace</w>
点 </w>
c ess</w>
ci ent</w>
K y
C oun
止 </w>
un d</w>
F ebr
宝 </w>
o- ji</w>
id ed</w>
bel i
営 </w>
m achi</w>
Yoshi t
C ourt</w>
中 国</w>
ey oshi</w>
N ational</w>
Febr uary</w>
生 まれ</w>
六 </w>
b ack</w>
t ak
be fore</w>
un known</w>
on o</w>
k u</w>
藤 </w>
tr ad
民 </w>
b ur
o ji</w>
残 </w>
u al</w>
if th</w>
Un iversity</w>
Ju ly</w>
降 </w>
per son</w>
護 </w>
n or
id e</w>
Gr ade</w>
般 </w>
橋 </w>
reg ion</w>
Dec ember</w>
K O
H ig
江 </w>
ag on</w>
別 </w>
pl ay
h an
of ten</w>
bu t
p p
ic s</w>
図 </w>
id ent</w>
chang ed</w>
域 </w>
Gen ji</w>
応 </w>
現 </w>
adop ted</w>
it ies</w>
iv er</w>
J R</w>
estiv al</w>
Th ey</w>
d ue</w>
存 在</w>
19 6
el op
A ug
chi ld</w>
ig n</w>
M ay</w>
Aug ust</w>
er a</w>
ic t</w>
shog un</w>
G A</w>
重 </w>
m ent
仏 </w>
N ov
風 </w>
久 </w>
Y as
K it
財 </w>
H ok
界 </w>
s ection</w>
M on
格 </w>
loc al</w>
b le</w>
bir th</w>
thir d</w>
m ain
H an
i e</w>
un e</w>
st ud
M t</w>
pres ent</w>
か け</w>
m em
amur ai</w>
ev en</w>
E x
兵 </w>
K I
だ っ</w>
um e</w>
us a</w>
谷 </w>
種 </w>
議 </w>
発 </w>
座 </w>
m oun
d ori</w>
当 時</w>
rec e
一 般</w>
Nov ember</w>
t en
num ber</w>
o jo</w>
S ept
N ak
ょ う</w>
Sept ember</w>
t ro
am oto</w>
録 </w>
督 </w>
泉 </w>
納 言</w>
bas ed</w>
R ailway</w>
K ag
承 </w>
con f
常 </w>
im perial</w>
s en
t ea</w>
鉄 </w>
器 </w>
話 </w>
古 </w>
以 下</w>
am </w>
科 </w>
使 用</w>
wor k</w>
pres ent
波 </w>
武 </w>
c al
バ ス</w>
tim es</w>
et s</w>
M iy
M ik
for c
Chin a</w>
m ak
l eg
KA WA</w>
取 </w>
ね </w>
i qu
19 3
U RA</w>
K ok
頼 </w>
居 </w>
form er</w>
と き</w>
at ure</w>
例 </w>
海 </w>
大 阪</w>
mo ted</w>
di d</w>
産 </w>
以 降</w>
the ory</w>
stat ue</w>
夫 </w>
et su</w>
N O</w>
I RA</w>
ド </w>
J O</w>
di st
件 </w>
us ing</w>
an t
K aw
ぎ </w>
[ </w>
康 </w>
s im
m od
] </w>
st it
音 </w>
万 </w>
he ad
ain st</w>
it al</w>
em on</w>
祖 </w>
p ower</w>
compl et
類 </w>
近 </w>
重 要</w>
e ther</w>
er ing</w>
照 </w>
ceremon y</w>
M ot
no -
孫 </w>
add ition</w>
s m</w>
bo th</w>
ア </w>
os him
由 </w>
皇 子</w>
興 </w>
究 </w>
at ely</w>
K o
s ion</w>
ex ist
cont in
S um
d et
達 </w>
隊 </w>
av ing</w>
Buddhi sm</w>
g an
eed ed</w>
ab ove</w>
St reet</w>
南 </w>
l ong</w>
の み</w>
r u
築 </w>
ag ainst</w>
og e</w>
y n
k e</w>
it ional</w>
ex c
W ak
k ill
dev elop
s ist
多 く</w>
願 </w>
re qu
p op
F or</w>
研 究</w>
un t
Sen ior</w>
r y
beli ev
des ign
祭 </w>
有 </w>
s amurai</w>
an -
Al though</w>
sun e</w>
bo ok</w>
am ong</w>
sh ap
l if
d ays</w>
辺 </w>
ex t</w>
iv ely</w>
h owever</w>
ic t
i d</w>
H e
om i</w>
ret ain
ぐ </w>
i ally</w>
Min ister</w>
Jun e</w>
属 </w>
T A</w>
向 </w>
死 去</w>
得 </w>
w ar</w>
c il
存 </w>
ho use</w>
an cient</w>
地 方</w>
b attle</w>
Nob un
お け</w>
酒 </w>
尊 </w>
id d
yn ast
an n
ri p
or o</w>
is ion</w>
K en
係 </w>
衛 門</w>
st ate</w>
助 </w>
役 </w>
P eri
m et
z o</w>
ur y</w>
歴 史</w>
off ice</w>
d o
k ai
k in
in v
同 </w>
en -
物 語</w>
l o
pro moted</w>
Th erefore</w>
入 れ</w>
ob u</w>
differ ent</w>
M un
o us
re sul
ex t
丸 </w>
ep t</w>
d omain</w>
Yo shin
T o
n er</w>
こ ろ</w>
c ol
ro s
an a</w>
着 </w>
uc hi
c as
ar ded</w>
八 </w>
中 心</w>
et t
Peri od</w>
G overn
旧 </w>
us es</w>
op s</w>
a ut
succ ess
TO KU
char act
H ist
m er
w ater</w>
m ast
ク </w>
me ans</w>
関 係</w>
s l
b ers</w>
争 </w>
ag i</w>
b ran
論 </w>
禄 </w>
aw ay</w>
m yo</w>
O r
姓 </w>
Nobun aga</w>
Hid eyoshi</w>
ur i</w>
h al
d oc
店 </w>
ar ds</w>
戦 い</w>
ik o</w>
M I</w>
C HI
gro up</w>
d iv
ex am
idd le</w>
, 000</w>
hi stor
h an</w>
ful </w>
F us
youn ger</w>
suk e</w>
b a</w>
oth ers</w>
bec ome</w>
w ould</w>
5 0</w>
t ri
od ay</w>
p ur
Fu j
h all</w>
d e</w>
s it
房 </w>
c ould</w>
K on
a o</w>
さ ら
m an</w>
g ed</w>
t re
pol it
m us
ex p
松 </w>
k an</w>
e as
七 </w>
use um</w>
pos ed</w>
I z
白 </w>
beg an</w>
坂 </w>
s ake</w>
h and</w>
par tic
備 </w>
開 </w>
勝 </w>
乗 </w>
d a</w>
I k
ud al</w>
per ty</w>
墳 </w>
unt il</w>
T om
contin u
転 </w>
述 </w>
信 長</w>
ain ing</w>
j o-
米 </w>
et im
S HI</w>
K at
足 利</w>
華 </w>
if ied</w>
l ived</w>
t ow
if ic
uk u</w>
st e
金 </w>
同 年</w>
b re
Sh into</w>
ac c
four </w>
c astle</w>
売 </w>
v ill
ter rit
il ed</w>
il ity</w>
fe udal</w>
in ter
意 </w>
指 </w>
cont ro
N oh
MA TSU
ai -
ag es</w>
or gan
is su
番 </w>
hi story</w>
状 </w>
特 に</w>
さら に</w>
atsu m
ad v
Al so</w>
j u</w>
serv ice</w>
Y oshim
な が
ynast y</w>
om iya</w>
之 </w>
TOKU GAWA</w>
ter m</w>
af f
Budd ha</w>
em peror</w>
右 </w>
succ eeded</w>
秀 吉</w>
示 </w>
R iver</w>
局 </w>
od o</w>
妻 </w>
如 </w>
or t</w>
me di
T sun
ron t</w>
oc hi</w>
un d
a e</w>
K E
兄 </w>
origin al</w>
ar e
L ower</w>
然 </w>
design ated</w>
T am
M uro
child ren</w>
た り</w>
rece ived</w>
cil or</w>
A d
fl u
buil ding</w>
p h
S O
aj or</w>
し て</w>
hir o</w>
組 </w>
H ar
sh o
se t</w>
u z
por t</w>
世 紀</w>
lif e</w>
付 </w>
C ultural</w>
忠 </w>
b ar
S ince</w>
r ak
B attle</w>
tem ples</w>
ノ </w>
rap h
h ol
con c
w ill</w>
mov ed</w>
est ern</w>
R A
v ass
plac ed</w>
t og
d est</w>
団 </w>
tr ains</w>
or ds</w>
cal end
M i
im portant</w>
pr act
S ec
u t</w>
w om
b i
liter ally</w>
ey asu</w>
念 </w>
C HI</w>
なが ら</w>
m ember</w>
R y
B un
t ur
OT O
with out</w>
typ e</w>
is m</w>
Yor it
Y O
人 物</w>
an other</w>
A SHI
air s</w>
ok s</w>
pass ed</w>
K ai
od s</w>
た だ
型 </w>
st ill</w>
en s
cent ury</w>
郷 </w>
張 </w>
ou t
e ki</w>
en shrin
al ong</w>
済 </w>
t or</w>
S ou
sum ed</w>
l ect
re ad
r en
etim es</w>
high </w>
一 部</w>
calend ar</w>
lar ge</w>
ik i</w>
gener al</w>
し ま</w>
im a</w>
n ow</w>
per son
3 1</w>
st u
believ ed</w>
意 味</w>
叙 </w>
題 </w>
近 衛</w>
Em press</w>
trans f
retur ned</w>
始 </w>
I w
m on</w>
Ac cording</w>
の ち</w>
ch n
与 え</w>
福 </w>
prov inc
f ront</w>
yo -
nam ed</w>
resid ence</w>
Muro machi</w>
M useum</w>
伝 </w>
le ad
ion ed</w>
gre at</w>
ag ed</w>
un ate</w>
in flu
D A
天 </w>
en th</w>
設 置</w>
建 </w>
min istr
am a-
詳 </w>
L ater</w>
回 </w>
tog ether</w>
1 18
伴 </w>
こ う</w>
NA KA
K iy
k an
ak o</w>
M URA</w>
g awa</w>
int ro
bran ch</w>
N I
衆 </w>
地 域</w>
K um
tr y</w>
kill ed</w>
fam il
b u</w>
室 町</w>
sh </w>
ent ered</w>
量 </w>
も と</w>
そ して</w>
olog y</w>
comm on</w>
親 </w>
y a</w>
cap ital</w>
－ </w>
ar r
林 </w>
伝 え</w>
ai z
鶴 </w>
15 8
末 </w>
京 阪</w>
n ational</w>
ob a</w>
f ive</w>
est s</w>
D uring</w>
sm all</w>
descri bed</w>
od ai
ただ し</w>
l l
h o</w>
c r
付 け</w>
ref erred</w>
O ff
gran d
円 </w>
t ly</w>
p i
事 件</w>
H all</w>
r ight</w>
F ifth</w>
織 田</w>
章 </w>
取 り
cl ass
shi n</w>
根 </w>
iz ation</w>
b us
ach ed</w>
if </w>
曲 </w>
ir e</w>
him e</w>
or ies</w>
c </w>
配 </w>
t a
pu t</w>
iv es</w>
um a</w>
G on</w>
無 </w>
ar t</w>
air a</w>
階 </w>
intro duc
I s
加 </w>
it ted</w>
K ar
yo u</w>
g un</w>
共 </w>
D ain
呂 </w>
K A</w>
羽 </w>
N ar
全 </w>
撃 </w>
参 照</w>
B us</w>
y ing</w>
r o</w>
j oin
gr ad
f ound</w>
ur u</w>
e qu
あ た</w>
with in</w>
た ち</w>
ref ers</w>
r ic</w>
ood en</w>
4 0</w>
ow ed</w>
k ai</w>
hi to</w>
広 </w>
op p
i an</w>
以 後</w>
v ery</w>
K un
st an
小 </w>
態 </w>
g od</w>
ab e</w>
A t
寺 院</w>
響 </w>
trad itional</w>
p at
N an
服 </w>
芸 </w>
i i</w>
Noh </w>
住 </w>
um ul
s ai</w>
os uke</w>
ok o</w>
R o
publ ic</w>
G u
養 子</w>
wor ld</w>
ult ure</w>
ad o</w>
hi de</w>
h or
Hig ashi
ap er</w>
ut es</w>
省 </w>
m ake</w>
だ け</w>
re ad</w>
produc ed</w>
govern or</w>
ay ama</w>
I eyasu</w>
iv ing</w>
具 </w>
大 正</w>
g ave</w>
F our
som etimes</w>
M atsu
ag ain</w>
花 </w>
綱 </w>
s ite</w>
resp on
on -
指 定</w>
t ies</w>
desc end
N </w>
shrin es</w>
s o
pr iv
a th
Hist ory</w>
庫 </w>
mem bers</w>
ect s</w>
com man
尾 </w>
Kei han</w>
秀 </w>
per formed</w>
S uk
塔 </w>
S ei
wor ks</w>
育 </w>
大 名</w>
im age</w>
gro und</w>
s oci
ay a</w>
客 </w>
ー ム</w>
play ed</w>
好 </w>
main ly</w>
KA GA</w>
ap pro
ut su</w>
伏 見</w>
S ome</w>
Fus him
includ ed</w>
c our
船 </w>
祀 </w>
y or
nam es</w>
w </w>
Sh ing
清 </w>
料 理</w>
仏 教</w>
l ate</w>
fam ous</w>
急 </w>
廷 </w>
Y A
M an
慶 </w>
F ur
ASHI KAGA</w>
平 成</w>
h ar
pop ular</w>
F rom</w>
D ep
t oday</w>
g o
茶 </w>
ug o</w>
果 </w>
famil ies</w>
bel ong
J in
観 </w>
后 </w>
古 墳</w>
と ころ</w>
う ち</w>
au th
利 用</w>
15 9
込 </w>
sh ould</w>
r ai
送 </w>
沢 </w>
演 </w>
聞 </w>
ch ed</w>
P ar
ist ry</w>
coun cilor</w>
d om
T hir
不 明</w>
in ess</w>
TA IRA</w>
足 </w>
g l
同 じ</w>
刀 </w>
st one</w>
continu ed</w>
appear ed</w>
wor ds</w>
resul t</w>
et y</w>
c hi</w>
N ishi
Yam ato</w>
s ent</w>
ま り</w>
s il
a it
R I</w>
B A
佐 </w>
介 </w>
ug awa</w>
g ood</w>
dep end
On e</w>
Kan n
moun tain</w>
影 響</w>
結 </w>
景 </w>
O DA</w>
害 </w>
6 0</w>
ic es</w>
construc tion</w>
K ur
切 </w>
od y</w>
ang o</w>
B o
def e
T O</w>
典 </w>
od e</w>
至 </w>
1 00</w>
… </w>
az u</w>
賞 </w>
紙 </w>
tr ain</w>
f act
雲 </w>
is e</w>
' t</w>
僧 </w>
y -
w est</w>
raph y</w>
鮮 </w>
r ul
w a</w>
ro ad</w>
air </w>
ad ministr
鳥 </w>
家 康</w>
un der
In c
隆 </w>
ー ル</w>
陽 </w>
羅 </w>
相 </w>
Prin cess</w>
満 </w>
k m</w>
思 </w>
ish ment</w>
Mit su
A z
幡 </w>
um ents</w>
though t</w>
pi ec
Coun ty</w>
ch in
T r
ぼ </w>
te chn
op ened</w>
廃 止</w>
t own</w>
Sh o
h aving</w>
I chi
姫 </w>
→ </w>
w ard</w>
are as</w>
退 </w>
ic ally</w>
ch u</w>
M aiz
不 詳</w>
Th ese</w>
F am
15 7
大 き</w>
作 品</w>
im e</w>
enshrin ed</w>
et ry</w>
強 </w>
in -
T su
武 士</w>
cre ated</w>
R ou
I ts</w>
ab uki</w>
h old</w>
dis ci
M ur
為 </w>
判 </w>
成 立</w>
as aki</w>
Om i</w>
登 場</w>
北 条</w>
つ け</w>
n ext</w>
m s</w>
伊 勢</w>
両 </w>
F estival</w>
s us
po ems</w>
l at
以 上</w>
D iv
豊 臣</w>
pr ing</w>
mod ern</w>
Rou te</w>
左 </w>
mast er</w>
18 5
M A</w>
in s</w>
or ed</w>
fac t</w>
chang e</w>
首 </w>
藩 主</w>
列 車</w>
Govern or</w>
爵 </w>
sun a</w>
火 </w>
朝 鮮</w>
彼 </w>
問 </w>
w ays</w>
一 方</w>
e ast</w>
3 3</w>
se qu
近 江</w>
se en</w>
por ted</w>
m i</w>
筆 </w>
u ji</w>
c ase</w>
長 男</w>
春 </w>
政 府</w>
Yorit omo</w>
Hi ro
re v
develop ed</w>
殺 </w>
po st
享 年</w>
ac cording</w>
M e
it ions</w>
g ar
art ment</w>
v ed</w>
oc hi
ir o</w>
ent er</w>
ab ol
K e
th um
ro le</w>
ed a</w>
仕 え</w>
l ear
麻 呂</w>
ほ ど</w>
re al</w>
Z U
re st
inc reas
d en
rel ig
for man
al ity</w>
千 </w>
hi b
dai jin</w>
comp an
直 </w>
濃 </w>
e igh
阿 弥
初 期</w>
兵 衛</w>
m iddle</w>
u i</w>
級 </w>
f un
K as
茂 </w>
功 </w>
質 </w>
絵 </w>
段 </w>
p ec
W est</w>
mus ic</w>
守 護</w>
youn g</w>
origin ally</w>
histor ical</w>
f o
char ge</w>
u es</w>
oper ation</w>
歩 </w>
follow s</w>
er ies</w>
志 </w>
t ure</w>
publ ished</w>
i x
hir a</w>
G re
輪 </w>
l ess</w>
Thir d</w>
朝 廷</w>
c ov
c ity</w>
s word</w>
me th
bo oks</w>
Sec ond</w>
天 正</w>
ough t</w>
c ultural</w>
政 治</w>
sit u
fir e</w>
K om
B ec
代 表</w>
m y</w>
m u</w>
oy a</w>
角 </w>
z uk
t ai
pl ay</w>
ion ally</w>
coun try</w>
J ug
こ こ</w>
Tok ugawa</w>
shi k
foun ded</w>
ea ch
Maiz uru</w>
3 6</w>
sol di
YAM A</w>
時 期</w>
O g
舞 鶴</w>
p ow
iqu e</w>
dai myo</w>
メ ー
r al</w>
n s</w>
p s</w>
N ew</w>
D ynasty</w>
k en</w>
as sumed</w>
K az
met ers</w>
Chi k
hi s
ed it
j o
M ain</w>
材 </w>
変 </w>
ep </w>
ear ch</w>
J I</w>
sur yo</w>
an -ji</w>
Y uk
construc ted</w>
出 家</w>
ラ ン
t ake</w>
em ents</w>
200 7</w>
戦 争</w>
卿 </w>
transf erred</w>
on s</w>
hal f</w>
N a
k ok
R e
総 </w>
タ ー</w>
ut ion</w>
細 川</w>
に て</w>
st op</w>
No bu
宅 </w>
Shog un</w>
ho od</w>
f il
contro l</w>
唐 </w>
ov er
D O</w>
per forman
join ed</w>
H igh
B E</w>
tr a</w>
Kor ea</w>
sp ir
im i</w>
YAM A
S ek
l ast</w>
curr ent</w>
初 代</w>
w id
l ost</w>
Im portant</w>
off </w>
S ect</w>
four th</w>
大 和</w>
c m</w>
ょ う
c ir
渡 </w>
mak ing</w>
T aira</w>
l aw</w>
可 能</w>
se i</w>
b an
exam ple</w>
Th en</w>
or ial</w>
i h
ay oshi</w>
映 画</w>
Min istry</w>
お よ
H or
喜 </w>
ツ </w>
st age</w>
百 </w>
M ichi
Div ision</w>
翌 年</w>
略 </w>
そ こ</w>
F or
ほ か</w>
F ir
b ody</w>
a- cho</w>
tro ops</w>
g ate</w>
太 郎</w>
sug u</w>
ic k
charact ers</w>
選 </w>
200 6</w>
布 </w>
si x
頼 朝</w>
活 </w>
先 </w>
H ak
ug a</w>
orig in</w>
is ional</w>
Ho use</w>
食 </w>
開 業</w>
開 始</w>
世 界</w>
umul us</w>
j ect</w>
M yo
M O
就 任</w>
pro t
m ay</w>
pain ting</w>
mar ried</w>
速 </w>
慶 長</w>
th er
on ce</w>
H er</w>
g u</w>
ac k
失 </w>
um ent</w>
s ep
め て</w>
c ust
3 2</w>
in ning</w>
老 </w>
節 </w>
s k
p rec
没 </w>
以 外</w>
d ance</w>
pos thum
徴 </w>
oy ama</w>
今 </w>
polit ical</w>
b </w>
出 身</w>
ic ated</w>
con duc
bu s</w>
r one</w>
Off ice</w>
陣 </w>
部 分</w>
prin ci
系 統</w>
真 </w>
ir a</w>
Ky u
bl es</w>
an i</w>
E lect
C oll
C l
智 </w>
p aper</w>
retain er</w>
引 き
ま ま</w>
ro om</w>
con v
3 5</w>
2 0
pr of
con n
庁 </w>
? </w>
党 </w>
ac ked</w>
n ess</w>
イ </w>
territ ory</w>
art ic
stan ding</w>
forc es</w>
am ed</w>
K ot
Four th</w>
gener ation</w>
foun der</w>
Fir st</w>
含 </w>
ment ioned</w>
草 </w>
k e
cl os
introduc ed</w>
帯 </w>
上 げ</w>
sou th</w>
は じ
d ate</w>
容 </w>
di str
Ro ad</w>
起 こ</w>
制 度</w>
v al
R ec
Fam ily</w>
ri bu
養 </w>
on om
務 め</w>
sev eral</w>
a- jo</w>
許 </w>
r un
通 り</w>
年 間</w>
comp any</w>
bus iness</w>
L t
Kiy om
H ik
iz e</w>
reas on</w>
Dain agon</w>
君 </w>
異 な</w>
機 </w>
支 配</w>
通 称</w>
解 </w>
3 8</w>
ist ered</w>
f estival</w>
W or
S ang
M at
閣 </w>
移 </w>
u jo</w>
r id
T oshi
M us
工 </w>
form s</w>
G o
策 </w>
con sist
chool s</w>
女 性</w>
s qu
iw ara</w>
基 </w>
K og
Bec ause</w>
建 築</w>
太 子</w>
s ing</w>
醍 醐
位 置</w>
poin t</w>
わ せ</w>
z e</w>
se as
rel ation
pl at
醍醐 </w>
友 </w>
ラ </w>
三 条</w>
reas ure</w>
z u</w>
issu ed</w>
c es</w>
ud o</w>
o e</w>
m ot
Sh on
立 て</w>
展 </w>
vill age</w>
s al
m ajor</w>
若 </w>
浄 土</w>
rem ains</w>
p er</w>
or ation</w>
Y A</w>
描 </w>
各 地</w>
a emon</w>
iw a</w>
製 </w>
浜 </w>
歌 舞
リ </w>
soldi ers</w>
im ited</w>
極 </w>
ous ly</w>
象 </w>
模 </w>
マ </w>
ord in
cl ass</w>
kai do</w>
re stor
y ak
l i
res s</w>
ass igned</w>
ail s</w>
s es</w>
E v
Jug oin
礼 </w>
f ood</w>
Com p
陵 </w>
央 </w>
伎 </w>
l ev
R es
H os
美 術</w>
後 期</w>
同 様</w>
m u
complet ed</w>
宇 治</w>
po etry</w>
au ce</w>
f ur
易 </w>
一 族</w>
rel ated</w>
R it
ひ と</w>
x im
有 名</w>
必 要</w>
S eng
C ap
及 </w>
半 </w>
th ers</w>
row n</w>
achi ev
観 音</w>
Elect ric</w>
plac es</w>
ok an</w>
少 な</w>
sc en
h ome</w>
亡 </w>
s auce</w>
av es</w>
ac ter</w>
Z A
H ir
spec ial</w>
当 主</w>
j ust</w>
j i-
cir c
sim il
陀 </w>
ag o</w>
ac t</w>
N ai
想 </w>
t each
iz u</w>
Nor thern</w>
l aw
cas es</w>
e an</w>
an mi</w>
即 位</w>
th ing</w>
th em
m ik
K uro
薩 </w>
戦 国</w>
K oj
霊 </w>
律 令</w>
池 </w>
主 に</w>
H it
ゅ う</w>
me an
en ing</w>
D i
庵 </w>
全 国</w>
si ble</w>
ro und</w>
com e</w>
cl ose</w>
勢 力</w>
com mon
視 </w>
ret ired</w>
am p
I se</w>
ul ar
di es</w>
Th e
s chools</w>
pr is
head ed</w>
d em
K i
pl an
on es</w>
Fuj iwara</w>
我 </w>
n ew
el s</w>
歌舞 伎</w>
価 </w>
ul </w>
ern al</w>
en v
H ong
s en</w>
計 </w>
及 び</w>
中 央</w>
ッ ト</w>
t su
reg arded</w>
陸 </w>
教 育</w>
t op</w>
rak awa</w>
プ </w>
カ </w>
ir i</w>
in ed</w>
家 臣</w>
at ari</w>
Inc ident</w>
200 5</w>
限 </w>
連 </w>
s ch
l un
除 </w>
菩 薩</w>
奥 </w>
ugh t</w>
in a</w>
ish ing</w>
char acter</w>
Kan to</w>
敷 </w>
ー ス</w>
Tan g</w>
TO Y
b an</w>
没 年</w>
儀 </w>
ー ト</w>
ぜ </w>
g et</w>
ed uc
de ity</w>
priv ate</w>
in ation</w>
enc ed</w>
bec om
4 3</w>
伝 わ</w>
si x</w>
res igned</w>
由 来</w>
以 前</w>
comman der</w>
T suk
stud y</w>
row </w>
ev ery</w>
C o</w>
min ister</w>
夷 </w>
oper ated</w>
札 </w>
m ed</w>
U k
およ び</w>
ste ad</w>
for ce</w>
Gre at</w>
食 べ</w>
ow s</w>
帰 </w>
w ooden</w>
ay ing</w>
ト ル</w>
nor th</w>
k et</w>
der a</w>
五 位</w>
ol der</w>
h and
bro ught</w>
ag awa</w>
シ ョ
form ation</w>
N in
供 </w>
ot t
curr ently</w>
OTO MI</w>
Kann on</w>
摩 </w>
m en</w>
shog unate</w>
cent er</w>
R et
印 </w>
in d</w>
TOY OTOMI</w>
子 孫</w>
一 人</w>
交 通</w>
oc cur
at s</w>
Pro perty</w>
3 4</w>
討 </w>
h ara</w>
coll ection</w>
meth od</w>
斎 </w>
婚 </w>
HO SO
浦 </w>
b er
H yo
武 田</w>
如 来</w>
n ot
囲 </w>
th rone</w>
tak en</w>
simil ar</w>
it a</w>
em ent
雄 </w>
ジ </w>
t al
shap ed</w>
shap e</w>
our </w>
beg inning</w>
sc rip
end ai</w>
Sou thern</w>
en se</w>
W i
名 乗</w>
二 条</w>
sep ar
r yu</w>
bu n</w>
ord ered</w>
a u</w>
TA KE
海 道</w>
割 </w>
abol ished</w>
貴 族</w>
次 男</w>
八 幡</w>
stu died</w>
s an
始 め</w>
国 宝</w>
s pring</w>
a- jinja</w>
躍 </w>
ic k</w>
d est
8 0</w>
f ought</w>
c a
ast ern</w>
Y ok
N A</w>
Fushim i</w>
kin d</w>
範 </w>
塚 </w>
4 2</w>
蓮 </w>
大 き
z an</w>
J i
16 0
中 期</w>
奏 </w>
各 </w>
Ni hon
3 7</w>
白 河</w>
刻 </w>
in o</w>
wh ose</w>
id ent
イ ン
achi -
R yo
7 0</w>
与 </w>
use hold</w>
stat us</w>
f ifth</w>
enc es</w>
活 動</w>
t om
eng th</w>
杉 </w>
h on</w>
接 </w>
仰 </w>
i als</w>
c ed</w>
6 7</w>
relation ship</w>
os a</w>
端 </w>
葬 </w>
y am
地 下</w>
ro te</w>
t ot
大き な</w>
f ace</w>
7 2</w>
et c</w>
R eg
su -
p alace</w>
N ichi
Min amoto</w>
n at
defe ated</w>
vass al</w>
se e</w>
in her
ic ip
I I</w>
g a</w>
Z en
Gu ards</w>
関 東</w>
落 </w>
木 造</w>
call ig
U ji</w>
J us
嵯 峨
w rote</w>
本 線</w>
sequ ently</w>
En g
ef f
An d</w>
列 </w>
w aka</w>
um es</w>
enc y</w>
4 9</w>
記 録</w>
res t</w>
for e
at eg
Kyu shu</w>
現 代</w>
玉 </w>
S ag
査 </w>
provinc ial</w>
岐 </w>
墓 </w>
そ </w>
舞 </w>
186 8</w>
そ れ
es th
bel ow</w>
a us
K int
em y</w>
b o</w>
all s</w>
ref er</w>
U CHI</w>
版 </w>
左 衛門</w>
L eft</w>
家 督</w>
因 </w>
ぞ れ</w>
か つ
xim ately</w>
習 </w>
夜 </w>
wh at</w>
d ings</w>
6 2</w>
姿 </w>
太 </w>
ab uro</w>
Sum m
un agon</w>
pre v
m ag
l et
l an
4 5</w>
war ri
t ions</w>
ing u</w>
最 初</w>
それ ぞれ</w>
ご </w>
g e
自 ら</w>
vis ited</w>
u str
no bles</w>
co ok
all owed</w>
E chi
Dep artment</w>
結 果</w>
tri es</w>
descri p
従 五位</w>
参 議</w>
参 加</w>
R oku
4 1</w>
r an</w>
p ict
本 願</w>
oc k</w>
i a</w>
と ん
l ong
g ot</w>
ass oci
Comp any</w>
右 衛門</w>
三 郎</w>
い は</w>
se a</w>
em p
HOSO KAWA</w>
席 </w>
re present
1 16
per ties</w>
od a</w>
f ish</w>
V ill
S atsum
C </w>
継 承</w>
九 州</w>
f ol
c ulture</w>
att ack</w>
T e
名 称</w>
el dest</w>
v es</w>
t ings</w>
港 </w>
覚 </w>
づ </w>
it ionally</w>
河 内</w>
問 題</w>
1 17
k uni</w>
bel l
B os
4 8</w>
香 </w>
活 躍</w>
はじ め</w>
> </w>
洋 </w>
武 将</w>
whi te</w>
M om
帝 </w>
z en</w>
記 述</w>
ホ ーム</w>
ビ </w>
c el
末 期</w>
信 仰</w>
よ く</w>
z a</w>
Seng oku</w>
Lt d</w>
200 8</w>
po em</w>
載 </w>
豆 </w>
衣 </w>
ific ation</w>
3 9</w>
竹 </w>
n in
dr aw
6 8</w>
舎 </w>
w al
rai sed</w>
common ly</w>
cl oth
a ch</w>
H is
里 </w>
wom en</w>
昇 叙</w>
vol ume</w>
丹 波</w>
relig ious</w>
pro c
n ight</w>
inc ident</w>
Z en</w>
W estern</w>
TA KA
ow a</w>
e ed</w>
4 6</w>
少 </w>
produc tion</w>
posthum ous</w>
Prefect ural</w>
国 立</w>
prin ce</w>
p refect
実 際</w>
wor ked</w>
end s</w>
in stead</w>
d on</w>
6 5</w>
performan ce</w>
eri als</w>
R I
則 </w>
situ ation</w>
col or</w>
W hi
K u
和 歌</w>
yor ai</w>
ut y</w>
partic ip
ay ed</w>
報 </w>
わ り</w>
s ign
Su b
中 村</w>
y ok
pro perty</w>
es cap
direc t</w>
6 1</w>
d -
R ight</w>
庭 </w>
ズ </w>
m itted</w>
if ic</w>
T og
籍 </w>
社 会</w>
正 室</w>
当 初</w>
Kam ig
都 市</w>
ran ce</w>
oun t</w>
ad ded</w>
1 15
会 社</w>
とん ど</w>
ul t</w>
id a</w>
ex pres
uk o</w>
望 </w>
offic ials</w>
ほ とんど</w>
ow ned</w>
child hood</w>
Y ak
5 8</w>
何 </w>
ther more</w>
A n</w>
訳 </w>
兄 弟</w>
retain ers</w>
og atari</w>
As soci
戻 </w>
建 立</w>
コ </w>
4 7</w>
r a</w>
To yo
K of
特 徴</w>
ast e</w>
鏡 </w>
キ </w>
w ing</w>
f em
- day</w>
% </w>
深 </w>
大 坂</w>
in vol
aw a-
G I</w>
験 </w>
s ister</w>
d el
装 </w>
メー トル</w>
w estern</w>
g ods</w>
瀬 </w>
彦 </w>
官 位</w>
som e
織 </w>
現 存</w>
公 </w>
vi ew</w>
o- in</w>
mean ing</w>
fl o
ac him
S E
T o</w>
仲 </w>
u oka</w>
p ag
il e</w>
high est</w>
Satsum a</w>
sur v
ol </w>
R est
細 </w>
加 え</w>
Yoshit sune</w>
政 権</w>
あ る
min utes</w>
g yo</w>
conduc ted</w>
Wi th</w>
歴 </w>
Shi k
P r
裏 </w>
p un
ak </w>
紋 </w>
皇 后</w>
ある いは</w>
ro y
pol ic
請 </w>
神 道</w>
distr ict</w>
I TO</w>
Ch unagon</w>
本 尊</w>
合 わせ</w>
tem por
prof ess
anc es</w>
Sh os
HO JO</w>
輔 </w>
設 立</w>
時 間</w>
ー ド</w>
v ers
そ う</w>
his a</w>
coun tries</w>
拠 </w>
Ar t</w>
兼 任</w>
ず れ</w>
o shu</w>
m ents</w>
P e
催 </w>
ho uses</w>
h ear
gener ally</w>
end ing</w>
influ ence</w>
im ate</w>
ic ation</w>
eg e</w>
det ails</w>
ass ist
M ak
in oge</w>
he av
cl o
Fur thermore</w>
6 3</w>
貞 </w>
大 津</w>
不 </w>
gran ted</w>
T er
運 転</w>
御 所</w>
セ ン
f ig
dec ided</w>
U j
ot s</w>
on in</w>
ak u-ji</w>
ac qu
J ushi
定 め</w>
完 成</w>
公 家</w>
mon k</w>
esth ood</w>
art ers</w>
4 4</w>
程 </w>
焼 </w>
寿 </w>
じ ょう</w>
sh or
serv ing</w>
n ec
k ei</w>
周 辺</w>
er t
e ight</w>
Gr and</w>
Associ ation</w>
近 代</w>
走 </w>
博 物</w>
st ations</w>
p al</w>
but su</w>
P o
返 </w>
up on</w>
edit ary</w>
pri esthood</w>
in st
at ic</w>
N ik
DA IRA</w>
平 氏</w>
九 </w>
ty -
or ity</w>
lin es</w>
k ata</w>
ad y</w>
油 </w>
断 </w>
引 </w>
場 所</w>
tr av
pos e</w>
par ed</w>
occur red</w>
appro ximately</w>
K abuki</w>
神 宮</w>
m ura</w>
conf erred</w>
M any</w>
自 </w>
p att
I f</w>
f ew</w>
ex press</w>
T own</w>
罪 </w>
eas ed</w>
平 家</w>
man ag
car ried</w>
att acked</w>
Summ ary</w>
言 葉</w>
施 設</w>
始 ま</w>
ol dest</w>
mat erials</w>
ak u-
Bos atsu</w>
ur ed</w>
磨 </w>
stit ute</w>
s ay</w>
ro ku</w>
i yo</w>
cer tain</w>
かつ て</w>
var i
ran ked</w>
piec es</w>
includ e</w>
R ep
贈 </w>
生 没年</w>
死 後</w>
帝 国</w>
再 び</w>
オ </w>
her editary</w>
gre at
e b
最 も</w>
ぬ </w>
o i</w>
charact er
ac compan
K ik
High </w>
forc ed</w>
cour se</w>
al ized</w>
Jugoin oge</w>
A suk
電 気</w>
施 </w>
文 学</w>
導 </w>
tr ac
pp er</w>
lat ter</w>
チ </w>
wom an</w>
sur ro
m ed
武 家</w>
句 </w>
uchi -
病 </w>
Con f
奉 行</w>
大 夫</w>
sev en</w>
s we
h um
lev el</w>
e over</w>
e at</w>
a ur
I CHI
難 </w>
事 業</w>
l l</w>
5 5</w>
no od
C or
read y</w>
con d
U pper</w>
5 4</w>
阿弥 陀</w>
上 杉</w>
cl ear</w>
迎 え</w>
認 め</w>
次 郎</w>
内 容</w>
sp read</w>
ho t</w>
f -
exist ed</w>
情 </w>
合 戦</w>
修 </w>
vi a</w>
reg ions</w>
識 </w>
sh ort</w>
ei -
b on</w>
越 </w>
誕 生</w>
妹 </w>
us ually</w>
k yu</w>
ing u
appear s</w>
秋 </w>
oc cas
k y
at or</w>
小 路</w>
季 </w>
v ic
e ing</w>
Sh ot
J odo</w>
案 </w>
om a</w>
sh oki</w>
act iv
Shig a</w>
B ure
関 西</w>
監 督</w>
察 </w>
俗 </w>
cent ral</w>
aff airs</w>
グ </w>
p ref
in side</w>
挙 げ</w>
me as
div ided</w>
bu sho</w>
方 面</w>
sh es</w>
関 白</w>
最 後</w>
ol e
chi t
ar s</w>
200 0</w>
書 紀</w>
str ong</w>
k ar
Kam i</w>
mik oto</w>
m yo
m er</w>
i an
NAKA MURA</w>
MATSU DAIRA</w>
相 当</w>
ど う</w>
t ers</w>
oun ced</w>
offic er</w>
be aut
襲 </w>
lead ing</w>
am bo
Tak eda</w>
C rown</w>
矢 </w>
徒 歩</w>
l igh
ent ion</w>
弟 子</w>
い ずれ</w>
stat ues</w>
liter ature</w>
fem ale</w>
establ ishment</w>
遣 </w>
翌 </w>
森 </w>
ul ty</w>
rem ained</w>
uk ai</w>
st reet</w>
pri ests</w>
h ow</w>
5 2</w>
反 </w>
vass als</w>
s ing
gener ations</w>
T ango</w>
Kan sai</w>
I t
高 等</w>
飯 </w>
ょ </w>
c ast
R ik
1 19
p aku</w>
n ear</w>
Bure au</w>
古 代</w>
th erefore</w>
l ower</w>
k ept</w>
ent ial</w>
離 </w>
princi pal</w>
e z
c rip
bro thers</w>
ar ily</w>
6 4</w>
ス ト</w>
su ff
cel ebr
O KU
Ad d
層 </w>
ゃ </w>
qu arters</w>
par ty</w>
T ale</w>
7 5</w>
滋 賀</w>
t or
hi ko</w>
am achi</w>
Rit suryo</w>
Kor ean</w>
幸 </w>
pract ice</w>
lun ar</w>
ar ding</w>
T or
re p
r ing</w>
縁 </w>
ug i</w>
six th</w>
se ems</w>
icip al</w>
f re
c rit
aus ole
Tak am
銭 </w>
r yo</w>
let ter</w>
l ight</w>
Rest oration</w>
M is
9 0</w>
東 山</w>
弓 </w>
vol umes</w>
p e</w>
ough </w>
on ed</w>
ib le</w>
f r
B A</w>
鬼 </w>
続 け</w>
寮 </w>
太 政</w>
ro ute</w>
doc uments</w>
M OTO</w>
th ology</w>
p o</w>
b ound</w>
賜 </w>
五 郎</w>
uk u-ji</w>
present -day</w>
pec ially</w>
f ell</w>
prov ided</w>
f av
el ds</w>
メ </w>
a ji</w>
5 1</w>
積 </w>
坊 </w>
rec ord</w>
olog ical</w>
og raphy</w>
es pecially</w>
do es</w>
路 線</w>
流 れ</w>
松 平</w>
w ide</w>
vi ew
m y
he i</w>
ch es</w>
car s</w>
天 文</w>
C enter</w>
B u
鳥 羽</w>
績 </w>
大 将</w>
収 </w>
か り</w>
t le</w>
h ai
c an
aw arded</w>
rin g
re i</w>
buil dings</w>
本 来</w>
伝 統</w>
Min o</w>
技 術</w>
sur i</w>
pos sible</w>
l ing</w>
er -
Su tra</w>
街 道</w>
温 泉</w>
幅 </w>
ギ </w>
p ed</w>
ai jin</w>
革 </w>
ug e</w>
op in
og n
ashi ro</w>
ap pl
S un
Ev en</w>
正 月</w>
山 城</w>
国 家</w>
im ono</w>
ilit ies</w>
comp iled</w>
ash u</w>
Shin s
Mor eover</w>
Fuk uchi
6 9</w>
柄 </w>
mon th</w>
gar den</w>
b att
am ount</w>
Whi le</w>
覧 </w>
真 言</w>
belong ed</w>
be h
No .</w>
tot al</w>
act or</w>
機 関</w>
sel ected</w>
l os
h el
Vill age</w>
M O</w>
授 </w>
organ ized</w>
cov ered</w>
Nihon shoki</w>
2 00</w>
邸 </w>
理 由</w>
形 式</w>
odai -ji</w>
発 展</w>
影 </w>
兼 </w>
stud ents</w>
ran king</w>
descend ants</w>
ail ed</w>
am i-
表 記</w>
畿 </w>
有 力</w>
対 立</w>
l ords</w>
U </w>
5 00</w>
12 0
況 </w>
板 </w>
差 </w>
z ei</w>
t ern
黒 </w>
※ </w>
origin ated</w>
mu ch</w>
S aga</w>
O w
N yorai</w>
K ak
文 書</w>
寛 永</w>
sc ale</w>
no ble</w>
fi eld</w>
diff ic
as c
詞 </w>
R ok
飾 </w>
空 </w>
概 要</w>
年 代</w>
名 前</w>
便 </w>
grad ually</w>
er ence</w>
cor por
ア メ
ow n
L oc
Gen eral</w>
銀 行</w>
美 濃</w>
弁 </w>
向 か</w>
保 存</w>
l ow
ind ic
G I
1 1
談 </w>
程 度</w>
建 設</w>
v er</w>
t an
lar g
follow ed</w>
ev ent</w>
S on
200 4</w>
186 9</w>
弘 </w>
上 皇</w>
s an</w>
r ic
con fl
am aro</w>
A ff
18 0
資 料</w>
読 </w>
r un</w>
direc tor</w>
Iz um
G oshi
6 6</w>
道 路</w>
pain tings</w>
en th
ect ive</w>
評 価</w>
自 身</w>
v er
l ength</w>
in depend
ed ly</w>
e al
Sang i</w>
運 行</w>
記 念</w>
岸 </w>
■ </w>
un it</w>
ros s</w>
o y</w>
P l
16 8
な り</w>
provinc es</w>
est ed</w>
c y</w>
経 由</w>
禅 </w>
普 通</w>
公 園</w>
ect ively</w>
ect ions</w>
disci ple</w>
Cap tain</w>
5 3</w>
和 歌
writ ing</w>
sch ol
ribu ted</w>
al though</w>
f all</w>
ac y</w>
Y ear</w>
I shi
serv e</w>
bell ion</w>
Ar my</w>
認 </w>
tak ing</w>
b ow
ambo o</w>
ab ly</w>
K </w>
美 </w>
prov ince</w>
o- cho</w>
j un
al ready</w>
近 畿</w>
イ ン</w>
y en</w>
ex pl
束 </w>
through out</w>
ok u-
放 </w>
当 た</w>
aw ara</w>
肉 </w>
似 </w>
t ried</w>
l imited</w>
Wor ld</w>
U E
5 6</w>
宿 </w>
告 </w>
to o</w>
rest aur
han ded</w>
ex ist</w>
B ut</w>
嵯峨 </w>
struc ture</w>
ov ed</w>
Yam ag
Ch u
改 称</w>
建 て</w>
stit ution</w>
h om
en s</w>
ei ther</w>
administr ation</w>
E duc
調 </w>
r ailway</w>
ak i-
鼓 </w>
立 像</w>
基 本</w>
o le</w>
in k</w>
i to</w>
Shin k
戦 後</w>
tr aining</w>
prov isional</w>
b ility</w>
陸 軍</w>
釈 </w>
現 れ</w>
い え</w>
uk a</w>
it imate</w>
ish u</w>
h app
ur </w>
m e</w>
Am ong</w>
給 </w>
率 い</w>
伊 </w>
ru le</w>
nood les</w>
inher ited</w>
fur ther</w>
direc tly</w>
一 条</w>
l s</w>
in es</w>
ac red</w>
Sh un
Fukuchi yama</w>
ロ </w>
vis it</w>
surro un
ish a</w>
f arm
dist ingu
法 華</w>
中 世</w>
ix ed</w>
a oka</w>
Tan ba</w>
l iving</w>
g old</w>
Yam at
Y u
K atsu
HA RA</w>
皇 女</w>
壁 </w>
ron ic
nec ess
d u
ca used</w>
SA KA
荘 </w>
ショ ン</w>
rec ogn
o- jinja</w>
c op
c le</w>
Sh ok
シ </w>
t ree</w>
sil k</w>
oshi n</w>
m a</w>
em ori</w>
ar ran
ad s</w>
Ni hon</w>
M ajor</w>
Kint etsu</w>
5 7</w>
運 動</w>
調 査</w>
湾 </w>
侍 </w>
コ ン
mis sion</w>
he ir</w>
develop ment</w>
bi g</w>
ah ara</w>
3 00</w>
皇 族</w>
日 記</w>
st and
s old</w>
pro cess</w>
ex ec
war ds</w>
up s</w>
o in</w>
ev er
T sur
Ex press</w>
187 1</w>
en -ji</w>
ci ence</w>
通 常</w>
sup port</w>
j iro</w>
ad vis
acc ep
天 保</w>
ッ ク</w>
j ingu</w>
bas e</w>
B i
規 模</w>
荘 園</w>
洛 </w>
愛 </w>
テ ィ
s ett
mon ey</w>
l ist
h </w>
er ial</w>
al most</w>
Jus anmi</w>
G ok
invol ved</w>
ed ge</w>
in it
d om</w>
av ail
artic le</w>
Hong an-ji</w>
維 新</w>
慶 応</w>
分 け</w>
squ are</w>
ic ts</w>
et su
Dai g
飛 鳥</w>
経 済</w>
person s</w>
生 活</w>
様 々</w>
w ell
um n</w>
retur n</w>
i o</w>
as him
ar ts</w>
T a
L and</w>
賢 </w>
coun t</w>
F ac
post s</w>
lear ned</w>
law ful</w>
Aff airs</w>
5 9</w>
舞 台</w>
復 </w>
in str
湯 </w>
天 台</w>
tw ent
k aku</w>
h ere</w>
Mon ogatari</w>
攻 </w>
富 </w>
ul ation</w>
cor respon
ch ap
ch am
as ked</w>
Or ig
17 0
発 生</w>
撰 </w>
ta x</w>
T umulus</w>
D an
th s</w>
gr ave</w>
税 </w>
目 的</w>
求 め</w>
v e</w>
ev al</w>
D es
本 堂</w>
ent ed</w>
w ood</w>
j ud
iz o</w>
i re
anc ed</w>
高 野</w>
新 聞</w>
交 </w>
s ess
di sh</w>
大 路</w>
丹 後</w>
rid ge</w>
ot e</w>
organ ization</w>
id es</w>
avail able</w>
著 </w>
建 物</w>
ご と</w>
w ear</w>
ausole um</w>
Sh u
多 数</w>
国 道</w>
可 </w>
sup ported</w>
h y
dis pat
act ive</w>
Shing on</w>
Kiyom ori</w>
観 光</w>
結 婚</w>
方 法</w>
sev enth</w>
lin e
er u</w>
conc ern
Yor im
T w
wal k</w>
u bl
az aki</w>
ab in
H achim
素 </w>
同 志</w>
ish o</w>
譜 </w>
serv ices</w>
ro of</w>
oc ial</w>
im medi
chit ect
7 4</w>
伏 </w>
it self</w>
Mik oto</w>
K oz
所 在</w>
t ell
ren amed</w>
ang u
Coll ection</w>
項 </w>
元 禄</w>
リ ー</w>
ar ch
ほ ぼ</w>
tre at
p ass</w>
com posed</w>
ast er</w>
Ot su</w>
自 動</w>
亀 </w>
三 十</w>
m it
c ut</w>
玄 </w>
い わ
s ays</w>
n ever</w>
R us
M iddle</w>
発 行</w>
内 閣</w>
一 種</w>
sel ves</w>
er ful</w>
天 武</w>
tow ns</w>
in aga</w>
7 1</w>
諸 </w>
境 </w>
t ained</w>
ok oro</w>
ber l
Nichi ren</w>
Higashi yama</w>
Am ida</w>
行 事</w>
柱 </w>
帖 </w>
受 け
伐 </w>
中 将</w>
st re
i ans</w>
fl ow
com b
Ret ired</w>
清 盛</w>
wid ely</w>
mov ement</w>
fil m</w>
eng umi</w>
di shes</w>
anc est
Mun icipal</w>
L i
設 け</w>
計 画</w>
剣 </w>
– </w>
el ev
V </w>
扱 </w>
pr on
gre en</w>
ev ents</w>
e astern</w>
cl ai
200 3</w>
善 </w>
ood s</w>
ey ama</w>
at en</w>
Goshi rakawa</w>
B as
B ank</w>
賀 茂</w>
自 分</w>
律 </w>
s er
a th</w>
trans l
par ts</w>
ok e</w>
St ate</w>
同 時</w>
tr ack</w>
ri st
po et</w>
mer ch
im pl
d on
開 発</w>
絶 </w>
幼 名</w>
さ ん</w>
ub o</w>
out side</w>
O ther</w>
銀 </w>
構 成</w>
桃 山</w>
t a</w>
su per
Hok kaido</w>
B y</w>
them selves</w>
moun t
f ri
d ation</w>
bur ied</w>
ay u</w>
av ed</w>
Shins engumi</w>
7 0
販 売</w>
四 条</w>
叡 山</w>
y ori</w>
sug g
of u</w>
comm un
b amboo</w>
S o
K ob
E d
Conf uc
起 </w>
群 </w>
申 </w>
た ら</w>
shi ps</w>
an g</w>
義 経</w>
尾 張</w>
お り</w>
ular ly</w>
g en</w>
est ate</w>
幣 </w>
伝 承</w>
之 助</w>
リ カ</w>
ar row</w>
G or
近 年</w>
芸 術</w>
旨 </w>
わ か</w>
ic ed</w>
M utsu</w>
16 9
な か</w>
rec ords</w>
oy ed</w>
ch a</w>
Ow ari</w>
In ter
Ho usehold</w>
m un
increas ed</w>
in formation</w>
ik an</w>
fo ot</w>
au ji</w>
8 4</w>
露 </w>
後 白河</w>
初 めて</w>
re di
o ted</w>
im in
et ada</w>
descrip tion</w>
KA N
Hi ros
休 </w>
並 </w>
s eries</w>
am asa</w>
O b
表 現</w>
編 </w>
感 </w>
大 社</w>
出 来</w>
wh ole</w>
tre es</w>
b and</w>
augh t</w>
St ates</w>
M iya</w>
techn ique</w>
t reasure</w>
nor thern</w>
ist ic</w>
Kar as
J o
状 態</w>
延 暦</w>
入 り</w>
zuk uri</w>
n eg
de ities</w>
cust om
Sh owa</w>
No but
盟 </w>
run ning</w>
exc ept</w>
e ase</w>
K us
歌 人</w>
polic y</w>
ai g
R in
R O
Or der</w>
街 </w>
fore ign</w>
O KA</w>
Asuk a</w>
管 </w>
派 遣</w>
pl an</w>
op en</w>
berl ain</w>
T endai</w>
Educ ation</w>
防 </w>
文 字</w>
改 め</w>
y aku</w>
pp ed</w>
ere after</w>
be i</w>
8 1</w>
魚 </w>
破 </w>
ニ </w>
y oshi</w>
u fact
th re
ing ly</w>
献 </w>
武 蔵</w>
対 象</w>
吉 田</w>
oj i-
high -
ett ers</w>
en emy</w>
麦 </w>
北 朝</w>
な ら</w>
w in
pow erful</w>
er ry</w>
滅 </w>
流 派</w>
構 造</w>
付 近</w>
ミ </w>
ut a</w>
pos itions</w>
om on</w>
n ov
V ol
T odai-ji</w>
Add itionally</w>
A b
東 西</w>
t -
scen e</w>
s oba</w>
g oku</w>
d ou
NO E</w>
I S
留 </w>
地 区</w>
営 業</w>
古 く</w>
創 建</w>
三 男</w>
rap hi
plat form</w>
abin et</w>
日 蓮</w>
息 </w>
変 化</w>
候 </w>
s or
person al</w>
m id
b un
Shog unate</w>
Par k</w>
P ri
＝ </w>
近 鉄</w>
状 況</w>
ゆ </w>
er age</w>
豊 </w>
詳 細</w>
就 </w>
声 </w>
u ted</w>
for t
Sh or
H at
G un
oc c
7 7</w>
su d
iv al
accep ted</w>
E uro
薩 摩</w>
the ories</w>
ran ks</w>
In ner</w>
H im
D oshi
お お
el der</w>
c ateg
Chi ef</w>
還 </w>
種 類</w>
準 </w>
壇 </w>
十 郎</w>
Th ree</w>
Ar tic
起 源</w>
腹 </w>
二 十</w>
事 実</w>
九 条</w>
ゆ る</w>
educ ation</w>
ak ira</w>
Koj iki</w>
区 間</w>
上 京</w>
typ es</w>
grad u
clo th</w>
E ast</w>
Al l</w>
次 第</w>
圧 </w>
s o-
high er</w>
8 0
貫 </w>
res earch</w>
ist s</w>
17 9
敗 </w>
墓 所</w>
吉 野</w>
produc ts</w>
ing redi
ic ide</w>
form al</w>
em pl
8 5</w>
雨 </w>
遠 </w>
技 </w>
尺 </w>
専 門</w>
垣 </w>
ら か</w>
partic ular</w>
it ing</w>
at ives</w>
タ ー
タ ン
sen se</w>
line age</w>
el led</w>
activ ities</w>
S og
KU RA</w>
B an
狭 </w>
左 京</w>
土 地</w>
と め</w>
し ば
sou p</w>
m ae</w>
K ashi
違 い</w>
田 辺</w>
境 内</w>
地 位</w>
t o-
loc ation</w>
Yoshi k
San jo</w>
Mus ashi</w>
Ch ronic
整 備</w>
妃 </w>
pro bl
pag oda</w>
ordin ary</w>
fin ally</w>
C our
非 常</w>
長 崎</w>
見 え</w>
烏 丸</w>
島 津</w>
兵 庫</w>
任 命</w>
p ly</w>
h ak
abl es</w>
YO SHI
L aw</w>
の み
m ir
dest roy
T ran
Mas am
K os
安 置</w>
剛 </w>
前 期</w>
sy m
n a</w>
man ufact
go ing</w>
d ynasty</w>
co ins</w>
セン ター</w>
sus p
管 理</w>
石 川</w>
宗 教</w>
く な</w>
wor n</w>
l ik
hor se</w>
et ing</w>
d ai</w>
callig raphy</w>
c ros
b ack
N DO</w>
音 楽</w>
編 成</w>
旅 客</w>
mem orial</w>
f ight</w>
S ett
S </w>
順 </w>
納 </w>
俊 </w>
人 々</w>
iy oshi</w>
陰 </w>
ウ </w>
w at
reg ular</w>
piec e</w>
o- gawa</w>
env oy</w>
d re
Th us</w>
S ur
G ate</w>
更 に</w>
打 </w>
写 </w>
su icide</w>
s ize</w>
por tr
m ale</w>
m al</w>
id o</w>
g ing</w>
d rin
assist ant</w>
粉 </w>
生 産</w>
拝 </w>
lan ds</w>
ic a</w>
Yas u
. .</w>
独 立</w>
正 式</w>
ふ </w>
ok u-ji</w>
ect ing</w>
a il</w>
陸 奥</w>
封 </w>
宣 下</w>
天 平</w>
劇 </w>
ラ イ
und red</w>
o- jo</w>
includ es</w>
h us
c il</w>
Yam ash
B e
頂 </w>
stor ies</w>
leg itimate</w>
j u
j i
auth ority</w>
S A</w>
M U
Ch ug
7 8</w>
尚 </w>
clos ed</w>
br id
澄 </w>
t su</w>
di an</w>
d ed
com es</w>
MO RI</w>
尼 </w>
史 料</w>
son s</w>
nat ural</w>
iz en</w>
er c
destroy ed</w>
com ing</w>
R ail
ur a-
pos sess
l ot</w>
l and
f requ
cl ans</w>
= </w>
薨 去</w>
湖 </w>
外 国</w>
re ign</w>
pur pose</w>
is en</w>
descend ant</w>
c ro
becom ing</w>
att ached</w>
御 門</w>
us hima</w>
sil ver</w>
de ep
Ho jo</w>
Doshi sha</w>
8 6</w>
孝 </w>
present ed</w>
escap ed</w>
G y
D istr
7 3</w>
大 内</w>
bl ack</w>
分 類</w>
tow ard</w>
requ ired</w>
re ached</w>
pro perties</w>
pict ure</w>
h aru</w>
dec or
c ode</w>
SA I
嗣 </w>
主 な</w>
上 野</w>
アメ リカ</w>
じ く</w>
t our
success or</w>
lit tle</w>
im prov
br ary</w>
違 </w>
宗 家</w>
児 </w>
体 制</w>
o be</w>
m iya</w>
fi elds</w>
揮 </w>
呼 称</w>
や す</w>
あ まり</w>
port ation</w>
opp ed</w>
ok awa</w>
le aves</w>
Tak auji</w>
K a
G os
Ch rist
攻 撃</w>
帰 国</w>
国 際</w>
ケ </w>
i ated</w>
high ly</w>
gro ups</w>
ec onom
Mitsu hide</w>
枚 </w>
京 極</w>
ナ </w>
st ayed</w>
re vis
per ors</w>
_ </w>
M iz
I SHI
As sist
挙 </w>
ous and</w>
enth ron
disci ples</w>
涯 </w>
延 </w>
密 </w>
古 事</w>
刑 </w>
出 雲</w>
i- jinja</w>
gu ar
g ained</w>
Shin shu</w>
リ ア</w>
us crip
ta x
t ar
n ation</w>
ik u</w>
act ors</w>
Mas an
Kaw achi</w>
A p
や が
ud e</w>
sen ior</w>
k of
ichi i</w>
ear s</w>
S ot
Is land</w>
8 8</w>
特 別</w>
t umulus</w>
em itsu</w>
eigh th</w>
bro ke</w>
Yam ashiro</w>
Th at</w>
額 </w>
迦 </w>
近 世</w>
更 </w>
担 </w>
思 想</w>
徒 </w>
やが て</w>
く る</w>
ter ms</w>
t i
sp e
s ocial</w>
e o</w>
ai t</w>
K oku
皇 太子</w>
海 軍</w>
再 建</w>
任 官</w>
享 保</w>
ement ary</w>
el ed</w>
負 </w>
庭 園</w>
射 </w>
pres s
c ult
U r
7 9</w>
集 め</w>
譲 </w>
観 世</w>
自 由</w>
組 織</w>
特 急</w>
家 人</w>
低 </w>
vic e-
on y
end o</w>
co st
c ar</w>
Nag asaki</w>
纂 </w>
息 子</w>
上 記</w>
ug yo</w>
os hima</w>
f if
descri b
K iz
188 9</w>
醤 油</w>
決 定</w>
悪 </w>
ス ト
ar chitect
転 任</w>
屋 敷</w>
別 名</w>
儀 式</w>
併 </w>
w ak
s ushi</w>
s aying</w>
k awa</w>
al ways</w>
St u
8 3</w>
軍 事</w>
穂 </w>
幕 </w>
大 寺</w>
右 京</w>
傷 </w>
倍 </w>
人 間</w>
tom b</w>
pres erv
en j
con s
Shi z
Sak yo</w>
Assist ant</w>
麗 </w>
辞 </w>
祥 </w>
相 続</w>
協 会</w>
w n</w>
ent rance</w>
d am
St at
Res earch</w>
Mas ak
M ochi
逆 </w>
待 </w>
嫡 男</w>
公 卿</w>
上 洛</w>
な し</w>
mat erial</w>
l ow</w>
gen cy</w>
e ko</w>
con tr
1 00
金 剛</w>
盤 </w>
梅 </w>
同 じく</w>
し か</w>
あ ら
si a</w>
og en</w>
ival ent</w>
is c
W ooden</w>
衡 </w>
算 </w>
幕 末</w>
今 日</w>
t ures</w>
l et</w>
comm and</w>
顕 </w>
行 な</w>
真 宗</w>
中 宮</w>
th us</w>
sum mer</w>
spir it</w>
ret ary</w>
on e-
k o
es e-
att emp
U m
A round</w>
餅 </w>
神 戸</w>
合 併</w>
particip ated</w>
ow ing</w>
kof un</w>
hus band</w>
ent al</w>
distingu ished</w>
bo ard</w>
b ashi</w>
G ar
託 </w>
早 </w>
山 科</w>
変 更</w>
tre ated</w>
pass eng
ex hib
U daijin</w>
T oy
Hyo go</w>
C O
貨 </w>
以 来</w>
テ </w>
sc ro
pro mot
medi eval</w>
k i-
inst all
immedi ately</w>
e e</w>
Tak ak
本 山</w>
侶 </w>
タ </w>
し ょう</w>
tur ed</w>
qu ality</w>
gu ard</w>
dis c
complet ely</w>
U E</w>
Sh oshi
M ost</w>
Kan paku</w>
生 年</w>
旬 </w>
た だ</w>
rit ual</w>
r ated</w>
if ul</w>
h un
ful l</w>
P ol
H achi
Distr ict</w>
1 14
雪 </w>
琶 </w>
琵 琶</w>
尊 氏</w>
国 司</w>
わ け</w>
wh y</w>
occ up
l led</w>
Ki yo
源 義</w>
汁 </w>
厚 </w>
wor ship</w>
me at</w>
equ ivalent</w>
av y</w>
ar ies</w>
am s</w>
開 催</w>
す べ
s ura</w>
ret ained</w>
rec or
r i</w>
man uscrip
leg end</w>
Y od
S es
坐 像</w>
地 蔵</w>
prec inc
diffic ult</w>
atsu -
A g
製 造</w>
生 涯</w>
伝 説</w>
隠 居</w>
蔵 人</w>
わ た</w>
ざ </w>
s ong</w>
on al</w>
ill ed</w>
cloth es</w>
T reasure</w>
Ch oshu</w>
証 </w>
縄 </w>
独 自</w>
焼 き</w>
所 領</w>
s acred</w>
in struc
i x</w>
fac ilities</w>
ac ross</w>
Vol ume</w>
T oh
Mom oyama</w>
8 2</w>
抗 </w>
安 土</w>
堀 </w>
停 車</w>
te enth</w>
sid es</w>
sh o-
s ei
ot su
k yo
Tak at
Sad aijin</w>
SU GI</w>
An cient</w>
述 べ</w>
詠 </w>
編 纂</w>
橘 </w>
崩 御</w>
ん じ
inv est
h ard</w>
ash o</w>
ac ted</w>
Artic le</w>
終 </w>
yo shu</w>
wh ether</w>
sub ject</w>
d ried</w>
R ef
Fac ulty</w>
柳 </w>
ro ugh
grand son</w>
det er
N I</w>
領 主</w>
詩 </w>
評 </w>
w on</w>
un ique</w>
k am
fl av
act ually</w>
A shik
龍 </w>
電 鉄</w>
較 </w>
自 然</w>
比 較</w>
抄 </w>
山 崎</w>
th ings</w>
p ot
od ai</w>
lin ed</w>
in corpor
igh ts</w>
g ive</w>
d ers</w>
Cor por
釈 迦</w>
持 ち
壊 </w>
sy ll
st and</w>
ist ics</w>
O da</w>
NO UE</w>
Kit a</w>
電 車</w>
行 政</w>
提 </w>
ジ ャ
か か</w>
sh ow</w>
poin ted</w>
direc tion</w>
San et
Govern ment</w>
諱 </w>
反 対</w>
w e</w>
success ion</w>
m ust</w>
fig ure</w>
C lo
199 7</w>
阿弥 </w>
桂 </w>
延 喜</w>
師 事</w>
ン グ</w>
us ai</w>
t ext</w>
ring s</w>
r e</w>
estiv als</w>
b en
7 6</w>
198 7</w>
身 分</w>
増 </w>
ら く</w>
rul ing</w>
ass ass
Prov isional</w>
so on</w>
read ing</w>
fac ility</w>
at ory</w>
憲 </w>
sc re
res erv
offic ers</w>
ill ness</w>
ib u</w>
g aku</w>
form ing</w>
Hist or
Am er
200 2</w>
開 設</w>
荷 </w>
胤 </w>
益 </w>
か ん</w>
z ai</w>
soci ety</w>
iv id
depend ing</w>
al es</w>
SA N
基 づ</w>
tempor ary</w>
grand father</w>
ap </w>
快 速</w>
山 口</w>
北 海道</w>
p il
independ ent</w>
ed ition</w>
at ively</w>
Ko be</w>
G on
政 策</w>
亭 </w>
w r
tr ade</w>
stat es</w>
restor ed</w>
r ad
confl ict</w>
administr ative</w>
P ure</w>
K ir
Hig ashi</w>
髪 </w>
軽 </w>
舟 </w>
直 接</w>
毛 利</w>
急 行</w>
一 時</w>
or u</w>
et ic</w>
Shi chi
OTO MO</w>
Ac t</w>
187 2</w>
斐 </w>
デ ィ
すべ て</w>
s em
foun dation</w>
flo or</w>
T osa</w>
T oday</w>
法 名</w>
も っ
y u
ut ting</w>
tic ket</w>
me t</w>
m ound</w>
lead er</w>
l ive</w>
iqu es</w>
K E</w>
C A</w>
製 作</w>
福 知
神 話</w>
揆 </w>
塩 </w>
二 人</w>
sing le</w>
s ak
r end
R en
186 7</w>
辞 任</w>
福知 山</w>
享 </w>
ear ing</w>
dr ama</w>
ch ing</w>
19 28</w>
栄 </w>
冷 泉</w>
乗 り
p ast</w>
Sh ug
G odai
銅 </w>
西 郷</w>
光 秀</w>
shi ki</w>
f er
comm itted</w>
T ot
S ug
S at
Ni jo</w>
G ot
蘇 我</w>
昭 </w>
制 定</w>
事 務</w>
reg ent</w>
m ight</w>
fe at
cust om</w>
8 9</w>
13 0
卒 業</w>
前 後</w>
y u-ji</w>
up per</w>
po t</w>
becom es</w>
M </w>
A ri
進 め</w>
新 た</w>
攻 め</w>
ul p
pro gr
p rem
new ly</w>
me i</w>
e aten</w>
Mi chin
B ridge</w>
笛 </w>
正 二</w>
師 範</w>
夏 </w>
い に</w>
opin ion</w>
ong s</w>
iy ama</w>
ind ivid
hum an</w>
ef for
de ad</w>
crit ic
K ai</w>
Har ima</w>
G O</w>
雅 </w>
王 朝</w>
期 間</w>
援 </w>
土 佐</w>
st ly</w>
s oy
ri age</w>
represent ative</w>
r on</w>
exist ence</w>
can not</w>
arr ived</w>
U kyo</w>
In stitute</w>
H am
188 4</w>
離 れ</w>
過 </w>
登 録</w>
掛 け</w>
山 田</w>
丈 </w>
ロ ッ
ほ う</w>
ustr y</w>
sou thern</w>
m ill
in sul
hon or
et sugu</w>
am p</w>
ai do</w>
ab i</w>
S om
Mas at
測 </w>
元 号</w>
y ama-
rit suryo</w>
ke ep</w>
h at
f ut
bu gyo</w>
NA GA
Han kyu</w>
G yo
念 仏</w>
全 て</w>
well -
rem ain</w>
pl ays</w>
pe i</w>
l ay
eng aged</w>
ear th
d ono</w>
att ers</w>
散 </w>
式 部</w>
n i</w>
list ed</w>
l ove</w>
Sh ak
186 4</w>
雀 </w>
考 </w>
福 岡</w>
担 当</w>
折 </w>
峠 </w>
久 保</w>
下 車</w>
フ ラン
いわ ゆる</w>
wor shi
st ip
o yo</w>
m ess
ef ul</w>
H ai
Ashik aga</w>
rec ent</w>
d one</w>
c rest</w>
beh ind</w>
appear ance</w>
ab ility</w>
R ei
KA WA
K is
Corpor ation</w>
摂 津</w>
y uki</w>
t old</w>
r ather</w>
m ochi</w>
in sp
Pe ople</w>
D az
祖 父</w>
熊 野</w>
清 水</w>
教 授</w>
す ぐ</w>
se -
in e
flow ers</w>
en in</w>
ashi -
Tai sho</w>
薬 </w>
編 入</w>
床 </w>
商 </w>
厳 </w>
仕 </w>
warri ors</w>
por ts</w>
in ner</w>
in ally</w>
act ual</w>
Tran s
Tad a
資 </w>
費 </w>
筋 </w>
大 師</w>
別 当</w>
ひ </w>
u als</w>
st ood</w>
os en</w>
or e</w>
j ects</w>
act ion</w>
M oun
186 3</w>
魂 </w>
祭 り</w>
永 禄</w>
宮 津</w>
天 下</w>
古 屋</w>
tur ned</w>
sh ows</w>
l ady</w>
des ign</w>
der ived</w>
ad ed</w>
Tad at
G ak
阪 急</w>
小 説</w>
仙 </w>
人 気</w>
プ ロ
こ う
spec i
run s</w>
j ob
hal f-
c ou
be an</w>
骨 </w>
運 </w>
大 伴</w>
冬 </w>
僧 侶</w>
re bellion</w>
or a</w>
oc r
m ing</w>
aj ima</w>
Clo istered</w>
碑 </w>
揚 げ</w>
形 成</w>
広 島</w>
侍 従</w>
し く
n el</w>
id ing</w>
ext rem
Tak a
D ue</w>
条 約</w>
文 政</w>
し ょ</w>
ro c
peri ods</w>
mon ks</w>
ion ary</w>
in ated</w>
im asa</w>
belong ing</w>
ap prov
T E
187 0</w>
祇 園</w>
敵 </w>
了 </w>
w are</w>
sh ops</w>
es hi</w>
cr af
c him
atsu k
S y
1 13
隣 </w>
祭 神</w>
東 大</w>
晩 年</w>
改 正</w>
帳 </w>
優 れ</w>
三 好</w>
s our
re comm
ot er
mis s
man aged</w>
lo ok
issu e</w>
ic ine</w>
g on</w>
er ation</w>
8 7</w>
暗 殺</w>
普 及</w>
播 磨</w>
挙 兵</w>
向 け</w>
sur name</w>
k oji</w>
et ting</w>
em press</w>
av o
189 8</w>
確 立</w>
渉 </w>
毎 年</w>
東 海道</w>
宣 </w>
一 揆</w>
warri or</w>
t aste</w>
offic es</w>
dom ains</w>
Yoshim itsu</w>
Par ty</w>
袖 </w>
聖 </w>
禁 止</w>
新 選</w>
寺 社</w>
つ つ</w>
recogn ized</w>
ded icated</w>
cook ing</w>
aut umn</w>
Fuk uoka</w>
Echi zen</w>
E s
B en
越 前</w>
英 </w>
経 営</w>
漢 </w>
児 島</w>
か れ</w>
ou th</w>
n ation
igh ting</w>
dis p
coll ected</w>
b est</w>
angu age</w>
accompan ied</w>
ZU </w>
N H
M aster</w>
Ar ts</w>
鹿 </w>
菓 子</w>
緒 </w>
単 位</w>
ダ </w>
v ir
o o</w>
k ak
ic ted</w>
dispat ched</w>
194 5</w>
遇 </w>
匠 </w>
レ </w>
ヤ </w>
t ool
s w
recor ded</w>
reas ures</w>
ow l
om atic</w>
leg al</w>
compan ies</w>
ashi yama</w>
NH K</w>
軒 </w>
記 載</w>
茶 道</w>
甲 斐</w>
博 士</w>
シ ャ
サ ン
sh op</w>
l etters</w>
i- jo</w>
cl us
as hima</w>
Yas ut
Yamash ina</w>
M and
紫 </w>
映 </w>
r iver</w>
ish in
class ified</w>
ashi ge</w>
al c
add itional</w>
S ar
Ch am
殊 </w>
棟 </w>
役 者</w>
ushi n</w>
s ound</w>
ad em
T at
Shon ii</w>
SHI MA</w>
En gl
齢 </w>
議 員</w>
発 見</w>
ー ン</w>
ゴ </w>
ど ん</w>
ust ri
k imono</w>
g i</w>
fl ower</w>
ent ually</w>
en insul
* </w>
mount ains</w>
g ath
b on
atsu ko</w>
指 揮</w>
内 部</w>
丹 </w>
necess ary</w>
du ce</w>
b ow</w>
Toyo t
S o</w>
Mit sun
諸 国</w>
最 高</w>
主 義</w>
ブ </w>
しく は</w>
tak es</w>
pres ident</w>
ik a</w>
ent ire</w>
beaut iful</w>
U t
落 語</w>
学 生</w>
再 興</w>
倒 </w>
yo ur</w>
s words</w>
pro hib
pol ice</w>
oter ic</w>
ey ori</w>
Yoshin o</w>
UE SUGI</w>
F un
C ol
3 0
199 0</w>
市 川</w>
子 供</w>
代 々</w>
ま つ
s le
r or</w>
pr ai
con qu
comp et
Ten mu</w>
Sh ugo</w>
私 </w>
滅 亡</w>
文 明</w>
握 </w>
女 子</w>
修 行</w>
キ ャ
s ent
j utsu</w>
R ak
Hi ei</w>
Godai go</w>
Ch ok
終 わ</w>
移 転</w>
形 態</w>
廃 </w>
導 入</w>
再 </w>
作 者</w>
す な
sh ar
restaur ants</w>
os eki</w>
exc av
ern s</w>
ash </w>
adv anced</w>
Yoshin aka</w>
Shot oku</w>
Izum o</w>
9 4</w>
裁 </w>
珠 </w>
名 古屋</w>
値 </w>
キ リ
ul ated</w>
draw n</w>
di ary</w>
ceremon ies</w>
K ong
D en
長 州</w>
発 表</w>
災 </w>
cult iv
ch ujo</w>
call </w>
anc ial</w>
Shin ano</w>
M ing</w>
190 7</w>
菜 </w>
求 </w>
少 将</w>
半 島</w>
一 門</w>
str ong
iz ing</w>
ag er</w>
ab a</w>
T on
確 認</w>
成 功</w>
恵 </w>
年 度</w>
南 北朝</w>
三 河</w>
tr ue</w>
techn iques</w>
t suk
rend ered</w>
influ enced</w>
g ir
describ es</w>
cont ains</w>
Nag a
摂 政</w>
後 世</w>
宮 中</w>
star t</w>
pe ace</w>
nin th</w>
jo in</w>
deter min
d ro
chang es</w>
Sak ur
H yak
187 3</w>
権 力</w>
換 </w>
工 事</w>
尉 </w>
安 政</w>
図 書</w>
予 </w>
s pl
re t</w>
eninsul a</w>
ans en</w>
S pec
Q ing</w>
Miy azu</w>
J ing
Hiros hima</w>
百 済</w>
果 た</w>
伊 達</w>
主 張</w>
丘 </w>
w an</w>
w an
ro k
off ered</w>
occas ion</w>
mor ning</w>
k atsu</w>
k abuki</w>
im ent</w>
Yor i
遺 跡</w>
改 革</w>
優 </w>
働 </w>
s per
p ret
long er</w>
et ers</w>
em asa</w>
e ating</w>
TAKE DA</w>
S c
M im
皇 室</w>
注 </w>
様 式</w>
な が</w>
te en</w>
swe et</w>
sh own</w>
seas on</w>
j u-
193 1</w>
昌 </w>
ネ </w>
exist ing</w>
disc us
amp us</w>
a un
SHI MA
Mik awa</w>
C ur
非 </w>
幹 線</w>
台 湾</w>
卵 </w>
ー ク</w>
ゅ </w>
だ い
uz en</w>
iv il</w>
install ed</w>
ingredi ents</w>
i ent</w>
gr ade</w>
exc ell
consist s</w>
con currently</w>
chap ter</w>
Shim og
S cience</w>
Bu il
200 1</w>
- cho</w>
途 中</w>
立 場</w>
皮 </w>
教 え</w>
嵐 山</w>
出 版</w>
ま ず</w>
こ の
け れ</w>
t ang
sh ed</w>
requ est</w>
em ed</w>
Sett su</w>
Me an
Engl ish</w>
道 具</w>
昇 進</w>
岳 </w>
ッ プ</w>
ご ろ</w>
vari ety</w>
surroun ding</w>
sur face</w>
ry ing</w>
pe erage</w>
ic tion</w>
c y
auth or</w>
app ear</w>
J ok
Ar ashiyama</w>
194 9</w>
毛 </w>
文 久</w>
変 わ</w>
sh aku</w>
kn owl
he ight</w>
g un
L it
KA TA
Jushi inoge</w>
He ike</w>
Dai go</w>
規 定</w>
宮 内</w>
大 久保</w>
um asa</w>
territ ories</w>
patt ern</w>
is s
ir on</w>
f ar</w>
ent ert
conn ected</w>
an im
M od
9 3</w>
逃 れ</w>
左 近衛</w>
官 人</w>
国 造</w>
三 重</w>
ド ラ
y i
play ing</w>
k ab
id ence</w>
i ation</w>
ful ly</w>
f estivals</w>
ei e</w>
bur ial</w>
az a</w>
au di
I CO
D r
Chronic les</w>
誌 </w>
率 </w>
公 開</w>
元 服</w>
余 </w>
ス テ
ぞ </w>
し ば</w>
vice- councilor</w>
rin es</w>
pron ounced</w>
m ur
in ojo</w>
fin ancial</w>
ast ed</w>
ag re
M a
ICO CA</w>
Higashi -
役 割</w>
ら え</w>
し い</w>
wh eat</w>
vers ion</w>
sym b
kin ds</w>
bow l</w>
ak ing</w>
Nai daijin</w>
198 0</w>
15 0
陰 陽</w>
密 教</w>
reg arding</w>
ens ive</w>
ag ura</w>
N am
J ik
訪 れ</w>
虎 </w>
ま だ</w>
stand ard</w>
pain ted</w>
exist s</w>
d anc
TA NA
Sub way</w>
Shig e
S erv
Az uchi-
全 体</w>
な み</w>
win ter</w>
neg ot
ak usa</w>
Un ited</w>
Un der</w>
L imited</w>
H ot
庄 </w>
地 名</w>
も しくは</w>
た が</w>
w all</w>
val ue</w>
so y</w>
i- cho</w>
Kat sur
闘 </w>
構 </w>
憲 法</w>
吉 良</w>
z ane</w>
polit ics</w>
el ing</w>
Y a
K oy
A SA
19 29</w>
貿 易</w>
籠 </w>
盛 ん</w>
熊 本</w>
法 皇</w>
実 施</w>
嫁 </w>
区 別</w>
チ ャ
ア ジ
づ け</w>
ut ies</w>
me eting</w>
l acqu
ishi ki</w>
id ea</w>
i j
el ect
arm s</w>
TA CHI
Shim ot
P ubl
Ok in
9 1</w>
情 報</w>
官 職</w>
大 蔵</w>
信 濃</w>
わ ち</w>
sm all
pre par
manag ement</w>
ever y
em er
bu re
Tw o</w>
A gency</w>
19 10</w>
189 0</w>
焼 失</w>
最 大</w>
岡 山</w>
寸 </w>
奪 </w>
壺 </w>
前 方</w>
ン ト</w>
frequ ently</w>
es hi
ZA WA</w>
Yoshi aki</w>
U don</w>
Nag oya</w>
199 3</w>
銘 </w>
謀 </w>
着 用</w>
楽 器</w>
日 野</w>
塾 </w>
四 郎</w>
zuk a</w>
pre pared</w>
op ening</w>
offic ially</w>
mid -
igh t
doc ument</w>
Sh om
P er
G oz
輝 </w>
豪 族</w>
決 </w>
施 行</w>
新 し</w>
峰 </w>
フ </w>
val u
ran ge</w>
p u</w>
lear ning</w>
f are</w>
ch erry</w>
N yo
春 日</w>
敗 れ</w>
宕 </w>
リ ス</w>
すな わち</w>
ri bed</w>
resp ectively</w>
proc ess
d ates</w>
b a
art ial</w>
aku in</w>
Th ose</w>
Mot ot
6 0
枝 </w>
故 </w>
推 定</w>
含 め</w>
住 宅</w>
〕 </w>
pr ay
m ausoleum</w>
em oto</w>
cook ed</w>
Kam e
Be fore</w>
西 洋</w>
狂 言</w>
桜 </w>
愛 宕</w>
山 号</w>
堺 </w>
六 角</w>
保 護</w>
伊 藤</w>
チ ェ
ア ル
〔 </w>
trac ks</w>
sum i</w>
qu ite</w>
mer ged</w>
gr and</w>
cap tured</w>
Shin -
I yo</w>
Di rec
19 18</w>
辰 </w>
落 ち</w>
本 名</w>
指 導</w>
同 母</w>
つ まり</w>
re located</w>
por ting</w>
fi x
ch an
al ty</w>
ICHI KAWA</w>
鹿 児島</w>
近 く</w>
治 承</w>
大 谷</w>
ヶ 原</w>
ust ed</w>
ur b
pro sper
igh tly</w>
Ju ichii</w>
9 9</w>
対 応</w>
シ ア</w>
あ る</w>
z aemon</w>
sh am
plat forms</w>
han ds</w>
Y om
T em
Kuro do</w>
I se-
糖 </w>
摘 </w>
採 用</w>
大 宮</w>
え ば</w>
tro op</w>
k ill</w>
f ighting</w>
brid ge</w>
Hit achi</w>
At su
A no
寄 </w>
宋 </w>
い ん</w>
あ り</w>
― </w>
scrip tion</w>
ot ing</w>
ment al</w>
fun eral</w>
ec hi</w>
col ored</w>
TACHI BA
L e
Karas uma</w>
J izo</w>
那 </w>
造 営</w>
臨 時</w>
球 </w>
水 戸</w>
打 ち
戦 死</w>
意 見</w>
寛 文</w>
タ イ
や ま</w>
stud ent</w>
re pe
prin cess</w>
od ate</w>
min d</w>
hi k
concern ing</w>
bu -
associ ated</w>
achiev ements</w>
Dai shi</w>
1 st</w>
鞍 馬</w>
池 田</w>
敬 </w>
戒 </w>
応 永</w>
屋 根</w>
ち ら</w>
t un
star ting</w>
s ongs</w>
mat ernal</w>
f ar
eg et
d ar
circ um
batt les</w>
al a</w>
Toyot omi</w>
Tak an
Su z
Euro pe</w>
E l
199 6</w>
流 行</w>
法 人</w>
撮 影</w>
パ </w>
tw el
re al
p uku</w>
p et
om s</w>
o s</w>
incorpor ated</w>
dai bu</w>
c it
Sek ig
H in
確 </w>
初 め</w>
分 かれ</w>
stu dies</w>
de ep</w>
bo x</w>
ay uki</w>
an agi</w>
U es
Ot omo</w>
D ew
Ano ther</w>
199 4</w>
背 景</w>
常 陸</w>
左 右</w>
史 跡</w>
下 記</w>
ul ations</w>
stor e</w>
reas ons</w>
ot us</w>
h undred</w>
excell ent</w>
exam ples</w>
Japan ese-
E ar
著 色</w>
曜 </w>
旗 本</w>
工 業</w>
切 り
も と
us o</w>
ri f
restor ation</w>
qu est
partic ularly</w>
bl os
TACHIBA NA</w>
O ld</w>
平 城</w>
姉 </w>
功 績</w>
会 津</w>
アジ ア</w>
wor king</w>
some thing</w>
g ak
dist ance</w>
Shi rakawa</w>
Rik yu</w>
Mot on
関 連</w>
越 後</w>
興 福</w>
糸 </w>
秦 </w>
形 状</w>
供 養</w>
mar riage</w>
le ad</w>
d eg
at a-
af ter
Ref er</w>
Mean while</w>
Jun ii</w>
195 0</w>
189 5</w>
岩 倉</w>
出 川</w>
今 出川</w>
テ レ
ク リ
り 返</w>
あ げ</w>
l ist</w>
hol ding</w>
h air</w>
g umi</w>
follow ers</w>
Kag oshima</w>
K oh
H y
Coun cil</w>
A y
？ </w>
比 </w>
拡 大</w>
墨 </w>
y oku</w>
mo stly</w>
bre w
ac adem
T achi
Prov inc
I shik
En ry
- in-
義 仲</w>
科 学</w>
掘 </w>
建 造</w>
出 土</w>
ー ズ</w>
vill ages</w>
sug ar</w>
sub o</w>
s ects</w>
og y</w>
g am
d an</w>
188 1</w>
追 い
誉 </w>
補 </w>
蝦 夷</w>
必 ず</w>
国 民</w>
ら い</w>
si an</w>
rem oved</w>
profess ional</w>
ind ustry</w>
er ted</w>
S p
R el
O N
Lit er
Kof uku-ji</w>
Echi go</w>
D ied</w>
At ag
9 2</w>
郵 便</w>
車 両</w>
薬 師</w>
能 楽</w>
後 継</w>
太 夫</w>
免 </w>
五 条</w>
しば しば</w>
う どん</w>
th in</w>
rul ed</w>
histor ic</w>
eigh bor
al th</w>
Q u
顔 </w>
批 判</w>
忌 </w>
天 王</w>
城 主</w>
un cle</w>
tai sha</w>
sp ace</w>
l anguage</w>
guar dian</w>
enthron ement</w>
d uties</w>
b es
Tok aido</w>
199 9</w>
郭 </w>
造 り</w>
ヤ マ
t ower</w>
if u</w>
g es</w>
Yoshim asa</w>
Wak ashu</w>
T oz
Shing en</w>
N ishi</w>
D ait
AM URA</w>
9 0
辻 </w>
短 </w>
恩 </w>
団 体</w>
千 葉</w>
今 川</w>
不 動</w>
z on</w>
od es</w>
mak es</w>
mag istr
k oku
g ame</w>
conc ub
Shink ansen</w>
Pro perties</w>
Kaw ar
Fuk u
D ate</w>
1 .
踊 </w>
稲 荷</w>
砂 </w>
異 </w>
改 札</w>
妙 </w>
加 わ</w>
伊 予</w>
代 わり</w>
se ated</w>
r d</w>
mov e</w>
int eg
et aka</w>
ear li
b ott
appl ied</w>
Yoshin obu</w>
Ues ugi</w>
M ori</w>
K ing
He ad</w>
C ent
9 7</w>
4 00</w>
19 26</w>
1 10
高 倉</w>
複 数</w>
致 </w>
刊 行</w>
il ing</w>
em perors</w>
alc oh
Tai wan</w>
Su ch</w>
Kum amoto</w>
KA TSU
194 3</w>
19 11</w>
187 6</w>
諸 説</w>
詳 し</w>
没 後</w>
ドラ マ</w>
ow ager</w>
im it
great ly</w>
dep artment</w>
M ag
194 6</w>
麺 </w>
財 政</w>
訓 </w>
言 え</w>
紀 伊</w>
太 平</w>
天 守</w>
つ く</w>
un ds</w>
passeng ers</w>
indic ates</w>
defe at</w>
ac cor
M ed
I r
C er
199 5</w>
198 9</w>
登 </w>
国 守</w>
和歌 山</w>
モ </w>
yo e</w>
k on
iv al</w>
it ems</w>
head quarters</w>
class ical</w>
att end
Yam an
O I
Dew a</w>
B O</w>
Af ter
9 5</w>
笠 </w>
熱 </w>
招 </w>
唯 一</w>
ュ ー
も ん</w>
y s
um s</w>
separ ated</w>
se eing</w>
ok ami</w>
ex </w>
ev entually</w>
e ut
ancest or</w>
an omiya</w>
an ds</w>
P ers
Kamig yo</w>
G an
B ran
3 rd</w>
199 8</w>
脚 </w>
完 全</w>
和 泉</w>
su n</w>
sc ap
me ant</w>
iy ori</w>
c u
as p
Se e</w>
O d
N o</w>
198 8</w>
鐘 </w>
討 ち
行 動</w>
統 一</w>
純 </w>
人 形</w>
y asu</w>
s wor
di a</w>
b ly</w>
K ichi
G ro
187 7</w>
袋 </w>
蕎 麦</w>
翁 </w>
眼 </w>
切 り</w>
伊 賀</w>
か なり</w>
trad ition</w>
s n
pe as
is land</w>
f ried</w>
bo iled</w>
as k</w>
ag ric
Ok ayama</w>
Confuc ian
1 000</w>
遊 </w>
男 性</w>
男 子</w>
太 鼓</w>
v eget
transf er</w>
stan ds</w>
st ones</w>
jo- dori</w>
is on</w>
dec lined</w>
appoin t
Yoshit aka</w>
Shos anmi</w>
S pring</w>
R U
絹 本</w>
槻 </w>
後 半</w>
威 </w>
sho en</w>
ret re
pres sed</w>
oper ations</w>
n ature</w>
ho usehold</w>
Shi n</w>
Sekig ahara</w>
K ii</w>
G ion</w>
F ut
木 津</w>
明 王</w>
庶 民</w>
刊 </w>
元 和</w>
ラ ス</w>
フ ァ
そ ば</w>
st able</w>
spec ific</w>
sign ific
sh owed</w>
s at
plan ned</w>
ony m</w>
od des
di pl
Sou th</w>
Sh rines</w>
S us
For e
小 野</w>
寛 政</w>
保 元</w>
wh ere
ur yo</w>
ug aku</w>
t aught</w>
st er</w>
r ail
ic ks</w>
f uk
ect or</w>
doc t
ch as
aw ar
as agi</w>
T eng
Kit ak
A BE</w>
連 合</w>
管 領</w>
砲 </w>
比 叡山</w>
殺 害</w>
歴 代</w>
th -
sim ple</w>
opp er</w>
k un
in omiya</w>
h arm
ext ended</w>
L ake</w>
Coun cilor</w>
A w
188 5</w>
1 -
途 </w>
穴 </w>
澤 </w>
演 奏</w>
制 作</w>
依 </w>
井 上</w>
フ ィ
t at
oshi -
fut ure</w>
eff ect</w>
Sak ai</w>
Enry aku-ji</w>
阜 </w>
最 古</w>
昇 </w>
指 摘</w>
性 格</w>
岩 </w>
位 階</w>
し ん</w>
く り</w>
z en
u to</w>
p en</w>
p aid</w>
om ori</w>
l y-
inv ited</w>
im oto</w>
differ ence</w>
b ushi</w>
associ ation</w>
achi- dori</w>
T oba</w>
Sh o</w>
KO NOE</w>
H ay
Bo th</w>
187 5</w>
186 2</w>
家 老</w>
交 流</w>
や か</w>
teach ings</w>
prev ious</w>
ov ere
dr am
Wak ayama</w>
降 伏</w>
津 川</w>
文 禄</w>
岐 阜</w>
学 問</w>
傾 向</w>
主 要</w>
ュ ー</w>
フラン ス</w>
○ </w>
rem aining</w>
oy s</w>
ord ers</w>
dre w</w>
div ision</w>
Yoshit omo</w>
O NO</w>
KU </w>
D o
D ay</w>
Cour ts</w>
1 12
! </w>
電 </w>
関 ヶ原</w>
開 山</w>
練 </w>
国 鉄</w>
国 内</w>
交 渉</w>
上 が</w>
tem per
st ances</w>
se al</w>
reg istered</w>
m artial</w>
l ab
ic ial</w>
clai med</w>
a uc
YO SHI</w>
S E</w>
N en
G er
187 4</w>
横 </w>
書 院</w>
文 庫</w>
五 十</w>
um a-
ro ads</w>
pop ular
k ets</w>
en o</w>
den ly</w>
architect ure</w>
Sak one</w>
K ukai</w>
H oz
Bran ch</w>
B us
静 岡</w>
著 名</w>
自 体</w>
瓦 </w>
洲 </w>
村 上</w>
所 蔵</w>
彼 女</w>
右 近衛</w>
伯 </w>
以 </w>
sh oku</w>
n d</w>
f uku</w>
cent r
ak ami</w>
P eninsula</w>
Michin aga</w>
Hor ik
背 </w>
最 終</w>
扇 </w>
唱 え</w>
代 わ</w>
the ater</w>
t ok
re ported</w>
man or</w>
ex iled</w>
Kam o</w>
In tern
F ive</w>
D e
189 7</w>
河 原
抜 </w>
従 五</w>
南 北</w>
使 者</w>
un iversity</w>
schol ar</w>
patt erns</w>
n ine</w>
fl ed</w>
adv oc
R ap
P i
189 9</w>
長 野</w>
赤 </w>
福 島</w>
放 送</w>
南 部</w>
創 設</w>
伝 来</w>
th ousand</w>
sur rendered</w>
performan ces</w>
p se
mar u</w>
f und
ec hi
dep uty</w>
complet e</w>
b uses</w>
artic les</w>
af f</w>
Y an
The ir</w>
SHI BA</w>
S ok
若 狭</w>
礎 </w>
拠 点</w>
征 夷</w>
南 朝</w>
加 賀</w>
写 本</w>
丁 </w>
もっ とも</w>
t op
sud denly</w>
pun ishment</w>
ivers ary</w>
ig ation</w>
hear d</w>
hai ku</w>
grand child</w>
gr image</w>
fil ms</w>
dr um</w>
cond ition</w>
cer t
am ori</w>
Shi r
San uki</w>
Kin ki</w>
K ad
A izu</w>
2 nd</w>
188 2</w>
駒 </w>
焼 き
洞 </w>
新 田</w>
拓 </w>
弱 </w>
大 友</w>
会 議</w>
この 頃</w>
twent y-
trans portation</w>
suff ered</w>
stit ut
sh o-ji</w>
se ki</w>
op posed</w>
om en</w>
mast er
ishi n</w>
fix ed</w>
Mas a
K im
Gar den</w>
G e
Fore ign</w>
衰 退</w>
沼 </w>
様 子</w>
東 北</w>
壬 申</w>
和 田</w>
か ん
th y</w>
t ext
our s</w>
k ot
j ik
exec uted</w>
Rec ords</w>
Mat suri</w>
M y
K od
I MA
須 </w>
原 因</w>
却 </w>
テレ ビ</w>
ol den</w>
kok ushi</w>
an ded</w>
T re
S eries</w>
D is
長 者</w>
見 せ</w>
統 治</w>
奉 </w>
古 今</w>
主 人</w>
い く</w>
ud ai</w>
tit les</w>
pp on</w>
par k</w>
manuscrip t</w>
m ai
j aku</w>
c are</w>
act ively</w>
Th ereafter</w>
M er
I chin
紹 介</w>
大 宰
た い
し ん
t ive</w>
sim ply</w>
r aw</w>
j uro</w>
it su
gro unds</w>
gr av
extrem ely</w>
bre wing</w>
bas is</w>
att v
ad emy</w>
T V</w>
SO GA</w>
L ady</w>
Confucian ism</w>
総 合</w>
相 手</w>
異 母</w>
畠 山</w>
昔 </w>
上 人</w>
と う
お こ
sum o</w>
su tra</w>
st opped</w>
sl ightly</w>
pse ud
per c
m ixed</w>
m il
k il
jun ior</w>
ex peri
eas ily</w>
d id
ab and
Nishi -
Mi to</w>
Masam une</w>
Kan z
Iz umi</w>
A wa</w>
197 0</w>
／ </w>
皇 位</w>
星 </w>
和歌 集</w>
ter min
progr am</w>
os o</w>
op pos
g ok
entert ain
eng er</w>
ashi ra</w>
Shi jo</w>
Shi gen
SA KI</w>
KU JO</w>
9 6</w>
200 9</w>
貞 観</w>
樹 </w>
噌 </w>
同 一</w>
分 離</w>
伊 豆</w>
オ ー
し ろ</w>
re built</w>
equ ip
Wak asa</w>
Shiz uoka</w>
Os ak
Li brary</w>
K aga</w>
Jin shin</w>
Coll ege</w>
門 院</w>
才 </w>
怪 </w>
又 </w>
個 人</w>
wor k
k az
determin ed</w>
Cham berlain</w>
6 00</w>
190 8</w>
19 27</w>
留 学</w>
明 らか</w>
応 仁</w>
復 活</w>
媛 </w>
信 玄</w>
作 成</w>
上 方</w>
し たが</w>
re duc
oz u</w>
n yo</w>
m ach
liter ary</w>
ec d
did n</w>
contro lled</w>
co in</w>
adv ant
ZA KI</w>
Z E</w>
ON JI</w>
I WA
鸞 </w>
道 長</w>
補 任</w>
絵 画</w>
清 和</w>
復 帰</w>
医 学</w>
レ ー</w>
プ ラ
さ ま
sal t</w>
meas ures</w>
ident ified</w>
do or</w>
c ause</w>
audi ence</w>
ad j
Y U
S oci
O ama</w>
Loc al</w>
Hos okawa</w>
Con t
B akufu</w>
195 5</w>
194 7</w>
19 25</w>
漬 け</w>
機 能</w>
本 拠</w>
替 </w>
所 有</w>
寛 </w>
受 賞</w>
冠 </w>
ダ イ
ribu tion</w>
raphi c</w>
pref ixed</w>
p aste</w>
mon ths</w>
go es</w>
farm ers</w>
curr ency</w>
as an</w>
a- gun</w>
Orig inally</w>
N e
G UCHI</w>
194 4</w>
19 30</w>
188 8</w>
駿 河</w>
酸 </w>
禁 </w>
田 中</w>
宇 多</w>
一 説</w>
ハ </w>
sub mitted</w>
so- called</w>
p ill
op e</w>
le aving</w>
am atsu</w>
Kame oka</w>
C ode</w>
197 6</w>
19 12</w>
課 </w>
記 事</w>
立 ち
ー プ</w>
イン ド</w>
ut su
typ ical</w>
sh ugo</w>
pro ject</w>
p on</w>
larg est</w>
l ad
j ug
S ev
Kof un</w>
D </w>
199 1</w>
158 2</w>
関 わ</w>
結 成</w>
空 海</w>
数 え</w>
倭 </w>
sh all</w>
profess or</w>
probl em</w>
on -ji</w>
los op
lo ok</w>
hi losop
hel p</w>
h ashi</w>
bir th
bel l</w>
ay asu</w>
an y
The ater</w>
Ry uk
195 1</w>
腐 </w>
老 中</w>
特 </w>
書 道</w>
前 田</w>
シ テ</w>
si bility</w>
pract iced</w>
oddes s</w>
mis sed</w>
if y</w>
i um</w>
i er</w>
i ance</w>
fact ion</w>
establ ish</w>
ess es</w>
eg awa</w>
c ard</w>
arm ed</w>
S am
D ev
討 伐</w>
総 称</w>
淀 </w>
永 正</w>
明 智</w>
味 噌</w>
動 き</w>
交 差</w>
亀 岡</w>
ud en</w>
t ale</w>
t ai</w>
s ections</w>
ob tained</w>
impl ement
ig ata</w>
en ant</w>
con fir
coll ap
c tion</w>
S ix
M em
6 72</w>
騒 動</w>
追 討</w>
詣 </w>
自 害</w>
掌 </w>
宗 派</w>
大 江</w>
単 に</w>
亡 くな</w>
万 葉</w>
イ ギ
ず か</w>
し ゅう</w>
stip end</w>
me an</w>
le ave</w>
ing -
hol ds</w>
f ailed</w>
ek atsu</w>
correspon ding</w>
b s</w>
aff ic</w>
SAI ONJI</w>
Rap id</w>
Cur r
16 00</w>
針 </w>
配 置</w>
講 </w>
寿 司</w>
圏 </w>
テ ル</w>
w ind</w>
thre e-
sc ulp
res ent
r are</w>
poin ts</w>
om aru</w>
no bility</w>
mon ument</w>
med ical</w>
kan ji</w>
iy atsuko</w>
hol id
h ong
f ree</w>
cro p</w>
com par
academ ic</w>
Yamag uchi</w>
Y odo</w>
Sur uga</w>
S i
Mod ern</w>
近 藤</w>
海 外</w>
副 </w>
出 羽</w>
タ ン</w>
sty les</w>
ref used</w>
princi ple</w>
instr uments</w>
e ous</w>
dep ar
dec reas
T os
P lat
As a
198 5</w>
189 1</w>
追 放</w>
菩 提</w>
新 羅</w>
復 興</w>
イギ リス</w>
き ょう
teach er</w>
sec ret</w>
rel atively</w>
pro b
portr ait</w>
per s</w>
mo on</w>
mat suri</w>
kn ow</w>
if e</w>
Om iya</w>
E ach</w>
C abinet</w>
4 th</w>
農 民</w>
義 満</w>
方 向</w>
文 献</w>
呼 び
コ ース</w>
ち なみ</w>
sh u
ro se</w>
ri ef</w>
mov ie</w>
ill ustr
f an</w>
ex per
cham ber</w>
cast les</w>
bi ological</w>
back ground</w>
ant ly</w>
af </w>
R u
K ab
Fu ji</w>
F oun
Bo ok</w>
裁 判</w>
衙 </w>
行 き</w>
華 族</w>
菅 原</w>
激 し</w>
天 智</w>
参 </w>
ヨ ー
カ ー</w>
u ter</w>
success ive</w>
sle ev
ob o</w>
m id</w>
h ang
f ai
er i</w>
dis appeared</w>
cont ributed</w>
atsu gu</w>
act ing</w>
YA SHI</w>
Shin ran</w>
S endai</w>
Cer emon
188 7</w>
韓 国</w>
警 察</w>
箱 </w>
祇 </w>
田 原</w>
王 子</w>
愛 知</w>
太 后</w>
嘉 永</w>
we ap
v e
t oku</w>
spir its</w>
rel eased</w>
ob i</w>
jin -
e- shaped</w>
cl es</w>
c off
ait ing</w>
a ek
194 8</w>
過 ぎ</w>
曼 荼
ざ ま</w>
あ たり</w>
sup posed</w>
scro ll</w>
pris ing</w>
prefect ure</w>
n ear
m ult
ill a</w>
id e
er ship</w>
ab d
ab ashi</w>
W at
S H
In d
C ampus</w>
麻 </w>
追 </w>
設 定</w>
規 </w>
脱 </w>
曼荼 羅</w>
商 人</w>
丞 </w>
ラ ー</w>
w alls</w>
ur ban</w>
ud a</w>
tr an
tempor arily</w>
resp ect</w>
reg ional</w>
n ers</w>
n eighbor
mon o</w>
magistr ate</w>
fl our
ell ow</w>
des igned</w>
del iv
ann iversary</w>
Uk one</w>
Moun tain</w>
Ichi jo</w>
Dai j
Ch ar
自 治</w>
山 名</w>
婦 </w>
女 王</w>
t aro</w>
st ock</w>
shog un
pict ures</w>
ok ai</w>
oj a</w>
od his
iy uki</w>
ev il</w>
col ors</w>
c at
bur ned</w>
X </w>
S or
Kyo to-
E st
Bi ography</w>
絡 </w>
発 達</w>
比 べ</w>
干 </w>
増 え</w>
備 え</w>
亀 山</w>
わ ら</w>
w earing</w>
swor d
rul es</w>
om ot
circum stances</w>
Y ug
Nor mal</w>
MI YOSHI</w>
Kat sura</w>
A ichi</w>
5 0
198 1</w>
- shaped</w>
迫 </w>
轄 </w>
茶 屋</w>
用 語</w>
改 名</w>
役 所</w>
ナ ギ</w>
st ri
rak ugo</w>
p ul
on ing</w>
num bers</w>
mat ter</w>
et er</w>
eng r
dai sho</w>
c old</w>
bu c
Im ad
I ga</w>
19 20</w>
薄 </w>
正 三</w>
止 め</w>
屏 風</w>
勇 </w>
well- known</w>
st ated</w>
og i</w>
odhis attv
n ick
it ude</w>
fi re
fac ed</w>
es ada</w>
al one</w>
ad ing</w>
Z u
SHIMA ZU</w>
M ilitary</w>
M E
H aku
G ifu</w>
B et
Am en
194 2</w>
190 4</w>
19 00</w>
隠 </w>
遷 </w>
説 明</w>
裔 </w>
福 井</w>
直 後</w>
減 </w>
本 殿</w>
vir t
ro utes</w>
mis o</w>
merch ants</w>
fol k</w>
fav or
ex change</w>
ea ther</w>
desc ended</w>
ac ks</w>
U me
U chi
Gen er
198 6</w>
197 2</w>
院 政</w>
罰 </w>
文 章</w>
処 </w>
わ ずか</w>
t on
stor es</w>
pro duce</w>
merch ant</w>
med icine</w>
ke ep
iz u-
iv e-
increas e</w>
fin al</w>
dis ease</w>
def ined</w>
and -
B izen</w>
B </w>
189 6</w>
187 8</w>
118 0</w>
重 文</w>
運 営</w>
装 束</w>
航 </w>
相 撲
梨 </w>
東 寺</w>
僚 </w>
シ ュ
コ ー
と おり</w>
y et</w>
prefect ural</w>
mill ion</w>
ine ering</w>
happ ened</w>
great -
concub ine</w>
cloth ing</w>
ay ama-
al ing</w>
achiev ed</w>
R is
N is
MA E
188 6</w>
西 園</w>
箇 所</w>
笠 原</w>
獄 </w>
旦 </w>
券 </w>
住 職</w>
ン ジ</w>
ushi -
sit es</w>
resid ent</w>
por tion</w>
or ized</w>
mod el</w>
it omo</w>
dom in
com pared</w>
Tak e
S ea</w>
Okin awa</w>
Nag ano</w>
H ashi
Gr ad
197 9</w>
190 5</w>
苑 </w>
産 業</w>
流 通</w>
展 示</w>
専 攻</w>
妓 </w>
到 着</w>
切 腹</w>
yo -ji</w>
sup pl
stre am</w>
st ep
rel i
prohib ited</w>
po ets</w>
att ended</w>
Sai go</w>
K ing</w>
Ac ademy</w>
9 8</w>
買 </w>
璃 </w>
独 特</w>
浅 井</w>
峯 </w>
展 開</w>
寄 せ</w>
宝 暦</w>
妖 怪</w>
奥 州</w>
合 い</w>
側 室</w>
ま い</w>
t reasures</w>
pr ay</w>
p ine</w>
l ives</w>
im ages</w>
giv ing</w>
er ce</w>
descrip tions</w>
d an
c ities</w>
Tre at
T ar
Stu dies</w>
Kot su</w>
Four </w>
A shi
面 積</w>
阿 </w>
辞 職</w>
貴 </w>
維 持</w>
叔 父</w>
un in</w>
se k
mar ket</w>
flav or</w>
f usa</w>
buil d</w>
beli ef</w>
ann ounced</w>
Toh oku</w>
N R</w>
K aj
G oj
行 為</w>
泰 </w>
朝 臣</w>
工 芸</w>
山 陰</w>
執 権</w>
元 々</w>
修 理</w>
丼 </w>
せ ん</w>
さま ざま</w>
ub </w>
spec ially</w>
mus ical</w>
eut enant</w>
en ori</w>
as aka</w>
al t
af uku</w>
O e</w>
N um
Kok ushi</w>
ICHI JO</w>
Em p
閏 </w>
読 み</w>
相撲 </w>
王 寺</w>
支 え</w>
北 部</w>
個 </w>
く に</w>
ro oms</w>
per forming</w>
oper ating</w>
n on-
ll s</w>
l iqu
iz an</w>
id en</w>
i hira</w>
cont ents</w>
ch ec
bl ock</w>
Nor th</w>
Est abl
長 官</w>
氏 族</w>
歴 任</w>
家 系</w>
大 神</w>
大 戦</w>
命 令</w>
周 囲</w>
w a-
res ist
n ag
min ute</w>
knowl edge</w>
j ima</w>
individ ual</w>
ent ary</w>
en obu</w>
en ligh
dis covered</w>
clud ed</w>
character istics</w>
cent im
bl ood</w>
appoint ment</w>
U da</w>
Sy stem</w>
MATSU </w>
K yo</w>
Iz u</w>
Direc tor</w>
D ist
B O
186 5</w>
黒 田</w>
讃 岐</w>
潟 </w>
楼 </w>
染 </w>
で に</w>
か わ</w>
あ と</w>
wh om</w>
re in
possess ed</w>
p ed
m ai</w>
et oki</w>
e er</w>
bet to</w>
a jo</w>
P a</w>
MI ZU
J NR</w>
190 1</w>
187 9</w>
10 th</w>
譲 位</w>
特 定</w>
授 け</w>
慮 </w>
効 果</w>
ひ め</w>
tw o-
strong ly</w>
re vol
k ey
head s</w>
et a</w>
as sum
arran g
and ai</w>
an thology</w>
V i
Shog oin
AM A
親 し</w>
舗 </w>
称 号</w>
皇 太后</w>
瑠 璃</w>
滝 </w>
権 守</w>
既 に</w>
周 </w>
北 家</w>
す でに</w>
く ら</w>
un o</w>
sec ular</w>
sc ribed</w>
relig ion</w>
r ain</w>
influ ential</w>
h ot
e- cho</w>
ag aku</w>
B iwa</w>
8 th</w>
199 2</w>
19 23</w>
養 女</w>
芸 能</w>
経 歴</w>
禰 </w>
序 </w>
大 石</w>
否 </w>
利 休</w>
事 情</w>
ち ょう</w>
w aiting</w>
transl ated</w>
precinc ts</w>
oy al</w>
nick name</w>
gen eal
expres sion</w>
be ans</w>
an ecd
ac ts</w>
Rei zei</w>
Min ami</w>
F ollow
Cl an</w>
Chi ba</w>
高 速</w>
秋 田</w>
甲 </w>
琴 </w>
株 式</w>
東 宮</w>
官 軍</w>
ロッ パ</w>
き り</w>
v ict
us ion</w>
ri es</w>
re form</w>
organ iz
nov el</w>
man ner</w>
i- no-
fin ished</w>
expres sed</w>
equ al</w>
en aga</w>
dom est
celebr ated</w>
beaut y</w>
arran ged</w>
arr ing</w>
Y on
T ott
M et
Emp ire</w>
･ </w>
鴨 </w>
食 品</w>
静 </w>
親 鸞</w>
葺 </w>
落 と</w>
署 </w>
神 楽</w>
畑 </w>
植 物</w>
底 </w>
婿 </w>
大 宝</w>
ヨー ロッパ</w>
ut en</w>
respon sible</w>
re organized</w>
or -
o be
ire ment</w>
ig g
def ense</w>
d own
Sag ami</w>
O yam
Dai jo-
B es
A gr
1 ,
- in</w>
金 堂</w>
重 ね</w>
系 譜</w>
梁 </w>
大 字</w>
基 礎</w>
古 典</w>
医 </w>
乗 車</w>
sett led</w>
schol ars</w>
posthum ously</w>
n en
daugh ters</w>
cont ained</w>
consist ed</w>
bas ic</w>
att ention</w>
alcoh ol</w>
YOSHI DA</w>
Sub sequently</w>
Ok imi</w>
MI YA
Kum ano</w>
Kamig ata</w>
Ex press
Col or</w>
Atag o-
188 0</w>
鳥 取</w>
菊 </w>
浅 野</w>
提 出</w>
怒 </w>
広 ま</w>
僧 正</w>
価 値</w>
一 定</w>
り ゅう</w>
um oto</w>
sup porting</w>
row s</w>
ph as
opp ing</w>
om asa</w>
oh ama</w>
main tained</w>
ge isha</w>
dis sol
de b
d ry</w>
d ingly</w>
cond itions</w>
c opper</w>
b ad</w>
advis er</w>
Ta Pa</w>
Pi TaPa</w>
K O</w>
G od</w>
& </w>
飲 </w>
謡 </w>
美 し</w>
組 み
決 め</w>
構 え</w>
日 付</w>
三 浦</w>
か つ</w>
sub sequently</w>
pos it
our n
ot es</w>
on ji</w>
m m</w>
instr ument</w>
in j
g oods</w>
chi ka</w>
ant i-
Spec ial</w>
M uk
Kur ama</w>
Grad u
D owager</w>
Agr ic
小 笠原</w>
四 男</w>
仏 像</w>
下 野</w>
ロ ー
もと もと</w>
も たら</w>
ど の</w>
cons ort</w>
comp il
commun ity</w>
an ks</w>
al tern
W arring</w>
Miy oshi</w>
Jugoin ojo</w>
I KE
E astern</w>
A ut
5 th</w>
196 0</w>
19 19</w>
斎 藤</w>
寿 永</w>
富 士</w>
六 条</w>
ロ シア</w>
us en</w>
u sh
scap e</w>
ro les</w>
rit uals</w>
r at
is es</w>
di o</w>
d ered</w>
d aira</w>
c and
am ichi</w>
ak es</w>
ag uchi</w>
Pro duc
Mot o
I C</w>
G in
G aku
FU KU
Con stitution</w>
Cent ral</w>
謀 反</w>
泊 </w>
本 格</w>
朝 倉</w>
幼 少</w>
女 御</w>
仮 名</w>
人 口</w>
o x</w>
n ep
l ic
k oto</w>
it ors</w>
ident ally</w>
h ours</w>
er ous</w>
direc ted</w>
Shik ibu</w>
Sad an
G ojo</w>
Ch o
7 th</w>
193 2</w>
鉢 </w>
討 ち</w>
藍 </w>
聖 徳</w>
畿 内</w>
河原 町</w>
水 野</w>
失 敗</w>
天 満</w>
也 </w>
ヲ </w>
や ま
し め</w>
str ateg
per mitted</w>
gre w</w>
co us
Rec ord</w>
Liter ature</w>
189 4</w>
融 </w>
監 </w>
環 </w>
消 滅</w>
存 続</w>
外 交</w>
ッ ト
も う</w>
た び</w>
r ate</w>
par t
p en
fun ct
er ly</w>
em ichi</w>
br on
br ing</w>
amp aig
am ik
T en</w>
Shimot suke</w>
SU GA
On ly</w>
Fuk ui</w>
Dai k
集 落</w>
調 理</w>
袴 </w>
繁 </w>
扱 い</w>
弦 </w>
建 久</w>
延 長</w>
勤 め</w>
創 立</w>
ジ ェ
the at
sy st
sho oting</w>
sett l
scre en</w>
odhisattv a</w>
en ough</w>
draw ing</w>
c rown</w>
bro ad
ar ist
T sub
T ob
San j
Mas ako</w>
G om
D em
筒 </w>
発 掘</w>
病 院</w>
沖 縄</w>
替 え</w>
戦 闘</w>
弘 仁</w>
山 本</w>
家 庭</w>
刃 </w>
ネ ル</w>
tr affic</w>
te e</w>
t ei</w>
reserv ation</w>
pur su
og o</w>
int ern
har v
g or
ex clus
d y
consist ing</w>
Se ik
L </w>
Intern ational</w>
4 0
緯 </w>
窓 </w>
甥 </w>
征 </w>
委 員</w>
天 明</w>
北 野</w>
全 く</w>
但 し</w>
仙 台</w>
イン ター
ter y</w>
t al</w>
sus hima</w>
sho in</w>
s af
re placed</w>
k in</w>
gath ered</w>
ay ashi</w>
arist ocr
a- gawa</w>
Tak as
Ot ani</w>
Nak amaro</w>
Nag at
Myo o</w>
Mik o</w>
Kon oe</w>
Ka oru</w>
6 th</w>
194 0</w>
碗 </w>
摂 関</w>
従 四</w>
家 紋</w>
夢 </w>
侵 攻</w>
し も</w>
prev ent</w>
pain ter</w>
no -ji</w>
nep he
m os
k e-
g if
eg g</w>
ar i-
ann ual</w>
ak ata</w>
air i</w>
Rail ways</w>
Follow ing</w>
門 下</w>
赴 </w>
狩 野</w>
死 亡</w>
改 元</w>
所 属</w>
御 陵</w>
女 房</w>
両 者</w>
い っ
ustri al</w>
tow ards</w>
sec retary</w>
rem ar
rece ive</w>
re str
le af</w>
j o-ji</w>
it able</w>
is ions</w>
int erv
ing o</w>
ep tion</w>
earli er</w>
conn ection</w>
approv ed</w>
an osuke</w>
a- no-
Yo u</w>
Y um
OKU </w>
Man yoshu</w>
逸 話</w>
起 き</w>
払 </w>
大 徳</w>
和 服</w>
吹 </w>
円 墳</w>
上 演</w>
のみ こと</w>
wid th</w>
teach ing</w>
st icks</w>
s overe
s aw</w>
s ango</w>
res sed</w>
recomm ended</w>
popular ity</w>
m om
l y
in f
fol ding</w>
feat ures</w>
f illed</w>
eng a</w>
en- in</w>
deep ly</w>
c abinet</w>
bo at</w>
an ami</w>
am ura</w>
a- ji</w>
Tad ayoshi</w>
T o-ji</w>
Plat form</w>
Hei an-
190 6</w>
- -
鳥 居</w>
集 団</w>
要 求</w>
系 図</w>
河 原</w>
技 法</w>
征 伐</w>
好 み</w>
国 衙</w>
ク ション</w>
ゅ う
urb ance</w>
u o</w>
sour ce</w>
rap id</w>
per mission</w>
n yo
introduc tion</w>
h air
f u
e hira</w>
d a
cor rec
app ed</w>
al u
ah ama</w>
T atsu
Sad at
S as
O uchi</w>
N U
A KE
遺 </w>
豆 腐</w>
英 語</w>
祭 祀</w>
民 間</w>
建 武</w>
宝 永</w>
タン ゴ</w>
ガ </w>
ま とめ</w>
ほ う
ふ じ
we ight</w>
tell ing</w>
sham isen</w>
sel or</w>
o sho</w>
o il</w>
n in</w>
is ine</w>
fl our</w>
ev ening</w>
escap e</w>
cr imin
conf ron
bron ze</w>
T E</w>
T </w>
M ir
Kas ug
K ang
Ishik awa</w>
H an</w>
Cl ass
A sia</w>
8 00</w>
19 15</w>
黄 </w>
解 説</w>
童 </w>
浪 士</w>
注 意</w>
未 詳</w>
教 会</w>
後 述</w>
予 定</w>
ト ン
ティ </w>
キリ スト</w>
イ ツ</w>
st aff</w>
some one</w>
pseud onym</w>
prob ably</w>
oll ow</w>
ob ject</w>
ep ts</w>
conc ept</w>
character istic</w>
S in
Matsu daira</w>
Express way</w>
雑 </w>
斯 波</w>
叙 爵</w>
作 業</w>
仮 </w>
ぶ り</w>
す れ</w>
territ orial</w>
t ation</w>
st ay</w>
sh ou
produc t</w>
p an
m al
law s</w>
her self</w>
heav y</w>
heav en</w>
effor ts</w>
distr icts</w>
car ds</w>
auc r
ag ami</w>
aband oned</w>
J im
F ud
Es oteric</w>
194 1</w>
190 2</w>
11 th</w>
0 s</w>
開 拓</w>
許 可</w>
浄 </w>
承 久</w>
居 士</w>
出 仕</w>
仁 和</w>
マ ン</w>
んじ ゃ</w>
the ast</w>
spl it</w>
play er</w>
ig en</w>
i jo</w>
g an</w>
asc ended</w>
Sun g</w>
Soci ety</w>
NO MI
HA SHI</w>
5 -
197 7</w>
重 臣</w>
臨 済</w>
相 模</w>
小 倉</w>
入 学</w>
下 り</w>
w el
pres ents</w>
pr ice</w>
est im
ess or</w>
em phas
el t</w>
e ast
cl am
bar bar
af t</w>
Yamag ata</w>
Ses sho</w>
O shu</w>
Michi t
Fuk ushima</w>
AKE CHI</w>
189 2</w>
麿 </w>
貨 物</w>
虫 </w>
義 昭</w>
無 形</w>
混 乱</w>
本 能</w>
山 内</w>
天 平
包 </w>
効 </w>
おこ な</w>
え き</w>
vi ously</w>
s of
retur ning</w>
r iv
peas ants</w>
p ital</w>
ok yo</w>
k ey</w>
k en
it suna</w>
expl ained</w>
excav ated</w>
conv en
con fin
cham berlain</w>
b ara</w>
at er
ar d
adv ance</w>
Yoshin ori</w>
Ten no</w>
SAN JO</w>
Nag amasa</w>
Ise- jingu</w>
F um
2 -
196 9</w>
12 th</w>
解 釈</w>
薫 </w>
標 高</w>
安 定</w>
大 仏</w>
堀 川</w>
同 盟</w>
原 則</w>
勝 利</w>
前 述</w>
共 通</w>
停 </w>
ホ テル</w>
view s</w>
tar get</w>
sub -
ser ious</w>
se as</w>
proc ed
is ed</w>
in a
fig ures</w>
f ish
ear th</w>
dis missed</w>
comm enced</w>
com ic</w>
accor dance</w>
Z e
Rep resent
M ie</w>
HI RA
G OKU</w>
Com man
領 地</w>
正 面</w>
支 持</w>
子 爵</w>
坂 本</w>
一 覧</w>
ん な</w>
よ し</w>
sp aper</w>
serv ant</w>
opin ions</w>
m ist
ic him
h ab
fr ag
d in
bure aucr
avo id</w>
atsu ki</w>
P or
NI SHI
KA DO</w>
K YO
I emitsu</w>
C o
A ko</w>
195 4</w>
19 13</w>
騎 </w>
縁 起</w>
新 潟</w>
役 職</w>
側 近</w>
z umi</w>
se emed</w>
restaur ant</w>
prin ted</w>
pres sion</w>
ph ys
ou ter</w>
off er</w>
l uc
l ef
k wheat</w>
iz es</w>
fl ute</w>
dec line</w>
coun ter
cost ume</w>
cont ent</w>
car ry</w>
bu kyo</w>
Te chn
Tai sha</w>
Stat ue</w>
Pol ice</w>
NI SHI</w>
Kam eyama</w>
J os
A ward</w>
196 3</w>
表 面</w>
統 合</w>
知 事</w>
病 死</w>
松 尾</w>
宿 禰</w>
古 来</w>
占 め</w>
互 </w>
主 流</w>
下 京</w>
か た</w>
s ada</w>
prefect ures</w>
ok uni</w>
nephe w</w>
l -
k u
it ai</w>
g y
fac ing</w>
f oc
empl oyed</w>
dev oted</w>
ch ur
av al</w>
ar rest
af usa</w>
ab ov
Koz uke</w>
KAN ZE</w>
K atsum
Hid etada</w>
Con sequently</w>
B uk
196 6</w>
- do</w>
邦 </w>
距 離</w>
襲 名</w>
行 幸</w>
著 作</w>
答 </w>
民 俗</w>
家 元</w>
出 陣</w>
俳 優</w>
仲 麻呂</w>
世 襲</w>
ド イツ</w>
カ レー</w>
um o</w>
th ick</w>
succ eed</w>
p air</w>
job </w>
il s</w>
ent ering</w>
b ank</w>
az ono</w>
Sh oz
Po etry</w>
K oya</w>
B yo
Azuchi- Momoyama</w>
Ap pointed</w>
190 9</w>
知 行</w>
生 母</w>
浄 瑠璃</w>
法 然</w>
法 師</w>
横 浜</w>
桓 武</w>
寄 進</w>
temper ature</w>
p ite</w>
it subo</w>
integ rated</w>
fri end
f ru
es uke</w>
doc tor</w>
d uty</w>
d emon
at ors</w>
S ait
On in</w>
Ni ppon</w>
K izu</w>
Japanese- style</w>
I NOUE</w>
D ut
198 4</w>
- style</w>
青 </w>
難 波</w>
貨 幣</w>
秀 忠</w>
物 部</w>
材 料</w>
支 援</w>
捕 </w>
夫 人</w>
國 </w>
勧 修</w>
備 前</w>
会 員</w>
と り
こ そ</w>
が り</w>
soy -
per form</w>
lik ely</w>
k o-
k a
jo y</w>
g ates</w>
e- jinja</w>
e th</w>
dist inc
dis continued</w>
dec ision</w>
dec eased</w>
blos som
Yoshi hiro</w>
Sh aka</w>
Serv ice</w>
N avy</w>
Mitsun ari</w>
IS B
I N</w>
D E
鉄 砲</w>
訴 </w>
装 飾</w>
目 指</w>
嶋 </w>
大 量</w>
坂 上</w>
入 道</w>
京 福</w>
サ ー
まつ り</w>
” </w>
vi ol
treat ment</w>
ten ment</w>
tang ible</w>
surroun ded</w>
su i</w>
stor y
situ ated</w>
ro of
r up
prot ection</w>
or i-
oppos ite</w>
m ig
il ized</w>
act ions</w>
S oh
N ishin
M id
I bar
Hachim an-
Bas ed</w>
195 9</w>
195 2</w>
190 3</w>
118 5</w>
象 徴</w>
脇 </w>
結 局</w>
納 め</w>
灯 </w>
漢 字</w>
平 治</w>
尽 力</w>
変 え</w>
処 分</w>
さ え</w>
og raphi
m useum</w>
larg e-
ic an</w>
gradu ated</w>
em or
e k</w>
ch osen</w>
ceremon ial</w>
bro ken</w>
ai gh
Y os
W omen</w>
Tsun e
Treat y</w>
Tott ori</w>
S tr
P ain
O aza</w>
O KA
Ni igata</w>
Kei han
K ira</w>
Hon en</w>
G AM
El ementary</w>
Dev elop
Christ ian</w>
Bes ides</w>
19 14</w>
鎮 </w>
貢 </w>
著 書</w>
砂 糖</w>
本 姓</w>
捕 らえ</w>
嵯峨 野</w>
天 神</w>
佐 々
争 い</w>
サ イ
か み</w>
wan ted</w>
ushi ge</w>
tool s</w>
sho sho</w>
sec on
re port</w>
pris ed</w>
im p
ichi ka</w>
hilosop h
foun ding</w>
e el</w>
don ated</w>
dis played</w>
centim eters</w>
ap s</w>
achi ka</w>
Y aw
Tak ar
SA ITO</w>
Nag ayoshi</w>
N y
Mis asagi</w>
L ord</w>
Cap ital</w>
総 督</w>
神 事</w>
武 器</w>
姉 妹</w>
ラン ド</w>
ur ity</w>
sh un</w>
ri ch</w>
ret irement</w>
po or</w>
o bu
meth ods</w>
l aun
en ly</w>
em at
el eg
cu isine</w>
chi c
ch o
as ion</w>
Tad an
T y
Shim azu</w>
Michi zane</w>
Kag ami</w>
K o</w>
J or
In dia</w>
Gro up</w>
Gener ally</w>
D oc
C are
Ab out</w>
A ki</w>
196 8</w>
連 歌</w>
設 計</w>
花 園</w>
結 び
禅 宗</w>
煮 </w>
明 石</w>
従 来</w>
将 門</w>
安 倍</w>
原 料</w>
y aki</w>
transl ation</w>
tr u
occup ied</w>
f ab
ev alu
dist ributed</w>
dep icted</w>
am achi-dori</w>
ac es</w>
Si ege</w>
San in</w>
SA WA</w>
O uter</w>
Di ary</w>
A man
197 1</w>
118 3</w>
｢ </w>
． </w>
長 岡</w>
鍋 </w>
道 場</w>
軍 勢</w>
試 験</w>
紙 本</w>
環 境</w>
深 草</w>
朱 雀</w>
宮 城</w>
嫡 子</w>
大 輔</w>
吾 妻</w>
取り 入れ</w>
削 </w>
処 刑</w>
冊 </w>
信 頼</w>
例 えば</w>
佐々 木</w>
し 出</w>
v en
stud ying</w>
revis ed</w>
resul ted</w>
in u</w>
enj oyed</w>
enc our
en ari</w>
domest ic</w>
da ily</w>
attemp ted</w>
ashi ki</w>
app rec
Tok u
P reservation</w>
OT SU
MU RA
M ausoleum</w>
Kyo tan
Inter change</w>
He ad
Con tro
B l
196 5</w>
195 6</w>
進 出</w>
積 極</w>
旗 </w>
文 人</w>
実 子</w>
壬 生</w>
写 真</w>
下 向</w>
丁 目</w>
ヶ 月</w>
ず る</w>
t sm
pray er</w>
ph r
in sist
f ishing</w>
clam ation</w>
chang ing</w>
an ding</w>
Yok ohama</w>
Toz ai</w>
T sug
Rin zai</w>
Rail road</w>
O E</w>
F udo</w>
An n
Ad ministr
避 け</w>
農 業</w>
賛 </w>
紀 州</w>
百 姓</w>
演 目</w>
東 国</w>
新 設</w>
前 身</w>
兼 ね</w>
じ んじゃ</w>
w rest
ut ens
sev ent
rel ative</w>
oy u</w>
n t</w>
n arrow</w>
m iko</w>
is ode</w>
ex ten
er ring</w>
econom ic</w>
arrang ement</w>
ach ing</w>
ac ent</w>
Six th</w>
Mur asaki</w>
M o
Kin ai</w>
Care er</w>
7 00</w>
19 22</w>
19 21</w>
附 </w>
訪 </w>
推 測</w>
合 流</w>
協 力</w>
労 </w>
公 方</w>
つ か</w>
≒ </w>
tri p</w>
n or</w>
lo oks</w>
e ji</w>
cous in</w>
bo y</w>
Yoshim une</w>
O ri
Kan mu</w>
Hok ke</w>
H as
Dut ch</w>
Ak ashi</w>
195 7</w>
阿 波</w>
開 通</w>
要 素</w>
経 緯</w>
竹 田</w>
石 山</w>
燥 </w>
滅 ぼ</w>
掛 </w>
巡 </w>
地 元</w>
否 定</w>
六 波
パ ス</w>
や く</w>
ば かり</w>
yo i</w>
ten th</w>
st ops</w>
sh u-
p ick
of uk
j ected</w>
im ei</w>
ed ict</w>
arrest ed</w>
a- dera</w>
Shi ki</w>
Re bellion</w>
O f</w>
L eg
Inc identally</w>
Chug u</w>
C ulture</w>
A RA
195 3</w>
箏 </w>
直 通</w>
番 号</w>
町 名</w>
滞 在</w>
消 </w>
段 階</w>
条 件</w>
書 き
捨 て</w>
分 家</w>
乾 燥</w>
あ わせ</w>
un clear</w>
str ing</w>
requ ested</w>
ren der</w>
reg ulations</w>
r ise</w>
pop ulation</w>
for est</w>
et suna</w>
et omo</w>
eng yo</w>
em bl
ed s</w>
dec lar
c over</w>
bl ue</w>
Yas um
Sog a</w>
Sec retary</w>
Roku hara</w>
K i</w>
Histor ical</w>
Az uma</w>
A re
193 4</w>
込 み</w>
李 </w>
安 芸</w>
喜 多</w>
厳 し</w>
一 切</w>
twent y</w>
str ength</w>
oji- dori</w>
m en
m atters</w>
j uku</w>
ina ug
ill s</w>
ig o</w>
fer ment
ess ion</w>
ent r
danc ing</w>
all ied</w>
V ar
Tak akura</w>
R E
DA TE</w>
連 絡</w>
赤 穂</w>
移 動</w>
発 足</w>
片 岡</w>
尾 上</w>
固 </w>
ず つ</w>
z ed</w>
writ er</w>
worshi pped</w>
str aigh
separ ate</w>
sec ret
rough </w>
rece iving</w>
n ur
ig i</w>
buc kwheat</w>
b al
af u</w>
a yo</w>
a e
Shon in</w>
H ogen</w>
198 2</w>
158 5</w>
15 0</w>
隈 </w>
詰 め</w>
宇 都
け ん</w>
resid ential</w>
rel atives</w>
promot ion</w>
pow ers</w>
ow ad
oj u</w>
it aka</w>
in scription</w>
il d</w>
hilosoph y</w>
exhib ition</w>
achiev ement</w>
Shogoin oge</w>
Nik ko</w>
Masak ado</w>
Con struc
B rit
197 8</w>
193 3</w>
189 3</w>
-in- law</w>
説 話</w>
裂 </w>
祐 </w>
淀 川</w>
政 宗</w>
意 識</w>
寧 </w>
家 光</w>
奈 </w>
報 告</w>
四 国</w>
博 多</w>
勲 </w>
再 度</w>
ー ション</w>
や や</w>
み な
は っ
だ い</w>
z ushi</w>
sy n
s anc
pro mis
prai sed</w>
o x
met al</w>
l er</w>
k y</w>
k -
i ary</w>
hon or</w>
g uchi</w>
form erly</w>
exp ected</w>
confir med</w>
bre ak</w>
ak ed</w>
ab sor
Sag ano</w>
S illa</w>
R em
P ort</w>
N aka</w>
M ah
Kei cho</w>
F rance</w>
Com mer
15 th</w>
長 政</w>
錦 </w>
製 法</w>
病 気</w>
狗 </w>
松 本</w>
地 頭</w>
兵 部</w>
ラン ダ</w>
フ ェ
の り
th ereafter</w>
ter u</w>
super vis
s ions</w>
ro b
play ers</w>
no ji</w>
k or
it ation</w>
int ended</w>
gok enin</w>
g etting</w>
flour ished</w>
cros sing</w>
ai e</w>
Ten chi</w>
Pers onal</w>
O NOE</w>
KO NDO</w>
K ishu</w>
K ib
Hak odate</w>
196 7</w>
19 24</w>
鑑 </w>
鋳 造</w>
野 村</w>
認 定</w>
茶 碗</w>
弥 </w>
地 上</w>
分 か</w>
カ ード</w>
u prising</w>
shogun al</w>
min ist
inter est</w>
in al</w>
id ly</w>
gu ards</w>
form ers</w>
env oys</w>
entertain ment</w>
categ ory</w>
Shi koku</w>
S ong</w>
R ev
Mem orial</w>
KU R
J ingu</w>
Ch ap
A cc
3 .
2 .
157 3</w>
雅 楽</w>
農 </w>
葬 儀</w>
義 朝</w>
経 典</w>
神 奈
漫 画</w>
正 五</w>
最 </w>
彩 </w>
帥 </w>
専 用</w>
佐 賀</w>
下 げ</w>
三 味</w>
ア ク
と も
と う</w>
w as
ut ation</w>
soy- sauce</w>
sel f-
rit es</w>
r aid</w>
pass ing</w>
owad ays</w>
m ichi</w>
ky oku</w>
ion er</w>
contr ast</w>
ar g
al i
T oshim
Shimog yo</w>
S un</w>
P ass</w>
O shi
KI TA
JI MA</w>
Gradu ate</w>
Ex am
E izan</w>
Amer ica</w>
阪 神</w>
補 佐</w>
突 </w>
弁 当</w>
家 格</w>
創 作</w>
伽 藍</w>
伸 </w>
一 色</w>
一 番</w>
surv ey</w>
sp ent</w>
se ats</w>
rev en
pro posed</w>
k atsu
in om
eri a</w>
el ess</w>
ch air
bas ically</w>
ac king</w>
Th ough</w>
TA KE</w>
Naga ok
N it
B ound</w>
159 0</w>
索 </w>
牧 </w>
標 </w>
本 社</w>
是 </w>
携 </w>
成 長</w>
戊 辰</w>
定 員</w>
宇都 宮</w>
中 華</w>
ブ ル</w>
カ バ
な か
つ いに</w>
ち ょう
t ofu</w>
s kill
s cience</w>
resid ents</w>
n avy</w>
l e-
in n
ick ly</w>
ic ian</w>
h os
enligh tenment</w>
d oll
d ay
c ell
ash ed</w>
al thy</w>
Suk une</w>
St ud
Provinc es</w>
Lt d
Di et</w>
Ak ita</w>
186 6</w>
13 th</w>
食 事</w>
総 裁</w>
畳 </w>
栄 え</w>
文 治</w>
増 加</w>
回 復</w>
剣 術</w>
と り</w>
う え</w>
tur n</w>
sugg ests</w>
ref erence</w>
produc ing</w>
port un
pl um</w>
pl ants</w>
pl ant</w>
negot i
ir u</w>
implement ed</w>
ight seeing</w>
govern ors</w>
drin king</w>
dep art
dam age</w>
d or
cap tain</w>
c odes</w>
c .</w>
barbar ians</w>
arch ery</w>
W ar
Su o</w>
O UCHI</w>
N E
Ltd .</w>
A KA
4 -
14 0
項 目</w>
隆 盛</w>
開 基</w>
逃 亡</w>
橋 本</w>
平 定</w>
実 質</w>
商 品</w>
勤 </w>
ー ツ</w>
リ ン
オ ランダ</w>
う け</w>
sub ordin
par ents</w>
m ass</w>
isc al</w>
in ity</w>
hi d
hat amoto</w>
depar ted</w>
ampaig n</w>
ZU KI</w>
U z
U mak
Tsun ayoshi</w>
SA I</w>
Kyo gen</w>
Em ishi</w>
｣ </w>
重 視</w>
越 え</w>
表 示</w>
絶 え</w>
福 知</w>
生 駒</w>
消 息</w>
正 親
最 近</w>
恐 れ</w>
広 が</w>
崩 壊</w>
加 藤</w>
トン ネル</w>
コ ール</w>
イ ザ
わ れ</w>
も ち
み な</w>
r ics</w>
probl ems</w>
par ties</w>
no thing</w>
long -
kab ane</w>
init ially</w>
i ji</w>
honor ific</w>
den s</w>
cur ry</w>
correspon ds</w>
c aught</w>
ang u</w>
YA NA
J og
Dait oku-ji</w>
197 3</w>
196 4</w>
配 流</w>
賊 </w>
解 体</w>
血 </w>
綾 部</w>
毒 </w>
櫓 </w>
柴 </w>
日 光</w>
括 </w>
尼 子</w>
基 準</w>
加 茂</w>
光 明</w>
会 館</w>
上 下</w>
三 成</w>
ン バ
ま つ</w>
し ゃ
y le</w>
war ring</w>
ver se</w>
treat y</w>
sur render</w>
su peri
str eng
stor ed</w>
ot su</w>
low -
l aid</w>
f ine</w>
f ied</w>
ey ard</w>
en om
comm erc
bre vi
blossom s</w>
atsum e</w>
W AMURA</w>
Tog u</w>
TA NI</w>
Pri est</w>
Kaw achi-
J od
Hiro t
GA TA</w>
G o-
門 人</w>
詰 </w>
神奈 川</w>
発 売</w>
抵 抗</w>
径 </w>
太 刀</w>
天 狗</w>
名 所</w>
区 分</w>
停 止</w>
グ ラ
す ぎ</w>
under ground</w>
roc k</w>
res ear
op portun
k at
it ada</w>
int ernal</w>
ic kn
i ar</w>
hor ses</w>
et c.</w>
ent ry</w>
ei -ji</w>
d ress</w>
cast ing</w>
ast ic</w>
advant age</w>
Yam azaki</w>
Tem ples</w>
SUGA WARA</w>
D ar
193 5</w>
議 会</w>
膳 </w>
権 威</w>
後 者</w>
山 形</w>
宝 字</w>
加 増</w>
出 兵</w>
上 総</w>
キャ ン
y u-
vict ory</w>
us ual</w>
thir ty-
shi f
sh oji</w>
san them
rel ations</w>
prot ect</w>
p tion</w>
look ed</w>
inc ense</w>
differ ences</w>
commerc ial</w>
agric ultural</w>
a hide</w>
Tad ak
Pro moted</w>
King dom</w>
Kan agawa</w>
KYO GOKU</w>
長 慶</w>
酵 母</w>
部 隊</w>
道 真</w>
蓋 </w>
興 行</w>
法 隆</w>
法 律</w>
大 いに</w>
叙 任</w>
収 め</w>
反 乱</w>
勅 撰</w>
冠 称</w>
具 体</w>
京 田辺</w>
事 態</w>
つ とめ</w>
た ま</w>
ut s</w>
st ick</w>
s him
ry santhem
rel ation</w>
rec ov
p ath</w>
mag az
l oved</w>
ik ki</w>
if usa</w>
h achi</w>
educ ational</w>
cont ain
concern ed</w>
an o-
Tak e</w>
N eg
KATA OKA</w>
K ugyo</w>
HA TAKE
Got oba</w>
Fur ther</w>
Eng ishiki</w>
Am ater
159 2</w>
10 ,000</w>
鷹 司</w>
高 知</w>
駄 </w>
養 老</w>
鎮 守</w>
邸 宅</w>
神 祇</w>
牛 </w>
政 務</w>
分 割</w>
備 中</w>
パ ー
キ ー</w>
w ood
veget ables</w>
t able</w>
sit ting</w>
reduc ed</w>
pr im
ot en</w>
ob l
is ada</w>
im ori</w>
fl e
em iko</w>
eas y</w>
c amp</w>
all ow</w>
ab or
TANA KA</w>
Shoshi inoge</w>
NI JO</w>
MAE DA</w>
Kon do</w>
Kaz usa</w>
Hon do</w>
HATAKE YAMA</w>
Eng ineering</w>
B odhisattva</w>
長 女</w>
豊 後</w>
皇 帝</w>
木 津川</w>
旅 </w>
ら し</w>
よ う
は ん</w>
さ せ</w>
vis iting</w>
t end
symb ol
st s</w>
preserv ed</w>
pow der</w>
par ent</w>
p utting</w>
me et</w>
is ai</w>
gro w
fai th</w>
ez ane</w>
decor ated</w>
cor e</w>
ash in
ans w
M ong
Kit ano</w>
Kei fuku</w>
KA MI</w>
Head quarters</w>
Curr ently</w>
Ch o</w>
B ut
B rief</w>
B oshin</w>
Ak i
駅 舎</w>
雑 誌</w>
臨 </w>
維 </w>
珍 し</w>
比 売</w>
概 念</w>
時 点</w>
断 絶</w>
屋 号</w>
定 着</w>
ク ス</w>
tr as</w>
sk y</w>
respon se</w>
p ay</w>
oshi ki</w>
organiz ations</w>
n i
n e
n arr
manag er</w>
i- gun</w>
fun ction</w>
cl im
c ivil</w>
ast ing</w>
am o</w>
ac compl
W a</w>
R O</w>
Chu o</w>
188 3</w>
理 解</w>
法 要</w>
検 校</w>
條 </w>
持 統</w>
戚 </w>
後 鳥羽</w>
国 人</w>
収 録</w>
下 総</w>
セ ス</w>
む ら</w>
し ゅ</w>
under stood</w>
ub i</w>
t ors</w>
my thology</w>
in stitution</w>
hang ing</w>
fav or</w>
f ollow</w>
ch e
car rying</w>
callig raphic</w>
br ig
b all</w>
awa- dori</w>
ag yo</w>
B ai
AM OTO</w>
9 th</w>
195 8</w>
隊 士</w>
銃 </w>
脈 </w>
紐 </w>
符 </w>
童 子</w>
白 川</w>
献 上</w>
府 道</w>
内 裏</w>
九 郎</w>
グ ル
せ い
─ </w>
th in
rap idly</w>
r ights</w>
p ond</w>
mat ch</w>
k o-ji</w>
it ab
in ki</w>
ho u</w>
hak ase</w>
h uge</w>
g s</w>
critic ized</w>
c utting</w>
ay ori</w>
Pr ime</w>
NO MURA</w>
MIZU NO</w>
J omon</w>
3 000</w>
西 側</w>
疑 </w>
押 </w>
廟 </w>
実 現</w>
嫡 流</w>
品 種</w>
励 </w>
つ き</w>
せ い</w>
vis itors</w>
surv ived</w>
sk in</w>
revis ion</w>
prec ed
over seas</w>
on- in</w>
n eed</w>
kill ing</w>
j ourn
hear t</w>
f ive-
disp ute</w>
chi n</w>
belong s</w>
ad ding</w>
ab brevi
Yoshi da</w>
Tan b
Tan abe</w>
S el
P ass
Ok ubo</w>
Nor i
NA GA</w>
Kas uga</w>
Hak ata</w>
E zo</w>
B asho</w>
Ay abe</w>
高 麗</w>
雷 </w>
赤 松</w>
腕 </w>
競 技</w>
燈 </w>
漢 詩</w>
家 業</w>
始 まり</w>
大 型</w>
勃 発</w>
共 同</w>
ー ジ</w>
tax es</w>
t ou
s igned</w>
p a
ou chi</w>
m outh</w>
k it
ig a</w>
fore ign
fe ature</w>
d okoro</w>
M atters</w>
K ud
H ot</w>
F ren
Dai myo</w>
197 4</w>
193 9</w>
餡 </w>
附 属</w>
繰 り返</w>
範 囲</w>
神 武</w>
発 祥</w>
異 説</w>
方 丈</w>
慶 喜</w>
年 齢</w>
取 り</w>
加 工</w>
中 島</w>
デ ザ
め ぐ</w>
ち な</w>
war e
precinc t</w>
hol e-shaped</w>
hak ama</w>
ful l-
et su-
dr aw</w>
di al
co al</w>
b en</w>
Yoshi ie</w>
Sh ochi
Sanet omo</w>
Sait ama</w>
K aku
E specially</w>
Develop ment</w>
DA I
B on
Atago- yama</w>
185 8</w>
鴨 川</w>
楽 師</w>
東 側</w>
明 和</w>
文 部</w>
攻 め
推 古</w>
平 野</w>
大 乗</w>
叡 </w>
仮 名
イ ス</w>
し ょう
tow n
sp rings</w>
sh owing</w>
re -
p ing</w>
lar ger</w>
ire s</w>
ind icated</w>
im ported</w>
har d
h en</w>
f all
ess ed</w>
di am
c av
c ake</w>
beh av
b ana</w>
ar ch</w>
a- mura</w>
Yu an</w>
Tai ho</w>
T sushima</w>
Shom u</w>
Rus sia</w>
Mor i
193 6</w>
遣 い</w>
祈 願</w>
療 </w>
桜 井</w>
晴 </w>
普 請</w>
廻 </w>
店 舗</w>
工 場</w>
唄 </w>
吉 川</w>
各 種</w>
出 発</w>
一 郎</w>
ナ ル</w>
シ ー</w>
ん じ</w>
shor t
sequ ent</w>
prot ected</w>
pract ices</w>
ou e</w>
is o</w>
im ina</w>
f elt</w>
el ementary</w>
cont aining</w>
bott om</w>
az e</w>
YAMA DA</w>
S ut
Ry oma</w>
Og ura</w>
O thers</w>
I to</w>
F re
D om
197 5</w>
､ </w>
酵 </w>
貴 重</w>
論 争</w>
聖 武</w>
犬 </w>
探 題</w>
庶 流</w>
小 さ
天 然</w>
培 </w>
城 下</w>
国 有</w>
名 跡</w>
単 </w>
前 半</w>
処 理</w>
作 曲</w>
久 我</w>
ス ポ
え ん</w>
spec ified</w>
sel ling</w>
re bel
os an</w>
occas ions</w>
iy aki</w>
is dom</w>
inv asion</w>
ib eral</w>
hi t</w>
g in
echi ka</w>
div ine</w>
comm iss
cl er
chi -
c ill
YAMA NA</w>
M ai
G ek
D et
118 4</w>
西 園
西 国</w>
築 城</w>
番 線</w>
男 爵</w>
早 世</w>
改 易</w>
承 和</w>
平 等</w>
宮 家</w>
学 術</w>
デ ル</w>
し き</w>
さ さ
ur is
uk an</w>
ud on</w>
tan ka</w>
tal es</w>
t am
sh ot</w>
re ality</w>
r ical</w>
os ei</w>
k od
ex plan
et ies</w>
doct rine</w>
chas ed</w>
ch u-
bel ong</w>
b it
Ya yoi</w>
W e</w>
U ME
P ict
O y
Mand ala</w>
Kashi w
HO N
B aek
責 任</w>
盆 </w>
特 殊</w>
汲 </w>
朝 日</w>
採 </w>
悦 </w>
往 生</w>
建 仁</w>
官 僚</w>
国 府</w>
動 物</w>
勅 </w>
側 面</w>
伯 爵</w>
フ ォ
わ し</w>
ま し</w>
つ なが</w>
w ise</w>
vill a</w>
stre ets</w>
st ed</w>
sh ing
prov ide</w>
pl ot</w>
ow ner</w>
ot o-
olog ies</w>
ol l</w>
mo at</w>
li brary</w>
intern ational</w>
hi ll</w>
gir ls</w>
fin d</w>
f oods</w>
di e</w>
am une</w>
all iance</w>
ah aru</w>
Ok un
OI SHI</w>
Mur aji</w>
M ov
ISHI KAWA</w>
Fren ch</w>
F il
Are a</w>
酒 造</w>
西園 寺</w>
石 器</w>
田 村</w>
楠 木</w>
未 </w>
旅 団</w>
巻 き
居 住</w>
少 し</w>
ウ ェ
で ん</w>
shi ge</w>
pro g
pract ical</w>
pp ing</w>
p ic
or i
lacqu er</w>
ic ate</w>
er able</w>
demon str
custom s</w>
coun ted</w>
KU SU
Hid eyori</w>
Bo ard</w>
B U
蘇 </w>
火 災</w>
混 ぜ</w>
正 し</w>
槍 </w>
松 竹</w>
東 福</w>
方 針</w>
引き 継</w>
市 場</w>
少 年</w>
寺 町</w>
失 脚</w>
受け 継</w>
参 詣</w>
助 け</w>
六波 羅</w>
入 門</w>
元 治</w>
チェ ンジ</w>
ソ ース</w>
ジ ョ
インター チェンジ</w>
みな もと</w>
げ ん</w>
〜 </w>
succ ess</w>
shin -
re presents</w>
re constructed</w>
r am
pro pos
pl ate</w>
of uku-ji</w>
m el
iv en</w>
inaug ur
giv es</w>
exp anded</w>
eshi ge</w>
deg ree</w>
con sum
comb ined</w>
believ e</w>
aw ase</w>
Yori ie</w>
Se ir
S ite</w>
Po ems</w>
N ow</w>
Kog a</w>
Hei ji</w>
C r
Amater asu</w>
13 33</w>
茶 室</w>
稿 </w>
石 田</w>
演 出</w>
温 </w>
根 拠</w>
昧 </w>
彫 刻</w>
少 輔</w>
土 御門</w>
参 考</w>
千 代</w>
人 民</w>
ラ ー
ま ち</w>
z aburo</w>
uz u</w>
trav el</w>
syll ab
su itable</w>
sp ect
reg ard</w>
ool </w>
mess enger</w>
main tain</w>
inter pret
en joy</w>
comm emor
bor der</w>
arm or</w>
ak yo</w>
Y ag
W aka</w>
Un t
Sh u</w>
S aemon</w>
Hik aru</w>
Han azono</w>
Amer ican</w>
避 </w>
要 請</w>
独 </w>
浮 世</w>
正 平</w>
本 文</w>
斉 </w>
忍 </w>
唱 </w>
出 現</w>
代 官</w>
中 山</w>
一 行</w>
メー ジ</w>
シ ン
アル コール</w>
さ ん
け い</w>
“ </w>
wi sh</w>
ve hi
st ew
s ai
iy a-
int ention</w>
ic hiro</w>
i en</w>
estim ated</w>
est ern
en ess</w>
ed ited</w>
ed -
e ik
compil ation</w>
class ification</w>
car eer</w>
Yoshi hisa</w>
Yamat o-
N E</w>
B r
Ac cor
階 級</w>
醸 造</w>
竜 </w>
睦 </w>
生 き</w>
極 めて</w>
松 山</w>
従 軍</w>
延 伸</w>
小 さ</w>
基 盤</w>
吾 </w>
出 自</w>
作 法</w>
り 出</w>
く れ</w>
v ing</w>
v in
trac ted</w>
t all</w>
pre dec
no ted</w>
m it</w>
ll ing</w>
key hole-shaped</w>
il es</w>
he alth</w>
g ets</w>
for th</w>
ey es</w>
craf tsm
cent ered</w>
app ing</w>
al ive</w>
a- kyo</w>
Wh at</w>
Shig emori</w>
SAKA NOUE</w>
R aku
P resident</w>
Kawar amachi</w>
K uni</w>
K ochi</w>
In it
Im agawa</w>
Ibar aki</w>
Hok ur
Ear ly</w>
Bun go</w>
19 17</w>
離 宮</w>
集 ま</w>
関 与</w>
豪 </w>
調 味</w>
芝 居</w>
石 室</w>
法 号</w>
民 部</w>
模 様</w>
松 井</w>
政 子</w>
大 橋</w>
北 陸</w>
ぞ う</w>
か し</w>
か く</w>
small er</w>
reg ister</w>
os ai</w>
nation wide</w>
ik uni</w>
han -
ek i-
effor t</w>
d ict
chap ters</w>
c ott
Yoshi sada</w>
U s
U ji-
Shi b
OKU BO</w>
Mir ror</w>
Kitak inki</w>
Hor yu-ji</w>
Com mun
A sian</w>
16 15</w>
香 り</w>
饅 頭</w>
障 子</w>
開 祖</w>
譜 代</w>
渡 来</w>
拒 否</w>
抱 え</w>
山 水</w>
埼 玉</w>
内 藤</w>
た と
sub jug
rep utation</w>
qu ickly</w>
pre viously</w>
oz ane</w>
over thro
m ob
inv aded</w>
high- ranking</w>
er se</w>
eff ective</w>
e th
d ary</w>
d ang
cov ers</w>
ch ome</w>
ch ok
all eg
Yoshit ada</w>
Unt il</w>
TSU KA
Shi t
Sev enth</w>
Sei wa-
Rok kaku</w>
NO KI</w>
M atsum
Hid etsugu</w>
193 7</w>
14 th</w>
12 0</w>
高 級</w>
隣 接</w>
製 品</w>
耳 </w>
秀 頼</w>
獅 子</w>
父 子</w>
文 永</w>
御 前</w>
建 長</w>
幼 </w>
参 拝</w>
公 式</w>
あ く
ug g
success ful</w>
sp ots</w>
signific ant</w>
shin -ji</w>
sch ed
rysanthem um</w>
rough ly</w>
por ary</w>
land scape</w>
iy asu</w>
increas ing</w>
im itsu</w>
gu est</w>
do ing</w>
cor ner</w>
brig ade</w>
bo t</w>
as ks</w>
ama- cho</w>
T oj
R an
P </w>
Nin n
Ni jo-
Go sho</w>
Baek j
B eing</w>
After wards</w>
Accor dingly</w>
193 8</w>
12 21</w>
麓 </w>
高 田</w>
飾 り</w>
非 違
非違 使</w>
言 い
被 </w>
芳 </w>
準 備</w>
検 非違使</w>
政 変</w>
攻 略</w>
小さ な</w>
埋 葬</w>
園 部</w>
商 業</w>
イ メージ</w>
り ん</w>
ま さ
th ink</w>
sol id
ro ot</w>
rec ently</w>
pro m
on i</w>
of -
o- no-
ll er</w>
inter pre
g a
fund oshi</w>
dou ble</w>
dipl omatic</w>
character ized</w>
c anc
Yoshim oto</w>
Sc en
San n
Reg ion</w>
N ew
Mor on
M oku
Iw akura</w>
H oj
E k
B ro
196 2</w>
遷 任</w>
運 用</w>
詔 </w>
葛 城</w>
総 理</w>
管 轄</w>
生 地</w>
淵 </w>
棒 </w>
日 間</w>
整 理</w>
敗 北</w>
提 供</w>
塔 頭</w>
土 方</w>
付 き</w>
ク ラ
は ず</w>
ど ちら</w>
お お</w>
い つ</w>
us him
ur i-
s ure</w>
r um
pil grimage</w>
p our
off ering</w>
o- Japanese</w>
m ine</w>
half- brother</w>
geneal ogy</w>
ev idence</w>
drin k</w>
con cluded</w>
centr alized</w>
bur nt</w>
bl ade</w>
ba by</w>
ag ing</w>
ag ement</w>
Yak ushi</w>
Sh oh
Sad o</w>
SE N</w>
L otus</w>
G o</w>
B ic
髷 </w>
風 習</w>
鈴 木</w>
遷 都</w>
腰 </w>
精 神</w>
箸 </w>
確 保</w>
産 地</w>
現 地</w>
武 者</w>
欧 米</w>
弾 </w>
学 者</w>
八 条</w>
入 内</w>
企 業</w>
ク ラ</w>
アク セス</w>
writ e</w>
u- jo</w>
t oge</w>
t es
success ively</w>
straigh t</w>
ste amed</w>
sou l</w>
sim pl
s now</w>
pun ished</w>
polic ies</w>
oz en</w>
m ix
in obu</w>
form ally</w>
fi ef</w>
f th</w>
ef u</w>
eed s</w>
dep os
aw n</w>
acc ept</w>
abov e-
Trans portation</w>
Som etimes</w>
S amurai</w>
S ah
O no</w>
O -
H er
Ex hib
Am itab
186 0</w>
険 </w>
被 害</w>
菌 </w>
絵 巻</w>
琉 球</w>
栽 培</w>
換 え</w>
弥 生</w>
居 城</w>
堵 </w>
包 囲</w>
仕 事</w>
乗 せ</w>
のり ば</w>
と ど
tai fu</w>
rev ived</w>
pr ent
p al
nor mal</w>
harm a</w>
fi erce</w>
em ochi</w>
e en</w>
dec ree</w>
YAM AMOTO</w>
Tr ad
Se in
San e
S im
Roku jo</w>
Publ ic</w>
KO JI</w>
KI TA</w>
Jin mu</w>
Ji to</w>
Euro pe
C ivil</w>
Baekj e</w>
Am id
19 16</w>
養 父</w>
飼 </w>
終 了</w>
直 義</w>
炊 </w>
斎 宮</w>
弘 安</w>
幹 </w>
己 </w>
受 領</w>
占 </w>
住 民</w>
亮 </w>
ヤマ ト</w>
y east</w>
v ice</w>
un i
sel l</w>
retre ated</w>
prosper ity</w>
possess ion</w>
pl ain</w>
moun ds</w>
k om
i ant</w>
fre sh</w>
er g
dou b
dist ribution</w>
complet ion</w>
circ le</w>
cill or</w>
chic ken</w>
bran ches</w>
ag aki</w>
Yoshit oki</w>
Takak uni</w>
Seiwa- Genji</w>
Po ets</w>
Kyotan abe</w>
KA NO</w>
KA I
K uz
B ar
0 .
霧 </w>
遂 げ</w>
誰 </w>
解 散</w>
翻 訳</w>
翌 日</w>
綿 </w>
片 </w>
梅 若</w>
撤 退</w>
抱 </w>
延 宝</w>
場 面</w>
困 難</w>
受け 入れ</w>
二 郎</w>
中 務</w>
リ ー
い で</w>
writ ings</w>
ref l
qu ake</w>
prepar ation</w>
per f
on ment</w>
m our
ific ally</w>
foreign ers</w>
f al
dram as</w>
dou bl
cont ain</w>
ab ara</w>
Yoshi teru</w>
Yod o-gawa</w>
Y ur
Tom o
Th ousand</w>
T oyama</w>
T ochi
Shochi ku</w>
Mun emori</w>
Imad egawa</w>
Ik oma</w>
F </w>
Establ ished</w>
Ed o-jo</w>
D ef
Asa hi</w>
電 化</w>
輸 送</w>
義 教</w>
町 人</w>
構 内</w>
悟 </w>
対 抗</w>
家 族</w>
実 朝</w>
大 国</w>
土 岐</w>
同 日</w>
占 領</w>
創 業</w>
住 吉</w>
ヒ メ</w>
デザ イン</w>
z eki</w>
with drew</w>
ut ive</w>
umul i</w>
tai shogun</w>
sovere ign
scro lls</w>
s ized</w>
ing er</w>
hi l
fac es</w>
doll s</w>
det ailed</w>
custom ers</w>
bro th</w>
b ath
ap pe
ann oun
am itsu</w>
Ze ami</w>
T ajima</w>
Sh oj
Ken shin</w>
Kan ze</w>
KUR ODA</w>
In aba</w>
G E
Amitab ha</w>
麹 </w>
魔 </w>
高 槻</w>
通 過</w>
輸 入</w>
語 源</w>
覆 </w>
芝 </w>
育 て</w>
翰 </w>
義 政</w>
縛 </w>
稲 葉</w>
秀 次</w>
畠 </w>
正 徳</w>
朽 木</w>
政 所</w>
小 田原</w>
天 長</w>
合 衆</w>
参 戦</w>
僧 都</w>
信 号</w>
井 伊</w>
ン ド</w>
ス ル
us ei</w>
un ci
ul ly</w>
tw ice</w>
sh ug
re d-
r ar
qu ar
pos es</w>
p an</w>
on omiya</w>
nor th
laun ched</w>
k osa</w>
fri end</w>
f iscal</w>
eed ing</w>
d iction</w>
cov ering</w>
bi ishi</w>
b ing</w>
az uka</w>
assass inated</w>
ap prent
advoc ated</w>
ad ult</w>
M ok
KA TO</w>
D O
Chap ter</w>
韓 </w>
野 菜</w>
車 庫</w>
艦 </w>
職 人</w>
終 え</w>
筆 頭</w>
祝 </w>
明 確</w>
日 向</w>
悪 化</w>
安 永</w>
天 王寺</w>
大 河</w>
固 め</w>
叙 位</w>
分 野</w>
光 源氏</w>
ル ート</w>
ほ ん</w>
の 子</w>
き っ
w ine</w>
st ice</w>
ru ins</w>
o ch
j ig
in scribed</w>
f alls</w>
dis play</w>
cop y</w>
comm it</w>
bl o
bet ter</w>
Ryuk yu</w>
Og as
N at
198 3</w>
鳴 </w>
閥 </w>
親 子</w>
紅 </w>
租 </w>
淡 路</w>
本 多</w>
於 </w>
斬 </w>
揚 </w>
復 元</w>
当 然</w>
定 か</w>
大 衆</w>
周 防</w>
向 き</w>
ざ る</w>
susp ended</w>
su tras</w>
sp eed</w>
sou th
secret ly</w>
s pot</w>
perc ent</w>
oy oshi</w>
og raph
n y
n eeded</w>
meas ure</w>
manufact uring</w>
lik ed</w>
ichi -
ex tr
categ orized</w>
bu k
br u
at tr
asc etic</w>
al ed</w>
ai med</w>
Y at
TO MI</w>
SH O</w>
R ai
Osak a-jo</w>
Nak atsuk
Masan ori</w>
Mak ino</w>
Kyo goku</w>
Kan rei</w>
I NA
G oh
Fushim inomiya</w>
3 -
遠 江</w>
資 格</w>
王 権</w>
牧 野</w>
日 露</w>
山 道</w>
尹 </w>
対 馬</w>
執 筆</w>
同 士</w>
俵 </w>
仏 殿</w>
中 京</w>
ニ ュー</w>
wor e</w>
vis count</w>
vin eg
view ing</w>
shi t
phr ase</w>
on ent</w>
mast ers</w>
g oddess</w>
fl at</w>
fav ored</w>
enshrin es</w>
ell ing</w>
dissol ved</w>
contin ue</w>
believ ers</w>
alt ar</w>
ac count</w>
ab u</w>
S et
Rep ubl
OT A</w>
Nag aoka</w>
Horik awa</w>
Har un
H aving</w>
Fuj i
隅 </w>
長 尾</w>
謙 </w>
相 互</w>
盆 地</w>
桐 </w>
敷 地</w>
国 師</w>
嗣 子</w>
北 山</w>
勧 め</w>
創 </w>
刺 </w>
出 演</w>
三 井</w>
ノ オ</w>
あく まで</w>
あ ん</w>
utens ils</w>
um on</w>
trad ing</w>
tool </w>
t eg
symb ol</w>
st ation
scrip tures</w>
sat is
s -
read s</w>
r in</w>
pat ri
mon ogatari</w>
k ana</w>
is ol
ill eg
est ing</w>
es n</w>
be st
appro pri
ama- jo</w>
Yan ag
T ea</w>
Sakur ai</w>
R eng
Pr iv
Mit suk
Kawachi- Genji</w>
Kan eie</w>
E igh
Dep uty</w>
顧 問</w>
鎮 圧</w>
重 盛</w>
部 屋</w>
軌 道</w>
蓮 華</w>
網 </w>
神 仏</w>
発 酵</w>
校 地</w>
曽 </w>
扉 </w>
工 学</w>
家 集</w>
宴 </w>
塞 </w>
嘉 </w>
作 家</w>
但 馬</w>
モ デル</w>
シュ </w>
な る</w>
ど おり</w>
あ た
syst ems</w>
syllab ary</w>
scen es</w>
s ort</w>
s ive</w>
roy al</w>
r is
p it
loc k</w>
im possible</w>
hel ped</w>
gir l</w>
do esn</w>
ch ron
c ed
al -
agre ed</w>
aff il
SAI GO</w>
No .
Kam o-gawa</w>
Daijo- daijin</w>
Confuc ian</w>
Acc ess</w>
遺 構</w>
適 </w>
遣 唐</w>
誠 </w>
詮 </w>
菊 池</w>
肥 後</w>
習 慣
習慣 </w>
紀 元</w>
粧 </w>
減 少</w>
死 者</w>
四 十</w>
受 </w>
博 </w>
創 始</w>
は り</w>
uk yo</w>
trav eled</w>
s ojo</w>
prin ces</w>
oun ds</w>
of usa</w>
ob an</w>
man ju</w>
m ally</w>
it ure</w>
hom yo</w>
gu arded</w>
coll ectively</w>
cl early</w>
az awa</w>
az ane</w>
anim als</w>
KA TA</w>
Histor ic</w>
Exhib ition</w>
E c
D ance</w>
+ </w>
高 山</w>
選 定</w>
過 去</w>
諏 訪</w>
西 軍</w>
絹 </w>
移 築</w>
留 守</w>
植 </w>
成 分</w>
幾 </w>
宗 盛</w>
奉 納</w>
太 秦</w>
回 り</w>
努 め</w>
制 限</w>
全 線</w>
使 節</w>
伊 東</w>
ス サ
エ ン
ふじ わら</w>
ご 飯</w>
ynast ies</w>
sub sequent</w>
star ts</w>
r ation</w>
ph ere</w>
oz an</w>
look ing</w>
lin ked</w>
i eld</w>
hun ting</w>
holid ays</w>
fre ight</w>
fort une</w>
exc ept
en acted</w>
do ors</w>
day time</w>
d ated</w>
cre ate</w>
conn ecting</w>
ar rows</w>
S oj
Ret ained</w>
R U</w>
Nobut ada</w>
K T
J ish
Hachiman- gu</w>
HI NO</w>
Cont in
Christ ian
B uses</w>
養 成</w>
青 年</w>
過 ご</w>
試 み</w>
薩 軍</w>
細 か</w>
竣 工</w>
着 物</w>
炉 </w>
沿 い</w>
本 家</w>
攘 夷</w>
掲 載</w>
急 速</w>
帰 京</w>
対 策</w>
宜 </w>
北 側</w>
化 粧</w>
劇 場</w>
判 官</w>
乗 り</w>
久 世</w>
ダイ ヤ</w>
はっ きり</w>
し み</w>
】 </w>
【 </w>
vic inity</w>
tr end</w>
superi or</w>
squ ad</w>
sal es</w>
r it</w>
priv il
pri or</w>
on to</w>
n ai
mod ern
l otus</w>
kar ate</w>
k uge</w>
j im
ic ient</w>
hor iz
he at</w>
et te</w>
establ ishing</w>
econom y</w>
e es</w>
conf isc
ch oja</w>
birth place</w>
assass ination</w>
ans ion</w>
an ji</w>
a x
U eno</w>
T et
Shim o
Sai cho</w>
S uke</w>
S ojo</w>
S ix</w>
Republ ic</w>
Min am
Kit a-
KUSU NOKI</w>
Hok ke-
His ahide</w>
He ishi</w>
Gen roku</w>
Christian ity</w>
B or
Atsu t
115 6</w>
頼 家</w>
酢 </w>
酒 屋</w>
知 識</w>
灌 頂</w>
注 目</w>
民 族</w>
正 確</w>
明 神</w>
文 様</w>
推 進</w>
恋 </w>
御 殿</w>
当 て</w>
太 田</w>
大 原</w>
哲 学</w>
区 域</w>
元 弘</w>
交 換</w>
云 </w>
ル ト</w>
スサ ノオ</w>
も り</w>
し ゃ</w>
およ そ</w>
wh e
s etsu</w>
s eri
por k</w>
neighbor ing</w>
near by</w>
n early</w>
mult i
mar k</w>
m aj
if ying</w>
ho jo</w>
h ok
ex it</w>
er ected</w>
elev ated</w>
ef usa</w>
con stable</w>
cal c
al ist</w>
agre ement</w>
U pon</w>
TSU </w>
Mur akami</w>
Dist urbance</w>
B ur
Aw aji</w>
香 川</w>
長 浜</w>
軸 </w>
茨 城</w>
渡 辺</w>
楽 し</w>
後 見</w>
富 山</w>
太 陽</w>
大 分</w>
固 定</w>
倒 れ</w>
よう やく</w>
yi eld</w>
y eo</w>
twel fth</w>
sub jects</w>
sh el
sec urity</w>
s ightseeing</w>
prin ts</w>
or nam
og awa</w>
num erous</w>
new s</w>
lay out</w>
fo ster</w>
elect ric</w>
declar ed</w>
de al
comb ination</w>
collap sed</w>
cer am
c ut
but su-
bo dies</w>
art ist</w>
accompan iment</w>
a its</w>
Tr ain</w>
Sh oku</w>
SE GAWA</w>
S even</w>
Pri ze</w>
P le
K ujo</w>
Hig o</w>
For mer</w>
Chik uzen</w>
6 -
16 th</w>
謝 </w>
読 み
認 識</w>
蒸 気</w>
群 馬</w>
皇 居</w>
男 女</w>
潮 </w>
消 費</w>
来 る</w>
書 物</w>
改 良</w>
尻 </w>
大 野</w>
一 向</w>
ビ ス</w>
カ ツ</w>
す け</w>
valu ed</w>
sk rit</w>
s hima</w>
s etting</w>
ref ined</w>
predec essor</w>
nat to</w>
mount ain
mir ror</w>
j ing
indic ate</w>
er oku</w>
ear ly-
discus sed</w>
am ochi</w>
al ism</w>
ag on
ac id</w>
ab road</w>
Shi ten
San skrit</w>
P op
P A
Or din
Mus ic</w>
Loc ation</w>
B ir
70 1</w>
閉 </w>
門 跡</w>
連 れ</w>
見 解</w>
猶 子</w>
流 罪</w>
極 楽</w>
格 式</w>
末 裔</w>
挟 </w>
大 覚</w>
壁 画</w>
名 家</w>
サー ビス</w>
じ ん</w>
we althy</w>
twel ve</w>
tit led</w>
sovereign ty</w>
r enga</w>
pu pp
ok un
new spaper</w>
mun icip
lear n</w>
kil om
k ubo</w>
k as
im posed</w>
ic ations</w>
ens es</w>
en- do</w>
car ved</w>
c ru
auth or
at edly</w>
Var ious</w>
Tachi bana</w>
Sei i</w>
Ok ura</w>
Nai shi</w>
NOMI YA</w>
Min or</w>
KO BA
K imi</w>
Ishi yama</w>
Heian- kyo</w>
Gun ma</w>
E ight</w>
Daig o-ji</w>
高 松</w>
題 材</w>
鎖 </w>
釜 </w>
郷 土</w>
西 京</w>
襲 撃</w>
略 歴</w>
漆 </w>
浴 </w>
欠 </w>
昆 布</w>
戦 前</w>
寵 愛</w>
妙 心</w>
夕 </w>
名 誉</w>
南 側</w>
共 和</w>
ア ン
か い</w>
t ied</w>
spec ies</w>
ro ju</w>
represent ing</w>
r yo
n on
m .</w>
in ari</w>
ep isode</w>
em a</w>
el p</w>
dem and</w>
coun cil</w>
clos ely</w>
c ampaign</w>
bro ad</w>
b ills</w>
appear ing</w>
ag ue</w>
ach es</w>
Suk eroku</w>
Shin bun</w>
S oseki</w>
Pr of
Orig in</w>
O ut
Moton ari</w>
IWA KURA</w>
H ino</w>
D aj
鬘 </w>
院 号</w>
長 門</w>
般 若</w>
舞 踊</w>
綱 吉</w>
画 家</w>
授 与</w>
島 根</w>
岡 崎</w>
寄 託</w>
学 院</w>
大 半</w>
多 様</w>
危 機</w>
化 学</w>
勒 </w>
其 </w>
不 足</w>
三 宅</w>
ナ ー</w>
y ellow</w>
un ified</w>
sh e
scrip t</w>
s and
resul ts</w>
mov ing</w>
ishi -
ign s</w>
ic ians</w>
h a
ey uki</w>
etim e</w>
decreas ed</w>
conv erted</w>
confin ed</w>
ben ef
behav ior</w>
b y
am es</w>
ai red</w>
a- kofun</w>
Yaw ata</w>
W rit
Th rone</w>
Shot en</w>
San yo</w>
Sai onji</w>
Rit su
Ogas awara</w>
L ike</w>
K oshi
High er</w>
Ger many</w>
G </w>
Eng land</w>
BA TA</w>
4 .
鈴 </w>
辛 </w>
超 え</w>
旅 行</w>
方 形</w>
惟 </w>
大 会</w>
勧 進</w>
乳 母</w>
主 導</w>
リ ン</w>
ラ ン</w>
タ ク
っ と</w>
き ょう</w>
y om
uris diction</w>
resid ed</w>
rat io</w>
prin ting</w>
person nel</w>
ivers ities</w>
it sune</w>
it age</w>
improv ed</w>
il ization</w>
govern ed</w>
g ami</w>
exp ensive</w>
exp edition</w>
ef s</w>
diam eter</w>
decor ative</w>
correc t</w>
cit iz
b oku</w>
ai -ji</w>
U .
Tok i
Shi ba</w>
Sad a
S acred</w>
S aburo</w>
Li eutenant</w>
Kon o
KI NO</w>
J U
Hid e
H ol
Bic chu</w>
遊 女</w>
載 せ</w>
西 南</w>
苔 </w>
脱 出</w>
羽 柴</w>
絵 師</w>
篤 </w>
牌 </w>
歌 合</w>
次 々</w>
最 澄</w>
整 </w>
慎 </w>
弐 </w>
執 </w>
各 国</w>
初 頭</w>
主 君</w>
主 体</w>
世 阿弥</w>
不 満</w>
ば ん</w>
の う</w>
しば らく</w>
unci ation</w>
tr ain
swe et
sub st
skill s</w>
shi -
pur ple</w>
pref ix</w>
opportun ity</w>
ok ing</w>
loc ations</w>
l ess
j ust
entr usted</w>
el ements</w>
ch ance</w>
celebr ation</w>
ath emat
at e-
Yor inaga</w>
T andai</w>
Shim ane</w>
SU GI
S il
Nob um
Mar ut
Kun i
Kit a
K eg
G eng
A rit
196 1</w>
陥 </w>
金 属</w>
討ち 取</w>
蘭 学</w>
蕉 </w>
義 輝</w>
締 結</w>
移 住</w>
禅 師</w>
直 前</w>
民 衆</w>
権 限</w>
棄 </w>
案 内</w>
松 永</w>
振 </w>
徐 々</w>
座 主</w>
宣 旨</w>
出 産</w>
八 代</w>
令 制</w>
乳 </w>
マ ン
バ </w>
カ ツ
ろ う</w>
み や</w>
た び
せ ん
× </w>
un able</w>
u yama</w>
t one</w>
seas oning</w>
ro polit
re con
re ach</w>
r uc
pe ak</w>
pat ernal</w>
me al</w>
large- scale</w>
im port
govern mental</w>
favor ite</w>
empl oy
dam aged</w>
confl icts</w>
con om
bur ning</w>
b oun
ag ata</w>
Tr ue</w>
T aro</w>
Ry u
O p
Nar i
Hokur iku</w>
H undred</w>
E conom
B iw
高 島</w>
連 盟</w>
貢 献</w>
講 堂</w>
行 列</w>
緑 </w>
盾 </w>
激 </w>
源 義
日 清</w>
択 </w>
折 り
彦 根</w>
弓 矢</w>
審 </w>
利 家</w>
元 来</w>
依 頼</w>
例 外</w>
五 代</w>
ズ ム</w>
ス ター</w>
カバ ネ</w>
w ind
valu able</w>
ut ai</w>
tell s</w>
techn ology</w>
t sub
sup rem
sen -
ropolit an</w>
rec ru
re alized</w>
rai sing</w>
rai se</w>
per man
on sen</w>
mov ements</w>
manuscrip ts</w>
is ei</w>
i ence</w>
gh ost</w>
exten sion</w>
ent ers</w>
deep -
co operation</w>
bus in
ak ko</w>
Yam ada</w>
Umak o</w>
TSUKA SA</w>
T ei
SA WAMURA</w>
S O</w>
O per
Mas amoto</w>
M yok
K engyo</w>
Hos pital</w>
Hei jo-
Hachim an</w>
HA YASHI</w>
Ben kei</w>
As ano</w>
5 000</w>
118 1</w>
鯨 </w>
遺 産</w>
筑 前</w>
特 色</w>
法 令</w>
東 大寺</w>
恒 </w>
山 中</w>
小 松</w>
実 権</w>
定 期</w>
外 務</w>
司 令</w>
千 家</w>
儒 学</w>
カ ン</w>
v o
tr usted</w>
sh aku
sec l
resul ting</w>
rar ely</w>
od ori</w>
ob served</w>
not es</w>
man ship</w>
l im
l ay</w>
is him
id ents</w>
eal ed</w>
cr is
coun ty</w>
consid eration</w>
conf erence</w>
att itude</w>
as ak
Wor ks</w>
TANA BE</w>
St yle</w>
Sho in</w>
Sh ojo</w>
SA KA</w>
On ce</w>
Miy agi</w>
Kok in</w>
Ik ko</w>
Em perors</w>
Char act
A son</w>
157 5</w>
1 ,000</w>
高 橋</w>
高 ま</w>
閑 </w>
過 程</w>
諧 </w>
蒲 生</w>
芭 蕉</w>
舎 人</w>
縄 文</w>
答 え</w>
祚 </w>
瓶 </w>
海 人</w>
械 </w>
曾 孫</w>
旧 制</w>
掲 げ</w>
崩 れ</w>
実 在</w>
婆 </w>
奴 </w>
大宰 府</w>
園 城</w>
味 方</w>
吉 備</w>
内 務</w>
余 り</w>
乃 </w>
ご く</w>
var ies</w>
tour ist</w>
t ast
ro -
pl ease</w>
oc ation</w>
k on</w>
k a-
in come</w>
ict ly</w>
hand le</w>
f ashi
e- no-
conduc t</w>
circ ular</w>
ch est
ant an</w>
ai fu</w>
a g</w>
U shi
Tot omi</w>
Sum itomo</w>
Sh oshi</w>
N ot</w>
Jushi inojo</w>
Coun selor</w>
Comman der</w>
馬 子</w>
震 </w>
難 し</w>
配 下</w>
部 門</w>
跡 地</w>
賃 </w>
翼 </w>
稚 </w>
猿 楽</w>
殖 </w>
正 四</w>
橿 原</w>
押 し
従 兄弟</w>
後 藤</w>
宝 亀</w>
原 型</w>
別 れ</w>
兵 力</w>
ス ペ
さ す</w>
yam uni</w>
weap ons</w>
we ak
th ere
sep puku</w>
se aw
re construction</w>
pot tery</w>
per formers</w>
op position</w>
m ay
lic ense</w>
ig aku</w>
i ate</w>
hi g
ed ged</w>
cott on</w>
char ged</w>
call ing</w>
c ub
add itionally</w>
Tochi gi</w>
S er
S ake</w>
Mas ashige</w>
KA I</w>
J </w>
IKE DA</w>
輿 </w>
能 楽師</w>
簡 </w>
社 長</w>
社 殿</w>
碁 </w>
正 成</w>
拾 遺</w>
差 し
宸 翰</w>
宮 崎</w>
大宰 </w>
堅 </w>
和 睦</w>
収 入</w>
午 </w>
勅 使</w>
再 開</w>
儀 礼</w>
五 男</w>
キ ノ</w>
ろ ん</w>
も ら</w>
て ん</w>
yok ai</w>
u hito</w>
to ji</w>
tic kets</w>
t uary</w>
sup ply</w>
sun omiya</w>
stit utes</w>
st rings</w>
sof t</w>
ry ori</w>
ro g
repe atedly</w>
r ived</w>
propos al</w>
pro clamation</w>
press ure</w>
p age</w>
n om
invest ig
import ance</w>
im une</w>
i- dera</w>
i cho</w>
ho using</w>
h am
gro wn</w>
g olden</w>
f ail
ex ile</w>
dem oted</w>
c al</w>
an eous</w>
aff ected</w>
a hime</w>
Yorim asa</w>
YA SU
SA SAKI</w>
Res igned</w>
Pe ers</w>
Ni hong
Ku w
Hot el</w>
Eigh th</w>
Dan juro</w>
Ch ur
8 -
2 ,
160 1</w>
領 国</w>
諸 藩</w>
諡 号</w>
渓 </w>
浪 </w>
栗 </w>
書 き</w>
所 司</w>
役 人</w>
夫 婦</w>
大 陸</w>
卒 </w>
出 汁</w>
兼 家</w>
メ ン</w>
み ょう</w>
さ い</w>
z oku</w>
w ed
ushi ki</w>
u y
tru th</w>
t ains</w>
settl ement</w>
s ought</w>
resist ance</w>
re jected</w>
rail ways</w>
pro min
ph ot
oc ks</w>
leg s</w>
k oj
k ing
ill ing</w>
if une</w>
exam ination</w>
elev enth</w>
co ast</w>
az aki-
architect ural</w>
anecd ote</w>
ac ity</w>
ac hiro</w>
ac comm
abol ition</w>
Z E
TAKA TSUKASA</w>
Sai in</w>
Matsu yama</w>
Kiyo t
Ju stice</w>
Inter ior</w>
Fil m</w>
Commer ce</w>
185 7</w>
185 4</w>
風 土</w>
頼 長</w>
鎮 座</w>
逃 げ</w>
購 入</w>
負 担</w>
講 談</w>
複 線</w>
発 着</w>
理 事</w>
没 落</w>
棲 </w>
書 店</w>
往 復</w>
士 族</w>
吏 </w>
准 </w>
公 使</w>
人 員</w>
一 派</w>
シ ステ
コー ヒ
us age</w>
str ugg
s ign</w>
s ang
revol t</w>
pur poses</w>
publ ication</w>
p oll
ot ted</w>
o u</w>
invest igation</w>
instruc tor</w>
hair style</w>
h alls</w>
fort un
ey e</w>
ent it
emer ged</w>
comm it
Un like</w>
U su
T ag
Nag ahama</w>
Na ot
IMA GAWA</w>
Europe an</w>
159 8</w>
00 0
類 似</w>
議 論</w>
締 め</w>
経 路</w>
神 名</w>
桐 壺</w>
根 本</w>
東 洋</w>
本 項</w>
快 </w>
引 用</w>
宝 塔</w>
定 家</w>
多 田</w>
坂 東</w>
俳 諧</w>
住 居</w>
付 属</w>
下 旬</w>
ト ン</w>
グル ープ</w>
ら ん</w>
ち ゃ
そ う
こ ちら</w>
ぎ ょう</w>
un its</w>
t umuli</w>
susp ic
su e</w>
stu ff
spir acy</w>
serv es</w>
prec epts</w>
pet ition</w>
n either</w>
l od
j ing</w>
ic ting</w>
horiz on
h in
govern ing</w>
em e</w>
ek ata</w>
dor mit
descri be</w>
cultiv ation</w>
cre ation</w>
class ics</w>
cl ou
c ast</w>
batt lef
at ake</w>
al ities</w>
ai sho</w>
ac ific</w>
U. S
On myo
O GI
Nak agyo</w>
Kir itsubo</w>
F ine</w>
A be</w>
15 00</w>
金 沢</w>
選 挙</w>
逸 </w>
訟 </w>
褌 </w>
藩 士</w>
素 材</w>
相 国</w>
煙 </w>
注 釈</w>
歌 仙</w>
有 栖
最 上</w>
寄 り</w>
大 山</w>
大 和
告 げ</w>
反 発</w>
双 方</w>
出 町</w>
亜 </w>
丸 太
一 帯</w>
ケ ース</w>
ウ ナギ</w>
イ タ
こ と
ul g
ug en</w>
t act
struc tures</w>
se at</w>
resear ch
rein forc
re ar</w>
on oe</w>
m ass
j iri</w>
ion -
ig e</w>
grav eyard</w>
fe el</w>
far m</w>
dar k</w>
com pos
b ath</w>
at ures</w>
ash es</w>
ard less</w>
achi y
Uk i
Stu dio</w>
S a
R ed</w>
L o
Kiyom izu-
K oji</w>
Gak ko</w>
G og
Exam ples</w>
Dai jo</w>
Com pl
Chug oku</w>
C ar
B ish
7 -
185 9</w>
豊 岡</w>
肖 像</w>
編 集</w>
決 ま</w>
棚 </w>
栃 木</w>
書 状</w>
早 川</w>
文 殊</w>
教 学</w>
広 げ</w>
宝 生</w>
味 付け</w>
公 演</w>
全 長</w>
久 秀</w>
丸太 町</w>
万 国</w>
たび たび</w>
か え</w>
th anks</w>
tal ent</w>
som en</w>
sleev es</w>
s ok
oku in</w>
n e</w>
mos phere</w>
gu ests</w>
gro wing</w>
gener ated</w>
equip ped</w>
engr aved</w>
ea house</w>
e- jo</w>
conv ent
contain er</w>
be ef</w>
appropri ate</w>
advis or</w>
Yoshi haru</w>
Takak age</w>
T oji</w>
Sh uk
Okun in
Ku j
Kaz an</w>
H om
D ai</w>
Agric ulture</w>
5 ,000</w>
課 程</w>
触 れ</w>
芹 沢</w>
納 豆</w>
永 享</w>
歯 </w>
杜 氏</w>
景 勝</w>
敏 </w>
広 義</w>
山 陽</w>
大 日</w>
南 禅</w>
允 </w>
保 持</w>
体 系</w>
乗り 入れ</w>
中 止</w>
一 旦</w>
システ ム</w>
コーヒ ー</w>
ど こ</w>
す ら</w>
te am</w>
stor ied</w>
s end</w>
represent ed</w>
pos sibility</w>
p hilosophy</w>
or oku</w>
ong en</w>
o- do</w>
necess arily</w>
nat ur
mov ies</w>
miss ionary</w>
m a
harv est</w>
fri ends</w>
enthron ed</w>
e ived</w>
de al</w>
con sul
celebr ate</w>
bo y
aut omatic</w>
asp ect</w>
a- g
Yoshit sugu</w>
Yas un
T each
SU ZUKI</w>
P res
Num ber</w>
MI KADO</w>
MA KINO</w>
K oto</w>
Eng i</w>
Ch ujo</w>
Ch ang
Am ag
A RI
3 ,000</w>
15 68</w>
＞ </w>
通 信</w>
西 部</w>
衆 議</w>
粋 </w>
空 間</w>
稽 古</w>
皿 </w>
洞 院</w>
氷 </w>
正 宗</w>
機 械</w>
権 現</w>
時 宗</w>
急 死</w>
宇 </w>
姿 勢</w>
坐 </w>
団 地</w>
囃 子</w>
判 断</w>
分 裂</w>
免 許</w>
上 旬</w>
ゆ え</w>
む しろ</w>
た て</w>
wr apped</w>
wak ashu</w>
t abl
sh ing</w>
pass age</w>
par tly</w>
p il</w>
od en</w>
o es</w>
k ur
it em</w>
insp ector</w>
in ations</w>
ik ane</w>
gun s</w>
g ri
for ward</w>
for ef
env ir
eg gs</w>
eff ects</w>
class es</w>
ac eful</w>
above- mentioned</w>
YANA GI
T ang
P ost</w>
On na</w>
Nen butsu</w>
Kan o</w>
Gy oku
Chronic le</w>
B ay</w>
高 市</w>
飛 </w>
追 贈</w>
迎 </w>
趣 味</w>
訴 え</w>
矩 </w>
相 対</w>
珍 </w>
浪 人</w>
沿 革</w>
水 軍</w>
棺 </w>
枕 </w>
東 部</w>
春 宮</w>
廊 </w>
学 習</w>
地 歌</w>
国 学</w>
先 立</w>
交 代</w>
ー ル
プラ ット
カ ラ
エ ピ
り 込</w>
む ね</w>
て ん
か ら
か た
い ち
yo in</w>
us uke</w>
st ret
speci alty</w>
s om</w>
ri but
r im
pu pil</w>
pron unciation</w>
oz o</w>
not e</w>
manufact ured</w>
l ers</w>
k elp</w>
jud icial</w>
inv ented</w>
ingredi ent</w>
improv ement</w>
honor ary</w>
gar ment</w>
g agaku</w>
et e</w>
entit led</w>
eng u</w>
early- modern</w>
det ached</w>
des pite</w>
dec oration</w>
compl ex</w>
compet ition</w>
chair man</w>
c iv
ban qu
attemp t</w>
ab b
WA DA</w>
W ater</w>
V is
Tr aining</w>
To shin
St anding</w>
So on</w>
Sin o-Japanese</w>
Rel ig
Ple ase</w>
N ote</w>
M r
M E</w>
Ji ju</w>
Ec chu</w>
E ra</w>
Daij okan</w>
Cour se</w>
Bun ko</w>
Bo oks</w>
鞠 </w>
芸 妓</w>
職 務</w>
結 城</w>
社 格</w>
添 え</w>
機 構</w>
成 人</w>
弾 正</w>
干 し</w>
巫 女</w>
学 科</w>
天 理</w>
天 慶</w>
大 島</w>
国 会</w>
受 章</w>
利 益</w>
八 十</w>
元 亀</w>
侯 爵</w>
中 臣</w>
下 賜</w>
ライ ス</w>
プラット ホーム</w>
ソ ード</w>
サ </w>
エピ ソード</w>
we ak</w>
v ess
u ed</w>
spir it
sh aved</w>
resid ences</w>
re present</w>
re ki</w>
r ain
pl eas
per former</w>
oh ara</w>
nor th-
negoti ations</w>
mach ine</w>
l og
l av
iz ane</w>
fac ulty</w>
en ware</w>
d well
cour tes
b umi</w>
ag g
after wards</w>
a- do</w>
T ek
Shi rak
Sad ak
S an</w>
Rec ently</w>
P re
P acific</w>
O RI</w>
Nag ato</w>
N aval</w>
L ife</w>
I chim
I II</w>
A ge</w>
18 th</w>
頼 政</w>
限 定</w>
限 り</w>
遣 わ</w>
逃 げ
訪 問</w>
自 宅</w>
脚 本</w>
義 時</w>
生 き
濠 </w>
澤 村</w>
没 収</w>
業 務</w>
東 海</w>
日 常</w>
教 員</w>
支 店</w>
徳 島</w>
弼 </w>
強 化</w>
弥 勒</w>
弁 慶</w>
塗 </w>
在 位</w>
助 六</w>
切 れ</w>
元 就</w>
俳 句</w>
仁 安</w>
互 い</w>
中 御門</w>
中 川</w>
ビ ル</w>
エ リア</w>
み や
ど う
っ て</w>
ち に</w>
た ん</w>
さ ま</w>
ub a</w>
t aining</w>
sc att
respon sibility</w>
res our
re s</w>
preserv ation</w>
mar ked</w>
man sion</w>
m iyatsuko</w>
loc omot
lad ies</w>
k agura</w>
j or
ho le</w>
h our</w>
ect ion
cost umes</w>
b ered</w>
attend ant</w>
administr ator</w>
ad es</w>
abd icated</w>
ZU MI</w>
The ory</w>
Ten man
Tan ab
Tam ak
P ond</w>
P ag
OT A
Ninn a-ji</w>
NA ITO</w>
Koy asan</w>
Ken mu</w>
Kai do</w>
KO GA</w>
In ari</w>
H um
H ome</w>
As akura</w>
. ..</w>
鳳 </w>
陵 墓</w>
院 殿</w>
篆 刻</w>
画 像</w>
正 統</w>
本 部</w>
有 形</w>
打 ち</w>
布 教</w>
寛 平</w>
司 法</w>
募 </w>
儒 教</w>
仏 師</w>
下 級</w>
ダ ム</w>
ス タ
り ょう</w>
ど も</w>
z en-ji</w>
ti p</w>
t ered</w>
suprem e</w>
sugg ested</w>
sh un
r ace</w>
pre sumed</w>
p ep
p ay
met er</w>
magaz ine</w>
m ut
lect ure</w>
kyo gen</w>
k an-
eg ed</w>
continu es</w>
clud ing</w>
ch o-
cav al
bro wn</w>
b iwa</w>
at mosphere</w>
ain t</w>
ai- fu</w>
adj acent</w>
ad ul
WA KA</w>
Rus sian</w>
Nik ki</w>
Nijo- jo</w>
Mit sum
M ain
J o</w>
Daz ai</w>
Contro ller</w>
C .</w>
16 14</w>
遠 州</w>
謙 信</w>
親 交</w>
落 ち
空 手</w>
真 田</w>
甲 賀</w>
瀬 川</w>
水 系</w>
比 叡</w>
毎 日</w>
武 術</w>
明 応</w>
実 家</w>
定 義</w>
姫 路</w>
大 山崎</w>
土 器</w>
因 幡</w>
出 世</w>
兼 務</w>
倭 国</w>
主 催</w>
ア イ
な ぎ</w>
w ild</w>
success fully</w>
sp on
sour ces</w>
sev ere</w>
ring ing</w>
ref erring</w>
re ward</w>
r ac
par all
man ners</w>
m edit
it ama</w>
ef ully</w>
ar m</w>
am b
ad ap
Rus so-
Nan iwa</w>
N ig
Kong o</w>
I enari</w>
F ol
Am ago</w>
黄 砂</w>
義 務</w>
盗 </w>
海 上</w>
治 安</w>
沙 門</w>
武 道</w>
擁 立</w>
戒 名</w>
弓 道</w>
山 寺</w>
小 川</w>
始 祖</w>
大 海</w>
城 郭</w>
団 子</w>
升 </w>
医 師</w>
刷 </w>
佐 藤</w>
プ ン</w>
バ イ
り ょう
に く</w>
な ん</w>
つ れ</w>
yo- ku</w>
use ki</w>
u an</w>
syll able</w>
sh ell</w>
sel ection</w>
seas oned</w>
per su
ob serv
nam ely</w>
n ar
k ir
j urisdiction</w>
insist ed</w>
ing- of-
ik ami</w>
ik ado</w>
hon zon</w>
hol der</w>
farm ing</w>
et own</w>
et able</w>
er ings</w>
ek iyo</w>
domin ant</w>
dispat ch</w>
deliv ered</w>
cultiv ated</w>
cont em
b ai
arr ival</w>
announ c
Su iko</w>
S oto</w>
S ection</w>
P il
O ita</w>
Me di
M ibu</w>
Kag ekatsu</w>
Iz anagi</w>
Fuk ei</w>
C an
Buil ding</w>
Aut umn</w>
Ari sug
- no-
胡 弓</w>
組み 合わせ</w>
箱 館</w>
浅 草</w>
核 </w>
廃 藩</w>
崇 徳</w>
勲 章</w>
出 し</w>
八 郎</w>
入 隊</w>
倣 </w>
仮名 遣い</w>
三 輪</w>
ワ キ</w>
リ ア
マ キノ</w>
ダ ー</w>
オ ン</w>
お か
z aka</w>
w ives</w>
w et</w>
uk i-
tr igg
thir ty</w>
st aying</w>
st ab
spe aking</w>
soldi er</w>
seaw eed</w>
s ar
ro ll</w>
recogn ition</w>
om achi</w>
og ami</w>
m athemat
keep ing</w>
k not</w>
im es</w>
hi tsu</w>
gr ain</w>
em et
dre am</w>
conqu est</w>
citiz ens</w>
chi g
ch op
c ost</w>
bir d</w>
b i</w>
as a-
accompan ying</w>
ab bot</w>
ZA I</w>
Yasut oki</w>
Ten ri</w>
Sc ulp
SA TO</w>
R i
Prin ces</w>
Od awara</w>
Mon on
MATSU NAGA</w>
M u
Kaw an
Kan ezane</w>
Hiro m
He ight</w>
H izen</w>
Ger man</w>
Daz aifu</w>
Bor n</w>
18 48</w>
157 0</w>
骸 </w>
障 壁</w>
長 岡
通 行</w>
貝 </w>
谷 川</w>
評 定</w>
訴 訟</w>
能 登</w>
組 合</w>
立 命</w>
神 職</w>
煎 茶</w>
津 田</w>
此 </w>
樺 太</w>
承 安</w>
延 び</w>
庇 護</w>
嫌 </w>
大 永</w>
嘗 </w>
命 名</w>
向 日</w>
入 口</w>
健 康</w>
保 管</w>
作 り</w>
伝 授</w>
会 長</w>
ラー メン</w>
ッ ド</w>
ッ シュ</w>
エ ル</w>
ウ ィ
り 上げ</w>
つ な</w>
し ら</w>
い し</w>
v ana</w>
un k</w>
th or
t u
str ictly</w>
s mo
repe ated</w>
recon cil
reas ury</w>
plac ing</w>
or ing</w>
no h</w>
my st
multi ple</w>
it or</w>
ishi ge</w>
inj ured</w>
in -ji</w>
fe eling</w>
f ro
ext inc
explan ation</w>
es oteric</w>
equip ment</w>
ed eration</w>
e an
dr aft</w>
dev el
det ail</w>
ch en</w>
bl ind</w>
aw a-cho</w>
ans hi</w>
an oo</w>
al ization</w>
ai sha</w>
ad mitted</w>
Tok imasa</w>
Sho en</w>
Represent atives</w>
Nor iyori</w>
K ay
Construc tion</w>
Chur ch</w>
17 th</w>
駅 前</w>
集 中</w>
陣 屋</w>
長岡 京</w>
郎 党</w>
遍 </w>
遅 れ</w>
職 業</w>
統 計</w>
海 岸</w>
機 会</w>
昇 殿</w>
披 露</w>
実 行</w>
大 隈</w>
大 変</w>
團 十郎</w>
匁 </w>
俣 </w>
一 致</w>
ワ </w>
パ ン</w>
れ い</w>
vari eties</w>
th at
serv ants</w>
rev ealed</w>
quest ion</w>
ob jects</w>
mar ry</w>
mar ks</w>
le ast</w>
ld n</w>
lacqu ered</w>
ing yo</w>
in stitut
in ing</w>
im ag
gr ass</w>
for b
et work</w>
et ed</w>
coff ee</w>
c eased</w>
ashim oto</w>
ar ed</w>
an th
Yak ushi
Shim on
Sai gu</w>
On jo-ji</w>
Okunin ushi</w>
N oto</w>
L etters</w>
Jok yu</w>
Iw ate</w>
ISB N</w>
I sl
H iy
H E
GAM I</w>
Chi ld
158 7</w>
随 </w>
陽 明</w>
醸 </w>
運 賃</w>
讃 </w>
誇 </w>
蒸 </w>
自 殺</w>
統 制</w>
紅 葉</w>
稲 </w>
神 護</w>
武 力</w>
期 待</w>
月 日</w>
少 女</w>
大 祭</w>
堤 </w>
千 手</w>
ジ ュ
や はり</w>
み 出</w>
ぎ り</w>
きっ かけ</w>
tim etable</w>
st ep</w>
so il</w>
separ ation</w>
s ick</w>
rid ing</w>
resp ected</w>
relation ships</w>
prem ises</w>
pray ers</w>
ou ji</w>
ment ary</w>
l asted</w>
hun g</w>
fo ot
ex emp
com prised</w>
com position</w>
but su
ban ished</w>
am ono</w>
W as
Toshi ie</w>
Tok ushima</w>
Ten shu</w>
T ales</w>
SA KU
Russo- Japanese</w>
Ritsu me
Noh gaku</w>
Myo shin-ji</w>
MI URA</w>
Koh o</w>
KAN SAI</w>
J oh
J in</w>
Hy uga</w>
D on
C all
Buil t</w>
BA NDO</w>
18 0</w>
酒 井</w>
遊 び</w>
踊 り</w>
装 置</w>
肥 前</w>
範 頼</w>
移 行</w>
王 国</w>
猫 </w>
洗 </w>
決 意</w>
水 尾</w>
残 り</w>
正親 町</w>
橋 立</w>
柴 田</w>
本 丸</w>
敗 戦</w>
得 意</w>
従 事</w>
天 津</w>
天 暦</w>
執 事</w>
嘆 </w>
名 勝</w>
協 議</w>
前 者</w>
侯 </w>
併 せ</w>
三 宮</w>
ン ド
シャ </w>
キャン パス</w>
ぜ ん</w>
z an-
y uk
um aru</w>
u d</w>
sh uk
seas onal</w>
s am
pass es</w>
oper ate</w>
n osuke</w>
manufact ur
low er-
l oin
j iki</w>
ign ation</w>
hom etown</w>
f us
ext ent</w>
exp elled</w>
d um
critic ism</w>
coun cillor</w>
ci ent
an o
am ing</w>
ah o</w>
Yoshin ari</w>
Yoshi chika</w>
UME WAKA</w>
T un
Med icine</w>
KI YO
KI NO
J O
G ir
Ch og
C re
Add ress</w>
12 00</w>
116 0</w>
. m.</w>
鉾 </w>
葵 </w>
花 山</w>
縫 </w>
笑 </w>
溝 </w>
架 </w>
東 軍</w>
東 南</w>
捕 縛</w>
手 紙</w>
忠 実</w>
弘 法</w>
帰 還</w>
大 化</w>
夕 霧</w>
半 分</w>
北 方</w>
北 大路</w>
勝 宝</w>
元 老</w>
佐 伯</w>
五 山</w>
並 び</w>
一 緒</w>
レ ー
ウ ム</w>
uz an</w>
tsu ji</w>
ti er</w>
struc k</w>
separ ately</w>
rem n
pre p
p ath
origin ates</w>
ob en</w>
nen butsu</w>
mis sing</w>
los ing</w>
issu es</w>
is an</w>
ir vana</w>
ih on</w>
hol y</w>
h aku</w>
four -
et ings</w>
earth enware</w>
devel op</w>
det eri
conf usion</w>
bet r
az ura</w>
ay ana</w>
attend ants</w>
ar rest</w>
appro x</w>
ap par
ancest ors</w>
ak a-
ah ashi</w>
Yug iri</w>
Yaman ashi</w>
Th rough</w>
Shik i
Sai dai
SAKA I</w>
On sen</w>
Nag an
K an</w>
En shu</w>
B E
2 50</w>
159 5</w>
118 9</w>
陽 成</w>
輩 出</w>
財 団</w>
相 馬</w>
用 意</w>
犯 </w>
烈 </w>
母 屋</w>
歩 兵</w>
曹 洞</w>
書 写</w>
日 吉</w>
方 式</w>
文 武</w>
掌 握</w>
戸 籍</w>
思 い
彰 </w>
年 貢</w>
小 浜</w>
家 禄</w>
奮 戦</w>
地 震</w>
噂 </w>
博 文</w>
南 方</w>
十 分</w>
内 蔵
元 慶</w>
位 牌</w>
仏 壇</w>
中 興</w>
上 田</w>
プ ロ</w>
ヌ </w>
し ゅ
か かわ</w>
we ek
ug u</w>
tun nel</w>
tend ency</w>
t an</w>
sug i</w>
sl iding</w>
rul er</w>
prep are</w>
passeng er</w>
origin ator</w>
om oto</w>
kok uga</w>
kn ew</w>
gr at
fl ow</w>
ex ts</w>
en g</w>
en forced</w>
doubl e-
d ough</w>
confisc ated</w>
clai m</w>
az uke</w>
absor bed</w>
Tom on
TSU KI</w>
T reasures</w>
T end
Shak yamuni</w>
Pro t
Pil grimage</w>
Nihong i</w>
Na omasa</w>
Min ami-
Katsum oto</w>
Kasug a-
In formation</w>
ISHI DA</w>
Hon noji</w>
H oki</w>
H ime</w>
Gu ard</w>
F ire</w>
F in
E hime</w>
B ei
117 9</w>
龍 馬</w>
驚 </w>
遭 </w>
逮 捕</w>
貌 </w>
租 税</w>
石 高</w>
料 金</w>
政 元</w>
徳 大寺</w>
府 中</w>
宮 廷</w>
宮 司</w>
女 官</w>
天平 勝宝</w>
堀 河</w>
均 </w>
国 史</w>
名 物</w>
北 畠</w>
勲 一</w>
初 演</w>
出 生</w>
公 法</w>
久 邇
一 体</w>
シ ー
め ん</w>
ま え</w>
の ぼ</w>
た い</w>
か せ</w>
z an
yi elds</w>
w o</w>
under standing</w>
under stand</w>
ult ies</w>
them e</w>
spe ople</w>
s and</w>
ro lled</w>
reg ardless</w>
re pl
r ors</w>
ol d-
nyo go</w>
master less</w>
m ous</w>
m ok
jud ge</w>
it oku</w>
interpret ation</w>
ing-of- age</w>
im mig
g yo
funct ions</w>
ex erc
estern -style</w>
c esses</w>
art ists</w>
am at
all ey</w>
ad d</w>
Yorim ori</w>
WA TANABE</w>
Vill a</w>
T TA</w>
Shin to
Ritsume ikan</w>
Nor inaga</w>
Kan pei</w>
KT R</w>
Ind ustrial</w>
HI RO
H ow</w>
Fuk akusa</w>
Daz ai-fu</w>
After ward</w>
首 都</w>
食 材</w>
近 隣</w>
貞 享</w>
著 者</w>
菱 </w>
能 力</w>
縣 </w>
穀 </w>
狩 </w>
毘 沙門</w>
来 日</w>
故 実</w>
支 給</w>
拝 殿</w>
御 池</w>
庸 </w>
小 早川</w>
寒 </w>
実 父</w>
名 神</w>
合 奏</w>
収 集</w>
内蔵 助</w>
備 後</w>
住 持</w>
中 間</w>
並 べ</w>
プ レ
エ </w>
のみ こ</w>
と くに</w>
せ よ</w>
さ か
wh ale</w>
us an</w>
ul tim
streng th
stor ey</w>
sei zed</w>
ph enom
oshi yori</w>
oh ashi
occas ionally</w>
mil k</w>
l ots</w>
fif ty-
ear ed</w>
e on</w>
dest ro
d ues</w>
conven ience</w>
consid er</w>
char coal</w>
cell aneous</w>
c ross</w>
bas in</w>
b ori</w>
anc ing</w>
am e
ak uni</w>
affil iated</w>
achiy anagi</w>
Yor iyuki</w>
Y </w>
Tad amasa</w>
TSU CHI
Sut oku</w>
Sen ju</w>
S ab
O ji</w>
Nik katsu</w>
Miy azaki</w>
Miy ake</w>
Med ical</w>
Kur anosuke</w>
Ke ishin</w>
Ke biishi</w>
J uro
J iro</w>
In tangible</w>
H ere</w>
G U
Dem achiyanagi</w>
D oj
Brit ish</w>
B re
B ingo</w>
7 .
185 3</w>
鵜 飼</w>
門 徒</w>
義 貞</w>
縮 </w>
結 び</w>
糧 </w>
粥 </w>
硬 </w>
疑 問</w>
海 苔</w>
株 </w>
時 政</w>
抜 け</w>
愛 媛</w>
惑 </w>
忠 臣</w>
弘 化</w>
宰 </w>
宮 殿</w>
女 神</w>
天 橋立</w>
変 遷</w>
商 店</w>
吉 祥</w>
吉 宗</w>
取り 上げ</w>
分 布</w>
入 集</w>
主 演</w>
一 名</w>
ザ </w>
エ ビ</w>
ウ ス</w>
ア ー
ア マ
み つ</w>
あた ご</w>
vis its</w>
sup pressed</w>
st -
s es
port ers</w>
plan ted</w>
or ious</w>
om ichi</w>
mod eled</w>
k um
in ser
ic i
h ai</w>
end ation</w>
em i</w>
depart ure</w>
d a-
cor d</w>
conqu ered</w>
clo istered</w>
be ings</w>
att acks</w>
ar yo</w>
apprec iated</w>
Takar azuka</w>
St one</w>
Son obe</w>
S ep
Provinc ial</w>
Nobu yoshi</w>
Kashi hara</w>
Kan azawa</w>
KA KU</w>
Init ially</w>
G oro</w>
E i
Bish am
B el
ASA NO</w>
159 9</w>
財 産</w>
説 得</w>
継 続</w>
祭 礼</w>
申 し
炭 </w>
正 倉</w>
敗 走</w>
山 頂</w>
出 来
作 風</w>
事 例</w>
三 千</w>
ひ ろ</w>
u x
termin al</w>
ste am</w>
spe e
sh ak
pos edly</w>
ou n</w>
ographi cal</w>
mor tal</w>
mess age</w>
k g</w>
indic ating</w>
in ori</w>
id ai</w>
grow th</w>
gif t</w>
gam es</w>
g able</w>
experi enced</w>
er ated</w>
emet ery</w>
def in
bru sh</w>
aj ime</w>
ai- do</w>
a ichi</w>
Teng u</w>
Scen ic</w>
P artic
Om i-
O hara</w>
O har
Moron ao</w>
Mat sun
I pp
He av
HO RI
Go yo
Ac t
20 ,000</w>
飛 び
降 下</w>
郡 山</w>
蹟 </w>
耆 </w>
約 束</w>
築 造</w>
研 </w>
演 劇</w>
日 活</w>
小 型</w>
天 照</w>
大 海人</w>
和 銅</w>
名 付け</w>
修 験</w>
信 忠</w>
交 わ</w>
久 安</w>
上 流</w>
ヶ 所</w>
タイ プ</w>
イ ベ
ほ ん
が け</w>
weap on</w>
u ya</w>
strateg y</w>
spirit ual</w>
speci alized</w>
sid ed</w>
seas ons</w>
resp ond</w>
ren ov
rem ove</w>
rec ip
rail road</w>
promin ent</w>
pr ime</w>
phenom en
mot ion</w>
man d
lead s</w>
k imi</w>
in ary</w>
fol k
exper t</w>
er t</w>
dipl om
dep rived</w>
cy press</w>
comm entary</w>
bu ll
brew eries</w>
bo ards</w>
az ana</w>
arr ive</w>
arch y</w>
Yoshi o</w>
Yorim ichi</w>
Tom ot
To ei</w>
Ten sho</w>
Ten m
Shim bun</w>
Se imei</w>
Sar ugaku</w>
SHI KI</w>
RO K
P ur
O ki</w>
Nobut aka</w>
Mun e
Mim asaka</w>
L iberal</w>
Kok en</w>
Hik one</w>
HI GA
H ang
Gor yo-
Com mit
14 67</w>
. C.</w>
青 山</w>
離 脱</w>
阿 部</w>
越 中</w>
衣 装</w>
衣 服</w>
若 年</w>
臣 籍</w>
目 立</w>
涼 </w>
欧 </w>
標 準</w>
棟 梁</w>
明 け</w>
斗 </w>
支 </w>
市 内</w>
宿 泊</w>
容 器</w>
季 節</w>
墓 地</w>
埴 輪</w>
在 地</w>
動 員</w>
企 </w>
中 旬</w>
ッ チ</w>
ッ </w>
タク シー</w>
たと えば</w>
き み</w>
y ond</w>
w ara</w>
uk i
tax i</w>
tat ami</w>
syll ables</w>
stitut ional</w>
station ed</w>
s earch</w>
retre at</w>
re ally</w>
pupp et</w>
progr ams</w>
p ura</w>
p on
os u</w>
o th</w>
mid- Heian</w>
me als</w>
mag n
m at</w>
lun ch</w>
luc k</w>
kilom eters</w>
jo shu</w>
interpre ted</w>
i .
g in</w>
fail ure</w>
exp ansion</w>
every day</w>
en shrine</w>
cop ies</w>
be yond</w>
aut a</w>
att end</w>
ash ing</w>
V ice</w>
U.S .</w>
Tai shogun</w>
T ower</w>
Shin sho</w>
Shimo usa</w>
Shi ro</w>
Sen n
S uc
Mit sus
MATSU MOTO</w>
Kam ik
Kag etoki</w>
H ashimoto</w>
G OTO</w>
Ceremon y</w>
Ap pro
Aman ohashi
5 .
13 36</w>
飛 騨
警 備</w>
規 制</w>
西 院</w>
衝 </w>
知 恩</w>
目 録</w>
番 組</w>
獲 得</w>
獣 </w>
熊 </w>
槃 </w>
峰 山</w>
山 梨</w>
寂 </w>
安 全</w>
大 将軍</w>
名 人</w>
同 行</w>
危 険</w>
単 独</w>
南 丹</w>
半 ば</w>
労 働</w>
レ ン
ミ ュ
ト リ
ゆ かり</w>
ぽ </w>
ざ ん</w>
さ き</w>
か ね</w>
か き
x x</w>
w eather</w>
view ed</w>
ub le</w>
trigg ered</w>
sup press</w>
str ict</w>
resp ective</w>
pill ars</w>
l ies</w>
join t</w>
in formed</w>
im achi</w>
i et</w>
gro w</w>
fr ame</w>
em ies</w>
comman ders</w>
cl ay</w>
att ributed</w>
ail ing</w>
activ ity</w>
acqu ired</w>
ac </w>
a- kaido</w>
Toyo oka</w>
To yo</w>
Tada oki</w>
Sun day</w>
Shim abara</w>
ROK KAKU</w>
R oju</w>
Pop ular</w>
Off ic
Na o
N antan</w>
Monon obe</w>
Man chur
Kiyomizu- dera</w>
Katsur agi</w>
Kag awa</w>
In oue</w>
IS SHIKI</w>
I e
Hyak unin</w>
Him emiko</w>
G yok
G oddess</w>
Foun dation</w>
F e
Commit tee</w>
C ou
Ar chi
A j
158 6</w>
＜ </w>
飛騨 </w>
開 館</w>
門 弟</w>
重 な</w>
超 </w>
設 備</w>
美 作</w>
篠 </w>
熟 </w>
松 浦</w>
改 めて</w>
工 夫</w>
岩 手</w>
小 町</w>
小 姓</w>
大 軍</w>
呈 </w>
偽 </w>
人 数</w>
京 津</w>
ヶ </w>
づ くり</w>
じ ゅ
ささ ぎ</w>
お も
い け</w>
z ai
use holds</w>
trav eling</w>
suff icient</w>
spec ifically</w>
rin ged</w>
res ol
prov iding</w>
pris on</w>
pres ses</w>
ord on</w>
oc ked</w>
oc ational</w>
lay er</w>
k i
k er</w>
is n</w>
inter section</w>
in ox</w>
holid ay</w>
g one</w>
g ment</w>
f ath
e .</w>
de pl
com ing-of-age</w>
coff in</w>
cl ean</w>
assist ed</w>
an z
Yoshi fusa</w>
Y uki</w>
W afuku</w>
Uz umasa</w>
U ta
Ten ry
Techn ology</w>
Tai he
T ofuku-ji</w>
Or gan
Mand okoro</w>
Kono efu</w>
Jin ja</w>
Iz anami</w>
High way</w>
D o</w>
Bet to</w>
AKA MATSU</w>
9 00</w>
158 3</w>
158 0</w>
選 択</w>
退 却</w>
誓 </w>
蓮 如</w>
萩 </w>
経 験</w>
玉 鬘</w>
灰 </w>
描 写</w>
拍 子</w>
恭 </w>
巌 </w>
嶽 </w>
小 堀</w>
寇 </w>
官 制</w>
京 阪神</w>
井 戸</w>
メー カー</w>
シ タン</w>
はじ ま</w>
お そ
yama- jo</w>
us ubi</w>
un g</w>
step s</w>
son -in-law</w>
situ ations</w>
sev er
sent enced</w>
reven ge</w>
re forms</w>
pur chased</w>
proced ures</w>
pro pag
prin t</w>
p yo</w>
leg ends</w>
lect ures</w>
istr ation</w>
int ell
institut ions</w>
inom iyatsuko</w>
inaugur ated</w>
in ous</w>
ik ai</w>
ib i</w>
h yo
gar dens</w>
fund am
friend ship</w>
f ans</w>
experi ence</w>
en ke</w>
en emies</w>
cop ied</w>
cir cles</w>
cap acity</w>
bu d
battlef ield</w>
ang ry</w>
anc y</w>
an jo</w>
Yoshi ko</w>
R ice</w>
Pag oda</w>
Kom yo</w>
Kiz ugawa</w>
INA BA</w>
Hid a</w>
Heijo- kyo</w>
HON DA</w>
H oku
G old</w>
Chin ese-
B ack
ASA KURA</w>
6 .
連 続</w>
逝 去</w>
資 金</w>
複 雑</w>
衛 府</w>
芋 </w>
育 成</w>
考 案</w>
義 弘</w>
流 儀</w>
本 人</w>
有 効</w>
晴 明</w>
援 軍</w>
援 助</w>
戦 場</w>
思 い</w>
復 古</w>
当 代</w>
帽 子</w>
市 街</w>
左 手</w>
安 達</w>
守 備</w>
契 機</w>
四 方</w>
別 称</w>
公 共</w>
億 </w>
倉 庫</w>
ス キー</w>
キリ シタン</w>
イベ ント</w>
ろ く</w>
み ささぎ</w>
ぐ ら</w>
く ら
work ers</w>
war m</w>
un osuke</w>
tr ying</w>
sugg est</w>
sub dues</w>
story tell
shif ted</w>
s atsu</w>
rif ied</w>
ret e</w>
remar k
prom ulg
po is
pill ar</w>
pat ron
p ure</w>
own ership</w>
mot su</w>
maj ority</w>
ly rics</w>
l eather</w>
l der</w>
ind ustrial</w>
ickn ess</w>
g at
ey s</w>
exclus ively</w>
ex changed</w>
es ato</w>
em une</w>
div or
de but</w>
d ig
convent ional</w>
construc t</w>
ca uses</w>
bo iling</w>
bi ography</w>
aku sho</w>
ag s</w>
af ts</w>
ab us
Tsub one</w>
Su p
SAKA MOTO</w>
Ryo o</w>
Ob ama</w>
NAM I</w>
Mitsu t
Kiyom asa</w>
Iw ashim
In dian</w>
Def ense</w>
頼 盛</w>
鋒 </w>
遺 体</w>
討 死</w>
留 ま</w>
生 前</w>
沖 </w>
杵 </w>
杖 </w>
木 村</w>
書 記</w>
日 曜</w>
斎 院</w>
指 示</w>
得 度</w>
平 田</w>
尽 く</w>
宝 塚</w>
大 兄</w>
大 人</w>
六 郎</w>
三 宝</w>
一 家</w>
マ ー
ヒ コ</w>
ケ ット</w>
w it
un iversities</w>
town speople</w>
to yo</w>
t ut
subordin ate</w>
sist ers</w>
rip s</w>
reg n
pul led</w>
om y</w>
ok ed</w>
oj ima</w>
n ishi
k ings</w>
is lands</w>
in in</w>
im ichi</w>
i. e.</w>
g ain</w>
fe e</w>
el ection</w>
e ikan</w>
contem porary</w>
cont act</w>
coll ections</w>
ci ences</w>
chop sticks</w>
boy s</w>
b ringing</w>
ay am
av erage</w>
approv al</w>
anc ell
an kyo</w>
ad min
ac cur
ac coun
Toshi zo</w>
TE I</w>
T etsu
Stud y</w>
Sei wa</w>
S m
Ordin ance</w>
Nobu katsu</w>
Motot sune</w>
Miz u
Miy ak
Keihan shin</w>
KATSU RA</w>
J it
I esada</w>
Hon cho</w>
Har u
Fushim i-
D ok
C ordon</w>
Amanohashi date</w>
186 1</w>
157 8</w>
高 台</w>
雑 賀</w>
長 谷川</w>
追 加</w>
足 軽</w>
蛇 </w>
若 干</w>
箔 </w>
甘 </w>
準 急</w>
涅 槃</w>
欲 </w>
次 いで</w>
木 製</w>
教 団</w>
政 党</w>
携 わ</w>
戦 時</w>
慶 安</w>
後 年</w>
幕 臣</w>
市 民</w>
大 同</w>
台 頭</w>
取 引</w>
勤 務</w>
八 木</w>
二 男</w>
三 島</w>
ッ クス</w>
グラ ム</w>
カ ー
つ め</w>
ち ゃ</w>
あ て</w>
tri bu
th ous
swe ets</w>
sup posedly</w>
saf ety</w>
ru sh</w>
rep air</w>
re es</w>
proced ure</w>
pres ence</w>
phys ical</w>
parall el</w>
par d
origin s</w>
opp onent</w>
ol ished</w>
ok oji</w>
n un</w>
l it</w>
ist ers</w>
ib en</w>
hor se
govern ance</w>
fif ty</w>
famil iar</w>
et oshi</w>
bir ds</w>
aut onom
ast ron
ar i
ar gu
am ot
air o</w>
ai m
Yuk inaga</w>
Wak am
Tam etomo</w>
Tak atsuki</w>
Ren nyo</w>
Nob ushige</w>
NI TTA</w>
Le aves</w>
Kin k
Katsu yori</w>
KATSU </w>
JI KATA</w>
Har umoto</w>
HI JIKATA</w>
Child ren</w>
Administr ation</w>
2 ,000</w>
鎧 </w>
酎 </w>
赴 任</w>
穫 </w>
祷 </w>
焼 酎</w>
温 度</w>
権 利</w>
朱 </w>
普 段</w>
文 芸</w>
後 水尾</w>
引 き</w>
帰 依</w>
左 兵衛</w>
尺 八</w>
実 力</w>
妙 法</w>
墨 画</w>
印 刷</w>
伯 耆</w>
ヶ 崎</w>
ス タン
もち ろん</w>
も し</w>
な くな</w>
ど り</w>
た ま
wal king</w>
w ant</w>
v ary</w>
trans formed</w>
ter n</w>
s aved</w>
restor e</w>
res em
prog ress</w>
op ol
oin -
nor mally</w>
negot iation</w>
mu sh
le an
k ag
it sugu</w>
igg est</w>
exec ution</w>
encour aged</w>
en h
el imin
eb i</w>
east -
e- kata</w>
diff ers</w>
d og
d o-
d ea
cre ating</w>
con solid
con sec
collap se</w>
cap </w>
c am
b iggest</w>
aku ji</w>
ak ur
a hito</w>
Y oun
Tok itada</w>
Tak eru</w>
T sum
Sou n</w>
San jo-
SHI TA</w>
S it
Rak ugo</w>
On i</w>
Off icial</w>
OGI MA
Nak an
I tal
Higashi- Maizuru</w>
H and
G O
Contin ued</w>
Biw ako</w>
BO RI</w>
116 6</w>
駐 車</w>
食 用</w>
金 春</w>
遂 </w>
近 臣</w>
誅 </w>
試 合</w>
蘭 </w>
花 山
競 馬</w>
症 </w>
木 戸</w>
晴 元</w>
救 </w>
強 め</w>
引 退</w>
度 々</w>
小 山</w>
宣 言</w>
学 部</w>
坪 </w>
収 穫</w>
先 代</w>
今 井</w>
世 話</w>
ヴ ァ
テ ー
タ ル</w>
ウ ン</w>
イ ド</w>
やま と</w>
し げ</w>
tri al</w>
ten ance</w>
t ug
t iles</w>
t ears</w>
sup porters</w>
st ages</w>
shu in</w>
scatt ered</w>
reg ime</w>
rec tang
ram en</w>
pri est
per forms</w>
pard oned</w>
pain ters</w>
om aro</w>
og uchi</w>
mom ent</w>
mo di
is l
init ial</w>
hand led</w>
h ost</w>
great est</w>
g ather</w>
dr agon</w>
distingu ish</w>
dec is
crimin al</w>
cr ime</w>
confron tation</w>
con stitution</w>
ch ain</w>
ceram ic</w>
cap ture</w>
aw an</w>
ak asa</w>
ai shi</w>
adv ice</w>
add ress</w>
abbrevi ated</w>
Yoshik age</w>
Tok uso</w>
Tok iyori</w>
Tak ashima</w>
Shok oku-ji</w>
Sein an</w>
Se ishi</w>
Mor iya</w>
M ount</w>
Kos ei</w>
K aro</w>
J ud
Is shu</w>
Hat ak
HA TA</w>
H ag
G olden</w>
E lev
E ik
Bas in</w>
Al ong</w>
7 64</w>
20 th</w>
- like</w>
鼻 </w>
高 架</w>
院 宮</w>
長 子</w>
赦 免</w>
職 員</w>
福 山</w>
祝 日</w>
熙 </w>
毎 月</w>
板 垣</w>
景 時</w>
役 目</w>
巨 勢</w>
奨 励</w>
区 画</w>
兼 実</w>
兵 士</w>
企 画</w>
ケ ー
ひ とり</w>
す じ</w>
ご う</w>
こ ん
y agura</w>
ut aro</w>
there by</w>
sw it
shaku hachi</w>
sh ok
scen ery</w>
recov ered</w>
pri ze</w>
pr ise</w>
pow dered</w>
og ue</w>
obl ig
mun icipal</w>
mar kets</w>
immedi ate</w>
ho used</w>
g on
for ty-
el ings</w>
diff er</w>
d ressed</w>
crit ical</w>
ca using</w>
c e
blos som</w>
an try</w>
aj in</w>
Tam eyoshi</w>
Tai shi</w>
Suz aku</w>
Sus anoo</w>
Suc c
Shige hira</w>
Shi ro
SHI BATA</w>
Reg ent</w>
R yo</w>
Pe ace</w>
On myo</w>
Ok azaki</w>
Nak at
NO KOJI</w>
Mas ayoshi</w>
L ist</w>
Ko an</w>
Karas uma-
KA MO</w>
Is ami</w>
H og
Gom iz
Fam ous</w>
Cl ass</w>
Bro ad
Bet ween</w>
頼 通</w>
長 谷</w>
遺 言</w>
謹 慎</w>
草 子</w>
舞 い</w>
結び つ</w>
組 み</w>
稚 児</w>
神 々</w>
石 上</w>
由 緒</w>
為 義</w>
清 原</w>
構 築</w>
桂 川</w>
最 中</w>
暁 </w>
昼 間</w>
旅 館</w>
接 続</w>
徹 底</w>
府 県</w>
宝 物</w>
安 元</w>
売 り</w>
反 映</w>
双 </w>
印 象</w>
博 覧</w>
信 任</w>
リ オ</w>
メ ニュー</w>
カ ラー</w>
み ず
ぷ ら</w>
い ち</w>
い か
〒 </w>
y ang</w>
ul own
ulown ia</w>
ud ed</w>
u tr
tsub one</w>
trans port</w>
t our</w>
t exts</w>
sl ope</w>
shor yo</w>
scen ic</w>
re assigned</w>
qu is</w>
publ ic
process ion</w>
out standing</w>
ol ic</w>
liqu or</w>
lead ers</w>
katsu don</w>
it oki</w>
ih ara</w>
horse back</w>
hand ling</w>
excav ation</w>
ess ential</w>
eg es</w>
dormit ory</w>
d ain
con serv
comman ded</w>
cl ub</w>
cand id
b all
az uchi</w>
anecd otes</w>
a- machi</w>
V ic
Trad itional</w>
Tamak azura</w>
Shichi jo</w>
Se ig
Reg arding</w>
R oyal</w>
O hashi</w>
N ext</w>
Met ropolitan</w>
Loc ated</w>
Ko yo</w>
Kiz u-
Kan sei</w>
I emochi</w>
Hon no-ji</w>
Goj o-
Fu jin
Con c
A O
185 5</w>
18 49</w>
160 3</w>
0 7</w>
， </w>
黄 檗
黄檗 </w>
預 け</w>
隠 岐</w>
陶 </w>
関 心</w>
転 換</w>
議 長</w>
観 測</w>
衝 突</w>
脂 </w>
習 合</w>
立 憲</w>
教 義</w>
抑 え</w>
御 霊</w>
山 間</w>
山 縣</w>
将 来</w>
宗 祖</w>
委 託</w>
天 井</w>
大 成</w>
大 弁</w>
塗 り</w>
咲 </w>
和 尚</w>
古 河</w>
別 働</w>
出 席</w>
八 坂</w>
会 所</w>
主 神</w>
プロ ダ
セ </w>
ス クリ
ス カ
ク ロ
じ ゅう</w>
あ き
youn g
wr ong</w>
wood block</w>
un usual</w>
ug oro</w>
though ts</w>
suff ering</w>
stor age</w>
si bly</w>
shar ed</w>
s ounds</w>
ped est
pan el</w>
or al</w>
oc k
nov els</w>
n ak
mer ger</w>
medit ation</w>
mach ines</w>
li eutenant</w>
lab or</w>
l oyal</w>
kn e
k ei
jo- in</w>
ji ju</w>
h achi
gath ering</w>
g o-
fe elings</w>
fab ric</w>
every thing</w>
evalu ated</w>
elev ision</w>
ear ned</w>
e- gawa</w>
disp utes</w>
dai kon</w>
d oll</w>
d ances</w>
conc rete</w>
chi ken</w>
ch ase</w>
categ ories</w>
c row
bre ak
ak us
ach in
ab sol
Tw ent
Ten jin</w>
Tak ayoshi</w>
TAKA HASHI</w>
T amur
Sim il
Sat ur
Sak amoto</w>
Om ot
Nagaok akyo</w>
Mur ak
Medi eval</w>
L ate</w>
Kom ei</w>
Kom achi</w>
Kok yu</w>
In v
G ent
F ran
F ederation</w>
D re
Chi chi
Bec ame</w>
B on</w>
An thology</w>
A omori</w>
A ir
19 th</w>
16 16</w>
駆 け
風 俗</w>
隠 棲</w>
通 説</w>
輩 </w>
議 定</w>
訂 </w>
花山 院</w>
航 空</w>
舎 利</w>
織 物</w>
経 過</w>
簡 単</w>
筑 紫</w>
立 て
瑞 </w>
清 酒</w>
添 </w>
治 郎</w>
植 え</w>
手 法</w>
彩 色</w>
工 程</w>
小 麦</w>
対 面</w>
容 易</w>
如 意</w>
墳 丘</w>
吉 村</w>
右 手</w>
叩 </w>
午 前</w>
千 代
判 明</w>
働 き</w>
停 留</w>
五 百</w>
三 田</w>
タイ ル</w>
ま ろ</w>
ほ </w>
おそ らく</w>
い ま</w>
z u
wat er
vineg ar</w>
und ings</w>
ul ed</w>
tri but
t ell</w>
simpl ified</w>
shi chi</w>
s ets</w>
prov isions</w>
priv at
pep per</w>
particip ate</w>
oz oku</w>
on kai</w>
ob tain</w>
lin ing</w>
int end
ict ions</w>
he ated</w>
h em
feat uring</w>
exclus ive</w>
et ane</w>
est ry</w>
ep ing</w>
coll ect</w>
c up</w>
bow ls</w>
birth day</w>
aw anomiya</w>
ast s</w>
ass em
asp ects</w>
agric ulture</w>
ag aru</w>
admin istered</w>
abl ed</w>
U jin
Toshi t
Tok i</w>
T ur
T our
Shi jo-
Sai goku</w>
Roku j
Ris ing</w>
Pro gr
Miy ako</w>
Mik kyo</w>
L iving</w>
KI KU
K ait
J iz
Hatak eyama</w>
G ang
Fre ight</w>
F l
Des c
Ceremon ial</w>
Agric ultural</w>
AM A</w>
115 8</w>
駿 府</w>
霊 元</w>
長 屋</w>
連 携</w>
負 傷</w>
見 つか</w>
行 き
茎 </w>
苦 し</w>
置 県</w>
着 色</w>
皇 統</w>
番 頭</w>
用 途</w>
炎 </w>
激 怒</w>
清 正</w>
比 定</w>
次 女</w>
極 め</w>
条 例</w>
札 所</w>
時 頼</w>
春 日
持 ち</w>
忠 興</w>
徴 収</w>
御 影</w>
弾 圧</w>
幽 閉</w>
岩 波</w>
好 き</w>
大 幅</w>
南 西</w>
力 士</w>
別 院</w>
全 般</w>
全 員</w>
先 祖</w>
儲 け</w>
下 駄</w>
リ ーズ</w>
ミ ナル</w>
ナ ミ</w>
ター ミナル</w>
とど ま</w>
つ ゆ</w>
そ んな</w>
く らい</w>
く じ</w>
where as</w>
w in</w>
un certain</w>
tur ns</w>
tro uble</w>
tour ists</w>
th es
stat es
st ringed</w>
sign al</w>
shin o</w>
shi te</w>
sent ence</w>
sem i-
s etsu
s ashim
remn ants</w>
reg ents</w>
pu pil
pupil s</w>
pour ed</w>
perman ent</w>
on y</w>
no bl
n ai</w>
medi a</w>
man ors</w>
ji uta</w>
igh t-
ig uchi</w>
id den</w>
fru it</w>
el ected</w>
dep icting</w>
cou ple</w>
con st
clos er</w>
best owed</w>
ba g</w>
b oshi</w>
atsum i</w>
ash ino</w>
Yuk i
Yoshim ura</w>
U TSU
Ty pe</w>
Tog oku</w>
Shi kin
Sanj us
Re igen</w>
Pict ure</w>
NAKA YAMA</w>
N ame</w>
Mon jo</w>
Kaz u
Kag et
Japan -
Gen ko</w>
F low
En ter
Dep ot</w>
At t
Ad vis
A oi</w>
157 6</w>
118 2</w>
馬 場</w>
解 由</w>
裕 </w>
藤 堂</w>
著 し</w>
荒 木</w>
脳 </w>
繊 維</w>
神 田</w>
確 定</w>
瀬 戸</w>
歳 三</w>
正 一</w>
明 暦</w>
投 入</w>
才 能</w>
征 討</w>
引き 続</w>
幕 政</w>
師 直</w>
孝 明</w>
大 門</w>
大 手</w>
吸 収</w>
参 り</w>
勝 頼</w>
刑 部</w>
円 形</w>
内 侍</w>
典 侍</w>
串 </w>
中 部</w>
ヒ </w>
ニ ア</w>
とも な</w>
う じ</w>
z </w>
yo sho</w>
worshi ped</w>
um i-
u yu</w>
u wa</w>
tour nam
thir d-
sub sid
stu dio</w>
str aw</w>
st ar</w>
sp ear</w>
sh oyu</w>
sh ell
sanc tuary</w>
ri er</w>
rem ov
recomm endation</w>
rap her</w>
pr ayed</w>
on a</w>
ol es
o ir
mal t</w>
main stream</w>
m aki</w>
it ive</w>
insp ection</w>
gif ts</w>
ew ay</w>
ev ol
eng aku</w>
emon o</w>
conv ers
bl ack
ban ned</w>
az uk
add y</w>
a cho</w>
Y aku
Ut sunomiya</w>
Tsur ug
Toh o</w>
Tob a-
Tak em
Taihe iki</w>
S on</w>
S etsu
RA I</w>
Por tug
O z
Masa hiro</w>
KI RA</w>
Jo yo</w>
J om
J ig
Iw anami</w>
Ik ed
Hik o
Fu y
Am e</w>
A ir</w>
159 6</w>
158 9</w>
158 4</w>
119 9</w>
高 度</w>
風 味</w>
霊 場</w>
随 行</w>
軍 人</w>
赦 </w>
西 山</w>
衛 士</w>
蛮 </w>
落 城</w>
華 厳</w>
荒 廃</w>
胴 </w>
繁 栄</w>
素 麺</w>
禅 僧</w>
祈 祷</w>
田 川</w>
法 主</w>
河 川</w>
水 分</w>
武 功</w>
正 六</w>
昇 格</w>
新 撰</w>
政 界</w>
慕 </w>
忘 れ</w>
強 制</w>
大 村</w>
多 野</w>
在 任</w>
圧 倒</w>
圀 </w>
取 得</w>
加 熱</w>
出 会</w>
冶 </w>
円 融</w>
兼 帯</w>
以 仁</w>
仕 立て</w>
之 丞</w>
一 環</w>
マ イ
タ ケ
ゃ く</w>
ま っ
ぶ ん</w>
た ち
こ く</w>
young est</w>
year -
y outh</w>
virt ually</w>
ur ak
uc k</w>
th od
t opped</w>
sub stitute</w>
shi r
shap es</w>
seri ously</w>
s par
s ending</w>
rum or</w>
rok u-
res ignation</w>
r hy
prim ary</w>
pr aying</w>
pick led</w>
oj iro</w>
o- gun</w>
min ted</w>
l ore</w>
ish ments</w>
illustr ated</w>
head ship</w>
ferment ation</w>
fashi on</w>
f at</w>
expl o
et ary</w>
e up</w>
d ojo</w>
chan ting</w>
c rem
bo x
aw ard</w>
ash a</w>
as aki-
any thing</w>
ancell or</w>
ai m</w>
ag ency</w>
a- jingu</w>
Yakushi -ji</w>
W ad
Ten po</w>
Tat sun
Sum iyoshi</w>
Su i</w>
Shim a</w>
SHI MOTO</w>
Pol it
Nan zen-ji</w>
N owadays</w>
Mon ju</w>
Masan obu</w>
Mah ayana</w>
Kuro da</w>
K ug
K oshi</w>
Isl ands</w>
I ZE
Hiro bumi</w>
Dai ei</w>
Com mentary</w>
As akusa</w>
Am a</w>
Ak iko</w>
18 50</w>
158 1</w>
157 7</w>
115 9</w>
高 校</w>
長 安</w>
還 俗</w>
身 体</w>
西 行</w>
縦 </w>
窯 </w>
消 え</w>
武 芸</w>
榎 本</w>
朱 子</w>
改 組</w>
排 除</w>
振 興</w>
懸 </w>
性 質</w>
御 室</w>
府 立</w>
年 中</w>
崇 </w>
島 田</w>
小 判</w>
大 使</w>
同 地</w>
合 祀</w>
史 実</w>
原 本</w>
劣 </w>
余 儀</w>
仁 王</w>
主 力</w>
ブ ーム</w>
ナ ム</w>
ス ー
ギ ー</w>
ま さ</w>
しか も</w>
う か
un like</w>
tot ally</w>
thir teenth</w>
sp ear
shor e</w>
secon d-
s ozu</w>
s ave</w>
s ale</w>
ro ots</w>
r aku</w>
qu e</w>
qu al
prov ides</w>
p ion
os etsu</w>
or ous</w>
onom iyaki</w>
on- do</w>
lead ership</w>
join ing</w>
j un</w>
it su-
illeg itimate</w>
ih ai</w>
g ent
flav ored</w>
f ud
enshrin ing</w>
ed om</w>
e- ryu</w>
dum pl
deliv ery</w>
co at</w>
chim ikado</w>
ap art</w>
ac le</w>
Yoshi yasu</w>
V ow</w>
Usu ally</w>
Takam ori</w>
T reasury</w>
P al
Om ikami</w>
Nak as
Mas ayuki</w>
Koku fu</w>
Kob o</w>
H ib
Go sh
Cou p</w>
Chinese- style</w>
Call ig
7 37</w>
185 2</w>
, 000
隠 れ</w>
防 衛</w>
野 宮</w>
連 座</w>
講 師</w>
規 則</w>
薦 </w>
移 封</w>
石 清水</w>
目 付</w>
町 村</w>
清 国</w>
活 用</w>
歌 集</w>
柵 </w>
架 空</w>
教 養</w>
改 修</w>
意 図</w>
恵 まれ</w>
屋 台</w>
孝 謙</w>
大 炊
執 行</w>
地 理</w>
地 獄</w>
名 手</w>
処 罰</w>
内 側</w>
入 り
中 原</w>
モ ン
プロダ クション</w>
ビ メ</w>
ク ス
も そ
もそ も</w>
の 丸</w>
そ もそも</w>
す ぐ
き わ
w ai
un a</w>
ub en</w>
trad itions</w>
t ob
se em</w>
sal ary</w>
s manship</w>
ru ined</w>
pref ace</w>
person ality</w>
oy asu</w>
os on</w>
o di
neighbor hood</w>
n owadays</w>
n one</w>
n ations</w>
n an
l ack</w>
kit chen</w>
ir in</w>
invest iture</w>
id s</w>
i emoto</w>
foref ather</w>
ey a</w>
er ably</w>
enc hi</w>
earth ed</w>
design s</w>
depos ited</w>
de aling</w>
coun ter</w>
cou ldn</w>
contr ary</w>
bl ood
bes i
att acking</w>
acqu ain
Yoshi oki</w>
Yoshi akira</w>
Yod o-
Yas uk
YAMA GATA</w>
U emon</w>
Tun nel</w>
S ports</w>
Mochi hito</w>
M ichim
M ay
K ubo</w>
Govern or-
Ek iben</w>
80 6</w>
高 め</w>
訪 ね</w>
背 後</w>
老 人</w>
精 米</w>
猛 </w>
片 町</w>
無 量
演 じ</w>
液 </w>
涌 </w>
死 に</w>
末 寺</w>
日 置</w>
故 郷</w>
後 裔</w>
後 宮</w>
式 内</w>
師 団</w>
屯 田</w>
届 </w>
小 袖</w>
安 堵</w>
守 屋</w>
学 園</w>
子 女</w>
婚 姻
婚姻 </w>
奏 者</w>
大 尉</w>
単 純</w>
倒 幕</w>
促 </w>
価 格</w>
例 祭</w>
乾 </w>
一 乗</w>
な ら
た く</w>
た か
く し</w>
き ん
un oo</w>
tom bs</w>
tal ented</w>
ta il</w>
surro undings</w>
subst ant
s ad
ro be</w>
pro -
out bound</w>
ot ani</w>
on o
mon me</w>
min or</w>
l am
job s</w>
individ uals</w>
increas ingly</w>
in bound</w>
ho useholds</w>
hand -
grad ed</w>
gr illed</w>
flo at</w>
et sune</w>
dr ive</w>
direc tions</w>
de emed</w>
cre di
cor rid
con sequently</w>
b os
b ig
anim al</w>
an sho</w>
aj iro</w>
acc umul
a pers</w>
Yor o</w>
Y atsu
Uk ifune</w>
Ty p
Sho ichii</w>
Nishi kyo</w>
Mer it</w>
Kita oji</w>
K endo</w>
In c</w>
Hoz onkai</w>
Ho sho</w>
Hachim angu</w>
Ear th
Buil dings</w>
Ban koku</w>
B U</w>
Ak ira</w>
30 ,000</w>
185 1</w>
魏 </w>
高 句
高句 麗</w>
陰 謀</w>
退 位</w>
輸 出</w>
藤 原
萬 </w>
臣 下</w>
線 路</w>
箏 曲</w>
石 見</w>
直 径</w>
満 州</w>
民 営</w>
比 企</w>
検 地</w>
染 め</w>
曹 </w>
教 科</w>
授 か</w>
待 遇</w>
年 寄</w>
山 門</w>
天 ぷら</w>
名 高</w>
同 社</w>
制 圧</w>
佐 竹</w>
仲 介</w>
久 御
世 間</w>
上 り</w>
ロ ン</w>
シ リーズ</w>
ろ し</w>
き ゅう</w>
お う</w>
w a
vo ice</w>
uni form</w>
tsuk asa</w>
susp ected</w>
sho chu</w>
shi ro</w>
riv ers</w>
ri k
re d
re appointed</w>
pur ification</w>
promot e</w>
process ed</w>
prem e</w>
pot ato</w>
pos sibly</w>
port edly</w>
par ade</w>
p hon
oy aki</w>
off erings</w>
k ichi</w>
k ane</w>
int ang
intang ible</w>
im ming</w>
ih aru</w>
ide as</w>
head ing</w>
gu id
go sho</w>
f it
exhib ited</w>
design ation</w>
cor mor
consid ering</w>
bureaucr ats</w>
bon ito</w>
ben to</w>
be er</w>
ayama- jo</w>
ab oko</w>
Yum iya</w>
Tak echi</w>
Tadat sune</w>
TA GAWA</w>
Su preme</w>
Shog un
Re forms</w>
RE IZE
Pass enger</w>
Or </w>
O h
Min ato</w>
Ky udo</w>
Ky okai</w>
Katsu ie</w>
Kat amachi</w>
Hor ses</w>
Dr ama</w>
Dar uma</w>
Back ground</w>
BA TAKE</w>
Ar chitect
Appro ximately</w>
< </w>
9 -
159 3</w>
青 森</w>
阿 倍</w>
進 行</w>
講 和</w>
薬 師
薬師 寺</w>
蔭 </w>
芽 </w>
舞 妓</w>
美 人</w>
精 華</w>
精 </w>
相 談</w>
略 称</w>
現 象</w>
法 相</w>
沿 岸</w>
本 町</w>
木 下</w>
時 忠</w>
春 秋</w>
斬 り
態 度</w>
慈 </w>
悩 </w>
平 日</w>
嵐 </w>
小 林</w>
小 屋</w>
寛 弘</w>
家 茂</w>
和 風</w>
君 主</w>
召 </w>
取 締
南 都</w>
勝 家</w>
兆 </w>
偈 </w>
五 重
下 関</w>
一 宮</w>
ト ー
スポ ーツ</w>
よ し
の り</w>
て い</w>
きょう と</w>
w isdom</w>
tor ii</w>
th eless</w>
sk ir
ric e-
res ses</w>
pay ment</w>
ot om
los s</w>
ld ers</w>
k uro
journ ey</w>
j ir
instruc tion</w>
im pris
ill ow</w>
ian g</w>
heav enly</w>
h o-
fin ance</w>
extinc t</w>
ever theless</w>
en e</w>
der ly</w>
conn ects</w>
cil ors</w>
b ear</w>
anth ologies</w>
acc ess
Yam ana</w>
Y ears</w>
Y U</w>
W ay</w>
Tr ains</w>
T it
Sum imoto</w>
Suk e
Stat ues</w>
Sho sho</w>
Sh oki</w>
SHI NA</w>
S HO
Ok ami</w>
O shik
Mr .</w>
KO BORI</w>
Iwashim izu</w>
In ar
Him eji</w>
G i
En shrin
Atsut ane</w>
18 35</w>
157 9</w>
鳩 </w>
風 景</w>
須 賀</w>
透 </w>
追い 込</w>
販 </w>
講 義</w>
調 整</w>
計 算</w>
裾 </w>
蒙 </w>
耕 </w>
義 興</w>
突 き
皆 </w>
白 石</w>
源 平</w>
汰 </w>
殻 </w>
次 官</w>
桶 </w>
根 来</w>
新 町</w>
救 済</w>
支 線</w>
怒 り</w>
巨 大</w>
大炊 御門</w>
名 乗り</w>
典 範</w>
入 社</w>
保 延</w>
佐 久
今 後</w>
人 事</w>
九 鬼</w>
下 鴨</w>
三 国</w>
三 代</w>
ル ト
ル ク</w>
リ ッ
ネ ギ</w>
ア ール</w>
たい ら</w>
た け</w>
view point</w>
ur ies</w>
un changed</w>
tou ch</w>
stit uted</w>
stat ement</w>
st alls</w>
shou lder</w>
s ama</w>
s aku</w>
pro per</w>
portr aits</w>
oun ded</w>
om an</w>
nur se</w>
num bered</w>
mat ches</w>
low est</w>
lab or
l um
koku jin</w>
jor uri</w>
inter ior</w>
improv e</w>
four teenth</w>
fall ing</w>
fal se</w>
ey ed</w>
expres sions</w>
exc eption</w>
em ari</w>
east- west</w>
ear then</w>
e di
discus sion</w>
dem anded</w>
deg rees</w>
deep- fried</w>
commiss ioner</w>
bo arding</w>
banqu et</w>
avo ided</w>
assem bly</w>
as es</w>
appro ach</w>
ang e</w>
ai ke</w>
a hiko</w>
Yoshim ori</w>
Yom ei</w>
YAM ASHI
Vi ew
Tsur uga</w>
Tad azane</w>
TSU DA</w>
St ory</w>
SA NA
Rok uro</w>
REIZE I</w>
Nit ta</w>
NO BE</w>
NAGA I</w>
Manchur ia</w>
M iwa</w>
Kaz un
KU TSUKI</w>
K ub
It suk
H </w>
Fu hito</w>
Dai -
B ea
As omi</w>
A bur
17 00</w>
168 9</w>
160 2</w>
- and-
襖 </w>
若 宮</w>
自 己</w>
粒 </w>
福 原</w>
祭 事</w>
礼 拝</w>
破 壊</w>
省 略</w>
発 布</w>
涙 </w>
浮 舟</w>
権 勢</w>
構 想</w>
杯 </w>
村 田</w>
本 宮</w>
木 材</w>
早 雲</w>
敦 賀</w>
手 段</w>
彫 </w>
廉 </w>
平 和</w>
巣 </w>
寛 治</w>
宣 教</w>
完 了</w>
婦 人</w>
妾 </w>
典 型</w>
全 面</w>
元 文</w>
久御 山</w>
両 方</w>
ベ ル</w>
ソ ン</w>
コ ン</w>
イザ ナギ</w>
um on
t uring</w>
sword play</w>
star ch</w>
sm ell</w>
sk ill</w>
scre ens</w>
research ers</w>
promot ing</w>
pro claimed</w>
p regn
ov en</w>
ob j
manag ing</w>
mak eup</w>
l ux
l oy
kan rei</w>
k ik
ion ing</w>
independ ently</w>
ific ations</w>
ic ing</w>
i us</w>
hi ding</w>
forc ement</w>
fact ory</w>
est y</w>
es el</w>
ep h
end ary</w>
eleg ant</w>
cub ic</w>
cou p</w>
con centr
compar able</w>
bes ide</w>
be ach</w>
ar ly</w>
ang a</w>
Trans f
Tamur amaro</w>
T ama</w>
Shinto ism</w>
P rec
Ot a</w>
N og
Kun it
Kas ag
KI MURA</w>
Hon zon</w>
Gomiz unoo</w>
Fushim i-jo</w>
Enshrin ed</w>
Des ign
7 57</w>
160 7</w>
0 7
１ </w>
鷹 </w>
鵜 </w>
隋 </w>
開 け</w>
閉 鎖</w>
重 用</w>
返 し</w>
近 江
込 め</w>
転 封</w>
軍 隊</w>
藻 </w>
葺 き</w>
花 見</w>
肩 </w>
職 掌</w>
義 景</w>
義 家</w>
綬 章</w>
継 室</w>
篭 </w>
笠 置</w>
発 言</w>
玄 関</w>
無 事</w>
浜 松</w>
法 学</w>
永 久</w>
殆 ど</w>
本 門</w>
有 馬</w>
教 師</w>
提 携</w>
探 </w>
慣 習</w>
恩 賞</w>
微 </w>
実 務</w>
安 藤</w>
安 徳</w>
奉 還</w>
太 上</w>
多 賀</w>
厨 子</w>
勘 定</w>
先 端</w>
信 者</w>
五重 塔</w>
ま き</w>
ど ころ</w>
was abi</w>
sud den</w>
story telling</w>
sleev e</w>
sign ature</w>
s ob
ro asted</w>
om itsu</w>
ok onomiyaki</w>
ochi ka</w>
n y</w>
me etings</w>
iz aemon</w>
it ance</w>
is u</w>
im o</w>
h ut</w>
h op
extr a
exec utive</w>
er as</w>
en- faced</w>
e enth</w>
disci pl
dis em
dest ruc
conf ection
clus ion</w>
ced ar</w>
caval ry</w>
at tracted</w>
as uke</w>
ad m
abus ame</w>
Yas ak
Wak oku</w>
Tom b</w>
TO RI</w>
T ri
Sot an</w>
Sah yoe</w>
Os hima</w>
N os
Mor ot
M OTO
Kar af
Kam it
KITA BATAKE</w>
K n
Jor uri</w>
Hon den</w>
HO RI</w>
G iven</w>
Econom ics</w>
D okyo</w>
157 1</w>
120 3</w>
117 7</w>
！ </w>
駅 名</w>
長 年</w>
通 じ</w>
軍 記</w>
譲 渡</w>
諾 </w>
観 念</w>
衰 え</w>
葛 野</w>
缶 </w>
竹 内</w>
窟 </w>
病 没</w>
甫 </w>
烏 </w>
混 同</w>
淳 和</w>
泡 </w>
治 世</w>
柏 原</w>
整 え</w>
数 十</w>
支 所</w>
摂 家</w>
持 明</w>
我 が</w>
循 環</w>
建 保</w>
平 面</w>
宣 長</w>
城 内</w>
品 川</w>
呼び 名</w>
同 族</w>
受け 取</w>
刺 身</w>
像 高</w>
作 戦</w>
佐 渡</w>
伝 奏</w>
仏 法</w>
五 條</w>
ラ イ</w>
スクリ ット</w>
サン スクリット</w>
サ ー</w>
コ レ
ク ト</w>
わ い</w>
ぼ う</w>
い た</w>
あら すじ</w>
yo g
v ac
t eahouse</w>
su s</w>
spee ch</w>
reli ef</w>
re l</w>
r ural</w>
pre ad</w>
overthro w</w>
on wards</w>
o- kyo</w>
mer it</w>
man age</w>
j ok
ik awa</w>
id an</w>
happ y</w>
han a</w>
gl ass</w>
g ot
g ong
f ear</w>
ex ual</w>
engr aving</w>
diffic ulty</w>
cont est</w>
cl ean
ce iling</w>
c akes</w>
bro ther
bre aking</w>
bo om</w>
att ained</w>
arg ument</w>
ar ose</w>
ak awa</w>
ai ming</w>
accompl ished</w>
V ol</w>
St ar
Shor oku
Shin sen-
Shimon oseki</w>
Sh od
S al
Produc tion</w>
Par is</w>
Nobu yori</w>
MO RI
MO NO
Kan e
K odo</w>
JU JI</w>
In stead</w>
ISB N
HA SEGAWA</w>
Det ails</w>
Con sort</w>
B y
Az uchi</w>
Amen o
18 43</w>
13 0</w>
10 3</w>
飲 食</w>
食 物</w>
頼 之</w>
金 銅</w>
終 戦</w>
稀 </w>
確 実</w>
石 橋</w>
直 政</w>
狐 </w>
熊 谷</w>
為 朝</w>
滞 </w>
清 浄</w>
派 生</w>
欽 明</w>
梅 雨</w>
柿 </w>
本 朝</w>
新 政</w>
措 置</w>
引き 取</w>
延 享</w>
左 馬</w>
官 吏</w>
地 帯</w>
哲 </w>
哉 </w>
勝 手</w>
供 え</w>
交 易</w>
予 備</w>
与 力</w>
ホ ール</w>
ビ ュー</w>
パ リ</w>
ド リ
イタ リア</w>
ゆ き</w>
つ か
だ ん</w>
だ り</w>
き ん</w>
い ろ</w>
℃ </w>
z en-
tr ained</w>
tast es</w>
tact ics</w>
t on</w>
su it</w>
sched uled</w>
rev ival</w>
relig ions</w>
rel ating</w>
re portedly</w>
r ide</w>
promis e</w>
plan ning</w>
phot ograph
particip ants</w>
ot a</w>
nood le</w>
may or</w>
lif etime</w>
l ets</w>
l augh
kan jo</w>
jo int
it en</w>
inher itance</w>
in shu</w>
fol ded</w>
f iction</w>
exp ect
em aki</w>
dict ionary</w>
d ly</w>
clos ing</w>
cl imate</w>
circ ulated</w>
blo om</w>
arm ies</w>
an ari</w>
an al
am o-jinja</w>
ai ko</w>
a head</w>
Tai ka</w>
Tai fu</w>
Shon agon</w>
SHI GE
S ocial</w>
Pain tings</w>
My thology</w>
Mitsuk uni</w>
MIYA KE</w>
M y</w>
Kit ayama</w>
I NU
Hos so</w>
Hei zei</w>
H en
Doc uments</w>
D ogen</w>
Ch em
Broad casting</w>
A T
16 28</w>
158 8</w>
障 害</w>
詳 述</w>
蒔 絵</w>
艦 隊</w>
福 澤</w>
留 め</w>
甲 府</w>
理 論</w>
沙 汰</w>
柔 らか</w>
提 唱</w>
持ち 帰</w>
意 思</w>
意 向</w>
後 円</w>
当 日</w>
弘 文</w>
小 西</w>
宇 佐</w>
大 豆</w>
大 田</w>
大 根</w>
向 上</w>
同 月</w>
右 近</w>
前 年</w>
入 母屋</w>
保 安</w>
人 衆</w>
中 頃</w>
ー デ
ンバ ー</w>
パ ー</w>
ソ </w>
コ ミュ
も うけ</w>
な く</w>
ち ゅう</w>
ぎ ん</w>
z ume</w>
u ous</w>
tur ning</w>
thin king</w>
that ched</w>
si bl
sh uku</w>
sh onin</w>
sh are</w>
sec ure</w>
sashim i</w>
ro e</w>
rin k
re sumed</w>
port able</w>
pleas ure</w>
os ada</w>
on ten</w>
oh o</w>
od as</w>
obu e</w>
north- south</w>
n ery</w>
mour ning</w>
main tenance</w>
m ask</w>
leg endary</w>
larg ely</w>
king dom</w>
ji- jo</w>
horizon tal</w>
h ur
f ert
ext ends</w>
est er</w>
es ue</w>
erg y</w>
er ate</w>
ek uni</w>
cont ribution</w>
ch ronic
c ampus</w>
beg ins</w>
b od
ausole ums</w>
ag onal</w>
af raid</w>
Yuk ichi</w>
Yoshit oshi</w>
Yoshi shige</w>
Y us
Uk on</w>
Tadat aka</w>
TO KI</w>
T oshi</w>
T ath
Shin den</w>
SE RI
S en</w>
OTA NI</w>
O sumi</w>
Myo jin</w>
Mar o</w>
M ine</w>
Kik ugoro</w>
Kam on</w>
KI K
KIK KAWA</w>
K en</w>
Imad eg
HA SHIBA</w>
G ofuk
Fu chu</w>
Design ated</w>
Ch rysanthemum</w>
B .C.</w>
At sum
18 46</w>
- koku</w>
； </w>
鶴 岡</w>
飴 </w>
電 話</w>
遅 </w>
豊 国</w>
解 決</w>
要 因</w>
西 方</w>
藤 田</w>
菊 五郎</w>
苗 字</w>
自 筆</w>
筒 井</w>
異 名</w>
無 料</w>
民 家</w>
業 平</w>
東 宝</w>
服 部</w>
承 平</w>
戦 乱</w>
愛 称</w>
悟 り</w>
庄 内</w>
山 上</w>
居 留</w>
尼 崎</w>
少 数</w>
学 派</w>
土 居</w>
匂 宮</w>
俳 名</w>
低 下</w>
伽 </w>
上 陸</w>
上 賀茂</w>
ワ ー</w>
コミュ ニ
ク レ
が た</w>
y okan</w>
writ ers</w>
wh el
ustri es</w>
un earthed</w>
ul ate</w>
thre w</w>
surv iving</w>
suk a</w>
speci al
s cient
roc ks</w>
publ ishing</w>
pro jects</w>
perf ect</w>
oh aru</w>
oc ated</w>
natur ally</w>
narr ative</w>
mix ture</w>
mak er</w>
kun inomiyatsuko</w>
kok yu</w>
inv ocation</w>
i ju</w>
hon ored</w>
hi er
fir st-
fif teenth</w>
fath er-
f udai</w>
exc elled</w>
ex posed</w>
enj oy
el ded</w>
dial ect</w>
deteri or
der -in-
dem ise</w>
cy lin
cris is</w>
cont ribut
compl icated</w>
bure au</w>
b ought</w>
b alls</w>
at ically</w>
ar ai</w>
apprent ice</w>
an do</w>
ali as</w>
aff air</w>
a ud
Yoshin aga</w>
Yok o
Y otsu
UTSU NOMIYA</w>
T ah
Str uc
Shi shi
Sak onoe</w>
S word</w>
S akura</w>
Rem ains</w>
Priv ate</w>
Organ ization</w>
Mov ement</w>
Kin os
Kam o-
KA JUJI</w>
Ik eda</w>
Hei ankyo</w>
Goz an</w>
G oto</w>
F lower</w>
F inally</w>
Des ign</w>
18 42</w>
16 19</w>
障 </w>
開 城</w>
郡 司</w>
買 い
豊 前</w>
警 護</w>
複 </w>
行 方</w>
簡 易</w>
竹 林</w>
祖 先</w>
確 か</w>
石 垣</w>
登 山</w>
生 命</w>
本 所</w>
明 寺</w>
旋 </w>
改 築</w>
抗 争</w>
弔 </w>
幅 広</w>
希 望</w>
布 告</w>
専 修</w>
天平 宝字</w>
外 側</w>
塵 </w>
垂 </w>
噺 </w>
命 じ</w>
名 残</w>
同 心</w>
南 蛮</w>
先 鋒</w>
久 米</w>
ホ </w>
ハ イ
ニ ュー
グ レ
ガ ル</w>
ガ ス</w>
は や</w>
し ょ
さ い
あ い</w>
war s</w>
trans mitted</w>
text ure</w>
succ eeding</w>
strugg le</w>
sp reading</w>
sl iced</w>
signific antly</w>
si ege</w>
sh opping</w>
sh ojo</w>
sei i</w>
se ki-
s ight</w>
ru in</w>
roof s</w>
reg istration</w>
quar ter</w>
produc es</w>
priv ately</w>
pre -
over whel
om itted</w>
om atsu</w>
not ice</w>
n aval</w>
myo jin</w>
mis cellaneous</w>
l ose</w>
kaz e</w>
kan- ke</w>
in- law</w>
imp act</w>
ill ery</w>
hi t
h all
gak ushi</w>
fur n
fundam ental</w>
fl ag</w>
ed y</w>
eb oshi</w>
eas es</w>
dro pped</w>
cros sed</w>
craftsm an</w>
craf t</w>
conven ient</w>
con cent
coll ecting</w>
ch or
ch ol
br av
aut om
ast ically</w>
an abe</w>
am oun
am ong
aku- in</w>
adop tive</w>
ac cess</w>
a uchi</w>
Y i</w>
W ei</w>
Vic e-
V ocational</w>
Um ay
TSU JI</w>
St e
S em
Publ ishing</w>
O f
NI N</w>
NA KA</w>
Kaw ag
Kan ji</w>
K ent
Han a</w>
Gok ur
D ynasties</w>
Azuchi- jo</w>
2 1st</w>
185 6</w>
18 34</w>
18 22</w>
18 00</w>
157 4</w>
高 齢</w>
需 要</w>
郷 士</w>
選 手</w>
道 中</w>
車 線</w>
豊 富</w>
評 判</w>
観 察</w>
藩 政</w>
窮 </w>
相 楽</w>
直 線</w>
玉 葉</w>
照 宮</w>
焼き 討ち</w>
無 視</w>
淳 </w>
活 発</w>
泰 時</w>
治 め</w>
果 て</w>
林 寺</w>
本 陣</w>
有栖 川
有栖川 宮</w>
曾 </w>
明 日
敵 対</w>
抜 き</w>
投 げ</w>
情 勢</w>
廃 絶</w>
巧 </w>
工 作</w>
峡 </w>
山 荘</w>
宗 務</w>
大 本山</w>
大 奥</w>
境 界</w>
各 駅</w>
原 作</w>
午 後</w>
北 京</w>
創 刊</w>
剤 </w>
公 領</w>
公 事</w>
体 育</w>
伸 び</w>
休 日</w>
亨 </w>
丁 銀</w>
メ ディ
ブ ラ
バ ー</w>
イ モ</w>
へ ん</w>
に ん</w>
い だ</w>
あ が</w>
yo- in</w>
wor th</w>
ware house</w>
spon s
sever ely</w>
ro und
rhy th
reinforc ements</w>
ref lect
pl e
p ig
oshi ge</w>
oh an</w>
og re</w>
n un
ment -
luc ky</w>
lit ers</w>
is ing</w>
intend ent</w>
in ata</w>
im aro</w>
gu ide</w>
gre ater</w>
gradu ation</w>
gr aves</w>
g est
es pread</w>
eff ectively</w>
e ously</w>
differ ent
destro y</w>
des ire</w>
dep th</w>
dec ide</w>
de ed</w>
d awn</w>
cour ses</w>
busin esses</w>
be ads</w>
aw ari</w>
ap por
am aru</w>
adop t</w>
ab an</w>
a- zukuri</w>
Yorim itsu</w>
YA KAWA</w>
Tok ai</w>
Tak ing</w>
Tad amichi</w>
Ta x</w>
TOKU DAI
TOKUDAI JI</w>
T ow
Shig etada</w>
Shi zuka</w>
Sh uz
Sh oko</w>
Represent ative</w>
Rep ort</w>
R ei</w>
Off ices</w>
Ob aku</w>
Ny udo</w>
N om
Moton aga</w>
Mor osuke</w>
Mong ol
Min ak
Maiz ur
Kyo -
Kat sun
KU RO
K ishi
J ust</w>
I TA
H u
Fuji war
E b
D ou
D or
D oji</w>
Chin ju-
Ch os
Ak it
Ad v
18 40</w>
160 6</w>
16 33</w>
15 67</w>
119 0</w>
116 8</w>
騎 馬</w>
食 堂</w>
隔 </w>
阿 蘇</w>
閤 </w>
鐘 楼</w>
重 量</w>
速 度</w>
通 用</w>
践 祚</w>
誤 り</w>
該 当</w>
解 官</w>
考 慮</w>
篤 胤</w>
神 功</w>
磁 器</w>
爵 位</w>
泉 涌</w>
永 仁</w>
母 親</w>
業 者</w>
業 績</w>
検 討</w>
柏 木</w>
東 照宮</w>
曲 輪</w>
後 任</w>
律 宗</w>
學 </w>
塁 </w>
城 陽</w>
吟 </w>
功 労</w>
剣 道</w>
列 島</w>
全 盛</w>
償 </w>
修 業</w>
会 場</w>
仲 間</w>
介 入</w>
事 故</w>
中 院</w>
両 国</w>
三 昧</w>
ロー マ</w>
ネ マ</w>
スペ イン</w>
イザ ナミ</w>
な た</w>
だ し</w>
げ ん
y os
wid espread</w>
where by</w>
wat ch</w>
w arm
vehi cles</w>
um b
u- jinja</w>
theat rical</w>
te eth</w>
t ass
stew ard</w>
star ring</w>
soy beans</w>
sh ut
se eds</w>
rep aired</w>
rectang ular</w>
re min
re aching</w>
privat ization</w>
pol ishing</w>
nec k</w>
mon opol
mand ala</w>
m iz
k ugyo</w>
j iku</w>
iy a-jinja</w>
ish es</w>
ir ing</w>
inter ested</w>
instruc tions</w>
high way</w>
happ iness</w>
fire s</w>
f ast</w>
ex cluding</w>
ev ed</w>
en forcement</w>
ei ji</w>
ec e</w>
doc um
dep art</w>
d ata</w>
cov ery</w>
coun selor</w>
contro lling</w>
co ast
clou ds</w>
cl ock</w>
boun dary</w>
be at</w>
assum e</w>
am ent</w>
ak ama</w>
act ress</w>
act ly</w>
a ok
Z ai
Y uz
Tath agata</w>
Shon ai</w>
Shig eko</w>
Sh uri</w>
San jo-dori</w>
SERI ZAWA</w>
O chi</w>
Matsu e</w>
Kot oku</w>
Kab ane</w>
I i</w>
I SO
HA SHIMOTO</w>
Gyoku yo</w>
G ongen</w>
FU RU
E iga</w>
Cor ps</w>
An toku</w>
Amag asaki</w>
9 .
18 37</w>
18 17</w>
17 16</w>
160 5</w>
16 17</w>
養 育</w>
重 衡</w>
道 隆</w>
行 基</w>
義 隆</w>
署 名</w>
競 </w>
移 管</w>
秩 父</w>
票 </w>
磯 </w>
直 ちに</w>
盛 り
生 れ</w>
漁 </w>
浸 透</w>
泥 </w>
沿 </w>
決 して</w>
永 井</w>
気 象</w>
枠 </w>
東 方</w>
本 店</w>
新 家</w>
捉 え</w>
慧 </w>
志 士</w>
崩 </w>
山 笠</w>
履 </w>
家 名</w>
実 業</w>
奉 仕</w>
大 火</w>
友 人</w>
印 譜</w>
勘 解由</w>
勘 平</w>
勅 命</w>
助 命</w>
住 友</w>
伸 ば</w>
今 度</w>
三 角</w>
ビ ール</w>
ス タイル</w>
ア ニ
み ち</w>
み こ</w>
た ん
こう じ</w>
きわ めて</w>
う ま</w>
wel com
vehi cle</w>
us i
us ers</w>
trad itionally</w>
thro wn</w>
sup pression</w>
sculp tor</w>
ro me</w>
ri ot</w>
re igns</w>
pl ans</w>
pat ron</w>
par king</w>
on ushi</w>
medi um</w>
kai san</w>
independ ence</w>
illustr ations</w>
ik en</w>
envir onment</w>
en or
e- dera</w>
der ives</w>
de er</w>
continu ously</w>
cons ci
confron ted</w>
comp ound</w>
commun ication</w>
cer t</w>
az uki</w>
appl ication</w>
ancest ral</w>
an ag
ak ari</w>
ai s
a ult</w>
W estern-style</w>
Uki yoe</w>
Tsuk ig
Tom omi</w>
Te ika</w>
Sum o</w>
Sho shu</w>
Sai to</w>
Sai gyo</w>
S asaki</w>
Nobu hide</w>
N ot
Mor e</w>
Michit aka</w>
Matsum oto</w>
Kok uga</w>
Kof u</w>
Kaw ab
KIKU CHI</w>
Jug oi</w>
Jing i</w>
Hon jo</w>
Gir ls</w>
En yu</w>
Ed ict</w>
E qu
Des pite</w>
Dep ending</w>
Daik aku-ji</w>
Dai bu</w>
B uzen</w>
B S</w>
Az um
Az ai</w>
Archi ves</w>
ARA KI</w>
A ZAI</w>
3 ,
18 41</w>
170 9</w>
168 8</w>
15 58</w>
13 31</w>
鶏 </w>
陶 器</w>
錦 絵</w>
重 忠</w>
遺 品</w>
辛 子</w>
蹴 鞠</w>
調 べ</w>
評 論</w>
親 族</w>
脇 坂</w>
紙 幣</w>
箇 </w>
短 歌</w>
発 揮</w>
琳 </w>
猿 </w>
狂 </w>
父 親</w>
無量 寿</w>
比 等</w>
樫 </w>
松 平家</w>
朋 </w>
有 職</w>
明日 香</w>
扇 子</w>
戸 田</w>
忠 通</w>
張 り</w>
差 異</w>
宿 場</w>
塀 </w>
参 謀</w>
加 盟</w>
出 張</w>
公 爵</w>
先 駆
候 補</w>
修 羅</w>
俗 姓</w>
伯 父</w>
代 理</w>
乙 訓</w>
両 替</w>
ー ター</w>
ワ イン</w>
リ ング</w>
デ </w>
オー プン</w>
オ リ
み こと</w>
ひ ら</w>
ね ん</w>
た け
ご ん</w>
う た</w>
war ded</w>
uro ku</w>
ure -
u sho</w>
tr ust</w>
six ty-
sign s</w>
sc ar
s po
rad ish</w>
promulg ated</w>
posit ioned</w>
pec ul
p uku-ji</w>
p ir
oj in</w>
og u</w>
mur der</w>
mon in</w>
ment ion</w>
loin cloth</w>
l a</w>
kam aboko</w>
k ud
fun ds</w>
fle et</w>
fl ying</w>
fac ts</w>
exp enses</w>
er amik
ent om
enc ies</w>
e els</w>
dwell ing</w>
diffic ulties</w>
defin ition</w>
commit tee</w>
c ool</w>
bun ko</w>
b ri
ass embl
ar a-
am ai</w>
ak ura-
ag eous</w>
Z h
Yoshim ochi</w>
Yorit suna</w>
W isdom</w>
Vi et
Sek kan-ke</w>
Se ki</w>
S ciences</w>
S appor
S ach
Ret ain
Ok ur
Nag ao</w>
M il
Kon in</w>
Kog o</w>
Ko i</w>
Kaget ora</w>
KU MA
KA ZA
K ings</w>
J on
J id
Ishi yama-
Ik ar
Her itage</w>
HIGA SHI
G l
DA CHI</w>
BA RA</w>
Az echi</w>
8 10</w>
魁 </w>
陥 落</w>
金 銀</w>
視 察</w>
衆 生</w>
蜜 </w>
自 刃</w>
絶 対</w>
紫 式部</w>
直 系</w>
生 存</w>
現 実</w>
煕 </w>
漢 文</w>
法 度</w>
母 方</w>
概 ね</w>
本 庁</w>
推 薦</w>
手 前</w>
戦 功</w>
息 所</w>
応 神</w>
御 息所</w>
往 来</w>
平 均</w>
家 柄</w>
学 会</w>
大 敗</w>
外 戚</w>
基 経</w>
取 れ</w>
千 本</w>
剃 髪</w>
公 認</w>
全 域</w>
光 厳</w>
健 </w>
修 復</w>
伊 丹</w>
不 比等</w>
一 連</w>
ヶ 瀬</w>
チ ョ
ス コ
welcom ed</w>
ur ation</w>
un less</w>
ul l</w>
thro wing</w>
sp apers</w>
se als</w>
refl ected</w>
ran ts</w>
pl ates</w>
patri arch</w>
o- machi</w>
m as
ko en</w>
k aku-
int ent
inc idents</w>
im on</w>
hon -
hand writing</w>
hai kai</w>
h oku</w>
friend ly</w>
for t</w>
fact ors</w>
f ond</w>
f air
enth usi
ek ing</w>
e ur</w>
dr ums</w>
dis gu
describ ing</w>
cros s-
craftsm en</w>
consum ption</w>
conf idence</w>
ch est</w>
cert ified</w>
cent ering</w>
b ayashi</w>
b atsu</w>
aun t</w>
ashi r
angu ages</w>
altern ative</w>
Yoshi hide</w>
Yasum aro</w>
Viet nam
Toshim ichi</w>
Tok ai-do</w>
To sho-
Teng uto</w>
Summ er</w>
Sug awara</w>
Su wa</w>
Sou theast</w>
Shigen obu</w>
Sculp ted</w>
S l
Progr am</w>
O jin</w>
Na osuke</w>
NAKA GAWA</w>
Karasuma- dori</w>
Iw ami</w>
IS E</w>
H agi</w>
G E</w>
Ex c
Daig aku</w>
18 30</w>
18 18</w>
117 8</w>
115 5</w>
雄 略</w>
通 貨</w>
藩 札</w>
葛 </w>
興 味</w>
脱 走</w>
義 盛</w>
総 長</w>
空 港</w>
着 手</w>
燗 </w>
深 夜</w>
治 部</w>
武 装</w>
析 </w>
朱 印</w>
暮 ら</w>
政 友</w>
按 察
按察 使</w>
弁 官</w>
幌 </w>
巳 </w>
届 け</w>
寄 席</w>
寄 合</w>
実 験</w>
学 芸</w>
姉 小路</w>
執 り
喪 </w>
問 屋</w>
南 宋</w>
北 西</w>
公 布</w>
信 徒</w>
供 給</w>
佐久 間</w>
上 級</w>
ル ギー</w>
も ち</w>
ま ん</w>
か な</w>
あ ん
xim um</w>
virt ue</w>
un ification</w>
ul ating</w>
u le</w>
tro up
trav el
thor ough
sub- temple</w>
strength ened</w>
st ro
shit e-kata</w>
satis fied</w>
rebel </w>
ran e</w>
r ig
prosper ous</w>
prin cesses</w>
pr ices</w>
oc t
n ori</w>
mon jo</w>
man ned</w>
m g</w>
l ion</w>
jin ya</w>
j um
j ito</w>
iqu ette</w>
ik ata</w>
ic y</w>
guar an
gl ue</w>
forb idden</w>
ex actly</w>
et ter</w>
eramik oto</w>
eng ers</w>
div ination</w>
den ied</w>
deb ate</w>
corpor ation</w>
conqu er</w>
conf used</w>
comm ent
chec k</w>
cert ific
bu l
bor e</w>
beg un</w>
ban k
aw ak
at ter</w>
am ine</w>
achiev e</w>
Yoshit ane</w>
W e
Trans port</w>
To sh
Sappor o</w>
S ign
Reg ional</w>
Prin ci
Pres ent</w>
Pain ting</w>
O chi
Min eyama</w>
Mi ura</w>
MONO NOBE</w>
Kud ara</w>
Kashiw agi</w>
K ut
K oki</w>
Ir uka</w>
Im medi
Governor- General</w>
Gen pei</w>
Fac ilities</w>
Earth quake</w>
Bas ically</w>
B ok
B ak
Ad j
16 11</w>
13 38</w>
117 6</w>
飲 料</w>
頼 綱</w>
降 り</w>
鎖 国</w>
遁 </w>
費 用</w>
誕 </w>
触 </w>
見 な</w>
被 官</w>
虜 </w>
聞 き
羽 織</w>
終 結</w>
納 入</w>
簿 </w>
篇 </w>
筑 後</w>
立 ち</w>
私 塾</w>
神 輿</w>
田 楽</w>
生 み出</w>
深 め</w>
毎 </w>
武 官</w>
某 </w>
本 書</w>
昼 </w>
数 学</w>
擁 </w>
損 </w>
控 え</w>
扶 持</w>
広 め</w>
平 山</w>
師 匠</w>
岡 本</w>
安 房</w>
宇 陀</w>
孔 </w>
子 息</w>
夭 折</w>
天 神
天 和</w>
大 黒</w>
堂 上</w>
史 上</w>
台 東</w>
収 容</w>
単 なる</w>
南 無</w>
入 鹿</w>
上 位</w>
三 条
一 面</w>
ファ ン</w>
シ ェ
キ ロ</w>
カツ 丼</w>
ひ と
は ら</w>
す り
う ち
w and
var ied</w>
under went</w>
t ile</w>
sn ake</w>
sibl ings</w>
s killed</w>
s a</w>
reserv ed</w>
requ ires</w>
ood stuff
on ents</w>
ographi es</w>
n ingyo</w>
n engu</w>
min istry</w>
il t</w>
ig awa</w>
if f</w>
hid den</w>
hear ing</w>
hard ly</w>
han- chiken</w>
follow er</w>
est one</w>
down fall</w>
descend ents</w>
dep icts</w>
deal t</w>
cor ps</w>
construc ting</w>
consid erably</w>
concent rated</w>
class ic</w>
car efully</w>
author ities</w>
ar es</w>
ar chi
appro ached</w>
ans ai</w>
after ward</w>
abd ication</w>
YO KO
Y usai</w>
Y et</w>
Transf erred</w>
Tai ga</w>
TO MI
Su ica</w>
St op</w>
Se ika</w>
Rev ol
M other</w>
I N
Hir on
G un</w>
E NO
Charact er
Cham ber</w>
Ch air
18 45</w>
18 38</w>
159 4</w>
159 1</w>
- minute</w>
鹿 島</w>
高 階</w>
駅 弁</w>
頼 光</w>
阿 闍
鑑 賞</w>
銀 座</w>
農 村</w>
華 道</w>
胸 </w>
肌 </w>
義 久</w>
継 体</w>
継 ぎ</w>
立 花</w>
突 然</w>
称 え</w>
申 し出</w>
狙 </w>
湖 西</w>
清 朝</w>
流 布</w>
正 治</w>
梵 鐘</w>
柳 原</w>
書 風</w>
摺 </w>
提 案</w>
戒 律</w>
成 果</w>
当 麻</w>
広 大</w>
庁 舎</w>
年 号</w>
差 別</w>
崇 神</w>
小 豆</w>
官 司</w>
太 閤</w>
天 地</w>
大 老</w>
壊 滅</w>
国 産</w>
国 分</w>
四 季</w>
吹 き
医 療</w>
勤 行</w>
函 館</w>
具 材</w>
侍 所</w>
令 外</w>
人 質</w>
下 部</w>
三条 西</w>
三 位</w>
ラ ッシュ</w>
マ ス</w>
ボ ン</w>
バ ル</w>
ト ラ
チェ ーン</w>
カ ン
まっ たく</w>
つ い</w>
け い
z uke</w>
y aku
w on
ure i</w>
uchi- jinja</w>
tribu te</w>
text ile</w>
t ie</w>
t ab
sur prised</w>
shi chi
sh om
s op
raph </w>
qu oted</w>
proc eeded</w>
ot ion</w>
o on</w>
nov el
n en</w>
lan tern</w>
l ov
k iyo</w>
ip s</w>
ion aries</w>
im pressed</w>
ik iyo</w>
hun t</w>
hol es</w>
heav ily</w>
g aru</w>
frag rance</w>
ferment ed</w>
fe ud</w>
extra ordinary</w>
er o</w>
er als</w>
ed o</w>
eb all</w>
earli est</w>
develop ing</w>
dep ot</w>
co ok</w>
ch rysanthemum</w>
ch ant</w>
cat ch</w>
bu y</w>
arr iving</w>
an k
an i-
ab </w>
Yamash in
Toba- Fushimi</w>
Tak en
Tak ed
San z
SA E
S oke</w>
Ru ins</w>
R itsu</w>
P os
Orig inal</w>
Ok ura-
Nar ihira</w>
Mochi uji</w>
Mi roku</w>
L E
Kin ug
Ke ishi</w>
KO I
KINO SHITA</w>
It agaki</w>
I son
I ki</w>
I etsuna</w>
Hok usai</w>
Him iko</w>
Han shin</w>
H oshi</w>
50 ,000</w>
18 47</w>
18 39</w>
16 61</w>
16 26</w>
16 12</w>
- -</w>
高 僧</w>
馬 頭</w>
青 蓮</w>
階 層</w>
阿闍 梨</w>
閉 じ</w>
践 </w>
謁 </w>
記 紀</w>
表 紙</w>
肥 </w>
耕 作</w>
羽 林</w>
終 点</w>
秘 </w>
祓 </w>
社 名</w>
石 州</w>
知 れ</w>
発 音</w>
生 物</w>
片 山</w>
熱 心</w>
正 保</w>
歌 詞</w>
梅 田</w>
枚 方</w>
松 江</w>
本 因
木 綿</w>
木 曽</w>
時 平</w>
明 徳</w>
改 </w>
掾 </w>
持 氏</w>
我 部</w>
成 親</w>
感 じ</w>
怖 </w>
志 賀</w>
忍 者</w>
従 者</w>
寺 田</w>
学 研</w>
奔 </w>
夜 間</w>
固 有</w>
和 気</w>
呉 </w>
名 目</w>
名 主</w>
原 田</w>
内 匠</w>
中 学</w>
上 手</w>
一 流</w>
メ ント</w>
タ イ</w>
オ オ
わ が</w>
し れ</w>
ざ い</w>
さ ら</w>
あら わ</w>
yam akasa</w>
wai st</w>
v end
u- no-
u hi</w>
train -
teach ers</w>
sol ar</w>
settl ements</w>
s ushi
ron in</w>
rin -ji</w>
resem bles</w>
re ts</w>
ran t</w>
r yoshu</w>
qu ant
pursu ed</w>
prai se</w>
phenomen on</w>
p addy</w>
ou ts</w>
orig ami</w>
on mental</w>
ok ata</w>
nin et
n eeds</w>
mus icians</w>
mur dered</w>
minist ers</w>
manufactur ers</w>
man hood</w>
m ol
m atsu</w>
ligh ts</w>
l id</w>
kn ife</w>
k os
j itsu</w>
inher it</w>
in hab
il izing</w>
ih ama</w>
ic ism</w>
i chin
hos pital</w>
h und
g .</w>
foc used</w>
fif teen</w>
fall en</w>
f u-
en der</w>
el even</w>
el eph
el derly</w>
ed ing</w>
earth quake</w>
e u
dr ying</w>
dr iven</w>
don ation</w>
d ani</w>
clo ister</w>
chur ch</w>
ch aya</w>
car p
brew ed</w>
br and</w>
b ay</w>
at -
appoin t</w>
am in
a e-
Zen ji</w>
Writ ten</w>
WA KI
Uta emon</w>
Twent y-
Tak ada</w>
T ab
Shig emasa</w>
SAN JO
SANJO NISHI</w>
Pl ace</w>
P a
OKU MA</w>
Nar ichika</w>
Nan to</w>
N izaemon</w>
Mon zeki</w>
Ma eda</w>
M ut
Leg end</w>
Ky ok
Kor e
Kam in
KAZA NIN</w>
Ind ustry</w>
I ll
Hir ano</w>
H att
H O</w>
Conc ern
Byo d
Bun ka</w>
B ugyo</w>
An sei</w>
Administr ative</w>
Adj acent</w>
3 5
18 44</w>
18 32</w>
18 28</w>
16 2</w>
117 1</w>
高 価</w>
鑑 真</w>
邑 </w>
適 用</w>
道 元</w>
通 し</w>
踏 </w>
証 拠</w>
衣 笠</w>
聴 </w>
紗 </w>
米 沢</w>
稙 </w>
破 風</w>
眠 </w>
直 し</w>
由 良</w>
物 理</w>
爪 </w>
海 水</w>
浅 </w>
法 印</w>
民 国</w>
本因 坊</w>
本 営</w>
暴 </w>
普 賢</w>
数 百</w>
数 々</w>
支 流</w>
擬 </w>
拝 観</w>
徹 </w>
当 たり</w>
強 調</w>
師 輔</w>
宗 像</w>
女 優</w>
奉 公</w>
多 宝塔</w>
厳 密</w>
募 集</w>
出 品</w>
光 圀</w>
僅 か</w>
付 け
一 ノ
ッ と</w>
チ ン</w>
ぶ つ</w>
な お
つ ね</w>
く ろ</w>
yo do</w>
wor se</w>
stat ing</w>
sing ing</w>
ry okan</w>
pre ached</w>
oth er
ok or
nin ja</w>
mik an</w>
mer ely</w>
man t
mai den</w>
loy alty</w>
k ers</w>
just ice</w>
iy ama-
ir yo</w>
gr ains</w>
geneal og
ga uge</w>
for ests</w>
fish er
expl ains</w>
en sion</w>
do g</w>
distinc tion</w>
con spiracy</w>
circ ulation</w>
ch e</w>
callig rapher</w>
call s</w>
c ited</w>
b in
b ever
az o</w>
aristocr acy</w>
aj im
acc used</w>
Yoshik atsu</w>
Yon ez
Yam ashi
YAMA ZAKI</w>
W el
W ang</w>
U RA
Tsu chimikado</w>
Ter min
Techn ical</w>
Takam atsu</w>
T od
Shos oin</w>
Shin sen</w>
Sh an
Sad aie</w>
S ato</w>
NAKA HARA</w>
MATSU O</w>
Kok aku</w>
Kit ashi
Ke itai</w>
Kan emichi</w>
Immedi ately</w>
I tsu
Hong w
Har ut
H ata</w>
Fuj itsubo</w>
Foun der</w>
F ront</w>
E ig
Dain ichi</w>
Chi yo
A NDO</w>
A DACHI</w>
70 8</w>
7 49</w>
17 88</w>
168 5</w>
15 69</w>
120 5</w>
長 徳</w>
長 宗
銀 閣</w>
郎 女</w>
送 り
課 税</w>
臓 </w>
紛 争</w>
稲 田</w>
禅 寺</w>
祈 </w>
独 占</w>
牙 </w>
熟 成</w>
焉 </w>
渡 航</w>
気 動</w>
櫛 </w>
桑 名</w>
枢 密</w>
東 映</w>
新 制</w>
斬 首</w>
敏 達</w>
政 官</w>
巻 き</w>
左 近</w>
川 端</w>
天 誅</w>
変 わり</w>
在 原</w>
品 質</w>
吹 負</w>
吸 </w>
史 書</w>
前 提</w>
入り 口</w>
入 京</w>
免 除</w>
元 暦</w>
優 秀</w>
任 務</w>
仁 左衛門</w>
事 項</w>
世 代</w>
七 夕</w>
一 貫</w>
ー フ</w>
ヶ 池</w>
ネ ス</w>
ナ イ
ゲ </w>
カ ル
ウ イ
か ま
z ashi</w>
y a-
wed ding</w>
utsu ki</w>
tow ers</w>
thir teen</w>
th ly</w>
subsid iary</w>
subjug ation</w>
su i-
st amp</w>
sho ot</w>
ren owned</w>
quest ions</w>
quant ity</w>
qu iet</w>
prosper ed</w>
process ing</w>
p ick</w>
over l
ok en</w>
n ative</w>
medi ation</w>
m iy
m ausoleums</w>
ligh t
leg isl
l ake</w>
kar a
jud gment</w>
jo sho</w>
inc ar
ig iri</w>
i be</w>
hi n</w>
hi ki</w>
gl ut
gen re</w>
f ron
f ate</w>
ext ending</w>
ek yo</w>
dr iving</w>
disem bow
dis aster</w>
coun ting</w>
cons ist</w>
ch ose</w>
beg in</w>
b ic
b act
attemp ts</w>
assum ing</w>
aristocr ats</w>
appar ently</w>
ang er</w>
ai de</w>
adj ust
ac knowl
YU KI</w>
W ada</w>
Tanb abashi</w>
Shiten no</w>
SU </w>
SAE KI</w>
S ob
S aku
Oyam azaki</w>
O i</w>
O GA
Nag ak
Matsu i</w>
KO N
K ishi</w>
Ik ai</w>
Ichin otani</w>
I etsugu</w>
He alth</w>
Harun obu</w>
H aw
Gaku shuin</w>
Fin ance</w>
F ather</w>
Bar on</w>
B it
Air port</w>
7 70</w>
15 63</w>
15 60</w>
香 炉</w>
革 命</w>
長宗 我部</w>
長 和</w>
達 磨</w>
迷 </w>
軍 艦</w>
諸 島</w>
藤 壺</w>
生 じ</w>
王 院</w>
猟 </w>
無 人</w>
漱 石</w>
添 加</w>
淀 殿</w>
民 権</w>
毅 </w>
来 航</w>
景 観</w>
早 朝</w>
旧 家</w>
斑 鳩</w>
座 敷</w>
年 末</w>
帰 郷</w>
巡 礼</w>
寛 仁</w>
家 綱</w>
家 来</w>
宇 喜多</w>
大 名家</w>
外 観</w>
埋 め</w>
国 分
商 家</w>
吟 醸</w>
名 づけ</w>
及 ぼ</w>
努 力</w>
倫 </w>
修 め</w>
佐 野</w>
伴 奏</w>
中 津</w>
中 書</w>
ペ ージ</w>
ス コ</w>
ジャ ン
ジェ イ
グレ ゴ
り 物</w>
ふ ん</w>
はじ めて</w>
じ め</w>
し く</w>
さ くら</w>
い れ</w>
yor i
w ashed</w>
tri ang
thous ands</w>
suspic ion</w>
stor m</w>
sol id</w>
sal ted</w>
rup ted</w>
resour ces</w>
reg ulation</w>
pres sing</w>
pract it
pol ished</w>
pecul iar</w>
part ially</w>
p referred</w>
p achi</w>
occur s</w>
o- mon</w>
n ishiki</w>
n ickn
mountain ous</w>
mar o</w>
k og
is ato</w>
in stitute</w>
in osuke</w>
im onin</w>
ib er
hot el</w>
hi to
h ensive</w>
father- in-law</w>
fact or</w>
f ly</w>
f ing
ext ant</w>
et iquette</w>
entom bed</w>
ent ing</w>
ent ially</w>
eas ier</w>
dist urbance</w>
diplom acy</w>
depl oyed</w>
decor ations</w>
decis ive</w>
de eds</w>
d y</w>
commemor ate</w>
ch em
bo ats</w>
bes ides</w>
bar on</w>
aw a-jo</w>
art ific
amur ai-
ai- cho</w>
Yoshi suke</w>
Y ASHI
Tai to</w>
Sus ano</w>
SANA DA</w>
N evertheless</w>
Moun tains</w>
Ken nin
KOBA YAKAWA</w>
Jun na</w>
J uk
Ichin omiya</w>
GA I</w>
G reg
Ed o-
Daj okan</w>
Bun jin</w>
Brit ain</w>
6 86</w>
6 84</w>
179 8</w>
160 9</w>
16 36</w>
16 23</w>
15 21</w>
鳥 井</w>
頻 繁</w>
須 磨</w>
鈔 </w>
造 形</w>
通 商</w>
退 治</w>
貼 </w>
観 客</w>
行 者</w>
続 き</w>
紫 野</w>
穢 れ</w>
秩 序</w>
神 器</w>
神 体</w>
短 期</w>
矛 盾</w>
疏 </w>
特 権</w>
片 桐</w>
水 口</w>
正 応</w>
楽 部</w>
柳 生</w>
東 征</w>
札 幌</w>
日 朝</w>
接 近</w>
懐 </w>
意 匠</w>
当 社</w>
引き 上げ</w>
廃 れ</w>
幽 斎</w>
市 制</w>
嶺 </w>
山 背</w>
寺 内</w>
実 態</w>
子 弟</w>
娘 婿</w>
奪 還</w>
大 映</w>
大 君</w>
執り 行</w>
国分 寺</w>
回 忌</w>
嘩 </w>
嘉 応</w>
合 同</w>
北 九州</w>
勝 元</w>
傍 </w>
修 正</w>
修 学</w>
主 家</w>
一 座</w>
一 休</w>
ワ イ</w>
モ ン</w>
タ カ
ズ ン</w>
ジ ン</w>
ジ オ</w>
サ ン</w>
キ ネマ</w>
ガ ラス</w>
ウ ン
ば な</w>
z awa</w>
wr apping</w>
w s</w>
un -
tsu ho</w>
suppl ied</w>
sp rink
sou ls</w>
shar p</w>
sev ered</w>
s ear
qu est</w>
pu ff
pic ious</w>
p aying</w>
ou chi-
ot suk
ordin ance</w>
mut ual</w>
municip ality</w>
mir al</w>
main land</w>
lit .</w>
land -
keep er</w>
joint ly</w>
j odai</w>
iz awa</w>
ion ers</w>
in n</w>
im ura</w>
im pression</w>
il ize</w>
ic ity</w>
i in</w>
gong yo</w>
gen puku</w>
g iant</w>
g as</w>
farm er</w>
er ious</w>
ens em
el ment</w>
ect ors</w>
ear ning</w>
e ks</w>
e house</w>
dom inated</w>
divor ced</w>
d il
cut let</w>
c ave</w>
bar k</w>
b or</w>
aw ashi</w>
aw are</w>
ass ign
appe al</w>
answ ered</w>
announc ement</w>
am aki</w>
ai ki</w>
adap ted</w>
ad ai</w>
Wak an</w>
U w
Tsu chi
Shigen ari</w>
Shi jo-dori</w>
Sh ur
Sh ui</w>
SA WARA</w>
Relig ious</w>
Produc tions</w>
Partic ularly</w>
Ot su-
Ori ental</w>
OGA SAWARA</w>
Nyo go</w>
Nakatsuk as
NOMI KADO</w>
NAKA TOMI</w>
Min oru</w>
L etter</w>
Kib i</w>
Kad okawa</w>
K ido</w>
J u-
Hat amoto</w>
HA NA
G ou
D ates</w>
Coun try</w>
Com miss
Chi on-in</w>
C el
Bei jing</w>
20 10</w>
18 31</w>
170 4</w>
12 38</w>
116 7</w>
％ </w>
高 家</w>
馬 寮</w>
雷 神</w>
雰 囲
雰囲 気</w>
防 御</w>
閑 院</w>
門 流</w>
遺 骨</w>
進 軍</w>
買 収</w>
話 題</w>
袍 </w>
茨 木</w>
義 詮</w>
籠 城</w>
移 り
真 人</w>
直 轄</w>
痛 </w>
疑 い</w>
現 行</w>
現 状</w>
狭 義</w>
清 め</w>
沿 道</w>
桑 田</w>
桃 園</w>
数 字</w>
撃 退</w>
打 倒</w>
患 </w>
彌 </w>
弥 呼</w>
市 村</w>
季 語</w>
大 工</w>
大 判</w>
外 様</w>
喧 嘩</w>
呑 </w>
収 蔵</w>
卑 弥呼</w>
功 徳</w>
内 外</w>
併 合</w>
伝 道</w>
仁 明</w>
万 寿</w>
ルト ガル</w>
ラ イン</w>
メディ ア</w>
ポ ルトガル</w>
テ ラス</w>
タ ウン</w>
セン チ</w>
コン クリ
コンクリ ート</w>
る ま</w>
す め
おお むね</w>
い ろ
‐ </w>
z asu</w>
ud aka</w>
t sum
stip ulated</w>
st ance</w>
some what</w>
small -
ru shed</w>
ro un
ro p
remark able</w>
promis ed</w>
ph ase</w>
pen alty</w>
pe aceful</w>
pag odas</w>
ok imi</w>
oc curr
ob ushi</w>
mor t
mis asagi</w>
men u</w>
mathemat ics</w>
m ly</w>
m in</w>
m ap</w>
m achi-
is sion</w>
int ens
in formal</w>
h ect
h ay
fir m</w>
f ushin</w>
f oodstuff
f it</w>
exp and</w>
est -
enor mous</w>
emphas is</w>
disembow elment</w>
depar ting</w>
dea ths</w>
dang er</w>
d ust</w>
d ei
d ayu</w>
consolid ated</w>
ch a
cap it
cand y</w>
c ret
br ight</w>
bott le</w>
be d
bal ance</w>
b ear
b acked</w>
aw s</w>
att ire</w>
at aro</w>
ast ers</w>
ar ashi</w>
an- do</w>
alleg edly</w>
ain ment</w>
ad en</w>
Yoshi hira</w>
Yorit sune</w>
Y outh</w>
Tam e
Tad amori</w>
Ta o
T ayu</w>
Sun pu</w>
Sm all</w>
Shin zei</w>
Sh odo</w>
Sen ch
Sag a-
Rokuj izo</w>
Retain ers</w>
Res idence</w>
RA DA</w>
P hy
Nak a
N od
N G</w>
Mur asak
Mong ol</w>
Ky or
Ko sho</w>
Kin mei</w>
KO SE</w>
Iw at
I V</w>
Hongw an-ji</w>
Hachi jo</w>
Greg or
Gen paku</w>
G ran
Fuku yama</w>
F ood</w>
En vir
Elev en-faced</w>
Concern ing</w>
Chog in</w>
Chik ugo</w>
C al
At ago</w>
As sumed</w>
A u
170 3</w>
169 5</w>
16 54</w>
16 24</w>
157 2</w>
116 9</w>
鳳 凰
高 明</w>
離 反</w>
雁 </w>
長 期</w>
途 絶え</w>
襟 </w>
衛 生</w>
色 彩</w>
聚 </w>
節 句</w>
移 民</w>
禎 </w>
祉 </w>
石 塔</w>
盗 賊</w>
理 想</w>
無 し</w>
火 葬</w>
洛 中</w>
治 天</w>
河 野</w>
正 装</w>
樽 </w>
梅 小路</w>
最 期</w>
日 本
撥 </w>
推 挙</w>
掛 け
投 げ
愛 好</w>
想 定</w>
弓 術</w>
延 久</w>
広 域</w>
川 上</w>
岬 </w>
山 王</w>
山 岳</w>
家 政</w>
実 践</w>
奨 </w>
夫 妻</w>
大 安</w>
国 王</w>
和 漢</w>
和 様</w>
名 字</w>
取り 付け</w>
厩 戸</w>
前 日</w>
列 強</w>
出 奔</w>
具 視</w>
八 景</w>
元 久</w>
借 り</w>
体 験</w>
任 せ</w>
中 隊</w>
与 謝</w>
ハ ウス</w>
ヂ </w>
グレゴ リオ</w>
ア カ
め い</w>
ひ こ</w>
っ くり</w>
す め</w>
じ ょう
か ね
あ め</w>
yo den</w>
w ait</w>
vers ions</w>
ur yeo</w>
un ited</w>
thes is</w>
sword smanship</w>
sum m
sud an</w>
sp ite</w>
sp ective</w>
six -
sh os
scrip tions</w>
s ac
ro lling</w>
rit e</w>
ri ki</w>
real m</w>
r ub
pro te
plan ting</w>
nor theast</w>
no on</w>
myst erious</w>
moun ted</w>
lean ings</w>
kil n</w>
k oban</w>
it ated</w>
imit ation</w>
him emiko</w>
hi -
gran t</w>
govern ment-
g ov
flo ating</w>
f ellow</w>
en ji</w>
emphas ized</w>
elect rified</w>
ed ges</w>
ed ed</w>
drin ks</w>
doct ors</w>
dis eases</w>
depend s</w>
cre d
comm erce</w>
chron ological</w>
c ool
auth orized</w>
ass ets</w>
anc ement</w>
am on</w>
am ag
adop tion</w>
achim an</w>
Yoshin ao</w>
Yoshim i</w>
YAMA UCHI</w>
Y ang</w>
Wi thin</w>
Whi te</w>
Uji- gawa</w>
U g
Tend ai-
Takar ag
Tak ako</w>
T AM
Sum eramikoto</w>
St ore</w>
St or
Shug odai</w>
Se ated</w>
Sanet aka</w>
SHI M
S oba</w>
O to</w>
O den</w>
NAGA O</w>
Miy as
Miy afuku</w>
M en</w>
K aya</w>
Im mortal</w>
Ik ki</w>
Hon maru</w>
Heav en</w>
Gy oki</w>
Gog uryeo</w>
GAM O</w>
En chin</w>
Dom ains</w>
D if
Conf erence</w>
Con sid
Chichi bu</w>
Ch erry</w>
Bl ack</w>
7 29</w>
18 25</w>
18 20</w>
169 1</w>
黄 色</w>
鳳凰 </w>
高 天
領 内</w>
非 難</w>
開 校</w>
開 国</w>
鈴 鹿</w>
野 口</w>
辞 退</w>
豊 か</w>
解 任</w>
蒲 </w>
茶 人</w>
自 称</w>
考 古</w>
羅 漢</w>
絃 </w>
終 焉</w>
細 長</w>
福 祉</w>
瀬 田</w>
検 </w>
最 盛</w>
書 籍</w>
新 書</w>
撤 去</w>
拒 絶</w>
抗 議</w>
惜 し</w>
応 用</w>
得 宗</w>
巻 物</w>
崖 </w>
山 麓</w>
富 田</w>
密 か</w>
奇 </w>
大 王</w>
報 恩</w>
堅 田</w>
在 京</w>
嘉 吉</w>
命 日</w>
取 扱</w>
反 撃</w>
北 斎</w>
割 合</w>
公 的</w>
先 生</w>
元 興</w>
信 用</w>
代 行</w>
代 用</w>
京 丹後</w>
乙 </w>
不 可
上 部</w>
一 員</w>
ミ ュー
フ レ
ネ ット</w>
ディ </w>
ス パ
ス ティ
シー ズン</w>
も の
ぱ ら</w>
づ る</w>
じ ゃ</w>
い 出</w>
z aki</w>
w ashing</w>
w aki</w>
um en</w>
tit ude</w>
thod ox</w>
theat ers</w>
tal k</w>
sym path
sword sm
su z
south west</w>
ses ame</w>
s et
s aku
res sing</w>
pro of</w>
prepar atory</w>
post -
plac ement</w>
p rel
p i</w>
own ers</w>
on ers</w>
occup ation</w>
neg ative</w>
m idd
le y</w>
k us
ju jutsu</w>
introduc ing</w>
init iated</w>
init i
ic ked</w>
hon zan</w>
h ob
gradu ate</w>
gak ari</w>
f ue</w>
en ge</w>
e- kyo</w>
e .
dy ed</w>
distinc tive</w>
der ing</w>
depend ent</w>
del eg
d rif
cour tier</w>
cor respond</w>
contr act</w>
confection ery</w>
con trad
commun ities</w>
car eful</w>
cal m</w>
c in
buk uro</w>
br ave</w>
ass er
an o-jinja</w>
an ism</w>
ae ological</w>
acc ession</w>
ab ushi</w>
Yur yaku</w>
Youn g</w>
Yodo- dono</w>
Tok imune</w>
The at
Tak ashi</w>
T i
Shug akuin</w>
Sen su</w>
Se as
SE N
NI WA</w>
Mi i-dera</w>
M achi
L u
Kyo t
Kik uchi</w>
Kennin -ji</w>
Kak un
J i</w>
I go</w>
I d
Hai han-chiken</w>
Gregor ian</w>
GA KI</w>
G id
Des crip
Com mission</w>
Cl ub</w>
20 13</w>
18 33</w>
17 79</w>
17 30</w>
116 2</w>
２ </w>
隼 人</w>
間 違い</w>
開 化</w>
錬 </w>
鋭 </w>
酒 蔵</w>
連 隊</w>
農 家</w>
軍 団</w>
討ち 死に</w>
血 縁</w>
聖 人</w>
耶 </w>
義 持</w>
神 格</w>
石 碑</w>
番 地</w>
町 三条</w>
申 請</w>
甲 州</w>
牛 丼</w>
激 戦</w>
潔 </w>
清 涼</w>
法 会</w>
永 徳</w>
正親 町三条</w>
正 暦</w>
松 原</w>
曇 </w>
日 市</w>
新 興</w>
放 火</w>
捕 虜</w>
振 る</w>
拾 </w>
拝 謁</w>
承 応</w>
憑 </w>
式 目</w>
巻 名</w>
山 南</w>
寛 元</w>
宗 旦</w>
天 龍</w>
多 少</w>
土 着</w>
吉 原</w>
取締 </w>
取り 立て</w>
卑 </w>
入 城</w>
保 有</w>
俗 名</w>
主 祭</w>
万 延</w>
ー タ</w>
ヴ ィ
マ ル
マ グ
ジェイ アール</w>
ク ター</w>
お ん</w>
x i</w>
was n</w>
w ake</w>
viol ent</w>
vers es</w>
v oc
v ig
ton sure</w>
tem pura</w>
states man</w>
sing le-
she et</w>
secon dary</w>
res sive</w>
re ports</w>
re location</w>
prov ed</w>
pres ently</w>
pregn ant</w>
ot ak
on able</w>
odai jin</w>
od d</w>
o hime</w>
municip alities</w>
mix ing</w>
lower- ranking</w>
locomot ives</w>
lim it</w>
kaz oku</w>
kai ki</w>
k is
k im
j ew
im ae</w>
il iary</w>
h ear</w>
gu arding</w>
govern ments</w>
g aining</w>
foc us</w>
fab rics</w>
f illing</w>
ext ernal</w>
ev e</w>
er ine</w>
e ag
doub t</w>
contro vers
con clusion</w>
compar ison</w>
chest n
ch all
bro iled</w>
bi to</w>
besi eged</w>
ay aki</w>
auth ent
aus picious</w>
at ama</w>
art if
app ly</w>
ann ot
al k</w>
a- ryu</w>
Z hou</w>
Yoshit suna</w>
Yoshik ane</w>
Yam ad
U h
Tsur ugi</w>
Tok ihira</w>
Ten noji</w>
Te ishi</w>
Takat oki</w>
Tak atsuk
TSUCHI MIKADO</w>
Suz uki</w>
Sil k</w>
Pro motion</w>
Prefect ures</w>
Ot okun
OI NOMIKADO</w>
O- oku</w>
New spaper</w>
N ic
Mom oy
Marut amachi</w>
Mak oto</w>
Lo op</w>
Kus ak
Kun iyoshi</w>
Katsur a-gawa</w>
KOBA YASHI</w>
KO NISHI</w>
KATA GI
KATAGI RI</w>
K id
J es
Is shiki</w>
In sp
Iked aya</w>
Hirom oto</w>
Dre am</w>
Daig ak
D osan</w>
Construc ted</w>
Ch om
Bi g</w>
Aj ari</w>
A inu</w>
18 36</w>
160 4</w>
15 36</w>
13 35</w>
- gu</w>
高天 原</w>
首 相</w>
霞 </w>
隻 </w>
長 寿</w>
鍬 </w>
鉱 毒</w>
里 小路</w>
遺 物</w>
辞 世</w>
転 戦</w>
趣 </w>
西 京極</w>
舒 明</w>
義 忠</w>
繰 り
繋 が</w>
粕 </w>
篠 山</w>
秘 仏</w>
異 例</w>
演 習</w>
源 光</w>
桃 </w>
柔 術</w>
松 田</w>
本 庄</w>
日 中</w>
新 宮</w>
改 造</w>
改 新</w>
摂 社</w>
拝 領</w>
所 作</w>
後 方</w>
巾 </w>
巴 </w>
岡 田</w>
尋 ね</w>
尋 </w>
宰 相</w>
宝 ヶ池</w>
安 田</w>
外 記</w>
在 来</w>
圧 力</w>
国 土</w>
合 気</w>
参 与</w>
勧 請</w>
別 雷</w>
出 入り</w>
六 十</w>
事 績</w>
事 前</w>
万 里小路</w>
万 治</w>
一ノ 谷</w>
一 括</w>
フ ト</w>
ニ ー</w>
ト ナム</w>
デ ビュー</w>
や め</w>
び わ</w>
ぢ </w>
さ つ</w>
こ し</w>
お ん
お し
z uki</w>
y ukai</w>
wrest lers</w>
win ner</w>
wh oles
w oven</w>
vari ations</w>
up graded</w>
ub u</w>
sum mon
st up
st ems</w>
so le</w>
shor tly</w>
s exual</w>
prov ision</w>
pa ulownia</w>
p t</w>
over ty</w>
num er
n etwork</w>
meas uring</w>
mean ings</w>
lod ging</w>
liqu id</w>
k ido</w>
k ake</w>
inser ted</w>
im aru</w>
ho sho</w>
h ope</w>
fre ely</w>
favor able</w>
f old</w>
f inger</w>
er ity</w>
el abor
ek ane</w>
dr unk</w>
d harma</w>
cy cle</w>
crimin als</w>
comment aries</w>
coll ective</w>
car to
bur n</w>
brew ery</w>
bl ing</w>
big ger</w>
bell s</w>
bel t</w>
be aten</w>
b ones</w>
b ime</w>
av il
ast ery</w>
asc et
as king</w>
altern ate</w>
ag awa-
ack er
accomm odate</w>
\ </w>
Y O</w>
Th anks</w>
T ori</w>
T omo</w>
Struc ture</w>
St ories</w>
Shinsen- gumi</w>
Sh aku
San mon</w>
Sak on</w>
SHI NO
SAKU MA</w>
S oshi</w>
S oku
Og imachi</w>
O nam
Nishi- Maizuru</w>
Neg or
N ab
Murak ami-
Min at
Mid -
Masan aga</w>
M aki</w>
Kyo ho</w>
Kor iyama</w>
Kok o</w>
Kob un
Kiz okuin</w>
Kei o</w>
Kaz umasa</w>
Kasuga- taisha</w>
J aku
Ill ustr
I enobu</w>
Hak us
H ajime</w>
Goz oku</w>
Goyo zei</w>
Fur uk
Educ ational</w>
E ki</w>
Den to</w>
Daig aku-
Con quest</w>
CHI BA</w>
B amboo</w>
Ar ima</w>
Ar ch
2 5th</w>
12 46</w>
119 2</w>
,000 -koku</w>
鷲 </w>
食 べ
飛 行</w>
風 呂</w>
開 花</w>
閉 塞</w>
長 元</w>
道 教</w>
資 本</w>
護 院</w>
該 </w>
行 長</w>
蟄 居</w>
華 やか</w>
草 津</w>
花 街</w>
聖 護院</w>
耐 え</w>
神 官</w>
神 代</w>
相 承</w>
登 用</w>
病 弱</w>
田 畑</w>
灯 籠</w>
源 義仲</w>
浦 上</w>
泣 </w>
残 存</w>
残 党</w>
武 勇</w>
正 則</w>
歌 右衛門</w>
格 子</w>
東 大路</w>
東 亜</w>
材 質</w>
本 位</w>
文 徳</w>
應 </w>
後 深草</w>
当 地</w>
廓 </w>
官 幣</w>
学 区</w>
大 弐</w>
大 嘗</w>
地 主</w>
問 答</w>
唐 代</w>
和 解</w>
前 線</w>
冠 位</w>
六 男</w>
八 瀬</w>
光 格</w>
信 雄</w>
佛 </w>
付 き
ユ ニ
ミュー ジ
フ ロ
バイ パス</w>
テー マ</w>
テ ン
ス ル</w>
コミュニ ティ</w>
ガ ン</w>
アマ テラス</w>
ア ム</w>
ら みこと</w>
に ぎり</w>
つ こ</w>
すめ らみこと</w>
こ え</w>
お う
〈 </w>
yo- e</w>
ure ment</w>
u- in</w>
u jin</w>
troup e</w>
t sumi</w>
t ally</w>
t abi</w>
summ ary</w>
streng then</w>
ste ep</w>
soy bean</w>
sop hi
short age</w>
shin ko</w>
sh oshi
se eking</w>
s ochi</w>
s ence</w>
s ato</w>
retain ing</w>
restr icted</w>
recru ited</w>
pun itive</w>
prot ecting</w>
pre st
portr ayed</w>
p ast
ot sub
or omo</w>
om i
near est</w>
myo cho</w>
mu d</w>
midd le-
man ga</w>
kan zashi</w>
jik ata</w>
j us
j iz
j id
iy am
ish u-
is odes</w>
is awa</w>
in ate</w>
immig rants</w>
ide al</w>
har a-
great- grandchild</w>
gov ern</w>
gener als</w>
g os
g inger</w>
g as
evalu ation</w>
enjoy ing</w>
dec ap
d owager</w>
cur d</w>
consid erable</w>
col on
co ated</w>
ch unagon</w>
br ill
be half</w>
at oes</w>
ar en</w>
an jin</w>
among st</w>
ad ium</w>
accomm od
abbrevi ation</w>
Yor inobu</w>
W in
Ume koji</w>
Umay ado</w>
Um eda</w>
Tom omasa</w>
Tenry u-ji</w>
Tan aka</w>
TA DA</w>
T TORI</w>
Sum a</w>
Su per
Shoz o</w>
Shig eyoshi</w>
Sen ke</w>
S ol
S aw
P art
Om uro</w>
O ishi</w>
NI KAI
NIKAI DO</w>
Mit sub
L ar
Kyo g
Kuw ana</w>
Kai shu</w>
Hay ato</w>
Ham amatsu</w>
HA TTORI</w>
Gre en</w>
Gr av
Gen eal
G leanings</w>
G ion-
Fu yo</w>
Chu sh
Ch ogen</w>
C O</w>
An a
8 .
7 58</w>
6 85</w>
18 24</w>
168 4</w>
15 32</w>
13 92</w>
13 34</w>
13 00</w>
黄 泉</w>
高 雄</w>
食 感</w>
願 い</w>
領 土</w>
革 新</w>
陸 上</w>
閑 院宮</w>
鍛 冶</w>
金 色</w>
進 展</w>
通 勤</w>
逐 </w>
退 去</w>
近 侍</w>
認 可</w>
討ち 入り</w>
解 消</w>
良 房</w>
臭 </w>
羹 </w>
線 香</w>
神 亀</w>
社 寺</w>
砲 術</w>
相 違</w>
璽 </w>
環 濠</w>
獲 </w>
無 量</w>
流 入</w>
活 字</w>
水 墨</w>
歩 合</w>
桜 町</w>
杏 </w>
景 虎</w>
数 珠</w>
撫 </w>
慣 例</w>
御 苑</w>
弘 前</w>
引 付</w>
廃 寺</w>
山 村</w>
小 学</w>
宮 本</w>
娯 楽</w>
大 鼓</w>
外 部</w>
壇 ノ
壇ノ 浦</w>
在 住</w>
土 曜</w>
周 り</w>
名 詞</w>
台 所</w>
古 都</w>
厳 島</w>
化 け</w>
勲 位</w>
勅 許</w>
刀 剣</w>
内 覧</w>
八 角</w>
入 れ
信 繁</w>
保 守</w>
交 替</w>
上 述</w>
三 種</w>
ハ ー
セ ット</w>
ゲ ーム</w>
キ ン</w>
キ ロ
もっ ぱら</w>
も て
は る
け ん
が ち</w>
が え</w>
か み
z one</w>
wrest ler</w>
v ement</w>
v ation</w>
v ast</w>
ultim ately</w>
thorough ly</w>
t ural</w>
sus hiro</w>
sun g</w>
success ors</w>
st range</w>
sched ule</w>
s cor
s ai-
ro shi</w>
res embl
rein forced</w>
reg ained</w>
pur chase</w>
prof it</w>
pl us</w>
oy uki</w>
ow ak
oh ashi</w>
occur </w>
observ ation</w>
ob un
my th</w>
mir rors</w>
mai ko</w>
m ei-
kot oba</w>
in- in</w>
ign ored</w>
ig er</w>
if ies</w>
id atsu</w>
hor sem
ho st
fr ame
fai th
f ict
ex -
ert ical</w>
ent er
enc ing</w>
ea u</w>
e ong
e h
dest ination</w>
custom er</w>
cur ved</w>
coun cilors</w>
contin ent</w>
commiss ioned</w>
chu- gumi</w>
chan ted</w>
beli efs</w>
b ai</w>
av ier</w>
at i</w>
argu ed</w>
ap on
answ er</w>
ag ent</w>
adm ired</w>
acker el</w>
accor dingly</w>
a hi</w>
Yoshik iyo</w>
Yonez awa</w>
Yas hima</w>
View s</w>
Tsuk ushi</w>
Tom omori</w>
Tok uko</w>
Tak ayama</w>
TO DO</w>
Shi j
Sh us
S ei</w>
Rec eived</w>
P hilosophy</w>
OGIMA CHI
OGIMACHI SANJO</w>
O ike</w>
NO UCHI</w>
N uk
N otes</w>
N irvana</w>
Man agement</w>
Mak ing</w>
M ait
Kon -do</w>
Kok us
Koj iro</w>
Ko shu</w>
Ken ji</w>
Ke iko</w>
J itsu
Gou da</w>
For th</w>
E very</w>
D .</w>
Bisham onten</w>
Bea uty</w>
Ar t
An gl
8 000</w>
170 5</w>
17 49</w>
16 65</w>
16 32</w>
16 13</w>
15 66</w>
15 49</w>
13 18</w>
12 11</w>
頼 経</w>
青 木</w>
随 筆</w>
防 止</w>
門 前</w>
野 球</w>
遡 </w>
遠 征</w>
連 れ
軍 制</w>
躯 </w>
起 点</w>
訓 練</w>
表 わ</w>
蝶 </w>
落ち 延び</w>
荒 </w>
芸 者</w>
舌 </w>
股 </w>
立 川</w>
石 寺</w>
監 視</w>
皇 極</w>
王 政</w>
火 縄</w>
漢 学</w>
源 流</w>
渡 し</w>
氏 綱</w>
松 平
朴 </w>
新 年</w>
撮 </w>
抹 茶</w>
承 認</w>
恨 </w>
御 子</w>
後 嵯峨</w>
寝 </w>
家 定</w>
家 中</w>
大 切</w>
匿 </w>
勅 令</w>
割 り
初 名</w>
免 れ</w>
偽 書</w>
信 西</w>
俊 成</w>
伝 書</w>
主 従</w>
主 宰</w>
中 山道</w>
不 破</w>
メ イ
ミ ン</w>
ス ク
コン ブ</w>
ケー ブル</w>
み 込</w>
み え</w>
ま す</w>
ぶ き</w>
ふ く</w>
の 湯</w>
っ ぱ
じ ん
じ ゅう
こと ば</w>
〉 </w>
with draw</w>
w ears</w>
ut ilized</w>
un te
un an</w>
umb rel
ult an
ud okoro</w>
tran scription</w>
t est</w>
t each</w>
t ant</w>
syn cret
sw imming</w>
strong er</w>
spons ored</w>
sovere ign</w>
sophi st
shor ter</w>
shin den</w>
seki- ji</w>
reli able</w>
reg ularly</w>
p overty</w>
ous ness</w>
os ed</w>
n eed
m ic
m ere</w>
m age</w>
inter ests</w>
impl ies</w>
ig en
i jin</w>
i eth</w>
ho stage</w>
h atsu
gent le</w>
g ashira</w>
for ty</w>
f ence</w>
exper ts</w>
ex tra</w>
et suke</w>
eigh t-
eg ami</w>
educ ated</w>
e. g.</w>
e- zukuri</w>
dist ant</w>
direc tors</w>
desc ent</w>
depart ments</w>
def ended</w>
d ynasties</w>
d ying</w>
d airi</w>
cust ody</w>
cro ps</w>
crip t</w>
cost s</w>
corrid or</w>
coast al</w>
cler k</w>
bus y</w>
bor row
az an</w>
au x
all -
ak at
ah ata</w>
advis ed</w>
acknowl edged</w>
ab ut
a- go</w>
Yoshi zumi</w>
YAMA GUCHI</w>
Uj itsuna</w>
Uj imasa</w>
U S</w>
Tsune hisa</w>
Tsukig ase</w>
Tor u</w>
Tak aoka</w>
Tai sei</w>
Stat istics</w>
Sign al</w>
Shi bu
Sel f-
San eyori</w>
Sak ai
S ing
S hi</w>
Ro ads</w>
R an</w>
Om ih
O dori</w>
Nin igi</w>
Nakatsuk asa</w>
NA N
MI TSU
M ad
Kaj uji</w>
KA RA
K uge</w>
Jushi i</w>
Jushi chi
J oi</w>
Hum an</w>
Hiro shi</w>
Han iwa</w>
Hai ku</w>
Gin k
Gaku en</w>
G on-
F estivals</w>
Em aki</w>
Desc end
Dai z
Chinju- fu</w>
Chi g
Can al</w>
Ak amatsu</w>
16 62</w>
16 44</w>
15 55</w>
120 4</w>
117 0</w>
10 1</w>
1 100</w>
高 国</w>
金 閣</w>
郊 </w>
道 鏡</w>
通 り
迎 え
身 長</w>
豊 島</w>
証 明</w>
解 除</w>
観 応</w>
観 世
西 欧</w>
西 暦</w>
藤 井</w>
蕃 </w>
菅 </w>
脇 侍</w>
胡 </w>
練 習</w>
簪 </w>
管 長</w>
秘 密</w>
私 的</w>
秀 郷</w>
祝 い</w>
磐 </w>
砦 </w>
石 井</w>
益 田</w>
生 成</w>
演 技</w>
渋 川</w>
流 し</w>
津 軽</w>
死 刑</w>
正 義</w>
森 林</w>
校 長</w>
栄 養</w>
来 迎</w>
数 え
戒 壇</w>
想 像</w>
幽 霊</w>
年 月</w>
川 中島</w>
島 式</w>
専 念</w>
寛 正</w>
寛 延</w>
実 弟</w>
契 約</w>
大 政</w>
地 車</w>
同 義</w>
即 </w>
動 か</w>
写 経</w>
再 婚</w>
公 望</w>
児 玉</w>
使 い</w>
享 禄</w>
五 輪</w>
二 階
乱 後</w>
久邇 宮</w>
久 美
並 み</w>
両 軍</w>
一 因</w>
パ ン
ス ケ
カラ オ
カラオ ケ</w>
なか なか</w>
と て
け り</w>
々 し</w>
z hou</w>
vess els</w>
vari ation</w>
uro -
un ion</w>
un i-jinja</w>
u sha</w>
th r
tal ked</w>
sur u</w>
su its</w>
stri ke</w>
sk et
six teenth</w>
sculp ture</w>
scient ific</w>
s izes</w>
s eng
rit su</w>
res ort</w>
red- light</w>
p ip
oz aemon</w>
on o-
o sha</w>
not ion</w>
new spapers</w>
mit age</w>
me chan
master pieces</w>
main taining</w>
m aid</w>
ju in</w>
invol vement</w>
ind ustries</w>
in s
in qu
ij uku</w>
i ature</w>
him aro</w>
hi d</w>
frame work</w>
feat ured</w>
ex act</w>
ess ive</w>
eng ineering</w>
en ao</w>
em an</w>
ear n
dram atic</w>
dr astically</w>
direc t
descend ent</w>
dep or
del ic
contribut ions</w>
conn ect</w>
certific ate</w>
bud get</w>
bu- sho</w>
ban ashi</w>
b on-
b ad
associ ate</w>
ar ian</w>
ar b
ap parent</w>
an sha</w>
am e-
aj u</w>
Yoshik azu</w>
Yamat oji</w>
Y og
Vietnam </w>
Un kei</w>
Tom iko</w>
Tog ether</w>
T achi</w>
T AMURA</w>
Sum iy
Sil ver</w>
Sh obo</w>
Sanjus ang
San da</w>
S overe
Rep airs</w>
Ot ok
NU MA</w>
Murasak ino</w>
Murakami- Genji</w>
Mot ochika</w>
Mon toku</w>
Mitsum asa</w>
Masam ori</w>
L on
Kus atsu</w>
Kur ama-
Kor echika</w>
Kon an</w>
Kin mochi</w>
Kan p
Kan ei</w>
Kam atari</w>
KU RA
KU KI</w>
Jun nin</w>
Ichi kawa</w>
Horik awa-dori</w>
His at
Gos anjo</w>
G es
Fol k</w>
Exc ept</w>
Ex per
Establ ishment</w>
D harma</w>
D engaku</w>
D a
Cre ated</w>
Chush ojima</w>
Chu shing
Chik ur
Buk kyo</w>
Ab olished</w>
7 60</w>
7 40</w>
6 60</w>
180 8</w>
180 6</w>
180 2</w>
17 89</w>
17 14</w>
16 69</w>
16 68</w>
159 7</w>
14 66</w>
120 1</w>
119 1</w>
高 時</w>
高 崎</w>
震 災</w>
陳 </w>
除 目</w>
間 隔</w>
長 篠</w>
銀 貨</w>
配 給</w>
貞 和</w>
警 戒</w>
角 川</w>
見 物</w>
茶 会</w>
自 衛</w>
臂 </w>
義 賢</w>
義 村</w>
終 わり</w>
紛 </w>
精 進</w>
神 明</w>
田 堵</w>
狩 り</w>
物 資</w>
牛 肉</w>
無 理</w>
洋 画</w>
沙 </w>
決 戦</w>
東 口</w>
晴 れ</w>
文 安</w>
敦 </w>
教 室</w>
携 帯</w>
振 り
払 い</w>
忠 盛</w>
当 駅</w>
強 力</w>
弘 治</w>
庶 子</w>
市 販</w>
巻き 込</w>
差 し出</w>
寺 領</w>
審 査</w>
妻 子</w>
女 院</w>
多 用</w>
土 木</w>
嘆 願</w>
参 道</w>
原 文</w>
割 れ</w>
兼 通</w>
充 </w>
元 明</w>
傘 </w>
作 用</w>
亥 </w>
交 戦</w>
二階 堂</w>
乏 し</w>
主 権</w>
丘 陵</w>
上 がり</w>
一 人
ル ス</w>
リ ズム</w>
リ エ
デ ン
サ ビ</w>
し の</w>
さ め</w>
ぎ ょ</w>
が ん</w>
か る</w>
yo shino</w>
we ek</w>
veget able</w>
ut an</w>
ust er</w>
ur er</w>
ultan eously</w>
trav elled</w>
trans ition</w>
train- cars</w>
th ickness</w>
t ayu</w>
sum ably</w>
spect er</w>
sou theast</w>
six teen</w>
sh int
s aka</w>
ro pe</w>
ris ing</w>
reg isters</w>
ref uge</w>
pour ing</w>
pot atoes</w>
por ter</w>
pedest al</w>
p o-
p eninsula</w>
other wise</w>
onom a</w>
om ing</w>
ok it
ochi -
oblig ed</w>
o i-
n ose</w>
mov es</w>
mon ster</w>
miss al</w>
master piece</w>
ji- cho</w>
iz umi</w>
ire ly</w>
im m
id ity</w>
ichim en</w>
hem p</w>
h es
guid ance</w>
gen -
ge igi</w>
fro zen</w>
for fe
fl ows</w>
expres ses</w>
exp ul
eth n
ers ed</w>
ent irely</w>
eng ine
e or
dom s</w>
decreas e</w>
d oshi</w>
d ign
clai ms</w>
cast ell
bur den</w>
az u-
ay al</w>
at ag
ar ro
appl ic
an in</w>
ak ajima</w>
adv ert
acc ept
ac ed</w>
a- bugyo</w>
a is</w>
Yam amoto</w>
War ri
Tsuk uba</w>
Tsu tsu
Tok iw
Ten chu-gumi</w>
Tai seki-ji</w>
Soh </w>
Sh ob
Senn yu-ji</w>
SHI BU
S our
Onmyo ji</w>
Onmyo do</w>
Og ai</w>
O GATA</w>
Nag ar
Mur ashige</w>
Miy uki</w>
Mis hima</w>
Mer cy</w>
Matsu kaze</w>
Ma hito</w>
Kichi emon</w>
Kawan akajima</w>
Kan in</w>
Kag ura</w>
K oka</w>
K o-
Jing ikan</w>
Ishiyama- dera</w>
Ir atsume</w>
Im age</w>
Hok o-ji</w>
Han n
Gos aga</w>
Gofuk akusa</w>
Fud oki</w>
Foun ded</w>
E n</w>
Dai jin</w>
D E</w>
Christ ians</w>
Ch ron
B idatsu</w>
B att
180 4</w>
180 1</w>
16 43</w>
13 32</w>
13 30</w>
119 5</w>
116 5</w>
1 10</w>
- up</w>
飛 鳥井</w>
類 従</w>
領 域</w>
靖 </w>
関 わり</w>
門 主</w>
長 老</w>
鏃 </w>
重 ん</w>
里 見</w>
都 合</w>
近江 八幡</w>
諡 </w>
言 及</w>
西 陣</w>
裟 </w>
袈 裟</w>
膳 所</w>
義 光</w>
細 工</w>
米 子</w>
笑 い</w>
稽 </w>
種 別</w>
皇 籍</w>
発 覚</w>
発 給</w>
疏 水</w>
生 誕</w>
甘 露</w>
犬 養</w>
火 鉢</w>
漬 </w>
源 五</w>
治 療</w>
沖 田</w>
氏 神</w>
毛 野</w>
歌 謡</w>
松 方</w>
本 紀</w>
拡 張</w>
惣 </w>
徳 子</w>
御 堂</w>
康 保</w>
平 戸</w>
常 盤</w>
屯 </w>
家 屋</w>
奏 上</w>
大 垣</w>
坊 城</w>
回 避</w>
回 数</w>
喰 </w>
古 筆</w>
別 荘</w>
内 記</w>
傳 </w>
信 孝</w>
伊 根</w>
企 て</w>
他 人</w>
仕 上げ</w>
人 材</w>
予 想</w>
乱 れ</w>
九 十</w>
乏 </w>
不 安</w>
下 が</w>
三 木</w>
ヶ 岳</w>
ル ーツ</w>
ト リー</w>
ッ ション</w>
ゼ </w>
スル ッと</w>
ギ ャ
エ レ
り 合</w>
ゆ う
ぼ り</w>
の 間</w>
の せ</w>
じ て</w>
しん のう</w>
が かり</w>
お にぎり</w>
いか に</w>
z ui</w>
ys is</w>
y cl
wor thy</w>
w inning</w>
w ada</w>
vess el</w>
v ertical</w>
tut el
tournam ent</w>
ten s</w>
tax ation</w>
t subo</w>
t ask</w>
st opping</w>
st om
st all</w>
rec eption</w>
re ly</w>
rap </w>
r ight-
public ly</w>
preserv e</w>
pl astic</w>
pil gr
peas ant</w>
oshi ro</w>
ong i</w>
ocr atic</w>
modi fied</w>
minist ries</w>
ment ions</w>
mean time</w>
k uri</w>
jud ged</w>
in bo</w>
hier archy</w>
grav estone</w>
glut inous</w>
fru its</w>
fre edom</w>
fict ional</w>
f ic
f erence</w>
f ame</w>
except ional</w>
en a</w>
emp ty</w>
dro ve</w>
custom ary</w>
confin ement</w>
coll ege</w>
co operated</w>
chec king</w>
bath ing</w>
az umi</w>
as i-
amoun ts</w>
am al
ag ers</w>
ag ashi</w>
adul ts</w>
acc ident</w>
Yasum ori</w>
Y ut
Un known</w>
Uh yoe</w>
Tw el
Tsuk asa</w>
Tran sl
Tr ack</w>
Tit le</w>
Tet sun
Termin al</w>
Te imei</w>
Takarag aike</w>
Tak et
Sp ir
Sp ain</w>
Soj uro</w>
Shin agawa</w>
Se to</w>
Satur day</w>
S chools</w>
Pro g
Pri or</w>
O yama</w>
O NO
Ni j
Ne o-
Nan ba</w>
Nak amura</w>
Nag oy
NA TSU
N on
N int
N ight</w>
Mun etaka</w>
Mon mu</w>
Miz uno</w>
Kyoto- go</w>
Kyot ango</w>
Kyo bashi</w>
Kusak abe</w>
Kon par
Kis o</w>
Kinug asa</w>
Karaf uto</w>
KATA YAMA</w>
J -
Ital y</w>
I chi</w>
Hyo busho</w>
Hirot sugu</w>
Hiros aki</w>
Hashi ba</w>
Gang o-ji</w>
G agaku</w>
Fran c
F u</w>
E t
Com pared</w>
Chushing ura</w>
Callig raphy</w>
Byo bu</w>
Bo x
Bl ue</w>
Arisug awanomiya</w>
Architect ure</w>
Al li
AMA TSU</w>
170 8</w>
17 45</w>
17 11</w>
169 8</w>
16 48</w>
16 0</w>
14 88</w>
114 9</w>
鴎 外</w>
鰹 節</w>
髪 型</w>
高 原</w>
饉 </w>
飢 饉</w>
顕 彰</w>
領 有</w>
闇 </w>
鍋 島</w>
銅 像</w>
鉄 板</w>
重 源</w>
酸 化</w>
那 須</w>
道 成</w>
運 慶</w>
進 撃</w>
逝 </w>
追 撃</w>
転 用</w>
赤 坂</w>
豪 華</w>
豪 商</w>
謁 見</w>
試 </w>
西 口</w>
舞 楽</w>
聘 </w>
義 稙</w>
義 塾</w>
義 和</w>
私 立</w>
知 盛</w>
盛 大</w>
癒 </w>
男 神</w>
田 地</w>
猪 </w>
特 有</w>
法 的</w>
気 候</w>
横 山</w>
来 歴</w>
朗 詠</w>
月 ヶ瀬</w>
放 棄</w>
拳 </w>
手 がけ</w>
戸 主</w>
戦 線</w>
当 該</w>
帯 刀</w>
大 韓
大 倉</w>
土 師</w>
呉 服</w>
向 島</w>
同 名</w>
合 計</w>
千 種</w>
利 通</w>
出来 事</w>
凡 </w>
内 紛</w>
俊 寛</w>
便 所</w>
使 い
休 止</w>
丹 羽</w>
下 ろ</w>
一 代</w>
ヴ ェ
バ ー
ニ ニ
タ レ</w>
セン チ
シ ン</w>
コ ト</w>
イ ワ
アメ ノ</w>
ア ン</w>
ゝ </w>
ふ る</w>
は し
の 神</w>
の ぶ</w>
とて も</w>
と く</w>
た か</w>
し っ
さ し</w>
え ん
あら われ</w>
あ ま
yor yo</w>
y ug
wi shes</w>
wel come</w>
vis ible</w>
un ve
um ns</w>
u ese</w>
tran scribed</w>
tr ay</w>
th read</w>
t ill</w>
t elevision</w>
subordin ates</w>
sub- temples</w>
sol ely</w>
sim m
secl usion</w>
se ek</w>
sal mon</w>
saf e</w>
recov ery</w>
pre val
ped d
par li
p a</w>
oz ono</w>
oz ei</w>
oppos ing</w>
om ai</w>
not able</w>
nar row
nam ing</w>
mon arch</w>
modern ization</w>
mem ber
ma ximum</w>
m ales</w>
m ackerel</w>
lev els</w>
lay ers</w>
l iberal</w>
it oshi</w>
in land</w>
im ental</w>
ill us</w>
i- e</w>
i th
her itage</w>
hai myo</w>
h aps</w>
gy udon</w>
grow s</w>
g ent</w>
g aki</w>
fo x</w>
f rying</w>
f air</w>
ew er</w>
equ inox</w>
dr ical</w>
den hei</w>
dai kan</w>
cloth s</w>
cho ice</w>
c at</w>
bar rier</w>
b ows</w>
b ot
avil ion</w>
art istic</w>
ap le</w>
all ery</w>
alcoh olic</w>
aku- gun</w>
aku shu</w>
advis ers</w>
ac company</w>
Yoshi kata</w>
Yon ago</w>
Yasut suna</w>
Y asu</w>
Y ang
Y ab
Wel fare</w>
Toshin ari</w>
Tor ii</w>
Tanab ata</w>
Takam asa</w>
Tak ao</w>
Tadat eru</w>
Tad achika</w>
TAKA SHINA</w>
T ofuk
Su e
Se is
Sad amasa</w>
S qu
S o-
S ent
S ai</w>
Portug uese</w>
Por tr
O no-
Nob umasa</w>
Nar amaro</w>
Nan iw
Le ague</w>
Kot o
Ke age</w>
Kaw ak
Kam akura-
Kai ki</w>
Ju ichimen</w>
Hid esato</w>
[...]
