n g
n </w>
i </w>
a </w>
ng </w>
a n</w>
t </w>
, </w>
h </w>
. </w>
e r
u </w>
c </w>
a r
m e
t h
l a
c h
a ng</w>
à </w>
m </w>
y </w>
n h
a k
a n
s e
s a
t r
y a</w>
o </w>
i n
ó </w>
t i
k h
a d
t a
b a
n h</w>
y ang</w>
t a</w>
u k
e n
d i
k e
d an</w>
a t</w>
v à</w>
b er
ô i</w>
p </w>
g i
me n
s </w>
l i
u n
p h
ô ng</w>
k i
t ôi</w>
l </w>
b i
l à</w>
ộ t</w>
k an</w>
d a
p er
m ột</w>
" </w>
ak </w>
t er
ê n</w>
k a
c ó</w>
o r
la h</w>
c á
s i
d i</w>
sa ya</w>
ư ờ
m u
b u
h a
ú ng</w>
t u</w>
d e
c ủ
củ a</w>
m a
in i</w>
ể </w>
t e
ng an</w>
ữ ng</w>
ch úng</w>
nh ững</w>
h i
ớ i</w>
n ya</w>
ak an</w>
me ng
k a</w>
uk </w>
t u
me m
q u
ar i</w>
ad a</w>
ấ t</w>
l e
ư ợ
o ng</w>
m er
ar </w>
ườ i</w>
d a</w>
p e
ã </w>
kh ông</w>
b e
n à
ạ n</w>
a p
đ ã</w>
ng ười</w>
- </w>
ề u</w>
tr ong</w>
s i</w>
t uk</w>
k </w>
c h</w>
ạ i</w>
nh ư
g a
ế t</w>
un tuk</w>
ở </w>
ượ c</w>
ì </w>
đ ó</w>
ự </w>
cá c</w>
ki ta</w>
m p
s u
l u
a h</w>
b ạn</w>
v i
i ều</w>
ar a</w>
đ ược</w>
d ari</w>
h ọ
ti d
ế n</w>
tid ak</w>
ch o</w>
nà y</w>
ế </w>
th ể</w>
A n
m a</w>
ề </w>
mer e
ad a
de ngan</w>
i tu</w>
v ới</w>
ì nh</w>
j ad
mere ka</w>
s a</w>
â y</w>
An da</w>
i n</w>
r </w>
ta h
r a</w>
jad i</w>
? </w>
p ada</w>
o n
d u
0 </w>
o n</w>
e </w>
or ang</w>
ẽ </w>
ầ n</w>
la m</w>
t i</w>
ệ n</w>
s ự</w>
ada lah</w>
m i</w>
w a</w>
ả i</w>
j a
ằ ng</w>
ả </w>
ấ y</w>
ị </w>
ng h
l à
p en
) </w>
( </w>
â n</w>
u n</w>
g a</w>
j u
n ó</w>
uk an</w>
ap a</w>
là m</w>
v à
s ẽ</w>
ba h
p a
r a
đ ể</w>
ự c</w>
như </w>
da lam</w>
kh i</w>
m an
l o
r i
c u
v ề</w>
u y
ầ u</w>
ư ớ
đ iều</w>
á c</w>
m i
à nh</w>
ố ng</w>
ố </w>
se bu
họ </w>
m à</w>
r u
k ar
n a
ơ n</w>
p at</w>
n ă
g i</w>
a i</w>
: </w>
ậ t</w>
t an</w>
ô </w>
t ừ
́ </w>
ó i</w>
an h</w>
a ng
th ế</w>
và o</w>
k u
r ằng</w>
t o
ka mi</w>
n ói</w>
ứ c</w>
b an
ư ơ
in h</w>
ướ c</w>
b en
k o
an ya</w>
í nh</w>
h o
đ ộ
ậ n</w>
đ ến</w>
da pat</w>
à n</w>
di a</w>
ố i</w>
ờ i</w>
ệ c</w>
la k
ườ ng</w>
từ </w>
như ng</w>
vi ệc</w>
r o
ứ </w>
đ ây</w>
a ta
bah wa</w>
̀ </w>
p i
ph ải</w>
đ ang</w>
ha l</w>
ỉ </w>
ả n</w>
i a</w>
i ng
r e
ke </w>
te lah</w>
li h
v ì</w>
c a
ươ ng</w>
le bi
a l</w>
l ại</w>
l i</w>
l u</w>
nă m</w>
an nya</w>
ba ga
c ông</w>
men y
t en
ý </w>
ế u</w>
ù ng</w>
đ ầu</w>
c ara</w>
lebi h</w>
a t
ụ </w>
à i</w>
á </w>
h ơn</w>
í </w>
ề n</w>
tah un</w>
k er
ĩ </w>
th ấy</w>
h ar
r ất</w>
nh iều</w>
á t</w>
ộ c</w>
g ì</w>
â u</w>
u s</w>
̣ </w>
b ị</w>
cá ch</w>
tr ên</w>
ử </w>
ờ </w>
i k</w>
- -</w>
ệ </w>
d </w>
se per
t ang</w>
c ả</w>
l an</w>
th ực</w>
l a</w>
lih at</w>
c on</w>
p i</w>
i ka</w>
kh ác</w>
ch ỉ</w>
n e
ố n</w>
en a</w>
ổ i</w>
a y</w>
ơ </w>
họ c</w>
seper ti</w>
th ành</w>
th ứ</w>
ạ o</w>
man a</w>
bi ết</w>
1 </w>
à ng</w>
ọ i</w>
ũ ng</w>
á ng</w>
kar ena</w>
ban y
sa ng
ậ y</w>
bi sa</w>
j a</w>
ố c</w>
u ng</w>
pe ng
ch uy
nh à</w>
sebu ah</w>
c ũng</w>
s ố</w>
ti ế
ta pi</w>
0 0
se mu
m b
r i</w>
ắ t</w>
t ại</w>
nà o</w>
t an
ể n</w>
ệ u</w>
ư </w>
ộ </w>
w a
gi an</w>
ch ính</w>
ê </w>
cá i</w>
đ i</w>
m ba
v ậy</w>
lak ukan</w>
sang at</w>
ủ </w>
ậ p</w>
á n</w>
sa at</w>
bany ak</w>
ơ i</w>
đ i
men jadi</w>
k i</w>
la lu</w>
ả m</w>
ở i</w>
nh i
s an</w>
ệ t</w>
qu an</w>
mem i
p u
y a
m an</w>
s ar</w>
p o
à y</w>
ch i
h an</w>
bu at</w>
á o</w>
n ếu</w>
í ch</w>
ng hi
la n
ấ n</w>
cu ộc</w>
ẻ </w>
sa tu</w>
ữ </w>
sebu t</w>
sa u</w>
th i
ă n</w>
á i</w>
ngh ĩ</w>
độ ng</w>
se n
nh ất</w>
b a</w>
hi ện</w>
c i
o le
e o</w>
ng g
b ởi</w>
gi a</w>
semu a</w>
ú c</w>
er i
in ya</w>
ư ở
ata u</w>
ư a</w>
ưở ng</w>
ỏ </w>
ồ i</w>
e m</w>
ten tang</w>
ber apa</w>
ju ga</w>
n ên</w>
ả nh</w>
di ri</w>
ụ c</w>
mu ốn</w>
la i</w>
memi li
ả ng</w>
ữ a</w>
th eo</w>
gi ới</w>
ổ </w>
m ình</w>
đ ị
ộ i</w>
ê u</w>
gi ờ</w>
kh o
p ro
b ar
l ớ
ặ t</w>
5 </w>
j ika</w>
ắ c</w>
ng ày</w>
mu n</w>
mu ng
na mun</w>
nh ận</w>
ứ ng</w>
ượ ng</w>
k on
m o
ole h</w>
ti n</w>
̉ </w>
tah u</w>
ma s
th u
qu y
baga i</w>
sa ma</w>
an da</w>
ter sebut</w>
ố t</w>
2 </w>
ể u</w>
ò n</w>
tr i
g un
ặ c</w>
n i
me lihat</w>
â m</w>
t ạo</w>
i kan</w>
m ọi</w>
be sar</w>
ô n</w>
sa lah</w>
ỏ i</w>
meng a
c o
t ất</w>
nh ân</w>
ò ng</w>
đ ồ
b ắt</w>
mp u
da h</w>
r an</w>
memili ki</w>
an a</w>
n ước</w>
ể m</w>
mem buat</w>
ta s</w>
er </w>
pi ki
or </w>
f </w>
ẫ n</w>
ha y</w>
be berapa</w>
h ình</w>
ben ar
tr ước</w>
hi du
un ia</w>
qu a</w>
uk u
se orang</w>
e n</w>
h u
ạ t</w>
la in</w>
ki n</w>
h anya</w>
a u</w>
su a
k at</w>
t ự</w>
s ống</w>
c òn</w>
ph át</w>
ke ti
ka ta</w>
du a</w>
c ùng</w>
t ới</w>
har us</w>
c ần</w>
lớ n</w>
c e
đ ề</w>
h ari</w>
th ì</w>
si a</w>
m ak
á ch</w>
ar i
d o
c ảm</w>
l ên</w>
ì n</w>
p an</w>
u h</w>
th ông</w>
ụ ng</w>
b ằng</w>
ọ ng</w>
d unia</w>
ha i</w>
t kan</w>
ter </w>
ỗ </w>
men u
i l
i s
th ật</w>
ing in</w>
ne g
mem ba
b o
mp at</w>
vi ên</w>
a p</w>
th ời</w>
se bagai</w>
ả o</w>
ă ng</w>
mung kin</w>
b ản</w>
a m</w>
d ụng</w>
ta ma</w>
t ế</w>
h ành</w>
sua tu</w>
á nh</w>
s inh</w>
t ar</w>
tr ường</w>
ệ m</w>
c âu</w>
c ơ</w>
a la
u s
tr ở</w>
si h</w>
đị nh</w>
s o
b ộ</w>
ấ p</w>
ph ần</w>
ba ik</w>
nh ìn</w>
b uk
to àn</w>
an ak</w>
d o</w>
ó ng</w>
h àng</w>
C h
á y</w>
baga i
m bi
v ấn</w>
ỹ </w>
k ết</w>
e la
sa o</w>
nă ng</w>
t ak</w>
ỗ i</w>
ta y</w>
men e
c ô</w>
b </w>
a s
un ya</w>
ấ u</w>
a i
ak hi
♫ </w>
n ơi</w>
keti ka</w>
x u
á p</w>
ả y</w>
h i</w>
bagai mana</w>
at akan</w>
th ay</w>
ì m</w>
a si</w>
m ạ
p ara</w>
mu lai</w>
3 </w>
kar ang</w>
ba gian</w>
a sa</w>
chuy ện</w>
tu y
ar an</w>
p an
w ak
m ới</w>
0 0</w>
đ ổi</w>
se karang</w>
đ ối</w>
meng u
c a</w>
piki r</w>
ợ p</w>
tiế p</w>
tiế ng</w>
t ìm</w>
se la
i t</w>
tr ình</w>
s ử</w>
a li
mem ber
nhi ên</w>
ti ng
u sia</w>
ba gi</w>
ti k</w>
lu ar</w>
be lu
bar u</w>
d ang</w>
ben ar</w>
4 </w>
ter jadi</w>
đồ ng</w>
l ý</w>
gun akan</w>
nh au</w>
t ara</w>
00 0</w>
a l
h ệ</w>
h ợp</w>
ang -
ta ngan</w>
me lakukan</w>
e w
h ội</w>
h ã
c ười</w>
gi ải</w>
m áy</w>
ta wa</w>
k en
t ính</w>
t ốt</w>
T e
li ng</w>
1 9
neg ara</w>
g u
ha si
ú t</w>
ắ n</w>
se cara</w>
ar kan</w>
v ật</w>
m u</w>
me la
s er
g e
ka li</w>
ad i
T h
l ượng</w>
ị ch</w>
an i
tr ẻ</w>
ker ja</w>
meny e
ắ ng</w>
ng ga</w>
ng o
m ặt</w>
ar a
e k
h kan</w>
ber kata</w>
an an</w>
na y</w>
hidu p</w>
2 00
or ang-
meng atakan</w>
s tr
b ất</w>
ú </w>
th ống</w>
orang- orang</w>
t ưởng</w>
ó a</w>
ạ c</w>
ê m</w>
te mpat</w>
p a</w>
th ức</w>
h ỏi</w>
ồ n</w>
l ần</w>
wak tu</w>
s kan</w>
d er
v ị</w>
li ệu</w>
ti ap</w>
ộ ng</w>
ệ nh</w>
đ ưa</w>
m bu
ti ên</w>
b ukan</w>
per tama</w>
ba o</w>
ễ n</w>
x em</w>
d ân</w>
̃ </w>
đi ểm</w>
chi ế
sa ja</w>
r ồi</w>
ga l</w>
ke mba
ù </w>
h nya</w>
và i</w>
8 </w>
6 </w>
la gi</w>
in i
ứ u</w>
đ o
ợ </w>
m ukan</w>
tr ọng</w>
k inh</w>
đ ường</w>
c ứu</w>
l kan</w>
n ữa</w>
t akan</w>
th ường</w>
b áo</w>
ng kan</w>
se suatu</w>
v ụ</w>
meng e
A </w>
7 </w>
th áng</w>
à o</w>
â </w>
t nya</w>
mem per
I n
đ ều</w>
b an</w>
te k
un j
a s</w>
per n
men c
t âm</w>
hi ngga</w>
u sa
thi ết</w>
độ </w>
si s
pen y
se tiap</w>
ử a</w>
ba t</w>
th ích</w>
ệ p</w>
g er
ti f</w>
su dah</w>
hã y</w>
la ng</w>
ke pada</w>
á m</w>
qu á</w>
i an</w>
ma h</w>
kho ảng</w>
sela ma</w>
u p
1 0</w>
Q u
h óa</w>
lo ại</w>
gi áo</w>
A mer
v ẫn</w>
ba h</w>
t ương</w>
uy ền</w>
s áng</w>
se telah</w>
ĩ a</w>
chiế c</w>
ph i
sen diri</w>
le </w>
ho ặc</w>
qu ả</w>
k annya</w>
g ọi</w>
de </w>
m in
s ini</w>
quy ết</w>
la j
c ầu</w>
f i
l ực</w>
a tan</w>
b ệnh</w>
ak ah</w>
Amer ika</w>
t ình</w>
li ên</w>
ter i
m ỗi</w>
u r
ca o</w>
uk kan</w>
ỳ </w>
x e</w>
mbi l</w>
x ảy</w>
đ ại</w>
se ki
kemba li</w>
gi ống</w>
ci l</w>
se lu
ho àn</w>
l in
ẩ n</w>
sa mp
l úc</w>
n o
f or
m ô</w>
belu m</w>
à u</w>
a w
akhi r</w>
M ỹ</w>
g ra
g ần</w>
benar nya</w>
a ngan</w>
ph ụ</w>
hi ểu</w>
ch ức</w>
e l</w>
ng ka
b ên</w>
t on</w>
se benarnya</w>
n ữ</w>
qu ốc</w>
me n</w>
d ự</w>
ọ n</w>
ngh ĩa</w>
a o</w>
ke cil</w>
meng gunakan</w>
bah an</w>
ata s</w>
đ ất</w>
bi ệt</w>
pern ah</w>
; </w>
u i</w>
l ời</w>
g </w>
selu ru
nh ỏ</w>
seki tar</w>
ă m</w>
m un
ba ha
kh i
ma salah</w>
mi li
ber pikir</w>
xu ất</w>
ũ </w>
uy ên</w>
' </w>
s ana</w>
ja lan</w>
tr ung</w>
ừ ng</w>
ga mb
ti ng</w>
a g
ng u
benar -
t o</w>
se di
di ễn</w>
benar- benar</w>
ướ ng</w>
tu ổi</w>
ta i</w>
ẳ ng</w>
ú p</w>
quy ền</w>
ch ủ</w>
p ar
chuy ển</w>
p ri
i k
meng en
ap akah</w>
ô m</w>
p uk</w>
tri ển</w>
d ự
e l
pa ling</w>
w ar
di an</w>
nghi ệm</w>
r kan</w>
é </w>
on al</w>
be kerja</w>
ứ a</w>
bi cara</w>
b ỏ</w>
% </w>
t ác</w>
b ảo</w>
b ây</w>
ạ ng</w>
é p</w>
chi ến</w>
ke mu
d ùng</w>
ch ất</w>
a an</w>
. 000</w>
w an</w>
c ố</w>
tr uyền</w>
ini lah</w>
b ình</w>
te tapi</w>
ch ưa</w>
da pa
ti ến</w>
cu ối</w>
ak -
e s
tr ị</w>
v i</w>
từ ng</w>
gi á</w>
i s</w>
hu bu
t or</w>
Te puk</w>
gi úp</w>
p unya</w>
m nya</w>
í t</w>
r an
ò </w>
unj ukkan</w>
S a
ph òng</w>
e s</w>
t y</w>
ngh e</w>
bah kan</w>
ber be
per tan
kemu dian</w>
h ôm</w>
kh u</w>
k ế</w>
n a</w>
ti ền</w>
in an</w>
ph ương</w>
u m</w>
ke se
đ ơn</w>
ru mah</w>
men ing
e k</w>
v a</w>
s át</w>
lo gi</w>
k an
h an
tr anh</w>
ầ m</w>
ò a</w>
ru ng</w>
in kan</w>
de ng
N ew
ắ p</w>
in a</w>
y êu</w>
ó m</w>
ki t</w>
ti an</w>
D </w>
t ập</w>
l -
ư ới</w>
ng ay</w>
co ba</w>
ạ y</w>
đi ện</w>
v ỗ</w>
ch u
gi ữa</w>
s ản</w>
a sa
9 </w>
ph áp</w>
seluru h</w>
mas uk</w>
ka sih</w>
c ảnh</w>
sis te
t ar
mene mukan</w>
ẩ m</w>
tuy ệt</w>
pen ting</w>
b ài</w>
ợ i</w>
ta h</w>
ngh ệ</w>
S </w>
thu ật</w>
R o
é t</w>
g o
m ang</w>
t ài</w>
ủ ng</w>
ươ </w>
t ăng</w>
h ết</w>
bi asa</w>
teri ma</w>
ma sa</w>
l ập</w>
c ấp</w>
đ úng</w>
j ela
Qu ốc</w>
mp i
man usia</w>
2 0</w>
s ách</w>
ho ạt</w>
ạ m</w>
berbe da</w>
ph ân</w>
se j
tr ả</w>
T i
per se
nghi ên</w>
ậ u</w>
b ố</w>
ngo ài</w>
th o
ã o</w>
ph ố</w>
H o
m ber
li s</w>
ổ ng</w>
t ên</w>
5 0</w>
ặ p</w>
in nya</w>
meng i
kh ả</w>
s uk
o k</w>
su ara</w>
ti ga</w>
t ư</w>
se dang</w>
ani ta</w>
c uku
samp ai</w>
ạ nh</w>
t anya</w>
si onal</w>
ma sih</w>
f o
de pan</w>
ta si</w>
đ ặt</w>
p or
C o
ko ta</w>
me </w>
h e
po li
d ẫn</w>
ne t</w>
li ng
h a</w>
tr a</w>
pe mi
pe mer
k ể</w>
an tara</w>
t ử</w>
w anita</w>
men ja
ỷ </w>
an ak-
độ i</w>
ri s</w>
hasi l</w>
cuku p</w>
uk annya</w>
ba y</w>
ấ m</w>
pa s
sedi kit</w>
r u</w>
l ấy</w>
ang kan</w>
đ ạo</w>
ó c</w>
ya an</w>
bi ến</w>
ẹ </w>
ber ada</w>
c o</w>
la innya</w>
ừ a</w>
siste m</w>
ar ah</w>
c ứ</w>
la ng
v ực</w>
b ang</w>
m ất</w>
hi ệu</w>
tr í</w>
t inh</w>
tu lah</w>
li t</w>
la y
anak- anak</w>
p un</w>
kh ó</w>
P er
ạ </w>
t ượng</w>
menga mbil</w>
ber i
ak u</w>
C </w>
u t</w>
th ân</w>
men ar
li k</w>
ch ứng</w>
g an
ai r</w>
ọ c</w>
j u</w>
th u</w>
k ỳ</w>
í a</w>
kh í</w>
đ áng</w>
b u</w>
da tang</w>
se hingga</w>
b é</w>
ế m</w>
A f
đ ánh</w>
tri ệu</w>
x ây</w>
ke ma
ti kan</w>
nghi ệp</w>
d uk</w>
men unjukkan</w>
vi de
nh óm</w>
mạ ng</w>
ạ ch</w>
ph ủ</w>
se ko
th êm</w>
mạ nh</w>
3 0</w>
u mu
c ộng</w>
mpu an</w>
v ô</w>
l nya</w>
kh ỏi</w>
ti êu</w>
ch í</w>
c on
se s</w>
! </w>
th ư</w>
per gi</w>
t ak
v er
pemer in
ke dua</w>
New </w>
la u</w>
per lu</w>
mb ang</w>
. .</w>
n ya
mu si
r nya</w>
A nh</w>
ch ết</w>
tu r</w>
d uk
th am</w>
vide o</w>
member ikan</w>
bu lan</w>
me ma
t ổ</w>
c u</w>
m inh</w>
lak ukannya</w>
b à</w>
I s
v ăn</w>
ja uh</w>
M ar
ng uyên</w>
meng apa</w>
x ã</w>
ti s</w>
dự ng</w>
ber bicara</w>
i tulah</w>
s ư</w>
p re
eri ta</w>
ba ng
đ ô</w>
ki ến</w>
cá o</w>
th ú</w>
s ĩ</w>
tu ng</w>
d ù</w>
bi ểu</w>
b ad
u an</w>
ju m
in ter
ci p
ngg u</w>
d ịch</w>
s ức</w>
đ ời</w>
ng ah</w>
đ ặc</w>
ch ọn</w>
ru t</w>
per ca
tr ang</w>
th ương</w>
seko lah</w>
kho a</w>
ậ m</w>
á u</w>
i .</w>
ễ </w>
ỡ </w>
ak it</w>
cá </w>
l ar</w>
ke lu
me le
đ ứa</w>
me lakukannya</w>
usa ha
M i
õ </w>
y ar
e t</w>
si kan</w>
ch ơi</w>
w ah</w>
ph ía</w>
J o
dapa tkan</w>
b ức</w>
up akan</w>
đ a</w>
a h
ẫ u</w>
mer upakan</w>
T rung</w>
bu r
đồ </w>
me s
x ác</w>
gi ả</w>
ma si</w>
h ướng</w>
li an</w>
L i
ten tu</w>
ph á</w>
th ử</w>
th ị</w>
g ây</w>
a y
r en
m ẹ</w>
men coba</w>
ap i</w>
de n</w>
ben tuk</w>
d ụ</w>
ra sa</w>
ap an</w>
m ức</w>
ap un</w>
t ục</w>
pen e
g h
ph ẩm</w>
ch ế</w>
v ùng</w>
tan pa</w>
d ưới</w>
ch i</w>
P a
m at</w>
ka si</w>
o o
lu ật</w>
lo ài</w>
ti m</w>
ba y
ph ép</w>
kh u
g en
menar ik</w>
K e
N h
nh ạc</w>
lu ôn</w>
ter i</w>
ter h
du ng</w>
vi ết</w>
or i
ba wah</w>
g ặp</w>
lu ận</w>
per usaha
perse n</w>
w e
b ak
be gi
con to
ke hidu
jum lah</w>
xu ống</w>
w i
se </w>
si n</w>
S e
P h
ầ y</w>
gamb ar</w>
r õ</w>
u d
ớ </w>
đ ình</w>
v òng</w>
bu tu
M e
hubu ngan</w>
n ão</w>
kehidu pan</w>
meng h
te ta
v í</w>
tu ju
un y
mengen ai</w>
ke la
j i
ada p</w>
ngu ồn</w>
n ền</w>
m ở</w>
gi ữ</w>
ạ p</w>
t in
lu i</w>
ter akhir</w>
s on</w>
j ang</w>
an -
đị a</w>
su y</w>
i de</w>
đ àn</w>
o tak</w>
ằ m</w>
uy ết</w>
ng i</w>
v ũ</w>
P e
mber </w>
u ang</w>
si si</w>
menu rut</w>
ề m</w>
mer asa</w>
ắ m</w>
x in</w>
si al</w>
ber sama</w>
un an</w>
ư u</w>
. ..</w>
ph ản</w>
se kali</w>
t inya</w>
tr ợ</w>
te </w>
ẹ p</w>
terh adap</w>
ar ti</w>
lo mp
ki ểm</w>
er ah</w>
ja lan
ja an</w>
begi tu</w>
đ âu</w>
peng e
perusaha an</w>
member i</w>
ak i
v ọng</w>
s o</w>
ja m</w>
g ắng</w>
s eri
qu ay</w>
per u
tek no
s ta
ak at</w>
tr ưởng</w>
c k</w>
ng -
ting gi</w>
n .</w>
mem ban
ca m</w>
ồ ng</w>
2 0
T ôi</w>
me mu
ak nya</w>
li ha
ba g
di per
gi ảm</w>
a wa
mas yar
gi ản</w>
đ ấy</w>
T E
L e
ha l-
D e
si s</w>
hal- hal</w>
se belum</w>
deng ar</w>
be laj
ự a</w>
ju ta</w>
qu anh</w>
pe ker
ồ </w>
m kan</w>
c ây</w>
su s</w>
ka lau</w>
ja wa
se l</w>
sa i</w>
p in
lan d</w>
c e</w>
v ời</w>
nh anh</w>
qu ân</w>
khi ến</w>
masyar akat</w>
tekno logi</w>
kelu ar
j e
gi ao</w>
mengu bah</w>
mela lui</w>
m àu</w>
men dapatkan</w>
T r
k o</w>
pemerin tah</w>
l ẽ</w>
I ngg
l ã
du y</w>
th ần</w>
v ệ</w>
c ử</w>
sa h</w>
lih an</w>
Ingg ris</w>
di lakukan</w>
tu s</w>
ke luar</w>
ki ện</w>
y ak
un tu
ê ng</w>
pe m
1 00</w>
pe laj
ỉ nh</w>
kh á</w>
cip takan</w>
R e
akhi rnya</w>
t unya</w>
b ào</w>
phi m</w>
ku r
is tan</w>
ch ắc</w>
th ủ</w>
x a</w>
na ma</w>
h ưởng</w>
c ực</w>
or g
ke lomp
d ục</w>
ch ương</w>
vi ện</w>
me mas
for masi</w>
ế p</w>
tu ần</w>
t ích</w>
l ệ</w>
mo bi
a lam</w>
c erita</w>
nya ta</w>
ch út</w>
tr ái</w>
l o</w>
d ar</w>
memba wa</w>
ce pat</w>
per e
d ài</w>
s ar
pertan yaan</w>
m ục</w>
B </w>
ta ng
p la
d ari
te ngah</w>
bi ển</w>
h ạn</w>
K a
B a
menc ari</w>
buk u</w>
đ ủ</w>
lu si</w>
ch ẳng</w>
ch ia</w>
v o
su ng</w>
ma ti</w>
M a
u tama</w>
ba b
men dapat</w>
perca ya</w>
c ar
tr ò</w>
ter tawa</w>
đo ạn</w>
đ ấu</w>
tr o
se belu
h ak</w>
B o
e mpat</w>
w at</w>
sebelu mnya</w>
ling ku
ber ke
pri a</w>
nh ớ</w>
đ ôi</w>
ng .</w>
m akan</w>
s pe
da ya</w>
kelomp ok</w>
mung k
ber u
B ar
sa si</w>
men d
V </w>
se seorang</w>
pan jang</w>
h ộ</w>
tu bu
thu ộc</w>
th ậm</w>
ta -
b in
đ ứng</w>
â ng</w>
x </w>
ki ếm</w>
j en
th uyết</w>
m ar
lan ju
tu mbu
teta p</w>
v ừa</w>
semu anya</w>
c ụ</w>
belaj ar</w>
se lalu</w>
men a
peru bahan</w>
di a
b óng</w>
B e
y ata
peker jaan</w>
m ặc</w>
l òng</w>
S eri
ta an</w>
mun i
le k
la han</w>
d ữ</w>
ber arti</w>
ang ka
ta l</w>
ặ ng</w>
bur uk</w>
1 5</w>
su lit</w>
tr ăm</w>
i l</w>
da erah</w>
ă </w>
tu a</w>
ng ôn</w>
memba ng
aw al</w>
y .</w>
in ta</w>
ga s</w>
bag us</w>
ha tan</w>
đ ẹp</w>
or k</w>
p ak
du duk</w>
ch u</w>
s ở</w>
ke ku
tah an</w>
se bagian</w>
mak anan</w>
k ini</w>
b án</w>
u r</w>
t ấn</w>
l ukan</w>
v ận</w>
g hi</w>
ap kan</w>
tu r
s nya</w>
k ri
d ạng</w>
conto h</w>
Seri kat</w>
t ổng</w>
f a
h ầu</w>
b ước</w>
mem be
di di
a man</w>
t ối</w>
k ak
G i
c ửa</w>
V i
t h</w>
ka lian</w>
ngh i</w>
keluar ga</w>
B u
1 2</w>
da ta</w>
memban tu</w>
ha mpi
cu ng</w>
ã i</w>
pen u
d ễ</w>
ap apun</w>
Is ra
per i
nhi ệm</w>
buk a</w>
tr ận</w>
kon o
K o
D a
th i</w>
l ợi</w>
d u</w>
ượ t</w>
j akan</w>
ư ỡ
meng er
đ o</w>
mak in</w>
ber bagai</w>
ti ết</w>
n ạn</w>
ồ m</w>
mi s
k or
f il
đ ạt</w>
tah ui</w>
r ộng</w>
en er
men ciptakan</w>
R i
b ầu</w>
dari pada</w>
tu san</w>
th anh</w>
mobi l</w>
l ịch</w>
di ện</w>
ter us</w>
pro y
h uku
b àn</w>
A l
ủ y</w>
thu ốc</w>
in formasi</w>
ma in</w>
ting gal</w>
m ari</w>
c àng</w>
Isra el</w>
k ì</w>
s ang</w>
gi ác</w>
su r
g ái</w>
é o</w>
se ma
mp u</w>
M o
mu a</w>
th úc</w>
d akan</w>
ch ống</w>
ph ục</w>
m ôi</w>
Y ork</w>
ch ung</w>
k u</w>
t ồn</w>
t ỉ</w>
per </w>
lang sung</w>
i ng</w>
ek s
J a
t or
b ăng</w>
j an
c ậu</w>
hampi r</w>
membang un</w>
ha bi
d ành</w>
ka mu</w>
k ad
s in
ri êng</w>
ko muni
ch ú</w>
tr ụ</w>
lingku ngan</w>
la ma</w>
menga la
baha sa</w>
si den</w>
menga j
mp in</w>
d in
] </w>
g ồm</w>
đ ầy</w>
tubu h</w>
to án</w>
[ </w>
đ u
b un
at nya</w>
bi la</w>
an i</w>
li ma</w>
peny e
ak si</w>
c i</w>
usa ha</w>
t òa</w>
h ạt</w>
ng ữ</w>
su ngg
ki a</w>
ber hasil</w>
ad </w>
z </w>
ber jalan</w>
n ổi</w>
ma ta</w>
mem bu
e kono
P </w>
ter lalu</w>
sej ak</w>
đo án</w>
è o</w>
ma u</w>
c er
b ar</w>
x ét</w>
pere mpuan</w>
m ối</w>
ụ p</w>
ng ôi</w>
d ạy</w>
h ana</w>
tr i</w>
h en
tr ời</w>
kh ách</w>
P hi</w>
v ẻ</w>
mi nggu</w>
gra m</w>
an lah</w>
Af ri
j i</w>
ha mi</w>
í n</w>
te mukan</w>
h òa</w>
In ter
ch ạy</w>
ud ara</w>
te le
o u
ph ạm</w>
c ăn</w>
at kan</w>
ph út</w>
mp ak</w>
ka takan</w>
ban di
x ung</w>
o per
ka h</w>
su ốt</w>
y ếu</w>
tuy ên</w>
tr ải</w>
qu y</w>
mun cu
g en</w>
TE D</w>
se har
lã nh</w>
k un
nh ập</w>
ma lam</w>
ter lihat</w>
T u
jalan an</w>
de kat</w>
N e
S u
C ina</w>
me sin</w>
kh ủng</w>
ap ai</w>
k ỹ</w>
up un</w>
ari s</w>
pe sa
m ắt</w>
bu ổi</w>
musi k</w>
4 0</w>
ù a</w>
ing at</w>
s âu</w>
Afri ka</w>
a ga
H i
proy ek</w>
ener gi</w>
do anh</w>
ala t</w>
ch âu</w>
S i
l uk
l ar
pene li
bu ộc</w>
th ôi</w>
ru s</w>
ngh ị</w>
di gunakan</w>
se makin</w>
đ óng</w>
ting kat</w>
si apa</w>
m ẫu</w>
lớ p</w>
k ỷ</w>
ch ân</w>
Sa ya</w>
P ar
la si</w>
a -
đ ọc</w>
ag ar</w>
w </w>
kh ắp</w>
a u
th í</w>
na sional</w>
s an
pe mba
k ẻ</w>
t ội</w>
n ằm</w>
ber tanya</w>
jela s</w>
i m</w>
an y
chu ẩn</w>
ala san</w>
us nya</w>
ke ce
P o
thi ên</w>
h -
mu da</w>
la por
O </w>
2 5</w>
19 9
ph í</w>
n ối</w>
cá nh</w>
I </w>
ch ắn</w>
T </w>
ỏ ng</w>
d en
ba l</w>
ni s</w>
i bu</w>
độ c</w>
G e
bi s
l y
ara -
ke sa
ư ng</w>
ku s</w>
chuy ên</w>
pe la
m ong</w>
t ạp</w>
se der
s ợ</w>
mem p
d ak</w>
tu y</w>
tu an</w>
ị u</w>
o v
ng ồi</w>
tu skan</w>
di mana</w>
ak annya</w>
meny ad
h ạnh</w>
uny ai</w>
t àu</w>
tho ại</w>
h ồi</w>
t .</w>
peng a
ekono mi</w>
N a
th ắng</w>
r ak
pro ses</w>
ko mpu
v ui</w>
te s</w>
j ari
be ba
A us
tr ực</w>
mak su
la ngan</w>
ya itu</w>
di sebut</w>
cu ốn</w>
t ỷ</w>
di si</w>
ỏ a</w>
p on</w>
so sial</w>
r àng</w>
mu dah</w>
bun uh</w>
ph úc</w>
ữ u</w>
si tas</w>
do lar</w>
l âu</w>
ang ka</w>
a san</w>
ó n</w>
muncu l</w>
te man</w>
h ữu</w>
ưỡ ng</w>
ang go
B i
su mber</w>
ti h</w>
da sar</w>
b ác</w>
C a
menu lis</w>
bo m</w>
Ấ n</w>
memp unyai</w>
ang kat</w>
tr ạng</w>
ken al</w>
A r
pesa wat</w>
men er
lak u</w>
N i
1 1</w>
mu r</w>
an ada</w>
le s</w>
kh ăn</w>
seder hana</w>
ru ang</w>
hasi lkan</w>
g o</w>
x ử</w>
n u
ho ạch</w>
ger ak</w>
t -
ng nya</w>
I ran</w>
ph óng</w>
o l
ka pa
f ak
ben da</w>
pu b
b ốn</w>
d anh</w>
se k
ch a</w>
c ana</w>
c .</w>
k ích</w>
tu h</w>
ch ịu</w>
In dia</w>
ki sah</w>
eri ma</w>
bi o
men i
ka tan</w>
K </w>
ử i</w>
tuju an</w>
ka l</w>
ara an</w>
re s
peng ar
fi si
fil m</w>
W i
đ ê</w>
th ái</w>
mak a</w>
kese hatan</w>
ke pu
ổ n</w>
th ê</w>
fo to</w>
sa tunya</w>
men jela
s ắc</w>
ú i</w>
jen is</w>
ĩ nh</w>
mp a
mengala mi</w>
j ar
f e
8 0</w>
menyad ari</w>
memu tuskan</w>
G oo
Aus tr
m on
ki ểu</w>
s akit</w>
b i</w>
K ỳ</w>
x úc</w>
ter masuk</w>
menc apai</w>
ter baik</w>
suk a</w>
kh ám</w>
hi ểm</w>
tr ai</w>
l ựa</w>
ew an</w>
didi kan</w>
e f
c ạnh</w>
t ức</w>
n ội</w>
ku at</w>
in s
6 0</w>
tr ông</w>
ho a</w>
t ố</w>
ra si</w>
ker </w>
ú a</w>
buk anlah</w>
anggo ta</w>
pelaj ari</w>
ngo ại</w>
de sa
n o</w>
kur ang</w>
Jo h
u ng
tan ah</w>
l y</w>
ke pa
butu hkan</w>
u tan</w>
bo t</w>
asa l</w>
v ượt</w>
ma mpu</w>
huku m</w>
ọ </w>
h at</w>
tr ách</w>
qu ý</w>
ngh èo</w>
la ut</w>
g ửi</w>
kh ỏ
si ng</w>
men it</w>
T ây</w>
beru bah</w>
ber te
str uk
pen uh</w>
kompu ter</w>
keku atan</w>
thi ếu</w>
te pat</w>
peny akit</w>
mem er
M en
kak i</w>
di s
Ho a</w>
ẩ y</w>
Đ ộ</w>
th ất</w>
l er</w>
Austr ali
ẵ n</w>
s ắp</w>
pen didikan</w>
gi ết</w>
ngu y</w>
man ya</w>
lak i</w>
ke bany
đ ổ</w>
he bat</w>
d ầu</w>
kebany akan</w>
s ẻ</w>
ri s
ng ành</w>
l ưu</w>
piki ran</w>
khỏ e</w>
c ư</w>
h adi
ch ứ</w>
R a
N am</w>
peng ala
na m</w>
berke mbang</w>
be da
yata an</w>
umu m</w>
l un
c an
v e</w>
se ba
me me
mema hami</w>
mem bi
bab kan</w>
asa an</w>
g le</w>
men dengar</w>
ch ỗ</w>
v âng</w>
s ẵn</w>
menu ju</w>
kon disi</w>
habi skan</w>
Ch âu</w>
s tik</w>
mp atan</w>
memili h</w>
le s
h ại</w>
c ải</w>
ber usia</w>
c ấu</w>
T o
S te
đ au</w>
x anh</w>
th ập</w>
mengi ri
do k
tu p</w>
i r</w>
ga p</w>
M c
sen ja
ga bu
duk ung</w>
pi lihan</w>
pas ti</w>
kema mpuan</w>
L o
se men
mba h</w>
M </w>
tu gas</w>
l ạc</w>
đ ông</w>
sej arah</w>
per ma
h ậu</w>
g lo
di ber
ch ụp</w>
war na</w>
t ệ</w>
ngg ung</w>
D N
pro duk
c ang</w>
ặ n</w>
poli si</w>
pengala man</w>
men erima</w>
mem inta</w>
b ại</w>
tah uan</w>
ber gerak</w>
s arkan</w>
ni ệm</w>
Australi a</w>
m uk
ca ha
J u
è </w>
ti ka</w>
t ốc</w>
me dia</w>
h ơi</w>
tu ran</w>
M u
mba ngkan</w>
ka sus</w>
di bandi
h o</w>
ar d</w>
D i
per ang</w>
n ổ</w>
mu an</w>
meny er
ter nyata</w>
seri ng</w>
sa tu
jari ngan</w>
dự a</w>
ad api</w>
K h
B ắc</w>
meny atakan</w>
la s</w>
G </w>
ộ n</w>
we b</w>
tr úc</w>
se be
pa si
ng ạc</w>
beri ku
1 0
meng hi
de l</w>
Goo gle</w>
nhi ệt</w>
kese mpatan</w>
lan dia</w>
ko mp
L a
sehar usnya</w>
di buat</w>
ang gap</w>
đo àn</w>
or ong</w>
kh ai</w>
ter besar</w>
ph i</w>
mening gal</w>
li n</w>
j ian</w>
e a</w>
ch ấp</w>
adi lan</w>
or i</w>
d on</w>
đ ột</w>
sa t</w>
E ro
oper asi</w>
mem an
c ận</w>
S ela
Ero pa</w>
semen tara</w>
o l</w>
meng hasilkan</w>
chuy ến</w>
c ổ</w>
H e
1 8</w>
, 000</w>
sar nya</w>
nhi ễ
t ái</w>
ro bot</w>
l ắng</w>
har ap</w>
gu ru</w>
Â u</w>
menger ti</w>
h ề</w>
g u</w>
per beda
ku ti</w>
d ana</w>
maksu d</w>
k éo</w>
caha ya</w>
an e
y ak</w>
ng ược</w>
ga lkan</w>
đ á</w>
qu ản</w>
poli tik</w>
li kan</w>
l ái</w>
i r
N g
C ar
ay ah</w>
mo k
di ri
b on</w>
en si</w>
an d
$ </w>
str ik</w>
on ton</w>
k ính</w>
men ang
ke a
t ôn</w>
org ani
kepa la</w>
j ak</w>
gra f
C hi
k re
po pu
m ar</w>
lak ang</w>
be lakang</w>
t ấm</w>
s ân</w>
ru angan</w>
pro gram</w>
phi ếu</w>
ka u</w>
hen ti</w>
d ần</w>
ah li</w>
v e
m ùa</w>
di se
b ạo</w>
h y</w>
K en
Inter net</w>
A S</w>
so át</w>
si f
ph ức</w>
p ad
mem ak
l uk</w>
ber sa
ni lai</w>
meny a
memba y
ma y</w>
J e
me liha
kela s</w>
ber da
o k
nhiễ m</w>
n ửa</w>
ke bi
c k
ti vi
peneli tian</w>
be l</w>
umu r</w>
pub lik</w>
per jalanan</w>
le y</w>
ba tan</w>
b ánh</w>
G u
u lang</w>
ser angan</w>
man an</w>
bay angkan</w>
ter tentu</w>
glo bal</w>
ti ba</w>
meng habiskan</w>
me mulai</w>
har ga</w>
pemi mpin</w>
m ật</w>
berte mu</w>
ế ng</w>
per ha
ber henti</w>
b lo
men an
li m</w>
ha m</w>
J er
l l</w>
k nya</w>
a ya</w>
tid ak
s áu</w>
a bad
pe mb
i mp
ph a</w>
o la
min yak</w>
peng u
men ce
m ơ</w>
l ạ</w>
d ấu</w>
ti ện</w>
ra s
ke mungk
bis nis</w>
F ran
H a
vo lusi</w>
tr an
mela wan</w>
la hnya</w>
kh ắc</w>
B er
se tengah</w>
se ga
r o</w>
nhi êu</w>
neg ara-
la ka
ti tik</w>
r ak</w>
pa gi</w>
ng ươ</w>
họ a</w>
U ni
r y</w>
meng an
ke ter
ber main</w>
Th e</w>
pu sat</w>
ni ên</w>
negara- negara</w>
ha ti</w>
th ách</w>
t ờ</w>
r in
mpu lkan</w>
mi l</w>
l ửa</w>
ke hi
is ti
han cu
se mes
meliha tnya</w>
la ki
kad ang</w>
bi lang</w>
đ ảo</w>
ber nama</w>
đ ẩy</w>
peng gun
ng ăn</w>
musi m</w>
mo del</w>
lin du
kehi langan</w>
P re
P en
laki -
komuni tas</w>
kepu tusan</w>
k la
G a
ộ p</w>
ker as</w>
in dah</w>
ch iều</w>
7 0</w>
te in</w>
s ơ</w>
L </w>
pla net</w>
m pe
li strik</w>
ga ga
en am</w>
ber ta
đ ích</w>
tumbu h</w>
ing inkan</w>
ger akan</w>
Đ ảng</w>
t ả</w>
t ù</w>
sema cam</w>
perbeda an</w>
menye bu
men de
ma l</w>
Ch úng</w>
or e</w>
le sa
k ý</w>
K i
z a</w>
thi ện</w>
ph ong</w>
L u
x ấu</w>
tang gal</w>
senja ta</w>
satu -
keti ga</w>
da ngan</w>
beri ta</w>
Li ên</w>
/ </w>
đ ảm</w>
lu r</w>
n ia</w>
lapor an</w>
il mu</w>
Men teri</w>
kh án</w>
th ảo</w>
li r</w>
ba lik</w>
yak in</w>
uy ện</w>
ter se
s óng</w>
penge tahuan</w>
on e</w>
ki pun</w>
c ắt</w>
c en
ba tas</w>
ngka h</w>
nghi êm</w>
gi ấy</w>
Da vi
th ấp</w>
nu ôi</w>
ni ềm</w>
a turan</w>
mes kipun</w>
mem ang</w>
ki r
kemungk inan</w>
H ar
v ẽ</w>
th ải</w>
nh ờ</w>
menjela skan</w>
đ ươ</w>
ber at</w>
ti ke
membu atnya</w>
lay ah</w>
jawa b</w>
h ứng</w>
sur at</w>
ma s</w>
h ủy</w>
c ập</w>
é m</w>
me ter</w>
l ỗi</w>
h ewan</w>
dibandi ngkan</w>
po sisi</w>
menye babkan</w>
laki- laki</w>
i -
t ô</w>
se panjang</w>
P i
ta m</w>
pen de
meny u
dok ter</w>
ch ữa</w>
piki rkan</w>
h ồ</w>
c ơn</w>
ada an</w>
P ak
ừ </w>
bak ar</w>
b or
a tif</w>
đ en</w>
1 4</w>
sa ling</w>
p on
h ỗ</w>
ber hubungan</w>
đu a</w>
đ êm</w>
ó .</w>
uku ran</w>
t ắc</w>
pan as</w>
d ương</w>
si tus</w>
o b
bu daya</w>
ban tuan</w>
v ai</w>
u hnya</w>
mening galkan</w>
kon f
d ar
bi aya</w>
t ầm</w>
ng ân</w>
ber asal</w>
ta san</w>
semes ta</w>
me s</w>
kh ởi</w>
j ah</w>
t ải</w>
menge tahui</w>
inter net</w>
beriku tnya</w>
ó p</w>
vi rus</w>
mening ka
as anya</w>
2 00</w>
p un
S o
in du
de mi
B ộ</w>
đi ê</w>
wi layah</w>
si ko</w>
memba ca</w>
kapa l</w>
d ừng</w>
b ri
x ếp</w>
si tu
n ông</w>
mili ki</w>
kema tian</w>
a li</w>
un dang</w>
kh ối</w>
bi asanya</w>
0 -
di ta
da la
b ày</w>
H ồi</w>
ti on</w>
n ặng</w>
ya lah</w>
r ời</w>
organi sasi</w>
nh .</w>
ng ờ</w>
S en
Mi ch
đ ỡ</w>
str i</w>
per te
la o</w>
Pak istan</w>
L on
tumbu han</w>
la upun</w>
l inya</w>
er i</w>
bay i</w>
ó t</w>
menja lan
un i
te ma
abad </w>
Joh n</w>
Af g
200 8</w>
u ju
men ak
c ak</w>
5 00</w>
war ga</w>
t s</w>
mi s</w>
ặ m</w>
x uyên</w>
wa laupun</w>
satu- satunya</w>
r ối</w>
meny en
m ắc</w>
di tu
ch ữ</w>
ch ăm</w>
c an</w>
đ ám</w>
v ơ</w>
thi ệt</w>
pri bad
ke tahui</w>
bo la</w>
bang un</w>
th ẳng</w>
r út</w>
ma an</w>
h ạ</w>
Lon don</w>
sebe lah</w>
da sarnya</w>
ầ ng</w>
s inya</w>
ma sa
m in</w>
pen er
di mulai</w>
V à</w>
I V</w>
th a</w>
t ầng</w>
r adi
n i</w>
men en
membe li</w>
ma -
ke -
h át</w>
di ngan</w>
h on</w>
il l</w>
õ i</w>
te n</w>
spe si
in f
E </w>
ớ m</w>
đ ảng</w>
p kan</w>
ng gi
mi si</w>
menja wa
m ôn</w>
ki rkan</w>
ch ị</w>
an kan</w>
sen i</w>
pi hak</w>
l í</w>
l á</w>
ter bang</w>
ke ker
di temukan</w>
bang unan</w>
1 8
nh ắc</w>
in v
ai k
ser ta</w>
sen ang</w>
s ti
n ỗi</w>
mungk inkan</w>
s y
pen duduk</w>
m .</w>
lo gi
demi ki
pribad i</w>
ma tan</w>
desa in</w>
d on
Davi d</w>
t uk
sungg uh</w>
ja ngan</w>
gi ám</w>
r inya</w>
perma inan</w>
lu as</w>
li a</w>
k ê</w>
pa sar</w>
đ ức</w>
ã n</w>
u l</w>
t ina</w>
ng a</w>
g ốc</w>
d er</w>
be </w>
Ú c</w>
mengi kuti</w>
member i
l ộ</w>
ju al</w>
at -
H IV</w>
ngka p</w>
la hi
c ân</w>
M an
Bu mi</w>
tin dakan</w>
mer as
1 6</w>
qu en</w>
produk si</w>
ph ổ</w>
pe du
kor ban</w>
d ặm</w>
F a
đ ốc</w>
tur un</w>
tran s
tah anan</w>
ng àn</w>
indu stri</w>
g aris</w>
u .</w>
tivi tas</w>
lu y
tr ao</w>
t ận</w>
se ku
sa dar</w>
memer lukan</w>
lo kal</w>
j ar</w>
g ela
demiki an</w>
da f
d òng</w>
t ari
s -
pe mbi
mili ar</w>
mem buka</w>
khi ển</w>
ja u</w>
b í</w>
Wi ki
Afg han
pen j
o f</w>
ja tuh</w>
R u
t ukan</w>
pen a
m ười</w>
l ĩnh</w>
un da
pa tan</w>
ng ắn</w>
kan tor</w>
buk ti</w>
ali for
Đ ông</w>
peri laku</w>
car akan</w>
R </w>
F i
đ em</w>
o bat</w>
vi si</w>
pa ya</w>
n an
mis kin</w>
menjawa b</w>
me mungkinkan</w>
gi ây</w>
200 7</w>
s ớm</w>
pe ngh
na ik</w>
menge lu
men dukung</w>
lesa ikan</w>
g e</w>
alifor nia</w>
2 1</w>
ren dah</w>
pro duk</w>
kho ản</w>
Pre siden</w>
Pa les
I ra
u -
s u</w>
m or
Bar at</w>
B us
th ơ</w>
s ửa</w>
r ơi</w>
meningka tkan</w>
d ây</w>
K or
đ ợi</w>
tar ik</w>
pertan dingan</w>
g ấp</w>
berda sarkan</w>
a j
ver sitas</w>
ter li
struk tur</w>
o p
la pan</w>
d àng</w>
Tu han</w>
Ch ris</w>
v er</w>
mend orong</w>
lu s</w>
lay anan</w>
di ba
ane h</w>
a .</w>
Sela tan</w>
uku r</w>
ta mpak</w>
kar ya</w>
DN A</w>
Afghan istan</w>
Đ ại</w>
à m</w>
pen c
meny uk
in e</w>
ci s</w>
mili k</w>
gi ai</w>
ber usaha</w>
ber diri</w>
baha gia</w>
N or
t ín</w>
situ asi</w>
l ưới</w>
co i</w>
chi ếu</w>
chi m</w>
W </w>
T V</w>
C anada</w>
y at</w>
F e
x o
s àng</w>
n ỗ</w>
ma tkan</w>
m ê</w>
m àn</w>
họ p</w>
g ang</w>
di ng
luy ện</w>
l ương</w>
g óp</w>
di rinya</w>
co ba
ch ứa</w>
bu an</w>
ị t</w>
ẩ u</w>
ã y</w>
tuy ến</w>
ph ỏng</w>
mengh adapi</w>
ki ra</w>
in di
de mok
B C</w>
mem pelajari</w>
ma i</w>
bu mi</w>
0 .000</w>
t unjukkan</w>
pu lu
g ắn</w>
U tara</w>
g er</w>
baha ya</w>
2 4</w>
ter buka</w>
pe </w>
9 0</w>
ung si</w>
tike l</w>
t t</w>
po la</w>
m o</w>
l on
M on
n e</w>
la ngkah</w>
hi lang</w>
gen er
ch ặn</w>
tr ừ</w>
tr ì</w>
tak ut</w>
t ad
q </w>
mili ter</w>
har apan</w>
h út</w>
ph án</w>
penj ara</w>
ma tema
bi ên</w>
ba tkan</w>
m -
keker asan</w>
ke ber
cá m</w>
Nh ật</w>
B ro
s ong</w>
mengu ra
bi dang</w>
ai an</w>
đ ói</w>
đ áp</w>
y g</w>
ti ểu</w>
sega la</w>
mer a</w>
lun cu
har apkan</w>
C alifornia</w>
u ống</w>
ng a
l on</w>
N </w>
C on
B ra
terli bat</w>
se ger
ph ẫu</w>
man apun</w>
1 .
v </w>
se le
1 3</w>
è n</w>
th ụ</w>
mi ễn</w>
ku t</w>
eri takan</w>
chiế m</w>
ala mi</w>
G re
pe san</w>
mba t</w>
dala mnya</w>
ang g
F or
ò i</w>
se ke
ri buan</w>
ka mp
b ảng</w>
19 8
gi ơ</w>
bu rung</w>
ba ma</w>
tan tangan</w>
n úi</w>
mi a</w>
kea manan</w>
han yalah</w>
f t</w>
I rak</w>
ti r</w>
th ưởng</w>
th â</w>
tah un
mu ri
luk a</w>
is me</w>
ga h</w>
0- an</w>
đ ỏ</w>
si ap</w>
seger a</w>
t ướng</w>
perha tian</w>
per asaan</w>
la man</w>
b ắn</w>
di ng</w>
de sa</w>
Ph áp</w>
nh ằm</w>
menye di
ek or</w>
b ảy</w>
ang nya</w>
U </w>
đ ừng</w>
th e</w>
spesi es</w>
qu ảng</w>
j an</w>
ge dung</w>
si êu</w>
pe mber
m ềm</w>
là ng</w>
li tas</w>
gi ó</w>
gi àu</w>
X </w>
suk ses</w>
kece laka
ch óng</w>
baha gi
ak ses</w>
a ga</w>
S h
tr ích</w>
p ang</w>
ole ku
a el</w>
Ira q</w>
pasi en</w>
mp a</w>
li ệt</w>
inv es
hi ệp</w>
h ộp</w>
gi ành</w>
a lan</w>
a cara</w>
t ong</w>
sis wa</w>
nh ảy</w>
ng e
n óng</w>
mak h
m ảnh</w>
m oleku
l en
ga gal</w>
at lah</w>
D o
Bus h</w>
B aik
tr ại</w>
ta m
phi ên</w>
ph ận</w>
ngh ỉ</w>
memi kirkan</w>
m ẽ</w>
lin e</w>
il mu
đ ương</w>
đ e</w>
po hon</w>
pemerin tahan</w>
ng ừng</w>
lo kasi</w>
kh awa
ch ỉnh</w>
su al</w>
s me</w>
pern yataan</w>
ad anya</w>
1 ,
so lusi</w>
mer </w>
kecelaka an</w>
k ỉ</w>
k ĩ</w>
jawa ban</w>
i de
el l</w>
bar ang</w>
ba -
F </w>
pedu li</w>
mem bentuk</w>
l ắm</w>
ki ri</w>
khu ẩn</w>
ja bat</w>
hi tam</w>
gan tung</w>
ali tas</w>
W il
Baik lah</w>
200 6</w>
tele pon</w>
quy ển</w>
ke du
k êu</w>
ilmu wan</w>
d y</w>
be tu
3 00</w>
mi k
ku lit</w>
i den
e mo
der a</w>
bahagi aan</w>
ak kan</w>
wa s</w>
w an
tr ùng</w>
si r</w>
meras akan</w>
men deng
m or</w>
inter nasional</w>
fo kus</w>
c inta</w>
ba ikan</w>
ang in</w>
aki bat</w>
S A</w>
200 5</w>
ứ t</w>
ụ t</w>
s s</w>
pemi lihan</w>
mba ngan</w>
ch áu</w>
ber harap</w>
ọ t</w>
wa ti</w>
t unj
ra b</w>
popu lasi</w>
kir akan</w>
u y</w>
nà y.</w>
mer ah</w>
in da
diber ikan</w>
ber tahan</w>
ự u</w>
uku l</w>
ra ta</w>
per da
li h</w>
kh ái</w>
ka li
k anan</w>
ba tasan</w>
P ro
Đ ức</w>
tr ánh</w>
thu ận</w>
per tumbuhan</w>
me li
lo ạn</w>
ke bahagiaan</w>
aga ma</w>
N ah</w>
Je pang</w>
se su
r ừng</w>
per angkat</w>
pe mbu
ori tas</w>
mpu lan</w>
mengelu arkan</w>
m ón</w>
le t</w>
kan ker</w>
h ấp</w>
ber bagi</w>
Ch úa</w>
v u
th ẩm</w>
tah ari</w>
sa l</w>
per coba
mengu mpulkan</w>
menge mbangkan</w>
m ã</w>
daf tar</w>
ar tinya</w>
ọ a</w>
ju ru</w>
ja ng
v ong</w>
pi l</w>
meny ela
ko tak</w>
h ôn</w>
c ro
N A
yata annya</w>
t ồi</w>
se n</w>
ru s
mening kat</w>
lu bang</w>
ka ya</w>
gener asi</w>
Mich ael</w>
ẳ n</w>
tid ur</w>
ter tarik</w>
meng ata
l d</w>
de mi</w>
ba i
N ga</w>
ter dapat</w>
te was</w>
se hat</w>
per muk
ng uyện</w>
mp aknya</w>
ba tu</w>
ter utama</w>
te mp
peng adilan</w>
m ái</w>
ja lur</w>
g óc</w>
ek si</w>
ch ờ</w>
cer da
Ti mur</w>
O bama</w>
A p
200 4</w>
u p</w>
t án</w>
s ter</w>
pe kerja</w>
mem butuhkan</w>
mb ak</w>
makh luk</w>
lo ạt</w>
C A</w>
se p</w>
mu r
ki r</w>
ch ủng</w>
c ak
19 </w>
y akan</w>
x u</w>
tuju h</w>
t ộc</w>
percoba an</w>
pen d
ke ju
k in
ber ju
B ri
1 7</w>
t ường</w>
pe jabat</w>
pa s</w>
nh ật</w>
ng at</w>
men ang</w>
ki mia</w>
ke adaan</w>
h ẳn</w>
O K</w>
Kh ông</w>
A b
sa y
qu ần</w>
d ậy</w>
d ưỡng</w>
su du
ker tas</w>
ch ạm</w>
bu ồn</w>
đ ỉnh</w>
tr adi
re ka
ng kat</w>
m ấy</w>
ke jad
f ungsi</w>
diper lukan</w>
da m</w>
ô i.</w>
v ê</w>
t ảng</w>
s óc</w>
ng ủ</w>
lanju tnya</w>
ko men
đi ên</w>
u hi</w>
tho át</w>
ten aga</w>
s h</w>
pela ngg
mengura ngi</w>
d ĩ</w>
b uk</w>
T ổng</w>
đ ào</w>
ter kenal</w>
mem bunuh</w>
demok rasi</w>
de wa
ak tif</w>
Th ái</w>
ten si</w>
t annya</w>
o .</w>
menye lesaikan</w>
lindu ngi</w>
l ính</w>
komuni kasi</w>
khu sus</w>
gi ọng</w>
de tik</w>
an tar
a ya
R usia</w>
pengar uh</w>
pas ukan</w>
ng annya</w>
lahi r</w>
ki m</w>
do ku
at ang</w>
đ ăng</w>
se p
s er</w>
ra tusan</w>
neg eri</w>
li di
i si</w>
butu h</w>
as hi
W al
T a
v ỡ</w>
th an</w>
se berapa</w>
s ka
mela por
l ệnh</w>
ke tidak
ho ảng</w>
di sini</w>
c ầm</w>
ù i</w>
se lanjutnya</w>
qu ang</w>
ph ù</w>
pa ngan</w>
ngh ìn</w>
mpu r
mi sa
kh ích</w>
k m</w>
ji ng</w>
Tr ái</w>
t un
ren cana</w>
ra ta-
pe ma
pe dia</w>
n uk
mele wati</w>
le men</w>
d õi</w>
beba san</w>
ba ik
b ão</w>
ê nh</w>
v ợ</w>
te men</w>
ra -
ch áy</w>
cen der
N o
B a</w>
sudu t</w>
sa an</w>
meng ak
ke t</w>
in ov
hu tan</w>
chu ột</w>
bin atang</w>
ị p</w>
tr a
tan aman</w>
pin dah</w>
n inh</w>
melapor kan</w>
man u
ad akan</w>
K anada</w>
v an</w>
s ót</w>
pemba ng
mi t</w>
mem o
la t</w>
ken apa</w>
gaga san</w>
ch àng</w>
b kan</w>
u han</w>
th ỏa</w>
n y
menyen angkan</w>
menyela matkan</w>
meng ha
l ễ</w>
ho á</w>
e ta</w>
c ũ</w>
Par tai</w>
L an</w>
seper tinya</w>
sen i
s úng</w>
ma si
h ài</w>
g adi
S y
th ăm</w>
tad i</w>
t àn</w>
mi ly
matema tika</w>
kesa lahan</w>
ken yataannya</w>
ke cu
k si</w>
gamb aran</w>
fi kasi</w>
ba- tiba</w>
Th ế</w>
P hi
A I
ẹ n</w>
tid aknya</w>
ti ba-tiba</w>
la nya</w>
la gu</w>
kh uy
kejad ian</w>
ươ i</w>
uny i</w>
t ổn</w>
sungg uhnya</w>
r un</w>
di gi
ce bo
O h</w>
ta pa</w>
s t</w>
pen dapat</w>
er a</w>
d ường</w>
ch ấm</w>
bin tang</w>
Z e
P u
nuk lir</w>
meny i
mengiri m</w>
ma tahari</w>
kon su
dewa sa</w>
a mbil</w>
S an</w>
wa jah</w>
v ân</w>
th ảm</w>
th ai</w>
ola k</w>
meng un
ma ju</w>
fo to
bu ng</w>
beba s</w>
pre siden</w>
ph ạt</w>
pen onton</w>
ng ại</w>
kebi jakan</w>
D unia</w>
se sungguhnya</w>
r e</w>
menja ga</w>
mengu mu
meng ga
jan tung</w>
gamb arkan</w>
d ọa</w>
conto hnya</w>
cebo ok</w>
te man
sif at</w>
s tan
pe main</w>
ng ton</w>
ma il</w>
m ắn</w>
m áu</w>
ik lim</w>
ga an</w>
da i</w>
d s</w>
ber ku
S co
wak i
w n</w>
ter pi
par tai</w>
ha laman</w>
ch ảy</w>
và ng</w>
tor an</w>
se tidaknya</w>
rata- rata</w>
ngo ái</w>
n or
n ik</w>
misa lnya</w>
mengumu mkan</w>
hi jau</w>
e volusi</w>
ban nya</w>
at or</w>
W e
2 000</w>
v en
ti a</w>
se t</w>
org e</w>
menyedi akan</w>
mengh en
meng gun
m ỏ</w>
di si
ber t</w>
be tapa</w>
N ó</w>
B ap
ver si</w>
t ter</w>
seri us</w>
s aran</w>
di ter
ba ngan</w>
đ â</w>
y o
re k
pe man
meng hubu
indi vi
hã i</w>
gadi s</w>
f er</w>
du lu</w>
de lapan</w>
b inh</w>
ada i</w>
Fa cebook</w>
n ắm</w>
memak ai</w>
c or
b ờ</w>
ti kus</w>
ti han</w>
ten tara</w>
s annya</w>
pu lang</w>
permuk aan</w>
or o
ma sing</w>
gabu ng</w>
da mpak</w>
chu ỗi</w>
bad an</w>
J an
v ững</w>
th ừa</w>
ter kadang</w>
se jumlah</w>
l ầm</w>
l inh</w>
ch ậm</w>
ali h</w>
untu ngan</w>
tr ồng</w>
t on
si ko
pan tai</w>
p nya</w>
n âng</w>
mi ri
ma ian</w>
m bahkan</w>
la wan</w>
ka linya</w>
b è</w>
tr ắng</w>
kur si</w>
ke ka
hasi lnya</w>
hancu rkan</w>
ber </w>
20 10</w>
v asi</w>
thi ệu</w>
mend erita</w>
ka mera</w>
ch ối</w>
W a
B ạn</w>
4 5</w>
v ak
t ắt</w>
sang atlah</w>
qu ên</w>
ph ê</w>
pengar uhi</w>
l ari</w>
ha sa</w>
b oleh</w>
A g
x i
t ốn</w>
si tif</w>
pla stik</w>
membay angkan</w>
khu ôn</w>
ker eta</w>
4 00</w>
2 .
đ èn</w>
ph ối</w>
kh ổng</w>
ken d
dia mbil</w>
ca ngan</w>
ar ea</w>
C har
2 7</w>
tam bahan</w>
sesu ai</w>
se pe
s ánh</w>
r at</w>
mạ ch</w>
mengata si</w>
kedu anya</w>
hã ng</w>
gun a</w>
g anda</w>
ti -
tek s</w>
se lain</w>
ng- masing</w>
m ời</w>
l ẫn</w>
l ũ</w>
ing atan</w>
Bap ak</w>
v â</w>
to l</w>
s ta</w>
pan dangan</w>
menak ju
masi ng-masing</w>
kece patan</w>
Per an
tu al</w>
s ko
ka bar</w>
h or
ew s</w>
e lek
b ọn</w>
aw an</w>
O r
A l</w>
19 7
ur at</w>
mbu t</w>
m on</w>
ki ran</w>
ch ồng</w>
bi ê</w>
ar si
ap a-
an d</w>
ak al</w>
W ashi
A rab</w>
♪ </w>
tro l</w>
ti ềm</w>
se ekor</w>
mbi lan</w>
m y</w>
ken yataan</w>
fak ta</w>
C ha
đ ó.</w>
wa wan
tr uy</w>
si un</w>
qu ỹ</w>
menakju bkan</w>
me ja</w>
mb u</w>
lanju t</w>
la bor
ga me</w>
g ar
er ensi</w>
Peran cis</w>
D ar
tri bu
masa lahnya</w>
l ồ</w>
ke mar
g anya</w>
for d</w>
ber bahaya</w>
a sing</w>
Washi ngton</w>
S ch
M S</w>
Ge orge</w>
B ản</w>
th uyền</w>
per an</w>
menyuk ai</w>
ke perca
ke gi
k -
jar ak</w>
h u</w>
di ệu</w>
bak teri</w>
S ta
P B
ụ y</w>
t ịch</w>
sin y
s ông</w>
pen dapa
moleku l</w>
m ãi</w>
in tah</w>
Wiki pedia</w>
T ho
M as
Jer man</w>
C O
tr ưng</w>
s ạch</w>
kh a</w>
ke ja
ding in</w>
bi ru</w>
ber gabung</w>
ị nh</w>
war d</w>
ska la</w>
sele sai</w>
ra ha
r un
r on
pan dang</w>
n er</w>
ke bebasan</w>
bu r</w>
ba b</w>
19 6
vi ê</w>
th ịt</w>
si sa</w>
si an</w>
on a</w>
menga gu
komp lek
ken da
hu jan</w>
graf i</w>
ek tif</w>
ef ek</w>
al kan</w>
a ikan</w>
U S
Ba hasa</w>
us akan</w>
ta ha
t ám</w>
ru mit</w>
r ă</w>
pe ta</w>
ng- undang</w>
lay ar</w>
en e
ad e</w>
a te
a inya</w>
a c
se mpur
o batan</w>
ne y</w>
mily ar</w>
ma cam</w>
li kasi</w>
kemar in</w>
kar bon</w>
jawa bannya</w>
inter aksi</w>
di sa
di katakan</w>
da -
c ata
any e</w>
W or
W ik
tr ữ</w>
te l</w>
t úi</w>
pene muan</w>
menc eritakan</w>
memberi tahu</w>
kri sis</w>
ke u
in ews</w>
ch e</w>
b ền</w>
Wik inews</w>
H ội</w>
2 2</w>
& </w>
tu ju</w>
to ko</w>
tan da</w>
pa bri
nh ựa</w>
mpi lan</w>
meng anggap</w>
m ưa</w>
k ịch</w>
i kut</w>
h ảo</w>
h ô</w>
d arah</w>
angka p</w>
an cang</w>
3 5</w>
t ách</w>
ngh ề</w>
mu di</w>
men olak</w>
memas uk
hi ển</w>
c ãi</w>
bai ki</w>
200 3</w>
u ngan</w>
tin e</w>
s tu
s or</w>
r on</w>
pre sen
ok si
memper oleh</w>
ki ệm</w>
keperca yaan</w>
ka ta-
c ấm</w>
S an
Pa ul</w>
M us
Ken ya</w>
G o
v ốn</w>
t lah</w>
su ất</w>
pulu h</w>
ng ang</w>
kh ứ</w>
ker usakan</w>
ing atkan</w>
hasi s
gh ế</w>
d aran</w>
bio logi</w>
tak kan</w>
t ỏ</w>
ph ấn</w>
menu nggu</w>
me di
gi am</w>
di i
ti si</w>
pe lu
mendeng arkan</w>
men da
ma hasis
la mbat</w>
kecu ali</w>
ke untungan</w>
ju taan</w>
g h</w>
blo g</w>
đi ệp</w>
tr on
si f</w>
pemi kiran</w>
nh u</w>
mengiri mkan</w>
meng gan
li knya</w>
er s</w>
bi ện</w>
apa- apa</w>
C ông</w>
ì a</w>
t ỉnh</w>
sempur na</w>
raha sia</w>
muri d</w>
mi ah</w>
menggun akannya</w>
l ỗ</w>
l ạnh</w>
gi à</w>
bak aran</w>
B ill</w>
v ĩ</w>
su b
se jauh</w>
s ô</w>
pe tugas</w>
p ukul</w>
m ét</w>
gi la</w>
di u
cu ô</w>
c at</w>
A s
ru h</w>
pemb un
l ối</w>
g an</w>
di ketahui</w>
ch ào</w>
b ật</w>
Ze a
r ác</w>
p rak
on y</w>
mo der
membay ar</w>
me lindungi</w>
ke butu
ja i
du ga</w>
PB B</w>
K u
B ang
o s</w>
men angkan</w>
lapor kan</w>
eks peri
di d
co m</w>
- tahun</w>
ấ c</w>
y an</w>
vi ễn</w>
th ờ</w>
ter le
n ô</w>
mik ro
men tal</w>
m ại</w>
logi s</w>
gi ng</w>
bi a</w>
T er
H ai</w>
D S</w>
đu ổi</w>
unda ng-undang</w>
u- baru</w>
pin tu</w>
per isti
ng ai</w>
lo g</w>
le dakan</w>
ker u
h ào</w>
ga ngan</w>
f in
bar u-baru</w>
b ề</w>
angka sa</w>
Y ou
C E
đ ằng</w>
te ori</w>
pre si</w>
pak aian</w>
n en
memas tikan</w>
lin tas</w>
di lihat</w>
di kenal</w>
der al</w>
Y a
2 3</w>
v el</w>
ru p</w>
mbi a</w>
mb a</w>
kh ổ</w>
ke seluru
f f
dapa t
Zea land</w>
S ha
H u
E n
2 ,
ườ n</w>
ti stik</w>
sej en
se tuju</w>
se banyak</w>
menghen tikan</w>
meng ingat</w>
menen tukan</w>
konf lik</w>
j ek</w>
hi tu
an jing</w>
Lo s</w>
un i</w>
tr e
su snya</w>
re kan</w>
perte muan</w>
p ra
o to
kon sep</w>
ko k</w>
i ri
00 .000</w>
per ta
pener bangan</w>
pendapa tan</w>
mengaj arkan</w>
ma tis</w>
h à</w>
gen e
es t</w>
ari an</w>
L in
ter o
si -
pi rasi</w>
hu y</w>
fisi k</w>
di laporkan</w>
c ản</w>
bar kan</w>
b ữa</w>
B en
w uju
ti onal</w>
mp ang</w>
mena mbahkan</w>
memba ha
kata- kata</w>
jang ka</w>
e sia</w>
dis ku
c ar</w>
Is lam</w>
H ai
ự ng</w>
đ ài</w>
v ết</w>
t s
per kemba
nh ắn</w>
mahasis wa</w>
l ong</w>
j ak
gi ỏi</w>
din ding</w>
da l</w>
ar nya</w>
TE D
A sia</w>
ơ n.</w>
x ương</w>
th ủy</w>
tahun -tahun</w>
pelaj aran</w>
nh u
mur ah</w>
mu i</w>
le n</w>
ker jakan</w>
kend araan</w>
c ựu</w>
c ứng</w>
ber umur</w>
an ca
Uni versitas</w>
Th ượng</w>
đi ển</w>
đ ạp</w>
tr ào</w>
ta mpaknya</w>
sepe da</w>
sa ngan</w>
ph ó</w>
pa skan</w>
p rin
on line</w>
mem pengaruhi</w>
kla im</w>
kh óa</w>
keseluru han</w>
kegi atan</w>
k ém</w>
ja man</w>
do l
di anggap</w>
ch ó</w>
Y </w>
z a
r ap
o ba
ng ọn</w>
kh áng</w>
ke bakaran</w>
hu ấn</w>
h ắn</w>
gela p</w>
emo si</w>
bi carakan</w>
ber akhir</w>
be las</w>
terse dia</w>
t â</w>
su n</w>
peristi wa</w>
nh â</w>
la pi
la mpu</w>
kebutu han</w>
ka s</w>
gun ung</w>
c ỡ</w>
1 5
đ ẳng</w>
th ước</w>
t ôi.</w>
se besar</w>
pak ai</w>
ngka u</w>
n ém</w>
mis k
menger jakan</w>
men jad
la utan</w>
khuy ến</w>
du l</w>
d ara</w>
In don
AI DS</w>
A le
200 9</w>
ý t</w>
tu li
tek anan</w>
si l</w>
seba b</w>
per a
l ục</w>
ik lan</w>
ga m</w>
digi tal</w>
d uku
cro so
ben cana</w>
Mi croso
ra ngan</w>
po sitif</w>
penggun aan</w>
nh ẹ</w>
iden ti
ho àng</w>
ga w
du r</w>
ber ikan</w>
ata p</w>
Ri ch
M at
đi ệu</w>
si mp
ser ing
sela mat</w>
rak yat</w>
nor mal</w>
lanju tkan</w>
gh t</w>
di te
ber se
awa lnya</w>
ang ga</w>
T ali
Kor ea</w>
Indon esia</w>
G ra
Ồ </w>
y ên</w>
u l
min ta</w>
men onton</w>
membi arkan</w>
l ọc</w>
e t
d ra
cender ung</w>
c in
Na sional</w>
C ộng</w>
B BC</w>
w in</w>
th ả</w>
samp ah</w>
pro tein</w>
peny er
p siko
p si</w>
o ke</w>
o h</w>
mi mp
man tan</w>
ko mi
kho ảnh</w>
huku man</w>
h è</w>
f es
Microso ft</w>
G ar
Ả </w>
sti tu
mạ c</w>
mpu r</w>
mor al</w>
misk inan</w>
menga tur</w>
meng hancurkan</w>
ma upun</w>
l ặp</w>
ju ngi</w>
din a
di le
c à</w>
ber langsung</w>
T ur
An d
w anan</w>
tin dak</w>
t ật</w>
si pil</w>
sema ngat</w>
se tahun</w>
s ụp</w>
po tensi</w>
penggun a</w>
o m</w>
menyebu tnya</w>
menjalan kan</w>
menge ju
memi mpin</w>
m si</w>
indivi du</w>
ga si</w>
c ú</w>
b ắc</w>
Tali ban</w>
Per dana</w>
ợ t</w>
sin ar</w>
s k
pu tih</w>
pen ing
par temen</w>
nh ấn</w>
li ling</w>
l or
ke miskinan</w>
ka mar</w>
duku ngan</w>
b adai</w>
” </w>
Đ ất</w>
ti p</w>
tele visi</w>
r in</w>
po in</w>
miri p</w>
mi ếng</w>
mengeju tkan</w>
h ùng</w>
ga i</w>
co co
bu s</w>
D r
Bo s
tr òn</w>
par ah</w>
mengagu mkan</w>
mence gah</w>
ma- sama</w>
komen tar</w>
kesa daran</w>
k sa</w>
i d</w>
h ạng</w>
eksperi men</w>
cerda s</w>
ber la
b on
a su
B la
6 00</w>
ti si
ter tu
t le</w>
sek sual</w>
se si</w>
s ter
p u</w>
o t</w>
m ừng</w>
kh ẩu</w>
ke men
du h</w>
di bangun</w>
de la</w>
da ging</w>
th ác</w>
stan dar</w>
si ngkat</w>
sa udara</w>
s ỹ</w>
ra m</w>
r ắc</w>
pun cak</w>
per aturan</w>
per ala
moder n</w>
le m</w>
l s</w>
kamp anye</w>
ga ya</w>
ca hkan</w>
ber guna</w>
N ăm</w>
th ù</w>
th ao</w>
ter hubu
pabri k</w>
pa y
manu si
ka tanya</w>
inov asi</w>
Ti mes</w>
A t
A nge
Đ ây</w>
y u</w>
suk u</w>
ne ur
me menangkan</w>
luncu rkan</w>
l ặng</w>
kh o</w>
ke su
hadi ah</w>
gi ảng</w>
gi kan</w>
ba sis</w>
b ãi</w>
K on
Á </w>
pa si</w>
p aran</w>
nh a</w>
lak si</w>
kh ảo</w>
ke bu
hu ống</w>
berta nggung</w>
b y</w>
Pales tina</w>
Af gan
A i</w>
7 5</w>
Đ ó</w>
ten tunya</w>
t ạm</w>
seke dar</w>
pen ja
p le</w>
memas ukkan</w>
ef ektif</w>
e mail</w>
Te ngah</w>
F o
Afgan istan</w>
ủ i</w>
tah ankan</w>
per min
pembi c
menu tup</w>
me yak
liha tlah</w>
ju an</w>
hi ến</w>
c ờ</w>
b ak</w>
1 3
ụ i</w>
tu ng
t àng</w>
rus ak</w>
perkemba ngan</w>
ngka pkan</w>
mere ka
ma teri</w>
la pangan</w>
ka sikan</w>
di harapkan</w>
D u
1 50</w>
to ngan</w>
ter gantung</w>
peneli ti</w>
man fa
kun ci</w>
ins tein</w>
in te
g ợi</w>
b ru
Hai ti</w>
D ân</w>
“ </w>
taha p</w>
sering kali</w>
perala tan</w>
ori um</w>
mpu l</w>
min um</w>
menjalan i</w>
kh ung</w>
i Ph
ch ín</w>
ar e</w>
a to
Te x
Hi ệp</w>
đ ựng</w>
đ ốt</w>
ter n
tek nik</w>
te mb
ser angga</w>
se kelompok</w>
o ta</w>
mi ền</w>
men cu
lun ak</w>
ki lo
kad e</w>
k s</w>
di am</w>
ch ặt</w>
bi t</w>
antar anya</w>
Wil li
Ch ina</w>
ớ t</w>
đ â
đ am</w>
z il</w>
tr àn</w>
to pi
ter or
l ược</w>
khu susnya</w>
g ni
cip ta</w>
c ường</w>
Th ụy</w>
T wi
M ột</w>
Bar u</w>
ưỡ i</w>
x âm</w>
to p</w>
terhubu ng</w>
te k</w>
s ợi</w>
ru ma
mengen da
men unj
memper baiki</w>
man ia</w>
kar ak
ka pan</w>
il miah</w>
ho ang</w>
di pa
car anya</w>
ap a
Ti ếng</w>
z on</w>
t ê</w>
se y</w>
pertan ya
pen i
pas ang</w>
men teri</w>
ju r
bi tkan</w>
awa tan</w>
ara f</w>
T ư</w>
C i
Bra zil</w>
2 6</w>
spe k
sek s</w>
per sa
per gerakan</w>
mengaj ar</w>
ke tak
in s</w>
i- hari</w>
ha tikan</w>
h adapi</w>
ga laksi</w>
ban k</w>
M ười</w>
M il
Ge or
1 4
ậ c</w>
v ỏ</w>
seba liknya</w>
penye lidi
pem buat</w>
n ar
li ling
l ơ</w>
konf erensi</w>
gi ấc</w>
anca man</w>
Y o
Me xi
Joh n
res mi</w>
qu án</w>
per ingatan</w>
per awatan</w>
pa sangan</w>
nen ek</w>
muk a</w>
mu la
mimp i</w>
hi ếm</w>
d ư</w>
ci ng</w>
ber pu
ak sikan</w>
Mexi co</w>
E instein</w>
B ur
đ ống</w>
tr ống</w>
pertan ian</w>
par tikel</w>
mer u
m ây</w>
m ini
l ắp</w>
ker a
k ena</w>
hi ê</w>
ha m
h ư</w>
en ang</w>
diba wa</w>
di ệt</w>
di butuhkan</w>
d ối</w>
c ôn</w>
ber warna</w>
b ậc</w>
b ò</w>
ad e
M A</w>
Ch ủ</w>
1 6
đ òi</w>
un tung</w>
ti ê</w>
t á</w>
t aran</w>
re ma
radi o</w>
perda maian</w>
penu hnya</w>
mengak ui</w>
meng gambarkan</w>
ins pirasi</w>
h ổ</w>
ga ngg
ch ép</w>
Tex as</w>
xo ay</w>
u paya</w>
tuy ết</w>
t ụ</w>
sela tan</w>
pembic araan</w>
na l</w>
khawa tir</w>
iPh one</w>
doku men</w>
ber tindak</w>
a f</w>
Twi tter</w>
T C</w>
S ing
CO 2</w>
C ười</w>
1 .000</w>
th ận</w>
ter ka
si k</w>
se penuhnya</w>
permin taan</w>
org an</w>
men jual</w>
lebi han</w>
keu angan</w>
ka ca</w>
is tri</w>
gra tis</w>
ge t</w>
at orium</w>
a m
H </w>
D en
ser u
s ổ</w>
ran cangan</w>
pening katan</w>
p ada
ku li
ketak utan</w>
in asi</w>
graf ik</w>
di pi
c ặp</w>
c ang
bar at</w>
S er
y ol</w>
tisi pasi</w>
si asi</w>
ri bu</w>
ri a</w>
neur on</w>
m ực</w>
li pat</w>
lan tai</w>
l ừa</w>
ide -
diber i</w>
Ch ính</w>
C or
B an
v en</w>
tribu si</w>
se pa
s ốt</w>
pre di
p .</w>
oo d</w>
ol ong</w>
ng ầm</w>
ma teri
la p</w>
kre atif</w>
ha man</w>
Tho mas</w>
B an</w>
10 .000</w>
pro se
prin si
penu lis</w>
menar uh</w>
la p
la k</w>
ko song</w>
ka i
h ỏa</w>
dol lar</w>
an ia</w>
ag ak</w>
A li
ượ u</w>
si ang</w>
pende katan</w>
pem be
p in</w>
no mor</w>
nhi ê</w>
mem buk
mba ga</w>
lindu ngan</w>
ki ri
ka um</w>
inf eksi</w>
ide- ide</w>
ge mpa</w>
ge lo
e ko
T hi
S mi
New s</w>
ô ng.</w>
u ru
si on
si k
rek tur</w>
nh é</w>
mp atkan</w>
meng inginkan</w>
kar an</w>
inves tasi</w>
en o
c ục</w>
bi n</w>
Se p
S áu</w>
Nh ững</w>
An der
we b
wawan cara</w>
vo i</w>
v ườn</w>
t ây</w>
r ẻ</w>
r ượu</w>
presen tasi</w>
o lah</w>
mp inan</w>
ka yu</w>
is u</w>
gabu ngkan</w>
g s</w>
Ju mat</w>
Ch ris
đị ch</w>
ú m</w>
w o
v or
ter luka</w>
teman -
ta wan</w>
su hu</w>
sta bi
sif ik</w>
se mbilan</w>
pemi lu</w>
men aw
j ikan</w>
gelo mbang</w>
e d</w>
d ge</w>
Ti dak</w>
Nh ưng</w>
NA SA</w>
B el
đ ập</w>
é n</w>
u tara</w>
tu lang</w>
tr ục</w>
ter kena</w>
rema ja</w>
me menu
ma hal</w>
ji wa</w>
jan jian</w>
j inkan</w>
h aki
f ini
er e
di be
b ổ</w>
an s</w>
Wor ld</w>
J en
Ủ y</w>
ồ i.</w>
x óa</w>
to tal</w>
tidak lah</w>
th ánh</w>
ro ti</w>
re siko</w>
per ni
pembang unan</w>
pelu ang</w>
nya man</w>
min asi</w>
me lanjutkan</w>
m ù</w>
li tan</w>
ki ra-
de kade</w>
ch ai</w>
cak apan</w>
bu ran</w>
bu nga</w>
ber cerita</w>
be g
ar -
Sco t
A DN
ũ i</w>
th ang</w>
s hi
reka man</w>
re aksi</w>
on -
ng ài</w>
mengenda likan</w>
memenu hi</w>
li p
ken alkan</w>
h ad
el d</w>
ar tikel</w>
apa bila</w>
ak tivitas</w>
2 8</w>
tuy ển</w>
ter asa</w>
su ngai</w>
se l-
penc arian</w>
na manya</w>
mpa ti</w>
menghi tung</w>
memasuk i</w>
kira- kira</w>
k ẹ
k í</w>
il kan</w>
i mba
fi r
diri an</w>
di ra
c ăng</w>
beri si</w>
ber tahun-tahun</w>
a hkan</w>
W in
Ho l
tunj ukan</w>
to ko
tho ải</w>
th ăng</w>
ta man</w>
sko p</w>
penga cara</w>
pende k</w>
nggi l</w>
memper tahankan</w>
me lar
ma han</w>
g ar</w>
akhi ri</w>
Pe ter</w>
Ja mes</w>
Ho ward</w>
Geor gia</w>
D ewan</w>
Chi ca
vi n</w>
uju ng</w>
tr ấn</w>
ter dengar</w>
ter a
ta ngg
s ứ</w>
meny imp
membi carakan</w>
mb ol</w>
lang it</w>
la ngkan</w>
keja hatan</w>
ju ju
h ải</w>
g ỗ</w>
fak tor</w>
any i</w>
ali ran</w>
a han</w>
E ri
ADN </w>
tr e</w>
ter batas</w>
te mber</w>
se kali
pe mu
pa nggung</w>
mer ancang</w>
menyer ang</w>
meng adakan</w>
le wat</w>
ko mpe
kesu litan</w>
h ẹn</w>
bersa ma-sama</w>
Ste ve</w>
Q </w>
Mus lim</w>
Ga za</w>
D o</w>
Ap ple</w>
Đ i
è m</w>
v a
tu du
ti êm</w>
th ợ</w>
str ate
peng en
ng ẫu</w>
n ấm</w>
meli batkan</w>
kela paran</w>
dar urat</w>
coco k</w>
ch ở</w>
cata tan</w>
c ari</w>
ber e
ber de
bah nya</w>
b o</w>
Sep tember</w>
S he
Ro bert</w>
K ar
Chica go</w>
Ange les</w>
19 5
waki li</w>
tradi sional</w>
sta tistik</w>
sel- sel</w>
per batasan</w>
pembun uhan</w>
ber untung</w>
S ou
Re publik</w>
Dr .</w>
2 9</w>
ti vasi</w>
ti ngan</w>
thu ê</w>
re s</w>
penyelidi kan</w>
ng ưỡng</w>
meny ala
mengu ngkapkan</w>
meng ukur</w>
men angkap</w>
me to
ge mbi
di men
an ali
D el
C en
Ander son</w>
z i
v ard</w>
thi ểu</w>
pema haman</w>
menye bar</w>
mene mpatkan</w>
man a-
mana- mana</w>
m ộ</w>
là nh</w>
lan da</w>
l f</w>
kema juan</w>
he li
di o</w>
ar anya</w>
Th ổ</w>
A B</w>
đ ùa</w>
w anya</w>
sepa tu</w>
say angnya</w>
per ada
peny ela
menang g
memas ang</w>
mem akan</w>
la h-
kh ẳng</w>
kemen angan</w>
hitu ngan</w>
c ỏ</w>
bu ôn</w>
b ạc</w>
Ka mis</w>
K an
H ọ</w>
H er
Ý </w>
v o</w>
su paya</w>
se tempat</w>
sa hkan</w>
pro tes</w>
p akan</w>
mp ilkan</w>
menaw arkan</w>
memper hatikan</w>
mb o
materi al</w>
kre a
fa si
eks p
d ứt</w>
d ọc</w>
c â</w>
bar an</w>
N ha</w>
Mar k</w>
H ãy</w>
C u
ti f
terka it</w>
s fer</w>
r ad
o x
mengun jungi</w>
me lu
ma af</w>
le bah</w>
ku alitas</w>
ke benar
in dari</w>
g ỡ</w>
fisi ka</w>
e la</w>
bersa maan</w>
ah -
a lah</w>
Pales tine</w>
y ai</w>
un d</w>
tr ầm</w>
tr o</w>
to i
t ặng</w>
sen y
sang ka</w>
ras anya</w>
pro fe
per cakapan</w>
ng o</w>
mes ki</w>
mengaj ukan</w>
le gal</w>
l lah</w>
keju t</w>
ju ng</w>
as li</w>
a ca</w>
Se landia</w>
M I
D ương</w>
Co l
y e
us kan</w>
u ari</w>
te g
struk si</w>
se um</w>
predi ksi</w>
per janjian</w>
or gan
menu run
li ti</w>
li e</w>
kuli ah</w>
ka ti</w>
dapat kah</w>
da hu
ber harga</w>
aw at</w>
I I</w>
Hi g
uni versitas</w>
th ấu</w>
sur ya</w>
sa te
ng ã</w>
mpu ran</w>
meng eri
men olong</w>
meme cahkan</w>
me lin
mas sa</w>
le o</w>
komplek s</w>
kho an</w>
ch án</w>
bang sa</w>
b ột</w>
an si</w>
W o
Th ủ</w>
O n
Li ber
Jan uari</w>
D is
C lin
5 .000</w>
đ àm</w>
v ú</w>
tudu han</w>
tan i</w>
t untu
r ồi.</w>
nh o</w>
n y</w>
lapi san</w>
lang i</w>
ke suk
ke pen
ke empat</w>
i san</w>
disku si</w>
dimen si</w>
di tan
di ku
Me sir</w>
Le e</w>
F re
De mok
9 9</w>
đ ĩa</w>
tr ốn</w>
ter s</w>
str es</w>
re volusi</w>
pad anya</w>
mer us
mer en
medi s</w>
mbu hkan</w>
lo g
l le</w>
ko t
in siden</w>
h ứa</w>
h er
h annya</w>
d ro
berta mbah</w>
b éo</w>
ang i</w>
S tan
Ne ger
K er
I ta
A c
ì nh.</w>
vak sin</w>
thu ế</w>
se ben
po tongan</w>
penye bab</w>
p ara
menghubu ngkan</w>
mema inkan</w>
mem bo
mele paskan</w>
lã ng</w>
ker en</w>
ke ing
diper kirakan</w>
b ối</w>
Tu be</w>
To m</w>
Neger i</w>
Mar et</w>
M or
E d
, 5</w>
ỗ n</w>
w e</w>
vor it</w>
v in
u d</w>
u a</w>
ti mbangkan</w>
th ọ</w>
temp at-
su r</w>
r ào</w>
m ùi</w>
m át</w>
lo k</w>
li de</w>
la tihan</w>
la b</w>
j ukan</w>
h kannya</w>
fa vorit</w>
d ày</w>
d kan</w>
ber fungsi</w>
a sikan</w>
U ganda</w>
Sa b
Gi áo</w>
v ắc</w>
us se
su h</w>
perada ban</w>
pasi r</w>
n ó.</w>
mengala hkan</w>
men ik
men any
ling karan</w>
liha tkan</w>
kenda li</w>
kar tu</w>
gi ấu</w>
e fisi
d ính</w>
can akan</w>
berju ang</w>
ber si
ban ji
ar inya</w>
ak tor</w>
S hi
P A</w>
Ng ười</w>
Clin ton</w>
2 .000</w>
ẻ o</w>
đ ón</w>
x ứng</w>
web si
ur o</w>
tr ắc</w>
topi k</w>
toi let</w>
tempat- tempat</w>
sa mbil</w>
ra ga</w>
pi s</w>
pe mili
meyak inkan</w>
meng har
li ền</w>
l ây</w>
kri tik</w>
ko pi</w>
ka bel</w>
ho ại</w>
h ỗn</w>
h ố</w>
gh ét</w>
ger ia</w>
da tang
bagai manapun</w>
ang gu
al nya</w>
You Tube</w>
V ỗ</w>
U TC</w>
Smi th</w>
Rich ard</w>
P aris</w>
M ek
ệ ng</w>
z im</w>
t óc</w>
seru pa</w>
sa l
ra ng
per tunjukan</w>
nh i</w>
meng ge
mener us</w>
me d</w>
mb unyi</w>
lu t</w>
lu ran</w>
lu cu</w>
la hkan</w>
khawa ti
k ênh</w>
gangg uan</w>
bo tol</w>
b ă</w>
al d</w>
T ony</w>
ớ n</w>
đ ạn</w>
ter kejut</w>
se bagaimana</w>
ro da</w>
ph ái</w>
per lindungan</w>
menyebu t</w>
mence tak</w>
mar k</w>
ko toran</w>
in ti</w>
hadi rin</w>
h ối</w>
g rup</w>
ber sih</w>
Vi ện</w>
ã ng</w>
tung gal</w>
ta t</w>
sa sa</w>
s h
ra an</w>
pe milik</w>
pe le
ngg ar</w>
mpu t</w>
me wakili</w>
mba tan</w>
mb ar</w>
mak na</w>
lay ak</w>
in -
identi tas</w>
gi s</w>
ch ừng</w>
bu atan</w>
ap likasi</w>
M ala
K ris
C an
ộ m</w>
tr ạm</w>
th ầy</w>
mpa ikan</w>
menjad ikan</w>
meng akhiri</w>
manusi aan</w>
manfa at</w>
ku mpulan</w>
kon tr
k kan</w>
diri kan</w>
di t</w>
ba li
an o</w>
aj at</w>
De partemen</w>
te d</w>
sate lit</w>
pon sel</w>
pelangg an</w>
nhu ận</w>
meni kah</w>
memper kirakan</w>
me kan
liling i</w>
le mbaga</w>
l ộn</w>
kepen tingan</w>
kebenar an</w>
kar ya
kai tan</w>
hidu pnya</w>
d -
ch ốt</w>
ch ấn</w>
US D</w>
U ni</w>
O k
A pa</w>
1 7
z inkan</w>
uk ah</w>
tr ôi</w>
tr ik</w>
terpi sah</w>
t úc</w>
popu ler</w>
pengh ar
on an</w>
n ơ</w>
mp an</w>
meng klaim</w>
li p</w>
kea jai
kar ir</w>
ik saan</w>
di miliki</w>
deng annya</w>
d âm</w>
c úm</w>
ber lari</w>
ar gu
aki batkan</w>
Y e
Sen in</w>
P or
N ov
M ari
J on
Har vard</w>
C ó</w>
A ma
​ </w>
x ong</w>
ti mur</w>
th ổ</w>
so k</w>
seben tar</w>
s ăn</w>
rak sasa</w>
n ấu</w>
n ê</w>
mi ệng</w>
meto de</w>
merus ak</w>
mengeri kan</w>
me ta
ma y
labor atorium</w>
ka p</w>
i ngan</w>
hancu r</w>
gi ận</w>
d inh</w>
c ẩn</w>
betu l</w>
ber basis</w>
b ùng</w>
angg aran</w>
T or
P an
D P</w>
A dam</w>
p us</w>
o logi</w>
menya mpaikan</w>
membaha s</w>
kon trol</w>
kh ẩn</w>
kh ía</w>
ik nya</w>
h ỏng</w>
di ser
cu aca</w>
c ỗ</w>
bu ah</w>
Sab tu</w>
S we
P la
Mek siko</w>
M T</w>
websi te</w>
tr asi</w>
ter diri</w>
s to
ras akan</w>
meme gang</w>
lo la</w>
l ạm</w>
kh uyên</w>
kelu arkan</w>
ke manusiaan</w>
ke gaga
bu t</w>
bo do
be laka
b ô</w>
b ara</w>
CE O</w>
And re
A ir
ướ t</w>
u tkan</w>
u ji</w>
t z
so al</w>
seni man</w>
pu lau</w>
penu mpang</w>
ng u</w>
mi êu</w>
lak san
l er
kh ô</w>
karak ter</w>
j ari</w>
h ương</w>
h ara</w>
g ói</w>
fes or</w>
c in</w>
c ah</w>
bu ýt</w>
ber laku</w>
an aknya</w>
al -
aga m</w>
Mar tin</w>
ớ p</w>
un ik</w>
tu b</w>
tr ơ</w>
ti c</w>
ter bunuh</w>
t ĩnh</w>
t ch
siny ur</w>
qu e</w>
pi da
perha tikan</w>
pe me
nh ũng</w>
mer o
meny aksikan</w>
men dirikan</w>
melin tasi</w>
ko ta-
khi ếp</w>
ke liha
cá t</w>
aga man</w>
a z
W ar
O li
M el
– </w>
đ ếm</w>
đ âm</w>
ya p</w>
wa san</w>
ta ngga</w>
t men</w>
s lide</w>
s ho
pu isi</w>
prinsi p</w>
p apan</w>
on s</w>
ng k
mpe l</w>
kh óc</w>
keajai ban</w>
ka han</w>
k g</w>
go lf</w>
g ấu</w>
e pi
di rektur</w>
S .</w>
Qu e
N gh
L an
D an</w>
C ập</w>
B ảo</w>
A u
A la
z ona</w>
war tawan</w>
v inh</w>
tri ết</w>
ter tinggi</w>
sa luran</w>
men ca
mem inda
m ạo</w>
h ầm</w>
gh ép</w>
ew </w>
dita ngkap</w>
der ajat</w>
da ngkan</w>
bab i</w>
b ê</w>
O s
G ran
F er
ơ m</w>
đ ắn</w>
Đ iều</w>
vu ông</w>
u pa
thu a</w>
t óm</w>
sega lanya</w>
se baga
samp ing</w>
perda gangan</w>
pen ur
pelangg aran</w>
nh ắm</w>
ne ga
mu l
mbu ng</w>
kota- kota</w>
kon fir
gi ày</w>
gene tik</w>
gaw ai</w>
e mber</w>
di terima</w>
buk annya</w>
ban on</w>
ala sannya</w>
a b
Scot land</w>
M ing
ợ n</w>
x ưa</w>
w ood</w>
thi ệp</w>
ta nggung</w>
t ơ</w>
s co</w>
per intah</w>
peng obatan</w>
pe mas
pe gawai</w>
par tisipasi</w>
o t
mende kati</w>
menany akan</w>
mem eri
m ươi</w>
lanju tan</w>
ki ng</w>
kegaga lan</w>
in de
haki m</w>
fasi litas</w>
fak tanya</w>
f eno
c ụ
T ha
P ri
H ợp</w>
G il
Ag us
8 00</w>
ướ p</w>
u mat</w>
tunj uk</w>
to ber</w>
th er</w>
tar nya</w>
su per
strate gi</w>
sen dirian</w>
se te
ra l</w>
peri o
penur unan</w>
pen jela
pak sa</w>
pa jak</w>
mengan dung</w>
menga mati</w>
m inya</w>
li ar</w>
kh ấu</w>
jar ang</w>
elek tron
du y
di kiri
c ốt</w>
ber interaksi</w>
S al
Nh à</w>
C ực</w>
C A
200 1</w>
tr ươ</w>
th ở</w>
th ỉnh</w>
ser v
s ari</w>
ra s</w>
qu à</w>
pertanya annya</w>
per s</w>
pa l
nan ti</w>
mengaj ak</w>
mele takkan</w>
l ẻ</w>
kot landia</w>
komi tmen</w>
ko de</w>
keing inan</w>
ke inda
jen dela</w>
in sinyur</w>
in er</w>
ga mi</w>
f er
ek seku
dise babkan</w>
d ải</w>
ber g</w>
banji r</w>
ba gi
an kah</w>
S kotlandia</w>
G ol
C ro
đ ắt</w>
tiế c</w>
t ươ</w>
se hari</w>
sa yang</w>
pin tar</w>
pi nggi
perni kahan</w>
ngg u
mer a
menang ani</w>
m óc</w>
lih kan</w>
le laki</w>
la de
l ăn</w>
g ori
g in
feno men
f lu</w>
f e</w>
di sana</w>
ch ìm</w>
ber salah</w>
V ương</w>
Tur ki</w>
K inh</w>
Ita lia</w>
đâ y.</w>
đ ậu</w>
z za</w>
w i</w>
u se</w>
tr ứng</w>
th ưa</w>
ter sisa</w>
si apapun</w>
ran cang</w>
qu ê</w>
nga ja</w>
ng ựa</w>
mun dur</w>
meng gabungkan</w>
men t</w>
memak sa</w>
mbu lkan</w>
ma ja
ke le
en tah</w>
di ke
di k</w>
be li
ak ar</w>
ag en</w>
Sa hara</w>
Ok tober</w>
Nh ĩ</w>
Le banon</w>
Hig gs</w>
B en</w>
0 ,000</w>
ạ i.</w>
umu mnya</w>
tr ộn</w>
th ùng</w>
th áp</w>
ter je
teman- teman</w>
sua ikan</w>
str asi</w>
sebaga inya</w>
seba iknya</w>
samp aikan</w>
pen ce
pem ada
par lemen</w>
ng ũ</w>
nega tif</w>
n ữ
menurun kan</w>
ko lek
j anya</w>
ir ah</w>
i ma
gan ti</w>
d an
cụ m</w>
c ất</w>
c apkan</w>
betu lan</w>
ba wa</w>
b ông</w>
Vi c
Per ang</w>
P res
Ke vin</w>
In i</w>
B ảy</w>
A d
u ro
u jian</w>
teta ngga</w>
ter buat</w>
tek si</w>
stu di</w>
sta siun</w>
perma sa
mengen ali</w>
meng ingatkan</w>
mena mbah</w>
keku asaan</w>
ja mur</w>
h ằng</w>
duy ệt</w>
ber buat</w>
belaj aran</w>
at mo
Y un
Wa les</w>
T an
R ập</w>
Ni geria</w>
MI T</w>
Fran ci
Ch e
C ơ</w>
Bi g</w>
6 5</w>
3 2</w>
ti fi
ta sikan</w>
si on</w>
r -
peng er
pad at</w>
pa tnya</w>
n an</w>
menik mati</w>
meng gambar</w>
mela tih</w>
m m</w>
lu b</w>
krea tivitas</w>
gu ru
es s</w>
dahu lu</w>
d ị</w>
beri tahu</w>
ber komunikasi</w>
b ụi</w>
argu men</w>
Ming gu</w>
Me i</w>
La tin</w>
H on
Dar win</w>
D on
At lan
y o</w>
vi lle</w>
tur e</w>
tho ảng</w>
th ạch</w>
ter bentuk</w>
te ngg
si han</w>
sela manya</w>
sehar i-hari</w>
se san</w>
s àn</w>
ra y</w>
ra c
penja ga</w>
pem belajaran</w>
ngka pan</w>
ng ập</w>
mp ar</w>
mend ar
me luk
me lo
maja lah</w>
l ật</w>
keinda han</w>
jur na
jan ji</w>
hadi r</w>
ek str
ch úa</w>
car bon</w>
ber ge
bab ak</w>
b ơi</w>
V al
Swe dia</w>
S W</w>
M y
L H
Franci sco</w>
A m
9 5</w>
3 1</w>
- jalan</w>
ỗ ng</w>
đ ợt</w>
z e
thu ần</w>
tah kan</w>
si hkan</w>
sen sor</w>
sal ju</w>
r ưỡi</w>
r annya</w>
penghar gaan</w>
pen ju
mu ô</w>
mengga nggu</w>
meng akibatkan</w>
may oritas</w>
mas ukkan</w>
lo t</w>
kon struksi</w>
ke si
jalan -jalan</w>
fe et</w>
f i</w>
c ột</w>
c ốc</w>
Sela sa</w>
H al
C as
A h
3 .000</w>
ù y</w>
vu a</w>
tr ượt</w>
tan a</w>
ta b
t áo</w>
se mber</w>
ri ngan</w>
r ập</w>
per so
or ang
na f
min an</w>
meng angkat</w>
ma lah</w>
ke pemi
h raga</w>
d ò</w>
berku mpul</w>
ba tnya</w>
arsi tek
ad ap
S tre
Nov ember</w>
C D</w>
B ình</w>
B or
ấ y.</w>
Đi ển</w>
w anda</w>
tradi si</w>
th ôn</w>
ter baru</w>
ta bung</w>
se puluh</w>
sa pi</w>
sa -
poli sian</w>
pe muda</w>
ob jek</w>
nh ạy</w>
mo tor</w>
menu run</w>
menga lir</w>
membuk tikan</w>
me luncurkan</w>
m ũi</w>
le mah</w>
k ín</w>
in tinya</w>
i kannya</w>
hu ru
ger akkan</w>
gamb ar-
g ương</w>
elektron ik</w>
di jad
bu ta</w>
ali s</w>
ag no
Y a</w>
S pan
Ra bu</w>
R wanda</w>
Ka mi</w>
H à</w>
Demok rat</w>
Ca in</w>
A .</w>
3 7</w>
x ạ</w>
u man</w>
u jar</w>
ti sme</w>
th ô</w>
t arkan</w>
re n</w>
pu tri</w>
pe kan</w>
mer ang
menyuk ainya</w>
menyimp an</w>
mengen al</w>
membu ang</w>
ki tnya</w>
keku rangan</w>
ke betulan</w>
i b
gambar- gambar</w>
g on</w>
e misi</w>
da si</w>
ber ani</w>
O x
G ro
De sember</w>
Agus tus</w>
1 00.000</w>
đ áy</w>
v ậ
ter u
tang annya</w>
ta b</w>
r â</w>
per gian</w>
n út</w>
mengu bahnya</w>
menangg api</w>
men dalam</w>
memo tong</w>
mela inkan</w>
la tar</w>
kun o</w>
konfir masi</w>
komp on
had apan</w>
ger e
ga irah</w>
f u
en cana</w>
d àn</w>
be sarnya</w>
b ếp</w>
adi l</w>
a mi</w>
U n
Lu ar</w>
Fe bru
E s
E D</w>
Bro wn</w>
Ama zon</w>
ạ n.</w>
wak tunya</w>
usa lem</w>
tu m</w>
t z</w>
si t</w>
se dangkan</w>
s ữa</w>
s ạn</w>
r ồ</w>
por tasi</w>
penge mudi</w>
peng usaha</w>
nữ a.</w>
ni la
nh ịp</w>
meng in
menang is</w>
ki ên</w>
ki sa
ka l
ka jian</w>
ka ca
k èm</w>
g us</w>
ditu lis</w>
ci an</w>
bu ang</w>
bodo h</w>
ban d</w>
b ụng</w>
b we</w>
an ti
an mu</w>
Z imba
Ti m</w>
Mc Cain</w>
M is
L ạp</w>
Ju li</w>
F in
ù m</w>
ê n.</w>
wa ji
tr uyện</w>
to long</w>
seny um</w>
rap at</w>
penu hi</w>
pe layanan</w>
pal su</w>
ori gami</w>
n ợ</w>
mpi ade</w>
mereka m</w>
menan tang</w>
men untu
lo s</w>
le pas</w>
ka lah</w>
imp ian</w>
hu di</w>
f f</w>
de presi</w>
c ướp</w>
beriku t</w>
ber kaitan</w>
beli au</w>
ata upun</w>
as kan</w>
Zimba bwe</w>
Yun ani</w>
W ol
T ổ</w>
T ri
T al
Sing ap
Na tional</w>
Mi ke</w>
Inter nasional</w>
I l
Febru ari</w>
20 12</w>
v u</w>
tr ần</w>
ting nya</w>
tar get</w>
t ma</w>
s un
re la
ra mah</w>
qu ận</w>
pulu han</w>
pu r</w>
ola hraga</w>
ng on</w>
mpu h</w>
mo men</w>
mo dal</w>
meru bah</w>
menghi lang</w>
menge mudi</w>
menge mba
menge jar</w>
menen tang</w>
meman dang</w>
mela nggar</w>
lu lus</w>
li ều</w>
lan nya</w>
la kan</w>
kilo meter</w>
kar en
h ồn</w>
gra si</w>
fi eld</w>
di tahan</w>
di rancang</w>
can tik</w>
a la</w>
P M</w>
J uni</w>
C ác</w>
B I</w>
20 11</w>
tuk nya</w>
tu ân</w>
ti ệc</w>
suk ai</w>
s aksi</w>
profe sional</w>
per ki
penju alan</w>
pa ham</w>
pa h
nya wa</w>
ng ón</w>
menghi langkan</w>
memba wanya</w>
ko p
gi án</w>
gembi ra</w>
fenomen a</w>
di pe
di da
ci en
chuy ê</w>
bis akah</w>
bi arkan</w>
beg ini</w>
bandi ng</w>
ba ter
arsitek tur</w>
an der
W hi
V en
Tr iều</w>
H y</w>
3 3</w>
200 2</w>
1 000</w>
Ô ng</w>
x i</w>
vi sual</w>
tu han</w>
ti gasi</w>
th ượng</w>
terle tak</w>
tar ikan</w>
se umur</w>
r untu
perse gi</w>
per sis</w>
pen ya
pela tihan</w>
pay udara</w>
par uh</w>
mo tivasi</w>
men datang</w>
mb ri
m ãn</w>
le vel</w>
l ượt</w>
kon teks</w>
kompe tisi</w>
kh át</w>
kepemi mpinan</w>
kemba ngkan</w>
ke ba
ka p
gra fi
gi ường</w>
g ara</w>
doku men
di an
ca lon</w>
bo h
berpu tar</w>
ber lebihan</w>
Ya hudi</w>
Span yol</w>
Sa u
S har
M in
Jo e</w>
I r
H il
E l
A ku</w>
ằ n</w>
y n
un it</w>
tuli san</w>
thu ẫn</w>
th e
ter an</w>
tari an</w>
ta snya</w>
so kan</w>
s t
ru mput</w>
r ăng</w>
per ko
oba t-
meni mbulkan</w>
mengh indari</w>
menc in
mena han</w>
memeri ksa</w>
meman fa
mb uny
m ẩu</w>
ken aikan</w>
karya wan</w>
k ada
j er
i legal</w>
gu a</w>
ga ji</w>
g ọn</w>
f re
en s</w>
du m</w>
d ney</w>
c ả
ber i</w>
ber alih</w>
be k</w>
bay ar</w>
V ene
T ran
T en
T as
H en
Ga tes</w>
C le
C e
4 7</w>
ừ u</w>
ớ i.</w>
ế .</w>
ya ngan</w>
w s</w>
w ell</w>
tu lis</w>
tan yakan</w>
siny al</w>
san kan</w>
s ha
ph ì</w>
perio de</w>
per ka
pen dukung</w>
menyu sun</w>
menyebu tkan</w>
mengh adi
là n</w>
kun ing</w>
is nya</w>
i h</w>
hasi lan</w>
ha ti-
ge ja
asa i</w>
ara tan</w>
al gori
Vi r
T ự</w>
Ngh ị</w>
M er
Ale x
ễ u</w>
w akan</w>
uru tan</w>
up si</w>
tr ăng</w>
to a</w>
th er
t ỏa</w>
sela matan</w>
sebu tkan</w>
se tara</w>
se li
s pa
s ore</w>
ra mbut</w>
pro fesor</w>
ph e</w>
pelaj ar</w>
meny ar
men dasar</w>
memper kenalkan</w>
jalan kan</w>
hi tung</w>
gu la</w>
gi gi</w>
ge o
e y</w>
ditu tup</w>
d án</w>
d ak
c ong</w>
b ong</w>
b ole
ar kannya</w>
Z a
S t.</w>
N ếu</w>
F A</w>
Bos ton</w>
2 5
đ ớn</w>
ú y</w>
vậ y.</w>
te ng
t ông</w>
se ngaja</w>
sa ha
s araf</w>
r ủi</w>
qu i</w>
pember on
ni ng</w>
mene ta
mendar at</w>
m ệnh</w>
l ò</w>
ko labor
huru f</w>
h ưu</w>
h ê</w>
go l</w>
e uro</w>
di ngkan</w>
di antara</w>
de fini
d ã</w>
d ra</w>
cu ma</w>
ber uang</w>
ber fokus</w>
ap ar
a e
V o
S M</w>
Pe ng
M ah
L ou
C ảm</w>
4 8</w>
z u
wa an</w>
tuntu tan</w>
tr al</w>
ti tu
tangg apan</w>
siste n</w>
se minggu</w>
s tan</w>
ri set</w>
pida to</w>
perso alan</w>
peng awa
pah lawan</w>
pa l</w>
n on-
mene ngah</w>
menak utkan</w>
memper lihatkan</w>
mem in
l ưng</w>
kon tribusi</w>
di adakan</w>
d ãy</w>
c apai</w>
ani el</w>
a mbi
a mat</w>
T ai
Sy ria</w>
S tar
L ar
H ải</w>
G DP</w>
C al
A l-
1 /
ệ ch</w>
í m</w>
waki lan</w>
ver si
v ari
tahun nya</w>
serv atif</w>
sekali gus</w>
s ak
ri t</w>
per hitungan</w>
pen tingnya</w>
pemada m</w>
no l</w>
n ét</w>
meng undang</w>
mene kan</w>
memper timbangkan</w>
memas ak</w>
l ỏng</w>
l ara
konsu msi</w>
kompon en</w>
jum lahnya</w>
jela skan</w>
in ci</w>
ib unya</w>
gere ja</w>
eks presi</w>
do m</w>
did at</w>
di la
di duga</w>
de wan</w>
d ad</w>
ber partisipasi</w>
be pergian</w>
b ọ</w>
S tu
H àn</w>
E x
B ag
đ ượ
đ eo</w>
vin si</w>
ver sal</w>
v al</w>
uku -
tr ộm</w>
tr eo</w>
th ói</w>
pi ra
pend eri
pe tunjuk</w>
pe tani</w>
op ti
o pi
men je
memanfa atkan</w>
mema tikan</w>
m ad
le ngan</w>
ku da</w>
kesuk sesan</w>
ke bang
kan didat</w>
je jak</w>
in su
heli kop
foto -
es ter</w>
dibandi ng</w>
d ược</w>
berju dul</w>
ba ngga</w>
Y ah</w>
Mar y</w>
Car o
Bu l
vo lu
th ổi</w>
teror is</w>
tern ak</w>
t ùy</w>
sedi kitnya</w>
sa y</w>
pe sta</w>
obat- obatan</w>
nh ãn</w>
nghi ện</w>
mu s
mener apkan</w>
ma lia</w>
m ò</w>
m ì</w>
lan da
l ão</w>
l â</w>
keber adaan</w>
ke adilan</w>
h ơn.</w>
eks tri
e mas</w>
de s</w>
chi ê</w>
ch ẩn</w>
ben ci</w>
ara hkan</w>
ar us</w>
T angan</w>
Stre et</w>
Ste ph
S cien
Co lu
Char les</w>
C lar
Be sar</w>
0 ,
Đ ài</w>
á c.</w>
yar at</w>
yak ni</w>
y ek</w>
w or
untu ngnya</w>
tuju i</w>
tr uk</w>
t t
se iri
seiri ng</w>
s anya</w>
ru ồi</w>
ra ngnya</w>
perki raan</w>
per de
p -
mi te</w>
mere k</w>
menc ata
memper ca
mela y
l unya</w>
ke yak
juju r</w>
jari ng</w>
i ya</w>
di minta</w>
di keluarkan</w>
cer a
c eritakan</w>
bi r</w>
bah an-
b ồi</w>
angka tan</w>
Uni ted</w>
Ti ên</w>
Ri o</w>
Mar s</w>
Ke se
C N
4 2</w>
ế t.</w>
yak ini</w>
v ay</w>
uk nya</w>
to s</w>
ter ke
ta ta</w>
t ươi</w>
sta tus</w>
si r
sa u
qu ái</w>
pu la</w>
pi lih</w>
ph u</w>
pe l</w>
nh ỉ</w>
mu seum</w>
meny ing
ma g
m ẻ</w>
m ara
l ori
kor upsi</w>
ins titu
ima j
helikop ter</w>
g n</w>
foto- foto</w>
di pakai</w>
di jual</w>
c ưỡng</w>
c s</w>
ber operasi</w>
ber lanjut</w>
bater ai</w>
bar ang-
baik -
baik- baik</w>
b uku-
ae da</w>
Sou th</w>
Q aeda</w>
M ad
Fran k</w>
3 .
x óm</w>
w ay</w>
vi a</w>
ter ja
ter bakar</w>
t ari</w>
simp an
simpan se</w>
penge mbangan</w>
pen cu
pe mak
ng ừa</w>
ng res</w>
n ada</w>
mele dak</w>
mbu s</w>
le ngg
le lu
keti ng
kad ar</w>
ka teg
jurna lis</w>
inves tigasi</w>
ho ãn</w>
g à</w>
di penuhi</w>
d anya</w>
buku- buku</w>
ber gantung</w>
ber an
ba lapan</w>
b unyi</w>
a mbu
Ho àng</w>
H awa
H an
ẫ m</w>
đ ế</w>
tu n</w>
to à</w>
tari o</w>
t ị</w>
sk or</w>
se ter
sa ins</w>
qu ãng</w>
ph â</w>
perko taan</w>
per la
penderi taan</w>
n ướng</w>
mene mui</w>
ma lu</w>
la -
l õi</w>
kon tro
kh ôn</w>
ka wasan</w>
k ịp</w>
hubu ngannya</w>
ge lar</w>
c eri
as t</w>
Par k</w>
On tario</w>
Oli mpiade</w>
L ak
I A</w>
Co un
Ci ty</w>
A n</w>
ẫ y</w>
z i</w>
wak il</w>
wa lkan</w>
ti kannya</w>
ti fikasi</w>
th áo</w>
ter lebih</w>
ro ket</w>
pu tus</w>
pi ta</w>
ph ổi</w>
pembu atan</w>
on i
ng ọt</w>
mpa han</w>
mer i
mer ai
menggan ti</w>
meminda hkan</w>
member sihkan</w>
mem produksi</w>
me wuju
la lat</w>
l ân</w>
kri tis</w>
kela hi
ke pi
ke cerda
k li
ja h
isti lah</w>
insu lin</w>
h ang</w>
f lek
de ka
datang ani</w>
da mai</w>
d nya</w>
ch ục</w>
ber tan
barang- barang</w>
b ạn.</w>
b ro
ak s</w>
S in
K ur
J i
E D
B ay</w>
B al
199 0</w>
z at</w>
ya -
th al</w>
tertu tup</w>
ten ang</w>
suk ar
spe sifik</w>
seter usnya</w>
s ki</w>
r ãi</w>
per s
pan tas</w>
mpi l</w>
men ari</w>
man aj
lo w</w>
lo a</w>
li mbah</w>
laksan akan</w>
kan lah</w>
ka wan</w>
ka -
in e
i lah</w>
dii kuti</w>
da han</w>
bu m</w>
ber sekolah</w>
ba ju</w>
asu msi</w>
arsi tek</w>
a cak</w>
S MA</w>
N go
M al
G ore</w>
G hana</w>
Del hi</w>
tu hkan</w>
terse mbunyi</w>
temb akan</w>
ta mbang</w>
t ân</w>
s wa
s ak</w>
pub li
perde batan</w>
per si
pe mung
pemung utan</w>
pe mo
pe luncu
pe desa
pedesa an</w>
par kir</w>
nar ko
n êu</w>
mu suh</w>
meni ru</w>
memba c
m âu</w>
m ak</w>
m ad</w>
l kannya</w>
ko mb
keyak inan</w>
kapa sitas</w>
i i</w>
grafi s</w>
di bawah</w>
c ụt</w>
ber ukuran</w>
be da</w>
bak at</w>
bab nya</w>
b ớt</w>
b ận</w>
ah u</w>
Vic tor
Thi ên</w>
Te luk</w>
S un
L a</w>
John son</w>
Gre en
Ban k</w>
— </w>
đ ới</w>
usa t</w>
tek nis</w>
te mui</w>
t ò</w>
su lkan</w>
s ốc</w>
re l</w>
qu ét</w>
po tong</w>
permasa lahan</w>
penye baran</w>
pen siun</w>
pen den</w>
ng kannya</w>
menyu su
menyar ankan</w>
meny aki
mencata t</w>
mena bung</w>
men atap</w>
memban dingkan</w>
me dan</w>
m ình.</w>
lori da</w>
lap top</w>
lan -
laj u</w>
l ông</w>
kh ỉ</w>
ke bo
hi l</w>
he i
h òn</w>
g ã</w>
efisi en</w>
du s</w>
du duk
dikiri m</w>
di cu
ca cat</w>
atmo sfer</w>
ala t-
P usat</w>
K im</w>
For d</w>
F ar
Eri c</w>
C ra
Be i
A ri
A ngka
A ir</w>
1 20</w>
z z</w>
war e</w>
w er</w>
untu ngkan</w>
tr on</w>
ter api</w>
se l
re t
pu s
pri l</w>
organ ik</w>
ng- kadang</w>
mengh or
mene mbak</w>
mene liti</w>
ma inkan</w>
kon sen
keluar ganya</w>
kecerda san</w>
kada ng-kadang</w>
in tu
hi m</w>
g ak</w>
dibe sarkan</w>
ca mpur</w>
c ấy</w>
b ơ</w>
b y
ato m</w>
at ar</w>
algori tma</w>
ak i</w>
U S</w>
Sy dney</w>
La ut</w>
J im</w>
F lorida</w>
D an
Be landa</w>
A pril</w>
5 5</w>
4 0
wa bah</w>
tur unan</w>
tele skop</w>
sek tor</w>
s tis</w>
ruma hnya</w>
res toran</w>
nga han</w>
menyen tuh</w>
meng harapkan</w>
mem ori</w>
ma inan</w>
lo gam</w>
li sme</w>
l ợn</w>
l ận</w>
l âm</w>
kri min
kak ek</w>
di ciptakan</w>
da o</w>
ce dera</w>
ber senjata</w>
belaka ngan</w>
bany aknya</w>
ban kan</w>
ba tu
ak tivi
Po li
No bel</w>
M R
Ja ck
Fi ji</w>
A ris
A R
3 6</w>
2 50</w>
đượ c.</w>
í u</w>
ti pe</w>
tan a
tah ukah</w>
sur ve
sta f</w>
s úc</w>
ra .</w>
r ô</w>
per baikan</w>
or g</w>
n ề</w>
meng han
menan am</w>
men co
memi cu</w>
mema nggil</w>
m arah</w>
luk isan</w>
lidi ki</w>
ker ja
in ten
in kannya</w>
h àm</w>
gen om</w>
didi k</w>
d ẻo</w>
d ám</w>
ch o
ca uan</w>
ber pendapat</w>
be kas</w>
ar akan</w>
ap nya</w>
anali sis</w>
ak a</w>
V an
Su dan</w>
Ro mania</w>
O t
O ly
M ur
Kese hatan</w>
E ver
Con ne
Alex and
Al z
. com</w>
ượ n</w>
đi .</w>
x inh</w>
uni versal</w>
to mbol</w>
t ắm</w>
sy ukur</w>
str ess</w>
ser a
sejen is</w>
se waktu</w>
saha bat</w>
s te
s pon
s or
ri tual</w>
radi kal</w>
r akan</w>
pus tak
phi ền</w>
ph un</w>
peng ge
oksi gen</w>
nh ở</w>
ng ắm</w>
mu m</w>
merai h</w>
mena mpilkan</w>
man nya</w>
m ari
log y</w>
lin a</w>
kh ơi</w>
kh úc</w>
kh uyết</w>
kebu n</w>
ke selamatan</w>
ke baikan</w>
ja hi</w>
inf ra
h uy
d ri
cu ộn</w>
co kla
b ạch</w>
b rak</w>
Vene zu
Pe mer
P as
Kris ten</w>
B ang</w>
B P</w>
3 4</w>
ỉ a</w>
ườ i.</w>
đ ền</w>
w enang</w>
v ensi</w>
u tuh</w>
tu mp
tr inya</w>
tr et</w>
ter ang</w>
si gni
s ke
re ali
ra u</w>
quy ê</w>
pro mo
pi lot</w>
pengu in</w>
peman dangan</w>
pela tih</w>
n ở</w>
muri d-
menuntu t</w>
menu mbuhkan</w>
menghar gai</w>
m èo</w>
la h
l ường</w>
ku l
ko mer
khi êu</w>
k y</w>
hu a</w>
hi ếp</w>
hi po
hei mer</w>
g ánh</w>
fin al</w>
f ikan</w>
eko sistem</w>
diter bitkan</w>
da- benda</w>
ch ester</w>
cera mah</w>
bole hkan</w>
ber bentuk</w>
ben da-benda</w>
baik nya</w>
b s</w>
alat- alat</w>
a ter</w>
a mkan</w>
Willi am
Venezu ela</w>
S T</w>
J </w>
: 00</w>
ố m</w>
ề u.</w>
đ u</w>
ã nh</w>
ya sa</w>
v es</w>
usse in</w>
tu ệ</w>
te sis</w>
t úy</w>
signi fikan</w>
si kap</w>
sa atnya</w>
s kannya</w>
ra ya</w>
pra ju
poli o</w>
peny u
pembi cara</w>
o posisi</w>
nà o.</w>
naf as</w>
menye barkan</w>
menge lilingi</w>
mene le
men ju
memba gikan</w>
lar ang</w>
l ặn</w>
l ưỡng</w>
konsu men</w>
kon ten</w>
komplek sitas</w>
ka tak
habi s</w>
h uyết</w>
h ak-
ga skan</w>
f an
en tro
e g
du gaan</w>
di tunjukkan</w>
di ja
ca l</w>
c ắm</w>
c ke
be lan
angka ian</w>
al bum</w>
aki batnya</w>
O l
Nh ân</w>
Ngo ại</w>
M ĩ</w>
L and
Ir landia</w>
Gre en</w>
G la
Colu mbia</w>
Bo b</w>
B G</w>
Andre w</w>
Amer i
Alz heimer</w>
v ịnh</w>
v ây</w>
th ẻ</w>
ter ta
ter na
ter biasa</w>
t kannya</w>
stabi l</w>
seke liling</w>
ph ô</w>
peng ha
nà ng</w>
mu lut</w>
menyer ahkan</w>
mengu ji</w>
mener bitkan</w>
mencin tai</w>
melay ani</w>
man di</w>
l ướt</w>
l ôi</w>
kh ói</w>
kese na
ker angka</w>
ker agaman</w>
kebi asaan</w>
hã m</w>
har inya</w>
h y
gra vi
geja la</w>
emo sional</w>
do a</w>
dijad walkan</w>
di percaya</w>
di jalankan</w>
da hkan</w>
d ắt</w>
ch ăng</w>
c ậy</w>
buk ota</w>
bu l</w>
blo k</w>
ber pindah</w>
ata snya</w>
T O</w>
Sen ator</w>
P ran
Ne t
Ne ander
Le go</w>
K hoa</w>
In stitu
H ussein</w>
G lo
E U</w>
B lo
B ara
4 4</w>
1 00
1 -
đo an</w>
đ ực</w>
ù n</w>
v ải</w>
ta ngi</w>
si apkan</w>
sa ud
s ka</w>
runtu h</w>
praju rit</w>
po s</w>
per mula
per ahu</w>
penger tian</w>
peman asan</w>
ng ke
n át</w>
mili tan</w>
menu tu
mengi si</w>
meng arah</w>
memu tar</w>
ke da
ik sa</w>
ho tel</w>
h ẹp</w>
gun ungan</w>
gabu ngan</w>
ga -
di hasilkan</w>
d ọn</w>
ch e
ca s
ca mera</w>
ca c
c ối</w>
c ạn</w>
ber ki
ba wa
b á</w>
as pe
X in</w>
W H
S MS</w>
S I
Ng ân</w>
He a
Hawa ii</w>
H ỏa</w>
D ou
Ca mbri
B ell</w>
A my</w>
v ĩnh</w>
u c
ting katan</w>
terse bar</w>
ter senyum</w>
ta il</w>
t ti</w>
sa ham</w>
r anh</w>
por ter</w>
po ster</w>
pi ano</w>
perta manya</w>
perse psi</w>
pengawa san</w>
neg o
na tional</w>
mpa ui</w>
menye suaikan</w>
mengi jinkan</w>
menghubu ngi</w>
manaj er</w>
lo mbia</w>
l m</w>
ku rangnya</w>
ko gni
kla sik</w>
kin er
ker janya</w>
ke te
hen tikan</w>
he mat</w>
de mon
cu s</w>
c ti
bio logis</w>
ber wenang</w>
ber kurang</w>
ben dera</w>
be dah</w>
a jai
Z </w>
S ĩ</w>
Ne gara</w>
Ke men
K ing</w>
Jen deral</w>
J ef
Hen ry</w>
B ud
Aris to
5 0.000</w>
Ô i</w>
w ari
tu hnya</w>
tro it</w>
tr aan</w>
teror isme</w>
tera tur</w>
ter ian</w>
ta lkan</w>
ta .</w>
se pu
ru san</w>
ri ng</w>
prak tis</w>
per tahanan</w>
pembang kit</w>
pe laku</w>
pad ang</w>
ngh ịch</w>
ng gam</w>
n on</w>
mu sta
mu la</w>
mengi ra</w>
menghadi ri</w>
menge lola</w>
menele pon</w>
mekan isme</w>
ma la
l ươ</w>
kontr ak</w>
kh ông.</w>
je mbatan</w>
hati- hati</w>
h onan</w>
h dad</w>
d áng</w>
cokla t</w>
c ởi</w>
c ưới</w>
c óc</w>
bur g</w>
beru pa</w>
begi tulah</w>
Willi am</w>
WH O</w>
W oo
Sco tt</w>
S ar
Ro s
L or
Jo s
Ha mas</w>
F al
De troit</w>
Cambri dge</w>
Bara ck</w>
Bag hdad</w>
3 D</w>
2 -
đ ồi</w>
war t</w>
w ad
vi l</w>
toko h</w>
ti annya</w>
th ám</w>
ter pen
tah unan</w>
sua mi</w>
si kannya</w>
ser buk</w>
sar -
perse tujuan</w>
per lukan</w>
pemb uk
pem ro
pe s
oto matis</w>
musta hil</w>
mu h</w>
melar ikan</w>
ma hkan</w>
m ưu</w>
lu m</w>
l ấp</w>
ku muh</w>
kon stitu
ko lon
ke tua</w>
kateg ori</w>
jan tan</w>
in sen
imaj inasi</w>
i bukota</w>
han -
gen e</w>
er ra</w>
cả .</w>
ch ước</w>
ch ăn</w>
ce tak</w>
bo san</w>
b ó</w>
at t</w>
Th ứ</w>
Ro ss</w>
L ang
Ken ne
Jack son</w>
G or
E l</w>
D aniel</w>
C hu
Bri an</w>
3 8</w>
+ </w>
ú ng.</w>
wo ngan</w>
w is
un nya</w>
tr ưa</w>
th âm</w>
terpi lih</w>
te ling
t ố
str u</w>
sir ku
ser angkaian</w>
satu pun</w>
sa han</w>
s ắt</w>
pu tra</w>
pu t</w>
proy ek
per bu
pe menang</w>
pa tah</w>
nh ặt</w>
narko ba</w>
n ộp</w>
mer awat</w>
menyi mpulkan</w>
meluk ai</w>
m ờ</w>
m s</w>
ly wood</w>
lan a</w>
kẹ o</w>
ku cing</w>
kin s</w>
kh ác.</w>
kesena ngan</w>
kela min</w>
k inya</w>
ju stru</w>
họ .</w>
ha lnya</w>
h ồng</w>
e lemen</w>
e go</w>
di bentuk</w>
da hnya</w>
ch ă</w>
ch úc</w>
ca tan</w>
au tisme</w>
asa si</w>
as tron
an sial</w>
al terna
Y u
U N
T re
T ra
Sau di</w>
R yan</w>
Ox ford</w>
L au
I bu</w>
Ge o
D A</w>
3 ,
199 9</w>
19 80</w>
u x</w>
tr ú</w>
tern akan</w>
terle pas</w>
tah u
str a</w>
spe sial</w>
sejen ak</w>
se t
san d
sa mu
s land</w>
ran -
pro vinsi</w>
ph ú</w>
pe serta</w>
ngo an</w>
ng ốc</w>
menu li
menghor mati</w>
mengan cam</w>
meng o
memba gi</w>
mela mpaui</w>
m ukannya</w>
la y</w>
la ser</w>
l ùi</w>
kẹ t</w>
khi ếu</w>
keter a
kerja sama</w>
jar um</w>
inde penden</w>
har ganya</w>
ge le
da gang</w>
ch ợ</w>
ch ìa</w>
bo ur
berke liling</w>
bar is</w>
ba ca</w>
aya hnya</w>
as nya</w>
an ti</w>
an tar</w>
adi an</w>
a sih</w>
Wal l</w>
S ri</w>
Mu si
F I
E ng
E d</w>
C ục</w>
8 5</w>
4 9</w>
ụ n</w>
đ ẻ</w>
unj uk</w>
tubu hnya</w>
tr à</w>
to lak</w>
tif kan</w>
swa sta</w>
sik lus</w>
sedi h</w>
re zim</w>
ran tai</w>
ph áo</w>
permula an</w>
peluncu ran</w>
pak atan</w>
p y</w>
p s</w>
nhi ếp</w>
meren canakan</w>
mengu asai</w>
mengemba likan</w>
meng gerakkan</w>
meng arahkan</w>
memi sahkan</w>
ma lkan</w>
m ệt</w>
lu pakan</w>
la ian</w>
ke turunan</w>
ke polisian</w>
jah ter
jad inya</w>
ja hat</w>
j o
j aran</w>
institu si</w>
iden ya</w>
i g</w>
ho an</w>
gravi tasi</w>
gi h</w>
g ad
ch ư</w>
ch ôn</w>
ber n
ber bu
ba s</w>
ay o</w>
asa p</w>
Victor ia</w>
T òa</w>
Neander thal</w>
E thi
C ô</w>
A C
7 00</w>
5 7</w>
ờ i.</w>
z aman</w>
tu mor</w>
th ịnh</w>
th ép</w>
ter sangka</w>
ter penting</w>
so si
si tu</w>
seki tarnya</w>
se mp
s ưu</w>
s pi
re sep</w>
re formasi</w>
qu í</w>
pu an</w>
pi zza</w>
perte ngahan</w>
pa us</w>
p annya</w>
ng ực</w>
ne s
n ắng</w>
n ảy</w>
mengga li</w>
menc er
memperca yai</w>
memi kir
la uan</w>
la an</w>
l ụt</w>
l ệch</w>
l ô</w>
l v
konsen trasi</w>
kogni tif</w>
kesi mpulan</w>
keliha tannya</w>
katak anlah</w>
j in</w>
in o</w>
i ran</w>
e lam</w>
di pu
di e
da li</w>
buk it</w>
berla wanan</w>
ber agam</w>
be lahan</w>
as inya</w>
as h
ali sasi</w>
adap tasi</w>
a tion</w>
William s</w>
V ậy</w>
Si erra</w>
S ự</w>
S ad
Ro y
Per tahanan</w>
Nor den</w>
C on</w>
B on
6 ,
3 0
đ ạc</w>
Đ úng</w>
wa ja
ter buruk</w>
tengg elam</w>
ta w
ta s-
r ỉ</w>
publi kasikan</w>
perte mpuran</w>
penyer angan</w>
penjela san</w>
pe ternakan</w>
ny anyi</w>
nila i-
ng ười.</w>
ng ku
nego siasi</w>
murid- murid</w>
menggan tikan</w>
mengaj ari</w>
meng untungkan</w>
meneta pkan</w>
memper ingatkan</w>
memba tasi</w>
mbuny ikan</w>
man is</w>
man diri</w>
m p</w>
le ngkap</w>
lahi rkan</w>
l lo</w>
ku e</w>
khawati rkan</w>
kesa maan</w>
keka yaan</w>
ke padanya</w>
k lik</w>
j uk</w>
i mbangan</w>
ho l</w>
hi buran</w>
h eo</w>
ga jah</w>
g ìn</w>
e .</w>
du an</w>
dra matis</w>
di kembangkan</w>
c ươ</w>
c t</w>
ber sifat</w>
ber semangat</w>
ber peran</w>
ban tu</w>
ban dara</w>
bahan- bahan</w>
aspe k</w>
Tr ường</w>
Ste wart</w>
Pa tri
Oly mpi
Ni ck</w>
M P
Jer usalem</w>
Hol lywood</w>
H y
H in
G and
F BI</w>
C y
4 ,
19 60</w>
u ri
u ran</w>
tu rut</w>
ti l</w>
ter pengaruh</w>
ter balik</w>
su su</w>
ser i</w>
ret aris</w>
quy ên</w>
pustak aan</w>
prose snya</w>
pre s
pin jaman</w>
per dana</w>
pemer iksaan</w>
ni at</w>
nhi ều.</w>
n ư</w>
mu ộn</w>
mon d</w>
menjela jahi</w>
mengha pus</w>
mem un
mem bakar</w>
mela hi
m ũ</w>
lã m</w>
lv ania</w>
lay an</w>
lang ka</w>
kor an</w>
kelahi ran</w>
ke ge
ke cender
in tahkan</w>
i lusi</w>
i ce</w>
ham mad</w>
gu gu
ga i
g at</w>
fin ansial</w>
fe deral</w>
f or</w>
e p</w>
di lahirkan</w>
di agno
da yaan</w>
c ker</w>
berla tih</w>
ber pengaruh</w>
ber nyanyi</w>
ber komentar</w>
ber encana</w>
ban ya</w>
ata l</w>
ap o
an- perusahaan</w>
ajai b</w>
a annya</w>
Phi lip
Kenne dy</w>
In di
Ethi opi
E ar
7 .
ti pan</w>
ti k-
ti e</w>
teng ah-
sy lvania</w>
stu dio</w>
so f
so ci
si aran</w>
seni or</w>
seluru hnya</w>
sa s</w>
sa dari</w>
s tri
ri ah</w>
ren tan</w>
qu ad</w>
pinggi ran</w>
perusaha an-perusahaan</w>
perta ma-
per sen
per ju
pemba y
pa nggi
o d</w>
ne l</w>
n ốt</w>
merang ku
meng ing
memikir kannya</w>
komb inasi</w>
ki ệt</w>
ki ê</w>
kh ao</w>
ketera mpilan</w>
ker ing</w>
ke ten
ke can
i man</w>
en i
do ws</w>
dipa hami</w>
der s</w>
dar ai</w>
d man</w>
co u
ck s</w>
cip taan</w>
bu ng
ber teri
ber kat</w>
ba u</w>
b le</w>
apar temen</w>
alterna tif</w>
aktivi s</w>
a ch</w>
Vi et
Th ật</w>
Te le
T ại</w>
So malia</w>
Si mon</w>
San ta</w>
S to
S pe
Ph òng</w>
Pen n
Nor th</w>
Land mark</w>
Inter national</w>
H aw
Gand hi</w>
4 .000</w>
4 .
x á</w>
v ẹn</w>
tu ala
ter bukti</w>
s la
re porter</w>
ra ngka
poli tisi</w>
pertama- tama</w>
per ancang</w>
peny imp
penc ap
pena mpilan</w>
pemas aran</w>
peker ja
par u</w>
mu ối</w>
min is
menye lidiki</w>
mene wa
menan datangani</w>
men desain</w>
me lebi
masa lah-
m ỏi</w>
l ánh</w>
ku tub</w>
kre dit</w>
kiner ja</w>
kh ôi</w>
kecender ungan</w>
ke lima</w>
karen anya</w>
huy nh</w>
h ò</w>
ga nggu</w>
for ma
eri ng</w>
en ak</w>
ekseku tif</w>
don or</w>
d ukan</w>
cu ồng</w>
cu t</w>
ci ta</w>
cang gih</w>
c m</w>
ber nilai</w>
ben ih</w>
be saran</w>
be ban</w>
b ách</w>
b ra
an ku</w>
Wiki le
Pres s</w>
Pran cis</w>
Ph ần</w>
Ko ngres</w>
Ko mite</w>
Jer sey</w>
Ja ck</w>
Ja c
I S
G er
CN N</w>
C .</w>
Ale x</w>
8 .
6 .
3 9</w>
wuju d</w>
untu han</w>
un sur</w>
u ta
u h-
tuk ang</w>
tu lnya</w>
th ôi.</w>
tero wongan</w>
te lur</w>
ta mpil</w>
spek tif</w>
sera tus</w>
sedi aan</w>
sebe tulnya</w>
se tinggi</w>
s ắm</w>
s yarat</w>
res pon</w>
qu át</w>
per ti</w>
per spektif</w>
pas tian</w>
par u-
panggi lan</w>
ob sesi</w>
nilai- nilai</w>
nh ẫn</w>
na si
mu t
mo ga</w>
menja ngkau</w>
menga wa
menga baikan</w>
menewa skan</w>
melahi rkan</w>
lor asi</w>
lo mba</w>
lin dung</w>
kese pakatan</w>
ja ti</w>
in t</w>
gin ia</w>
ga han</w>
g ma</w>
e mpati</w>
c ắp</w>
ber terima</w>
aya m</w>
a ti</w>
Wol f
W ri
Vir ginia</w>
Viet nam</w>
Stan ford</w>
S tar</w>
S O
Pi ala</w>
Pa u
Pa sifik</w>
P rin
P ak</w>
Min ne
H ong</w>
Ethiopi a</w>
E li
C el
6 .000</w>
4 3</w>
- nya</w>
y anya</w>
wi sa
v ang</w>
u ti</w>
u mpan</w>
tu t</w>
terpen cil</w>
ter infeksi</w>
teman nya</w>
teling a</w>
ta u</w>
t í</w>
si buk</w>
se paruh</w>
ruma h-
rac un</w>
ra ja</w>
pu taran</w>
psiko logi</w>
pi pa</w>
peru mahan</w>
or bit</w>
nan o</w>
mpu ngan</w>
meta for
menyala kan</w>
menya la</w>
mengu tip</w>
mene mukannya</w>
mencu ri</w>
memper siapkan</w>
membo sankan</w>
mela ngkah</w>
masalah- masalah</w>
m ọc</w>
m s
ku mbang</w>
ku ad
krimin al</w>
ko tor</w>
keti mbang</w>
kepu asan</w>
keka cauan</w>
k ru</w>
insen tif</w>
infra struktur</w>
i z
h ung</w>
defini si</w>
chuy ền</w>
c ra
ba ja</w>
b ơm</w>
ar annya</w>
ang kut</w>
ak ade
S pa
Re u
Ma ha
M ak
Lin ux</w>
G ri
Char lie</w>
Ba li</w>
A BC</w>
20 .000</w>
ế ch</w>
tr ừng</w>
to ngkat</w>
ti mbu
te ka-
tar uh</w>
tah ukan</w>
ta se</w>
si mbol</w>
sep h</w>
se sama</w>
rela tif</w>
rek or</w>
re solusi</w>
rangka ian</w>
r ửa</w>
po und</w>
per lahan</w>
penyela mat</w>
pen angka
ng ư</w>
mis teri</w>
mik ro</w>
mer an</w>
menyu ruh</w>
menyaki tkan</w>
mengha langi</w>
lo go</w>
la inya</w>
l ại.</w>
l do
kisa h-
kh ớp</w>
keter tarikan</w>
keru gian</w>
k lub</w>
k ar</w>
j arkan</w>
j ana</w>
is inya</w>
i mi
gun aan</w>
gu run</w>
g r
eksp lorasi</w>
di gambarkan</w>
d ốc</w>
d y
bur gh</w>
bour ne</w>
beru lang</w>
berku asa</w>
batu bara</w>
ba tang</w>
aw i</w>
a mp
Tr ời</w>
Ri ce</w>
Penn sylvania</w>
P R</w>
N SA</w>
Mel bourne</w>
Ma nh
Jo seph</w>
Co m
C ho
An tar
Ala ska</w>
> </w>
7 2</w>
ườ ng.</w>
ư ơn</w>
đ ai</w>
z e</w>
tu anya</w>
tro pis</w>
tr úng</w>
ta jam</w>
sy araf</w>
su s
su lap</w>
seper tiga</w>
semu t</w>
sehar ga</w>
se moga</w>
sa yap</w>
ra hat</w>
prose dur</w>
pro to
ph ẳng</w>
penyela matan</w>
peny i
pemili h</w>
pan el</w>
on trol</w>
nh ầm</w>
n ọ</w>
mi an</w>
meny erah</w>
menu ru
menja tuhkan</w>
mengen akan</w>
mener uskan</w>
mende sak</w>
melo mpat</w>
melar ang</w>
l át</w>
kun ju
kon eksi</w>
kisah- kisah</w>
ke tat</w>
ke ah
kan kan</w>
kamp us</w>
jahter aan</w>
ho o</w>
hi r</w>
hi o</w>
g õ</w>
g inya</w>
fo sil</w>
ekstri m</w>
e di
diu bah</w>
di ễu</w>
den da</w>
dar inya</w>
dapa ti</w>
ca iran</w>
boh ong</w>
be tina</w>
b út</w>
at tan</w>
anggu r</w>
al ko
ad o</w>
S pi
P ho
O hio</w>
Manh attan</w>
Le one</w>
D i</w>
Caro lina</w>
Bos nia</w>
Alexand er</w>
A li</w>
ử ng</w>
ũ y</w>
à .</w>
ya- tanya</w>
wi ch</w>
tu nggu</w>
tr ật</w>
tho ái</w>
th ính</w>
tengah- tengah</w>
tang nya</w>
tan -
ta mu</w>
so m</w>
ra sional</w>
qu are</w>
ph o</w>
pa sokan</w>
on to</w>
ole </w>
oksi da</w>
o mong</w>
o mo
mi k</w>
meni lai</w>
meng gu
mele w
mbi ng</w>
man n</w>
lu pa</w>
l ê</w>
komer sial</w>
keting gian</w>
keter li
kenda likan</w>
kali mat</w>
ja sa</w>
isti rahat</w>
hak- hak</w>
ha ngat</w>
h ận</w>
h ew
gan tian</w>
g ạch</w>
eks pre
diter apkan</w>
diri mu</w>
di ting
di p
di luncurkan</w>
di k
di ak
da- beda</w>
da pur</w>
cu r
ca mpuran</w>
c ừu</w>
c ảng</w>
berse dia</w>
berbe da-beda</w>
ba yangan</w>
a f
Win dows</w>
Wikile aks</w>
We b</w>
W es
V er
S arah</w>
R en
Man dela</w>
Lu ân</w>
Jos hua</w>
I C
H un
D alam</w>
Ca mer
Ag ung</w>
5 8</w>
ỵ </w>
đ ỗ</w>
đ ă</w>
y to
y et</w>
wa li
uta manya</w>
un kan</w>
un ami</w>
ts unami</w>
trans portasi</w>
tifi tas</w>
ter dekat</w>
te ki</w>
t te</w>
su sun</w>
shi re</w>
se lam</w>
sa saran</w>
reka yasa</w>
r- akhir</w>
r ắn</w>
pu ra</w>
phi ến</w>
peny anyi</w>
penu tup</w>
pengu jian</w>
penge lu
pe min
op si</w>
mengan ali
mem ukul</w>
me t</w>
mb akan</w>
m ấu</w>
lin an</w>
li ber
l ư</w>
l úa</w>
ir e</w>
hi dro
har ian</w>
gela s</w>
gan dum</w>
do minasi</w>
dis tribusi</w>
di n</w>
di ken
dapat kannya</w>
d ro</w>
cin tai</w>
c ương</w>
buk ankah</w>
bertan ya-tanya</w>
ber janji</w>
be s</w>
b ốc</w>
b ọc</w>
akhi r-akhir</w>
a ti
Su riah</w>
Sta te</w>
Sa mu
P ap
P S</w>
Man chester</w>
M a</w>
Ke a
K hi</w>
J ika</w>
J ak
H ill</w>
Gran d</w>
Gi ám</w>
D C</w>
Cra ig</w>
Chi ến</w>
Camer on</w>
Ca mp
Bla ir</w>
B A</w>
6 4</w>
5 ,
0 ,</w>
ệ n.</w>
y s</w>
wali kota</w>
v é</w>
tuju annya</w>
temp atkan</w>
ta ian</w>
su mber
sta l</w>
sion er</w>
si nga</w>
sela matkan</w>
sar ang</w>
r áp</w>
produk tif</w>
po lusi</w>
persa maan</w>
per ti
per pustakaan</w>
peng ak
pembun uh</w>
pe tuala
pe n</w>
paru- paru</w>
oba ti</w>
nu tri
ne s</w>
mena brak</w>
membe ba
memasuk kannya</w>
man i
ma ya</w>
ma l
m ảng</w>
lu ng</w>
lin ik</w>
le ga</w>
lang nya</w>
landa san</w>
lan car</w>
kon seku
ko s
ko man
kese jahteraan</w>
keju tan</w>
ke pri
ke ha
ka m</w>
je men</w>
jan jikan</w>
isti me
hen dak</w>
h ươ</w>
gu e</w>
ge l</w>
ga li</w>
f on
dipi mpin</w>
di masukkan</w>
di hukum</w>
de bu</w>
cata t</w>
ber angkat</w>
b ướ
ari o</w>
angg apan</w>
an da
ada ngan</w>
W est</w>
Tor onto</w>
Se at
Scien to
Reu ters</w>
N ội</w>
Mat th
L ong</w>
Coun ty</w>
Co la</w>
Ch ín</w>
B ru
5 .
Đ ôn</w>
versi ty</w>
uy ê</w>
us -
un d
tu tup</w>
th ằng</w>
ter j
ter is
teka- teki</w>
ta mpilan</w>
surve i</w>
so siasi</w>
sirku it</w>
sau rus</w>
rumah- rumah</w>
ren canakan</w>
re land</w>
r ò</w>
pres tasi</w>
per angan</w>
penga matan</w>
pemberon tak</w>
pa meran</w>
ngh ê</w>
mu lasi</w>
metafor a</w>
menu duh</w>
mengen darai</w>
mendeng arnya</w>
menc ak
mencak up</w>
mbu r
m ă</w>
ly n</w>
lengg arakan</w>
la mp
ku ri
kolabor asi</w>
ko lah</w>
kho ẻ</w>
khi ếm</w>
keterli batan</w>
keah lian</w>
ja minan</w>
in ch</w>
ho à</w>
h ku</w>
gi -
di hadapi</w>
di buka</w>
d ini</w>
chu ông</w>
chu a</w>
ch er</w>
ch .</w>
ca -
c y</w>
bern ur</w>
berke lanjutan</w>
beba skan</w>
aw ak</w>
au .</w>
ar tis</w>
alko hol</w>
a mal</w>
a jemen</w>
Uni versity</w>
Th ống</w>
Tal k</w>
Ta wa</w>
T ám</w>
Steph en</w>
Se kolah</w>
S han
R adi
Q atar</w>
Pemer intah</w>
Par lemen</w>
P ra
P D
Le on
L ew
L ad
L ED</w>
K el
I reland</w>
H ọc</w>
H ak</w>
G al
C IA</w>
Bo l
As soci
Antar tika</w>
Angka tan</w>
A C</w>
199 8</w>
z er
tu be</w>
ti vi</w>
terje bak</w>
su per</w>
su ci</w>
si ngan</w>
pun ah</w>
pro du
po ten
peng un
peng iri
o -
ni r
ngg ang</w>
n ản</w>
mu s</w>
mo grafi</w>
menye ber
meny at
menunj ukan</w>
meng konfirmasi</w>
meng hemat</w>
mene kankan</w>
menco banya</w>
men dapatkannya</w>
memberi kannya</w>
man en</w>
m ỹ</w>
m úa</w>
lin o
la ba</w>
ku tipan</w>
ku ali
kon tak</w>
ki e</w>
ke li
kar at</w>
ju ri</w>
j et</w>
i mbang</w>
i Po
gi ặt</w>
gele mbung</w>
ga lan</w>
di oksida</w>
di beritahu</w>
di bayar</w>
de vil</w>
da ur</w>
d ội</w>
bi ng
berteri ak</w>
berde bat</w>
ber ja
ber hadapan</w>
at annya</w>
as aran</w>
W K</w>
Van cou
Tran s
Lan ka</w>
G ela
Ch à</w>
Bo e
B ad
< </w>
đu ôi</w>
đ ố</w>
z z
w al</w>
u ra</w>
tố t.</w>
tri li
tertu lis</w>
sub jek</w>
sk y</w>
sis anya</w>
seri katan</w>
seku mpulan</w>
se kadar</w>
s inilah</w>
ren t</w>
ran ti</w>
ra- pura</w>
pu r
pira mi
pi ranti</w>
pengelu aran</w>
pengak uan</w>
peng liha
peng hasilan</w>
pencap aian</w>
pen asaran</w>
pe si
pe gunungan</w>
mon yet</w>
mas ukan</w>
m ạn</w>
m óng</w>
lih ara</w>
li sasi</w>
li at</w>
lang -
l d
kese imbangan</w>
kebu dayaan</w>
ke lebihan</w>
ke khawati
kaca u</w>
k linik</w>
ing kat</w>
h uyền</w>
do pa
dita mbah</w>
dipi lih</w>
din y
di bunuh</w>
d r</w>
ch âm</w>
cer min</w>
ber ia</w>
be si</w>
ari ng</w>
ani um</w>
a pel</w>
Vancou ver</w>
S quare</w>
S ao</w>
Ma c
LH C</w>
Ko ta</w>
Kea manan</w>
H òa</w>
G an
Cas sini</w>
C ri
Bro ok
Ba gai
B run
Ar chi
A bu</w>
5 2</w>
19 70</w>
0 .
đ ấy.</w>
â n.</w>
xo áy</w>
x ứ</w>
v ạch</w>
tump ukan</w>
tr um</w>
ti sh</w>
ter ganggu</w>
t ủ</w>
so ta</w>
sis tensi</w>
sen tuh</w>
s .</w>
ri siko</w>
re le
re lawan</w>
rang ka</w>
ra tus</w>
r ễ</w>
pro perti</w>
ph ia</w>
per manen</w>
per en
pengge mar</w>
peng gu
pember i
pe cah</w>
p lin</w>
o p</w>
ng an-
mi cro
meras akannya</w>
mer deka
menunj uk</w>
mengu ng
men ci
memili kinya</w>
membeba skan</w>
membe dakan</w>
melebi hi</w>
mas sal</w>
maksu dkan</w>
m ỳ</w>
là m.</w>
la tan</w>
l ũy</w>
l or</w>
kon servatif</w>
ki tab</w>
kebi jak
k ro
ja zz</w>
j akannya</w>
i katan</w>
har i-hari</w>
h âm</w>
h ar</w>
g ger</w>
foto grafi</w>
f an</w>
er an</w>
e tika</w>
din o
dia jarkan</w>
di ê</w>
di yakini</w>
di penjara</w>
di ka
di dukung</w>
d ạo</w>
d or
cac bon</w>
c ống</w>
c y
bu -
ber tu
Ya hoo</w>
Vi ệt</w>
Tha i
Sch war
S ek
R us
Po st</w>
NA TO</w>
Mu hammad</w>
Il lino
H el
Fin landia</w>
Bang lade
Al pha</w>
A i
7 7</w>
19 50</w>
ấ t.</w>
ò m</w>
y ah</w>
x ướng</w>
x ách</w>
wi ra
v ươn</w>
ur anium</w>
umu mkan</w>
uku m</w>
uh- sungguh</w>
tu ral</w>
ter us-
ter an
te patnya</w>
te ma</w>
te h</w>
sungg uh-sungguh</w>
su mbu</w>
si ng
sete lahnya</w>
semp it</w>
sar ana</w>
ri kan</w>
pu as</w>
perbu dakan</w>
per tuk
per tar
per awat</w>
penga mbilan</w>
pemu lihan</w>
pemb o
pem uk
pada hal</w>
p lan
o mi</w>
ngka pi</w>
mp ro
menyer ukan</w>
menutu pi</w>
menge ce
mak alah</w>
m ổ</w>
m ồ</w>
m â</w>
m ày</w>
le k</w>
le bar</w>
lara ngan</w>
konsu l
kon dom</w>
ken can</w>
j en</w>
indivi du
h ệt</w>
guru -
ga y</w>
g ối</w>
ela s</w>
du ngan</w>
dia jukan</w>
di bebaskan</w>
deng arkan</w>
den tifikasi</w>
demok ra
de s
co l
chi p</w>
ceri tanya</w>
be li</w>
ba ti</w>
ba s
ba lok</w>
b ấy</w>
ani an</w>
an ti-
Wri ght</w>
Wo w</w>
Sh ak
S chu
Ro ber
P ad</w>
P C
MR I</w>
Ka bul</w>
K ong</w>
Illino is</w>
E du
Don ald</w>
Bang sa</w>
B r
Al ber
A ng
: 30</w>
4 -
3 -
x ăng</w>
x ôi</w>
wawan car
v ịt</w>
v ư</w>
v òi</w>
tu mpahan</w>
tra ge
tor um</w>
to sin</w>
tak nya</w>
ta ng-
t ựu</w>
seri bu</w>
sa us</w>
s an-
r ét</w>
pirami da</w>
pertuk aran</w>
per wakilan</w>
per an
penye sa
peny iksaan</w>
pengu rangan</w>
penangka pan</w>
pembay aran</w>
pelaj arinya</w>
pa to
ox yto
or y</w>
oksi tosin</w>
o be
nh ánh</w>
nghi ệt</w>
neg aranya</w>
mut lak</w>
musi si</w>
min e</w>
menyedi hkan</w>
menja min</w>
mengu capkan</w>
meng ontrol</w>
menan dai</w>
men aik
membac anya</w>
maksu dnya</w>
m ồi</w>
lelu con</w>
le mbut</w>
l ờ</w>
kunju ngan</w>
kon yol</w>
kekhawati ran</w>
ke pada
ke ci
kan tong</w>
in annya</w>
hi ên</w>
h ét</w>
gh ê</w>
fo ku
f erensi</w>
di kan</w>
desa iner</w>
de partemen</w>
d ẹp</w>
can aan</w>
c ara-
bo x</w>
bing ung</w>
ber enang</w>
at h</w>
ar t</w>
an tum</w>
an a
You tube</w>
V ăn</w>
Thai land</w>
Seat tle</w>
Sciento logy</w>
S t
Re d</w>
R I
Que en
O re
N 1</w>
Mo ore</w>
Minne sota</w>
Mat t</w>
K yo
He i</w>
D V
Cen ter</w>
Bi r
Bagai mana</w>
B lu
B il
Atlan ta</w>
Al lah</w>
7 6</w>
7 ,
20 50</w>
ì .</w>
x ăm</w>
wawancar ai</w>
waja hnya</w>
v ở</w>
u asi</w>
th ắc</w>
ter lambat</w>
ten tukan</w>
tan am</w>
sen si</w>
se u
se mbu
re alitas</w>
peni laian</w>
penga turan</w>
pak et</w>
pa tung</w>
oxyto cin</w>
nh au.</w>
ngka i</w>
mp ah</w>
menyat ukan</w>
meng hidu
mem prediksi</w>
mar at
m àng</w>
lar ia</w>
la san</w>
la bel</w>
keru mun
kela inan</w>
ke mara
ke keba
k ra
iPo d</w>
hu tang</w>
hor mon</w>
ga gak</w>
g ung</w>
fu si</w>
f at</w>
diser ang</w>
di produksi</w>
demon strasi</w>
cu ali
c inya</w>
bu han</w>
ber investasi</w>
ber bohong</w>
ber bahasa</w>
ben ua</w>
be sar-
be bek</w>
an ai</w>
a bu</w>
Y ang</w>
W el
V ịnh</w>
V an</w>
T ất</w>
Sen at</w>
S ho
Queen sland</w>
P ad
N a</w>
Me dia</w>
M ặt</w>
Le a
L aw
Ku tub</w>
Ki ta</w>
Ka mu</w>
J us
J es
H ari</w>
Green land</w>
Gra ham</w>
Gela k</w>
Gar y</w>
G on
Ba b
9 9
8 6</w>
6 6</w>
5 -
4 6</w>
199 7</w>
199 5</w>
1, 5</w>
Đ ược</w>
ze era</w>
waji ban</w>
wa lau</w>
w ar</w>
v ứt</w>
upa cara</w>
u ngkapan</w>
tuk ar</w>
trage di</w>
tr ân</w>
tr y</w>
ti lah</w>
ti ang</w>
th ấm</w>
teran cam</w>
ter tua</w>
ten tangan</w>
tari ksa</w>
t ựa</w>
su han</w>
si ngka
sep ak</w>
seni lai</w>
seko lah-
sekolah- sekolah</w>
san aan</w>
s ơn</w>
s ét</w>
r er
qu ạ</w>
ph ác</w>
penyesa lan</w>
penge cuali
peng umu
pen ciptaan</w>
pe perangan</w>
p r
p ak</w>
nutri si</w>
nh àng</w>
nan tinya</w>
n ụ</w>
mi r</w>
mere s
mer ay
menu lar</w>
mengu sulkan</w>
meng at
meng aku</w>
men in
mem pelajarinya</w>
man h</w>
m òn</w>
m uk</w>
lo mba
lar d</w>
kolek tif</w>
ker i
kebijak sanaan</w>
ka cang</w>
jak sa</w>
istime wa</w>
ir on
inov atif</w>
ing -
guru- guru</w>
guru an</w>
ge nggam</w>
es h</w>
e z</w>
e -
di re
di pasang</w>
ck y</w>
ch ẽ</w>
ch ày</w>
bu dak</w>
bagi an-
b ẩn</w>
ap kannya</w>
ap -
ad i</w>
To k
Tas man
Qu ỹ</w>
Ph át</w>
Peng adilan</w>
P al
Nor we
Matth ew</w>
Mas sa
Gi ải</w>
E i
Dis co
Cu ộc</w>
Conne cti
Banglade sh</w>
Ap akah</w>
Ali ce</w>
5 1</w>
ệ t.</w>
ẹ o</w>
Đ ạo</w>
õ ng</w>
x e
ver y</w>
upa i</w>
un t</w>
tr u
th ắt</w>
terus- menerus</w>
ter jadinya</w>
tana mo</w>
t ần</w>
spek trum</w>
se kalian</w>
re y</w>
promo sikan</w>
pri oritas</w>
peren canaan</w>
per ingkat</w>
per angkap</w>
pengliha tan</w>
peng ungsi</w>
pen cer
pekerja annya</w>
pan ah</w>
no vel</w>
mu ran</w>
mewuju dkan</w>
meres pon</w>
merdeka an</w>
menyi apkan</w>
menyer upai</w>
menyala hkan</w>
mengi dentifikasi</w>
mengat akannya</w>
meng ar
men dapati</w>
me dali</w>
man ajemen</w>
m aran</w>
lu h</w>
li patan</w>
l ũng</w>
kuri ku
kho ái</w>
kepu tu
kekeba lan</w>
ke e
ka in</w>
ju dul</w>
ji d</w>
ja min</w>
h ôi</w>
gi ọt</w>
g ă</w>
g ác</w>
f fi
er o
elek tro
ek spe
e le
diri lis</w>
di umumkan</w>
di tempatkan</w>
di pin
de bat</w>
dan au</w>
d aratan</w>
ch ặng</w>
ch ả</w>
c ài</w>
bersa ing</w>
ber syukur</w>
ben tuknya</w>
baha s</w>
b â</w>
ate d</w>
ara- suara</w>
ar o
ani masi</w>
an tanamo</w>
ali n</w>
ak urat</w>
ak rab</w>
Val ley</w>
Th ời</w>
Tasman ian</w>
Roy al</w>
Po landia</w>
Norwe gia</w>
N el
Mon tana</w>
Me ng
Liber ia</w>
Kemen terian</w>
K han</w>
H ạ</w>
Gu antanamo</w>
Glo bal</w>
F ul
E m</w>
Di ego</w>
4 1</w>
1 30</w>
ô -</w>
v ụn</w>
uku lan</w>
tu ngan</w>
tri an</w>
tr au
th ế.</w>
th y</w>
terja ngkau</w>
terj un</w>
ter inspirasi</w>
te pi</w>
seri kat</w>
sedi akan</w>
se mi</w>
say uran</w>
sa at-
saat- saat</w>
ru an</w>
ri d</w>
psiko log</w>
prak tek</w>
pi lih
perju angan</w>
pengiri man</w>
pen ci
oto t</w>
ot oritas</w>
obe sitas</w>
ngk ar</w>
ne u
n âu</w>
meng angg
men eri
men didik</w>
melu pakan</w>
ma yat</w>
lomba an</w>
lo ngan</w>
le mak</w>
kuriku lum</w>
ku lasi</w>
ku antum</w>
khuy nh</w>
kerumun an</w>
kema ce
kemace tan</w>
ke s
ke pemili
kar tun</w>
ka gu
k ron
ja ngnya</w>
il hami</w>
i Pad</w>
hor matan</w>
ho ngan</w>
g ãy</w>
g ran</w>
fan ta
f is
ekspre sikan</w>
ek nya</w>
do mba</w>
di tanya</w>
di larang</w>
di h
d ũng</w>
cara- cara</w>
bi ay
ber evolusi</w>
be t</w>
b adian</w>
ali si</w>
ag e</w>
a x
Y or
V il
Ti ến</w>
S wis
N L</w>
Massa chu
Mala y
M erah</w>
M R</w>
LH Q</w>
Kyo to</w>
Kor an</w>
Ko misi</w>
Ja zeera</w>
Hin du</w>
H or
H ans</w>
F ai
D ia</w>
D er
C up</w>
Bi o
5 9</w>
2, 5</w>
1 1
đâ u.</w>
đ ẽ</w>
z o
x íu</w>
vak uasi</w>
trili un</w>
to ler
tab rakan</w>
ta o</w>
t -</w>
su ara-suara</w>
so lu
s út</w>
s ôi</w>
s y</w>
s ken
ro kok</w>
ro bo
pro gra
pengumu man</w>
pene mbakan</w>
pen ari</w>
pa hami</w>
nh óc</w>
nh ào</w>
n én</w>
min uman</w>
mengawa si</w>
mene mpel</w>
men ari
mela cak</w>
mbur ger</w>
m kannya</w>
lu an</w>
lade l
ladel phia</w>
kun jung</w>
kh an</w>
kemara han</w>
keliha tan</w>
ke n</w>
ke hadi
k anya</w>
juju rnya</w>
inter vensi</w>
ha lus</w>
h ụt</w>
gen tina</w>
gen der</w>
gad is
ekono m</w>
du rkan</w>
diny atakan</w>
di tolak</w>
di rencanakan</w>
di kendalikan</w>
d ỡ</w>
d ập</w>
d ru
ce lah</w>
c ồn</w>
c adangan</w>
bu n</w>
bi s</w>
besar- besaran</w>
berpu ra-pura</w>
b ấm</w>
b ám</w>
ay lor</w>
asa m</w>
antar muka</w>
an t</w>
ag en
War ren</w>
V e
Tok yo</w>
Tai wan</w>
T A</w>
Singap ore</w>
Sad dam</w>
S tr
S k
Phi ladelphia</w>
Pe ter
O L</w>
Ne pal</w>
I van</w>
Gor don</w>
G ere
FI FA</w>
C ru
Ar gentina</w>
A T
A D
2. 0</w>
198 4</w>
- --</w>
ị .</w>
đ à</w>
xu ân</w>
vi s</w>
u men</w>
tu ga
ti ệm</w>
tahu inya</w>
ta li</w>
t ton</w>
sur ga</w>
sken ario</w>
se lek
se karat</w>
sar jana</w>
sa sikan</w>
s uk</w>
ri an</w>
r ẽ</w>
po ol</w>
pi sau</w>
pi mpinan</w>
per guruan</w>
penyimp anan</w>
pence gahan</w>
pen erima</w>
pemba ca</w>
pe po
pas tinya</w>
pan ti</w>
pan pun</w>
ngg ul</w>
n er
mili aran</w>
mi ngg
mi l
mengi zinkan</w>
meng kritik</w>
meng inspirasi</w>
menda tangi</w>
men un
memu lainya</w>
ma laria</w>
m ỏng</w>
lu rus</w>
lu rkan</w>
l ini
kho án</w>
kak inya</w>
ka panpun</w>
je mahkan</w>
ja uan</w>
ja batan</w>
is trinya</w>
intu isi</w>
ho ài</w>
ha mburger</w>
gu an</w>
g or
epi demi</w>
ela wan</w>
di prediksi</w>
di paksa</w>
di ha
da lkan</w>
d oro
d gn</w>
cu cu</w>
ch ợt</w>
ch ớp</w>
bu sana</w>
bu lu</w>
bin tang-
ber ma
ber ac
berac un</w>
baik inya</w>
b nya</w>
ani s</w>
Wolf ram</w>
V ì</w>
V ai
T ru
Swis s</w>
Sk y
Singap ura</w>
S B</w>
R ak
Per serikatan</w>
O E
M y</w>
M P</w>
Liber al</w>
I ce
Gere ja</w>
C re
Boe ing</w>
Ab ra
7 -
6 3</w>
4 0.000</w>
0 an</w>
- an</w>
ố p</w>
đ ệ</w>
z y</w>
vari asi</w>
v ương</w>
us sa
uku rannya</w>
u su
u si
u san</w>
tun da</w>
ti ngg
tingg inya</w>
terke muka</w>
ter e
ta mbah</w>
ta inya</w>
su sah</w>
si dang</w>
set ts</w>
se jujurnya</w>
ro ck</w>
rele van</w>
pu ti</w>
pertar ungan</w>
per lombaan</w>
pengu asa</w>
pengen da
pen en
pela buhan</w>
pak ar</w>
organ isme</w>
orang pun</w>
oper a</w>
o mbak</w>
nga hnya</w>
n ại</w>
mi e</w>
menghan tam</w>
menge tahuinya</w>
menga mbi
mengambi lnya</w>
meng khawatirkan</w>
menari knya</w>
memper baikinya</w>
memer angi</w>
mele mpar</w>
mba i</w>
mag net</w>
lu s
lo so
l ăng</w>
kro mo
konseku ensi</w>
kolek si</w>
kepemili kan</w>
kepada tan</w>
kema tiannya</w>
keber anian</w>
ke senja
ke jam</w>
ha mil</w>
graf er</w>
go m</w>
gi n</w>
ge tkan</w>
ge du
g ậy</w>
g ro
fi le</w>
fi ah</w>
en t</w>
doro ngan</w>
ditu duh</w>
dina mis</w>
dia tur</w>
di tentukan</w>
di pelajari</w>
di mainkan</w>
d â</w>
ce lana</w>
ca tion</w>
ca han</w>
bu ru
bintang- bintang</w>
bandi ngan</w>
ba ngkan</w>
b ỗng</w>
b ồ</w>
ar y</w>
ar do</w>
ap i
ap ainya</w>
an tas</w>
ak ankah</w>
Si beria</w>
S ur
S il
Ru mah</w>
Ro ma</w>
Pu lau</w>
P in
Man usia</w>
Malay sia</w>
L ao</w>
L A</w>
Ki ri
K .</w>
Ho use</w>
Gu in
Ge dung</w>
Disco very</w>
DV D</w>
C ách</w>
Brun o</w>
Ari zona</w>
A lan</w>
3 000</w>
199 6</w>
199 4</w>
ủ a</w>
ầ u.</w>
đồ n</w>
đi êu</w>
đ ư</w>
đ ơ</w>
đ ãi</w>
x ỉ</w>
ve z</w>
uk u</w>
tor -
ti tik-
thu r</w>
th ẳ
teri kat</w>
ter obsesi</w>
ter ku
temb ok</w>
tan an</w>
t ùng</w>
t ware</w>
t araan</w>
su t</w>
sa mpel</w>
ri t
r r
phi êu</w>
phi c</w>
petuala ngan</w>
perbeda annya</w>
pengecuali an</w>
pen aw
ov er</w>
oo h</w>
na mpak</w>
mpu annya</w>
mi ka</w>
meny angka
meng ekspresikan</w>
mene mbus</w>
mende teksi</w>
men tah</w>
men o
men dekat</w>
mari lah</w>
ma tik</w>
m ến</w>
m ara</w>
lan- bulan</w>
la ngka
l ỡ</w>
l ồng</w>
ku an</w>
kromo som</w>
khi êm</w>
kesenja ngan</w>
ke merdekaan</w>
kan -
ju ang</w>
inter nal</w>
inte lek
hitu ngkan</w>
h ước</w>
gi ật</w>
gela pan</w>
g â</w>
g akan</w>
e ngkau</w>
disku sikan</w>
dise lesaikan</w>
di pikirkan</w>
de tail</w>
dari ng</w>
dar at</w>
da p</w>
ci tra</w>
ch ọc</w>
bi jak
berda mpak</w>
bawa hnya</w>
ba lon</w>
ato mi</w>
ar ch</w>
an ne</w>
ak u
ad opsi</w>
a nh.</w>
Ye men</w>
We i
Te s
Tan z
Su san</w>
S ony</w>
John ny</w>
I M
Gro up</w>
Gon za
F G</w>
F A
D ur
D ol
Car l</w>
Bei jing</w>
B ron
B ris
B re
B as
ị a</w>
ể .</w>
í p</w>
y angkan</w>
x y</w>
wad ah</w>
va lu
un tuknya</w>
titik- titik</w>
ti pis</w>
te l
t nik</w>
ser at</w>
sekali pun</w>
se potong</w>
se orangpun</w>
ro w</w>
r ỗng</w>
pu lih</w>
pertanya an-
pertanyaan- pertanyaan</w>
persen tase</w>
per ut</w>
per bandingan</w>
pengenda lian</w>
pena mpungan</w>
pen cipta</w>
pembu angan</w>
pemba wa</w>
pan jangnya</w>
oo l</w>
ngh ẽ
ne uro
na s
mon i
mo yang</w>
menye tujui</w>
menuli skan</w>
mengi kat</w>
men ara</w>
memper luas</w>
mele tak
me landa</w>
mar ket</w>
m ô
lu ồng</w>
li ter</w>
le lah</w>
kuali fikasi</w>
kon sisten</w>
ko sa</w>
ke wajiban</w>
ke hormatan</w>
ke ane
kan dungan</w>
ka wanan</w>
ing nya</w>
họ c.</w>
ho ạ</w>
har i
hancu ran</w>
ga tan</w>
g he
fo ot</w>
fi loso
fe mini
dila tih</w>
dike lilingi</w>
di strik</w>
di hubu
di hitung</w>
di ce
dala man</w>
cá n</w>
c li
c aknya</w>
bur uknya</w>
ber tujuan</w>
ber sinar</w>
ber lalu</w>
bang kit</w>
bad </w>
U U</w>
T y
T hu
T a</w>
Su ngai</w>
Sing h</w>
S pri
R .
Qu ân</w>
Poli si</w>
Ore gon</w>
Massachu setts</w>
L àm</w>
L SM</w>
Kiri bati</w>
Ki tab</w>
K in
K ha
Jon es</w>
Is land</w>
Hi ến</w>
H as
G ia</w>
Ear th</w>
E r
E le
Connecti cut</w>
Cen tral</w>
A th
8 ,
6 8</w>
3 50</w>
10 ,000</w>
1 2
ổ i.</w>
ọ ng.</w>
£ </w>
x ám</w>
wari san</w>
war ds</w>
vi r
vir tual</w>
v õng</w>
v án</w>
unda tion</w>
tuli skan</w>
tor nya</w>
ti ễn</w>
thi êng</w>
thi ê</w>
th ung</w>
tero bosan</w>
ter ce
tek ad</w>
ta to</w>
t ống</w>
t ney</w>
t ch</w>
sof tware</w>
sebu lan</w>
se saat</w>
se imbang</w>
se gar</w>
se cepat</w>
ru tan</w>
re tina</w>
re sif</w>
r y
pra sangka</w>
pes ona</w>
per anan</w>
per ai
penye babnya</w>
pen jual</w>
pak bola</w>
pa ten</w>
p per</w>
p or</w>
opti mis</w>
nghẽ n</w>
nggu lan</w>
ng sa</w>
n ah</w>
mero kok</w>
menyangka l</w>
menja uh</w>
mene gaskan</w>
menc apainya</w>
menaik kan</w>
membi car
mem b
mak muran</w>
ma tanya</w>
m ộng</w>
m ầm</w>
lip ina</w>
liber al</w>
li jen</w>
lar y</w>
l ều</w>
kri psi</w>
kor teks</w>
kli en</w>
ki tan</w>
kera jaan</w>
kece wa</w>
kebo hongan</w>
ke san</w>
ka sar</w>
ka pi
k ìa</w>
ju ara</w>
j at</w>
i us</w>
i se</w>
hi di</w>
har us
ger s</w>
ga l
efisi ensi</w>
du a-
ditu jukan</w>
di ukur</w>
di ti
di sebutkan</w>
di lakukannya</w>
di laksanakan</w>
di capai</w>
de tek
da mpaknya</w>
cin cin</w>
ca bang</w>
c ổng</w>
bướ m</w>
bin et</w>
bijak sana</w>
bi litas</w>
beru rusan</w>
ber kunjung</w>
ber doa</w>
beg inilah</w>
b ắp</w>
b ầy</w>
at let</w>
as on</w>
ap ung</w>
any ikan</w>
an atomi</w>
a tu
Th ánh</w>
T ro
Ste ven</w>
S is
S A
Rak yat</w>
Pu tih</w>
Nel son</w>
Me di
Mar gar
Li ga</w>
L ay</w>
Ka tr
Jac qu
I tu</w>
H ad
Fran k
Fo undation</w>
Fi lipina</w>
E A</w>
De Lay</w>
Co ca</w>
Bra sil</w>
B ay
Ar thur</w>
= </w>
9 00</w>
8 ,</w>
- kali</w>
ự c.</w>
ố ng.</w>
đ úc</w>
đ óm</w>
Đ a</w>
á .</w>
ya ya
x ế</w>
x ích</w>
x é</w>
w er
w en
vi ng</w>
v ờ</w>
v al
uk e</w>
ter te
ter la
ter en
ter duga</w>
ta- mata</w>
t ím</w>
sukar ela</w>
so ạn</w>
so ur
sis inya</w>
si lakan</w>
samu dera</w>
sa mbu
s on
ru t-
ras tis</w>
ra gu</w>
pun ca</w>
pro to</w>
poli tikus</w>
piki r
ph ím</w>
perse lingku
pepo honan</w>
penyer ang</w>
peng i
peker jakan</w>
pe nh
p ap
op ini</w>
o lahan</w>
ng ưng</w>
ng ko
ne layan</w>
mp son</w>
menye mbunyikan</w>
menjad ikannya</w>
mengata sinya</w>
meng or
membicar akannya</w>
memberi tahukan</w>
membe linya</w>
mema lukan</w>
meletak kannya</w>
mad u</w>
ma tinya</w>
m ộ
m ượn</w>
lu mpuh</w>
li con</w>
la dang</w>
l ắc</w>
kur va</w>
kun jungi</w>
kh éo</w>
kese taraan</w>
kepa lanya</w>
kelomp ok
kecan duan</w>
ke hancuran</w>
kak ak</w>
ka tkan</w>
ka sihan</w>
i jin</w>
hew an-
hewan- hewan</w>
ha lo</w>
h ạch</w>
h ơ</w>
h ít</w>
gu gatan</w>
gi àn</w>
gi han</w>
gar am</w>
g ani
f ra
e o
dok teran</w>
dipa nggil</w>
dina makan</w>
didi rikan</w>
dia be
diabe tes</w>
di inginkan</w>
di hancurkan</w>
di bu
di akses</w>
der han
da y</w>
da ng-
d ở</w>
d rastis</w>
c ai</w>
ber manfaat</w>
ber li
ber kontribusi</w>
be ll</w>
be lah</w>
an cu
ali sme</w>
ai ro</w>
Y aya
U N</w>
Tanz ania</w>
San torum</w>
Ri ck</w>
Re volusi</w>
P E
Mon tre
Mo ham
Mil ler</w>
M organ</w>
M ay
Lo an</w>
Kel ly</w>
Jo bs</w>
Gi ờ</w>
Gi ới</w>
G N
F P</w>
E uro
Davi s</w>
Bri tish</w>
Be at
B ây</w>
Ameri can</w>
Abra ham</w>
4 50</w>
3 0.000</w>
200 .000</w>
199 1</w>
ế c</w>
đ ụng</w>
đ áo</w>
ì u</w>
â ng.</w>
wira usaha
vi êm</w>
v ượng</w>
uc apan</w>
tr án</w>
ting kah</w>
ti ran</w>
thẳ m</w>
th ốt</w>
terta ngkap</w>
t ước</w>
sus unan</w>
spe kulasi</w>
ser vasi</w>
ser e
se jati</w>
sand wich</w>
s ập</w>
rut- turut</w>
reka m</w>
qu ặc</w>
pu tnik</w>
pu lasi</w>
pi ring</w>
perselingku han</w>
penu tu
pengen dara</w>
penga mat</w>
pende ta</w>
penci traan</w>
pencer ahan</w>
pemuk iman</w>
pelu ru</w>
pe lindung</w>
pad uan</w>
nh ường</w>
nghi ê</w>
n ươ</w>
muncu lan</w>
meray akan</w>
men janjikan</w>
memun cu
mem promosikan</w>
mas kapa
marat on</w>
mar ta
lu mba</w>
li buran</w>
l ưỡi</w>
kontro ver
konstitu si</w>
kompu tasi</w>
ko alisi</w>
kin son</w>
kera guan</w>
ker a</w>
ji -
jad ilah</w>
iz in</w>
intelek tual</w>
i- bayi</w>
hor mat</w>
gu el</w>
gi ới.</w>
gi ô</w>
gi e</w>
g ì.</w>
f ung
ekseku si</w>
edi tor</w>
du ras</w>
dra l</w>
do t</w>
dite mbak</w>
dira wat</w>
dile paskan</w>
di undang</w>
di buang</w>
di atas</w>
de til</w>
da tanya</w>
d ịp</w>
ca m-
c ca</w>
c anh</w>
bu ngan</w>
bertu rut-turut</w>
ber satu</w>
ber kali
ber adaptasi</w>
be th</w>
bay i-bayi</w>
bar ing</w>
bali ta</w>
bagian- bagian</w>
ba mbu</w>
ba i</w>
b ư</w>
b ùn</w>
b re
ak un</w>
ak aran</w>
ah anan</w>
adi on</w>
ada annya</w>
ad onan</w>
a sional</w>
Yaya san</w>
U y</w>
Su ci</w>
Ser bia</w>
Sek retaris</w>
S putnik</w>
Ru mania</w>
Or gani
OE CD</w>
Montre al</w>
Mi guel</w>
Meng apa</w>
M ọi</w>
Ko ngo</w>
Ke pu
I ng
Hon duras</w>
Har ry</w>
Gu a
Gre at</w>
Do w
Bu ff
Associ ated</w>
A str
9 7</w>
9 6</w>
8 4</w>
đ ô
za beth</w>
wisa ta</w>
vi sua
ur t</w>
uk kannya</w>
tr ễ</w>
to wn</w>
to pi</w>
ti mnya</w>
tam bahkan</w>
ta tor</w>
sungg uhan</w>
sua sana</w>
su m</w>
su f</w>
si us</w>
seper empat</w>
sen tuhan</w>
sejen isnya</w>
se tia</w>
se sudah</w>
se pasang</w>
ru ột</w>
re sep
radi asi</w>
ra ma</w>
ra i</w>
r ari</w>
qu ot</w>
pri vasi</w>
po tret</w>
po p</w>
pinggi r</w>
pi an</w>
pesa t</w>
per men</w>
penye lesa
peni puan</w>
pend erita</w>
pemi kir</w>
pan dai</w>
pa la</w>
ob yek</w>
na lu
n anya</w>
mur ni</w>
min kan</w>
mi seli
mi ly</w>
mi lan</w>
meta bo
mengangg apnya</w>
mengak tifkan</w>
meng obati</w>
membe la</w>
maskapa i</w>
ma yan</w>
ma ti
logi c</w>
lo los</w>
lih -
len sa</w>
l ề</w>
kontrover sial</w>
kolon i</w>
ko lam</w>
kepi ngan</w>
kebang kitan</w>
ke gelapan</w>
kamp ung</w>
ka y</w>
hi t</w>
h kah</w>
h er</w>
gene tis</w>
foku skan</w>
eko logi</w>
du lunya</w>
dita w
diri ku</w>
dino saurus</w>
di makan</w>
di ingat</w>
di hentikan</w>
di dapat</w>
demokra tis</w>
de teksi</w>
d ê</w>
củ ng</w>
berkali -kali</w>
ber kulit</w>
ber hak</w>
ber gu
ber balik</w>
ai l</w>
ad u</w>
a lu
Y an
U sha
U mum</w>
T aylor</w>
T api</w>
Sha ng
S lo
P ang
P C</w>
O per
Ne il</w>
Moham med</w>
Mo ha
M S
La ma</w>
L C</w>
Kan sas</w>
In du
Hil lary</w>
Geo gra
F oo
F DA</w>
En ce
Eli zabeth</w>
ED I</w>
Camp bell</w>
Bu ruh</w>
B and
Ab bas</w>
A M</w>
độ n</w>
Đ ỏ</w>
yaya san</w>
x ay</w>
u hkan</w>
tr áng</w>
toler ansi</w>
ta min</w>
t ẩy</w>
t ner</w>
sukar elawan</w>
su p</w>
so i</w>
sin ambu
se akan</w>
s tein</w>
re kan-
ran d</w>
pun caknya</w>
poten sial</w>
poli tis</w>
pen juru</w>
pembu luh</w>
pemb akaran</w>
pe are</w>
p ukulan</w>
ori en
organi sir</w>
oper asikan</w>
o nya</w>
o log</w>
ng ột</w>
nas kah</w>
mo men
mikro ba</w>
menying kirkan</w>
meneri manya</w>
memuncu lkan</w>
memper cepat</w>
meme takan</w>
meme lihara</w>
member inya</w>
man i</w>
mak si
m- jam</w>
m- diam</w>
m my</w>
lu san</w>
lu mayan</w>
lo ng
la gi-
lagi- lagi</w>
ku ngan</w>
kh en</w>
ketidak pastian</w>
kehadi ran</w>
ke sedi
kaca mata</w>
inter aktif</w>
inf lasi</w>
ha p</w>
h mu</w>
gi ãn</w>
gi onal</w>
gedu ng-
f ru
f a</w>
es peare</w>
e lit</w>
duduk i</w>
diper oleh</w>
diku tip</w>
dia m-diam</w>
da un</w>
d ỗ</w>
d ong</w>
ch ằm</w>
ch â</w>
cam- macam</w>
c ự</w>
bi r
ber maksud</w>
ber makna</w>
benar kan</w>
ba gikan</w>
ara hnya</w>
anak- anaknya</w>
an e</w>
Yo ung</w>
X ã</w>
X i
W ah</w>
Usha hidi</w>
Tr ắng</w>
Shak espeare</w>
Schwar z
S ol
S no
S D</w>
R ud
R on
Pho eni
Pe mi
Pap ua</w>
P ara
P ala
O ne</w>
Mu seum</w>
Mu l
Li ver
Lew is</w>
Lak ota</w>
Lad en</w>
L ov
Katr ina</w>
K en</w>
K B</w>
Indi ana</w>
I an</w>
He y</w>
H D</w>
Gua tema
G un
G PS</w>
G MT</w>
Fre e
Fer rari</w>
Fe deral</w>
F ri
Ever est</w>
Edu cation</w>
E din
Da ve</w>
D .</w>
B ệnh</w>
B rad
B M
An na</w>
Ah med</w>
3 60</w>
1 25</w>
đ òn</w>
đ inh</w>
tu rnya</w>
tu l</w>
th ể.</w>
th ầm</w>
ter tinggal</w>
ter perangkap</w>
te sto
testo ster
tar ung</w>
tan da-
super market</w>
sun tik</w>
simp angan</w>
si mulasi</w>
si den
se gi</w>
se babnya</w>
se a</w>
ro bi</w>
re flek
re aktor</w>
por t</w>
ph one</w>
pere kono
per simpangan</w>
per sediaan</w>
per le
penutu pan</w>
pen ahanan</w>
pemberi tahuan</w>
pemak aman</w>
nà n</w>
nh ạt</w>
ngo a</w>
ng ẫm</w>
mul ti
mp aran</w>
mobi lnya</w>
menya mbut</w>
menjela skannya</w>
mene mpe
mende fini
mencer minkan</w>
memu lihkan</w>
memu askan</w>
membaha yakan</w>
mb aran</w>
marta bat</w>
ma- agama</w>
m ỡ</w>
logi ka</w>
lin es</w>
lih- alih</w>
les s</w>
lar ut</w>
la hannya</w>
la dus</w>
l ùng</w>
kun ang</w>
kul tur</w>
ku man</w>
ko lega</w>
kesedi han</w>
keber hasilan</w>
jan in</w>
j in
inte grasi</w>
imi gran</w>
hipo tesis</w>
ham inya</w>
habi san</w>
h ek
gan tungan</w>
for m</w>
fer en
f unda
ekspe disi</w>
did orong</w>
di selamatkan</w>
di publikasikan</w>
di pan
di mengerti</w>
di kerjakan</w>
di et</w>
d ồn</w>
ce patnya</w>
ca p</w>
ca ir</w>
c arkan</w>
buk unya</w>
bi ếm</w>
ber potensi</w>
bag inya</w>
b or</w>
as linya</w>
ani tasi</w>
ai robi</w>
aga ma-agama</w>
a lih-alih</w>
a hnya</w>
W at
Ven us</w>
V ô</w>
V âng</w>
V a
S tor
S E</w>
Re d
R ay</w>
Pi x
Phoeni x</w>
Os car</w>
Ng ài</w>
New ton</w>
N airobi</w>
N Z</w>
Mu mbai</w>
Lu ật</w>
L un
Kepu lauan</w>
K al
Institu t</w>
Ice land</w>
Geogra phic</w>
G ener
Ence ladus</w>
Edin burgh</w>
Di a
D ự</w>
Co lor
Co lombia</w>
C ái</w>
C ur
Air lines</w>
A po
độ ng.</w>
Đ an</w>
ô tô</w>
y ung</w>
w ork</w>
w elas</w>
w ai</w>
vi sion</w>
v ắng</w>
v .
trans par
tr iều</w>
ti ram</w>
th on</w>
teru mbu</w>
tero id</w>
ter nya</w>
ter miskin</w>
tek ni
te muan</w>
tanda- tanda</w>
t ku</w>
sen sitif</w>
san alah</w>
ru tin</w>
rin ci</w>
rad ar</w>
po la-
perekono mian</w>
penh agen</w>
pen diri</w>
pas tikan</w>
par adi
pad aku</w>
pa ngka
ori al</w>
o ton
nghi êng</w>
ng ộ</w>
nan o
mor alitas</w>
mo di
miseli um</w>
minis trasi</w>
merangku l</w>
meningka tnya</w>
mengu ru
mengor bankan</w>
menghidu pkan</w>
mencu ci</w>
mema sang
mem ben
mb o</w>
man -
ma lan</w>
luncu r</w>
ling ton</w>
lih araan</w>
le gi
langka h-
kun ang-
kontro versi</w>
ki êng</w>
ki tkan</w>
keti ng</w>
keha milan</w>
ke- 20</w>
kar i
jad wal</w>
j inya</w>
i zinkan</w>
hi langnya</w>
h en</w>
gu dang</w>
gi ư</w>
gedung- gedung</w>
ge ser
gamb arnya</w>
g la
el le</w>
do sis</w>
dipin dahkan</w>
dip lo
di jelaskan</w>
di e</w>
di bicarakan</w>
da le</w>
d ạ</w>
d d
bra him</w>
bo l</w>
be ton</w>
b ù</w>
au dio</w>
al o</w>
ade gan</w>
Whi te</w>
W is
W M
Vai le</w>
Radi o</w>
R W</w>
R O
Per da
Pen y
Patri ck</w>
Or le
Mar ia</w>
Mala wi</w>
M ạch</w>
Lar ry</w>
Ker a
Je an</w>
Jan e</w>
H àng</w>
Gi b
F u
D .
Co ok</w>
C lo
Ber lin</w>
Bad an</w>
Aristo tle</w>
Ar men
Al ban
A ra
A da</w>
8 2</w>
8 .000</w>
1 80</w>
. org</w>
đo m</w>
ý .</w>
ye ah</w>
xu â</w>
vi ew</w>
valu asi</w>
v ả</w>
uru san</w>
ur nal</w>
tun a</w>
tri ê</w>
thi ền</w>
te bal</w>
t ảo</w>
t y
t ty</w>
t mu</w>
so l</w>
sinambu ngan</w>
simp an</w>
sen dirinya</w>
sembu h</w>
se mb
s áo</w>
s anitasi</w>
ru te</w>
rer untuhan</w>
r ộn</w>
r âu</w>
pola- pola</w>
pi r</w>
perle ngkapan</w>
perai ran</w>
penyelesa ian</w>
penu aan</w>
penga jaran</w>
peng anggu
pena sehat</w>
pembe lian</w>
pe juang</w>
p h</w>
oper ator</w>
nh ủ</w>
mi -
menye sa
menya jikan</w>
menju alnya</w>
mengun durkan</w>
mene mb
mendefini sikan</w>
menar uhnya</w>
men diskusikan</w>
memper tanyakan</w>
memper kuat</w>
memper besar</w>
memba talkan</w>
mema haminya</w>
mem benci</w>
man akah</w>
lamp au</w>
l ậu</w>
kunang- kunang</w>
ku tu</w>
kilo gram</w>
kh as</w>
keter batasan</w>
kepri badian</w>
ken ya
ken angan</w>
kal ku
ka pita</w>
ka mah</w>
ka langan</w>
k ẹp</w>
in duk</w>
identi fikasi</w>
ide al</w>
i su
ho ành</w>
ho mo
gi c</w>
fi ksi</w>
femini s</w>
et nis</w>
entro pi</w>
dokumen tasikan</w>
disi plin</w>
dii jinkan</w>
dida sarkan</w>
diagno sis</w>
di luar</w>
da tar</w>
da s</w>
da er
d ệt</w>
d or</w>
d kannya</w>
ci ta-
ci ri</w>
cen t</w>
c tor</w>
c re
c ket</w>
blo kir</w>
biay anya</w>
bi e</w>
ber tentangan</w>
ber nafas</w>
ber komitmen</w>
bar ak</w>
ba sah</w>
b ể</w>
ara han</w>
apo lis</w>
ap annya</w>
abad i</w>
a ta</w>
a mbang</w>
Yan ke
W ak
W .</w>
T uy
T ah
Si licon</w>
Shang hai</w>
Ser ge
Ro cke
Pen e
Pa c
Orle ans</w>
N atal</w>
Me h
Margar et</w>
Le i
Kera jaan</w>
Ju lian</w>
J ay</w>
I o
I a</w>
I R
Ha m
Gra ce</w>
F O
Den mark</w>
Da lai</w>
Color ado</w>
Ch ỉ</w>
Armen ia</w>
6 2</w>
20 20</w>
€ </w>
đi ền</w>
đ ậm</w>
Đ ừng</w>
y ut</w>
y d</w>
xo ắn</w>
wa ter</w>
ven ti
ve teran</w>
tu hi</w>
trans formasi</w>
tra gis</w>
tr ùm</w>
terh or
ter n</w>
sub -
sua minya</w>
spon tan</w>
sho w</w>
seki an</w>
se baik</w>
s ướng</w>
ro man
r ìa</w>
po t</w>
pi t</w>
persa ingan</w>
perca yai</w>
per geser
penganggu ran</w>
peng ganti</w>
pemo tongan</w>
pem beda
ola h-
ngu ngkan</w>
nge ng</w>
ng ô</w>
nasi b</w>
mi grasi</w>
meri lis</w>
menyad arinya</w>
menunj ukkannya</w>
mengece wakan</w>
meng konsumsi</w>
meng indi
mene mpati</w>
men tasi</w>
memer intahkan</w>
meman cing</w>
ma h
m ma</w>
lu tut</w>
li kannya</w>
le t
lap ar</w>
langkah- langkah</w>
lang su
l- betul</w>
l ọt</w>
kun cinya</w>
kon ser</w>
koman dan</w>
ker en
ke mbang</w>
ke dokteran</w>
ke ben
keben cian</w>
kap ten</w>
kagu m</w>
ka mp</w>
k tik</w>
k ang</w>
ju r</w>
je lek</w>
je jaring</w>
jalan i</w>
jad </w>
ja ngka
hek tar</w>
gi en</w>
gaw ang</w>
g g</w>
g ari
fre ku
fi l</w>
fanta stis</w>
f on</w>
er e</w>
entro py</w>
en ko</w>
e x
dita mpilkan</w>
dise barkan</w>
digi t</w>
di su
di sediakan</w>
di rasakan</w>
di har
di antaranya</w>
detek tor</w>
d ini
d akkan</w>
cor an</w>
bi jak</w>
betu l-betul</w>
berse mbunyi</w>
bere aksi</w>
ber tugas</w>
ber siap</w>
ber perang</w>
ber man</w>
ber jarak</w>
ber c
bah ar
bag e</w>
b ìa</w>
ang kanya</w>
anda inya</w>
an tu
an tariksa</w>
an .</w>
Y er
X ô</w>
U kra
Th ực</w>
Tes la</w>
Sa tur
S wi
S inh</w>
Pix ar</w>
Pe nge
PD B</w>
Liver pool</w>
Lin col
Lea gue</w>
Ke pala</w>
I brahim</w>
I P</w>
Hi mala
Guatema la</w>
Gu y</w>
G en
G ala
E k
Do ha</w>
De mo
Ch ad</w>
Ca pe</w>
C la
Blu e</w>
B is
B S</w>
6 7</w>
6 1</w>
5 6</w>
5 ,</w>
20 30</w>
199 0-an</w>
ư ởi</w>
y u
y e</w>
x ưởng</w>
vi et</w>
v ặt</w>
v ất</w>
u lar</w>
tr en</w>
ti kal</w>
tho i</w>
ter atas</w>
su ra
si ran</w>
si ana</w>
sesu dahnya</w>
se ukuran</w>
se olah-
se mpat</w>
se ketika</w>
se andainya</w>
s co
rin tangan</w>
reali ta</w>
pu nggung</w>
pro po
pro -
pin si</w>
pesi sir</w>
pers onal</w>
pergeser an</w>
per oleh</w>
per na
peny an
pembuk aan</w>
pembu ru</w>
pemberon takan</w>
p ung</w>
ov </w>
or din
omo ng-
omong- omong</w>
o kan</w>
nh ấp</w>
nh ượng</w>
ng ợi</w>
na i</w>
n ồng</w>
mp uk</w>
mikro skop</w>
mengindi kasikan</w>
menger jakannya</w>
meng gi
men duga</w>
memba las</w>
mem pekerjakan</w>
medi tasi</w>
mar keting</w>
m ốc</w>
m ore</w>
lu su
lini s</w>
kon sep
komp o
komi te</w>
kisa hnya</w>
kh ép</w>
kh aya
ken cang</w>
kela mbu</w>
ke habisan</w>
ka sinya</w>
inte lijen</w>
ing kan</w>
i c</w>
ho ă</w>
h ổng</w>
gi ục</w>
gi ếng</w>
gi áp</w>
g ạt</w>
freku ensi</w>
for um</w>
fisi kawan</w>
e zza</w>
dise tujui</w>
dia gram</w>
de ta</w>
da h
cita- cita</w>
ch ê</w>
ca mnya</w>
c ược</w>
c le</w>
bu ồng</w>
bu tiran</w>
bu tan</w>
ber tuliskan</w>
ber pakaian</w>
ber mula</w>
ber kas</w>
belan jaan</w>
be sok</w>
b ộc</w>
ar s</w>
ar ang</w>
ak wa</w>
agen da</w>
ab str
X anh</w>
V âng.</w>
V ar
UN I
Ti me</w>
T V
So viet</w>
Sky pe</w>
Ros ling</w>
Ro mo</w>
R an
Pu tin</w>
Per wakilan</w>
Pang eran</w>
Olympi c</w>
O z</w>
O u
N A</w>
Mi chi
Lou is</w>
Li t
Le t
L es
Kon servatif</w>
J or
H ồng</w>
G O</w>
D al
Co o
Clar ke</w>
Bul ls</w>
Bla ck</w>
Ber tie</w>
Ben jamin</w>
Band ara</w>
Bab bage</w>
Atlan tik</w>
An ak</w>
Al bert</w>
A vi
A G</w>
9 8</w>
9 2</w>
5 4</w>
199 2</w>
đu ối</w>
x à</w>
we et</w>
ur u</w>
u ri</w>
u angnya</w>
tur unkan</w>
timbu l</w>
tike t</w>
terla tih</w>
terhor mat</w>
ter si
ter jang
tari f</w>
tang ki</w>
tang ani</w>
ta gihan</w>
t ế.</w>
sour ce</w>
sin tesis</w>
ser ver</w>
seolah- olah</w>
sema camnya</w>
saud ara-
s ườn</w>
s p
s aksikan</w>
res pon
ren tang</w>
re gu
ran si</w>
r ổ</w>
r .</w>
pu tuskan</w>
propo sal</w>
po si
persi dangan</w>
pers on
perla wanan</w>
pera yaan</w>
per mo
peng olahan</w>
pener bit</w>
pene mu</w>
pen ar
peme gang</w>
paradi gma</w>
pa gar</w>
o lasi</w>
nh ện</w>
nh àm</w>
ne ss</w>
mô t</w>
mu tasi</w>
mpe t</w>
mp ung</w>
mp ai</w>
min at</w>
meyak ini</w>
mewuju dkannya</w>
menga cu</w>
meng go
mener bangkan</w>
men on
membang kitkan</w>
mele pas</w>
me wawancarai</w>
mb an</w>
m ãnh</w>
lớ n.</w>
lã i</w>
lu ruh</w>
lu mpur</w>
lingku ngannya</w>
le mari</w>
lang- ulang</w>
lan an</w>
la in-
l éo</w>
l ari
kuad rat</w>
kos mo
ko saan</w>
keu nggulan</w>
keter hubungan</w>
kesa tuan</w>
kenya manan</w>
ke s</w>
ke makmuran</w>
kan dang</w>
k anis</w>
ju ran</w>
ja han</w>
isu -
isu- isu</w>
inde ks</w>
in dra</w>
i jinkan</w>
hu ýt</w>
hari mau</w>
ha s
h el
gu r
g ũi</w>
g li
fil suf</w>
e go
duduk nya</w>
do ngeng</w>
dise lenggarakan</w>
dis kri
dii zinkan</w>
di had
di angkat</w>
di alami</w>
deng aran</w>
de pannya</w>
da taran</w>
da ta
d ịu</w>
d âng</w>
d orong</w>
bru tal</w>
bi ji</w>
ber sejarah</w>
be la
b ời</w>
b ỉ</w>
b ến</w>
b ẫy</w>
b óp</w>
asu ransi</w>
ak an-
ai rnya</w>
ad ik</w>
V ol
U K</w>
U C
Te d</w>
T ara
T ar
Ro y</w>
Phi lip</w>
P P</w>
Na than</w>
N ar
N H
Musi m</w>
Mo sko
Mar c</w>
Mah kamah</w>
Ko lombia</w>
K au</w>
Jon a
Jer ry</w>
Is landia</w>
H aki
For bes</w>
Fer nan
Ed wards</w>
Ed ward</w>
Da il
D on</w>
D M</w>
Col le
Co ch
Chris tian</w>
Chi le</w>
Cha vez</w>
C P</w>
Bru ce</w>
A W
A V</w>
9 3</w>
1 40</w>
ỏ .</w>
đô la</w>
đo ạt</w>
đ c</w>
Đ ộng</w>
Đ ịa</w>
â t</w>
y le</w>
wi ck</w>
vi sasi</w>
vi c</w>
u bah</w>
tr ừu</w>
th ề</w>
th ắn</w>
ter a</w>
te ng</w>
te liti</w>
t co
su m
spa ghe
sin asi</w>
seu tuhnya</w>
ser agam</w>
sepu pu</w>
se demikian</w>
sa d</w>
rap uh</w>
r ặng</w>
per o
pengun jung</w>
penc ari</w>
pen eri
pen ca
pembe la</w>
pemba gian</w>
pe dagang</w>
pan ik</w>
ox y</w>
orien tasi</w>
on is</w>
no t</w>
nh ị</w>
ng ớ</w>
ng s</w>
n ứt</w>
mp ok</w>
min oritas</w>
mi tra</w>
mes tik</w>
menye wa</w>
menin jau</w>
menganali sis</w>
memper lakukan</w>
membi ngungkan</w>
matema tis</w>
mak asih</w>
lo m</w>
le mbaran</w>
ldo va</w>
l ốc</w>
l ót</w>
l ara</w>
kon tes</w>
kho t
ke dalaman</w>
karen akan</w>
kan ak-
k ara</w>
ja l</w>
hu ỷ</w>
her o
h àn</w>
glo bali
globali sasi</w>
gen catan</w>
ge li
g by</w>
foto grafer</w>
filoso fi</w>
fi tur</w>
f -
du ran</w>
do k</w>
disi mpan</w>
dipe cat</w>
dia log</w>
di tuntu
di pengaruhi</w>
di karenakan</w>
cor et</w>
coba lah</w>
ch úng.</w>
ca an</w>
c ọ</w>
c erah</w>
c er</w>
bung kus</w>
bu rkan</w>
bi langan</w>
bi an</w>
berta hap</w>
ber mimpi</w>
ber jalan-jalan</w>
ber bin
ba lap</w>
b ẻ</w>
ata si</w>
at anya</w>
ar ki</w>
al y
aki tan</w>
ade my</w>
a set</w>
Y ves</w>
Y aman</w>
Wo men</w>
U dara</w>
Tr ong</w>
Ti bet</w>
Si r</w>
Ro ger</w>
R G</w>
Qu ran</w>
Ph ật</w>
P I
O K.</w>
Moha med</w>
Mo ldova</w>
Michi gan</w>
Mari o</w>
Lou i
Lang ley</w>
Kor esh</w>
Ke polisian</w>
K ì</w>
K il
Jus tin</w>
Ja co
Io wa</w>
Hon da</w>
H ud
H ag
Gu ar
Gla s
F C</w>
Eng land</w>
E E
Dou g</w>
Di rektur</w>
Cy rus</w>
Clar k</w>
Chu ck</w>
Ch er
C ir
C C</w>
Brook lyn</w>
Bang sa-
Ac ademy</w>
A sasi</w>
A da
9 ,
7 .000</w>
100 ,000</w>
ề ng</w>
ướ c.</w>
đ un</w>
Đ ồng</w>
Đ ào</w>
yo ta</w>
w annya</w>
ve y</w>
v ần</w>
v ít</w>
usi anya</w>
tuy ê</w>
tu -
tri ệt</w>
tif nya</w>
th ươ</w>
teris tik</w>
ter tidur</w>
ter sa
ter paksa</w>
ter or</w>
te ch</w>
te bak</w>
taha pan</w>
ta lah</w>
ta bel</w>
t ăm</w>
spaghe tti</w>
solu sinya</w>
so uri</w>
si er</w>
selek si</w>
sa ma-sama</w>
s ụt</w>
s ori</w>
s burg</w>
s akan</w>
ri gai</w>
ri ch
ren ang</w>
produ sen</w>
ph er</w>
persi apan</w>
per antara</w>
pengh ancu
pena mbang</w>
pemer kosaan</w>
pele dak</w>
ot ori
organi sa
or a</w>
ny eri</w>
nir kabel</w>
ni e</w>
ng er</w>
na mpaknya</w>
n ón</w>
mobi l-
mo u
mer t</w>
menye lam</w>
memo tret</w>
membang unnya</w>
mem akannya</w>
me laksanakan</w>
mar kas</w>
manusi awi</w>
manu al</w>
li tasi</w>
li ga</w>
li ft</w>
lain- lain</w>
l ột</w>
l áng</w>
l t</w>
l orong</w>
kre asi</w>
kho ăn</w>
kho áng</w>
kho lm</w>
kelompok -
keker ingan</w>
keka lahan</w>
ke wa
ke pun
ke langsu
ka bur</w>
k linis</w>
ju rkan</w>
jar nya</w>
intu i
ho p</w>
has rat</w>
habi tat</w>
h ẻo</w>
h ông</w>
go w</w>
f ar
es te
dy s
dita yangkan</w>
diper kenalkan</w>
dia baikan</w>
di visi</w>
di gabungkan</w>
d ại</w>
d win</w>
d ada</w>
cur ang</w>
cu a</w>
ch ùm</w>
ch ô</w>
ch èo</w>
cang kir</w>
c ia</w>
berc anda</w>
beran jak</w>
ber dua</w>
ber bunyi</w>
ber baring</w>
belaka ngnya</w>
bah u</w>
b ực</w>
b ổng</w>
b ẩm</w>
b ăn</w>
az ah</w>
at kannya</w>
as teroid</w>
ar tistik</w>
ar ta</w>
ang annya</w>
an annya</w>
ali k</w>
ad akah</w>
a ma</w>
Yer usalem</w>
We b
To yota</w>
Thi ết</w>
Tai pe
Schu l
Sch ool</w>
S akit</w>
S C</w>
R y
R ang
Que be
Par kinson</w>
Ng ày</w>
N G</w>
My ers</w>
Mis souri</w>
Mi lan</w>
Mar co</w>
Lincol n</w>
Li b
Leon ardo</w>
L ực</w>
L e</w>
Ko so
Jona than</w>
Jef f</w>
I D
He len</w>
He i
Hag gis</w>
Gu bernur</w>
Gi áng</w>
For t</w>
F li
Dail y</w>
Co perni
Ch u</w>
Ch el
C ảnh</w>
Bo ngo</w>
Bangsa- Bangsa</w>
Aristo tele
Al len</w>
8 0-an</w>
7 8</w>
7 1</w>
5 3</w>
19 00</w>
1, 3</w>
1 60</w>
00 ,000</w>
# </w>
ờ .</w>
ả n.</w>
đ ốm</w>
Đ ế</w>
ò an</w>
é .</w>
x ả</w>
x í</w>
war gan
w ine</w>
volu me</w>
ven ia</w>
v ời.</w>
v el
u ger
tu cky</w>
transpar ansi</w>
tran sisi</w>
tr ương</w>
tr uyê</w>
to lik</w>
ter susun</w>
ter hebat</w>
teman- temannya</w>
tan ia</w>
tad inya</w>
ta ngkan</w>
sua p</w>
su h
sik lo
se pakbola</w>
se e</w>
s ă</w>
s aku</w>
ru pa</w>
roman tis</w>
ri wa
re sistensi</w>
re ken
ran- aturan</w>
ra mbu</w>
r ã</w>
r sa</w>
quy ến</w>
por no
po sisinya</w>
po mpa</w>
pin es</w>
pi sang</w>
peng an
pener je
pen untu
pemi rsa</w>
pe jalan</w>
pas ca-
p anya</w>
nila inya</w>
nh o
ng e</w>
mobil- mobil</w>
mo ud</w>
mo de
mi ng
menyer ap</w>
menya lurkan</w>
menun da</w>
meni pu</w>
mengi ku
menghen tikannya</w>
men daftar</w>
memu at</w>
memper hitungkan</w>
memo tivasi</w>
mem bun
me kanis</w>
m bahan</w>
lu ân</w>
lomp atan</w>
li s
le zat</w>
l ên.</w>
kho ai</w>
khaya lan</w>
kesuk aan</w>
kelompok- kelompok</w>
kege mukan</w>
ke- 21</w>
ke tahanan</w>
ke gunaan</w>
ke gembi
kal ori</w>
jen ius</w>
jen azah</w>
je lis</w>
jangka uan</w>
individu al</w>
in aan</w>
imba lan</w>
i kuti</w>
hidro gen</w>
h óc</w>
gra f</w>
gi us</w>
fru strasi</w>
fe min
fa se</w>
f tab
er at</w>
ekstr a</w>
eksp or</w>
don ia</w>
ditaw arkan</w>
diskri minasi</w>
dina mika</w>
diku mpulkan</w>
dihad apkan</w>
diha pus</w>
di sampaikan</w>
di bagi</w>
da ngnya</w>
da ian</w>
d ời</w>
ch ay</w>
c ộ</w>
c kholm</w>
bon ac
bonac ci</w>
bo w
berku alitas</w>
ber tumbuh</w>
be ku</w>
ba ta</w>
ba jak</w>
ax it</w>
atu ran-aturan</w>
at- coret</w>
ari ngan</w>
ang kannya</w>
ak un
aj aran</w>
ag an</w>
abstr ak</w>
a sisten</w>
Ye sus</w>
Y R</w>
X box</w>
Uni on</w>
Th ương</w>
TED Talk</w>
T hành</w>
Sto ckholm</w>
Spa ce</w>
Ra ja</w>
Ph ải</w>
Pan tai</w>
O ffi
Net work</w>
N as
M ẹ</w>
L yn
L ing
Koso vo</w>
Ken tucky</w>
J ason</w>
Glas gow</w>
Gil lian</w>
G ali
Fo x</w>
Fi bonacci</w>
F lo
F la
En er
E uro</w>
Co ngo</w>
Co ke</w>
Co hen</w>
Chris to
C li
Buff alo</w>
Bla ck
Be ach</w>
B ồ</w>
Aristotele s</w>
A T</w>
9 4</w>
8 3</w>
7 9</w>
7 4</w>
7 0-an</w>
5 ,000</w>
198 6</w>
197 5</w>
- masa</w>
đ ục</w>
đ úng.</w>
ó i.</w>
zi ris
ziris tan</w>
x ấp</w>
x en</w>
wo w</w>
wi tz</w>
v ọt</w>
tu ý</w>
trau ma</w>
trans fer</w>
tr ội</w>
tr ọng.</w>
tin ta</w>
tho a</w>
terjang kit</w>
ter ser
tak si</w>
ta lan</w>
t ủy</w>
t son</w>
suh unya</w>
su tra</w>
su mur</w>
ster ling</w>
singka tnya</w>
sema lam</w>
selu ler</w>
sel era</w>
sa p</w>
sa linan</w>
s we
reken ing</w>
re pu
ran jang</w>
r ũ</w>
qu ỷ</w>
psiko logis</w>
produk -
produk- produk</w>
pro fil</w>
prak tik</w>
po to
pi ng</w>
perti mbangan</w>
pengh or
penge mbang</w>
peng unjuk</w>
pend an
pen an
pem ben
pe lo
p lah</w>
ole ezza</w>
o bo
nu ối</w>
no ld</w>
ni k
nh ục</w>
ngh ênh</w>
ng ây</w>
nar asi</w>
mộ t-</w>
moni tor</w>
mi traan</w>
mes in-
mer k</w>
menye luruh</w>
menge sankan</w>
meng akses</w>
mend aki</w>
menan amkan</w>
men uk
men dokumentasikan</w>
memper lambat</w>
memak ainya</w>
mbo ja</w>
mba la</w>
masa -masa</w>
ma buk</w>
m ư</w>
m y
lusu ri</w>
len yap</w>
le mbar</w>
le en</w>
lan jang</w>
l ọ</w>
l ukannya</w>
ku asa</w>
kon ta
kh a
kepun ahan</w>
kegembi raan</w>
ke mari</w>
karak teristik</w>
kar et</w>
k rut</w>
k lu
jalan nya</w>
ja lu
i th</w>
h án</w>
h man</w>
gh é</w>
geli sah</w>
g ộp</w>
fil ter</w>
fil m-
fi r</w>
f ur</w>
do ạ</w>
dituntu t</w>
diting galkan</w>
diper baiki</w>
diken akan</w>
dihubu ngkan</w>
did akwa</w>
diba tasi</w>
diba ca</w>
di r</w>
di maksudkan</w>
de wa</w>
d oleezza</w>
d akannya</w>
chu ối</w>
c or</w>
c la
bis bol</w>
bi ar</w>
berja m-jam</w>
beran takan</w>
ber sepeda</w>
be kerjasama</w>
baik lah</w>
b anh</w>
asu han</w>
antu si
and y</w>
an mar</w>
an j
ala mat</w>
Wei bo</w>
Wa ziristan</w>
W ill</w>
V es
Th ông</w>
Taipe i</w>
T ing
Si ftab
Sch a
Re id</w>
Quebe c</w>
Qu r</w>
Po int</w>
Pi er
Ph ó</w>
P ener
P ela
Ng hệ</w>
N u
My anmar</w>
Mur ray</w>
Mon ten
Mo z
Mar y
Ma ya</w>
M K</w>
Ker ry</w>
K ah
Jo urnal</w>
Jacqu es</w>
J .</w>
I Q</w>
Hud son</w>
Hal l</w>
Haki m</w>
Gol dman</w>
Gi ao</w>
Fran cis</w>
F il
F L</w>
Du bai</w>
Dis ney</w>
De an</w>
D r</w>
Con doleezza</w>
Ch an
Cel tic</w>
Car ol</w>
CE R
Bo li
Be au
B ai
Ar nold</w>
Ab bo
8 0.000</w>
6 -
4 ,</w>
3 ,5</w>
2 5.000</w>
2 ,</w>
196 4</w>
1 ,</w>
- proyek</w>
ứ .</w>
ố .</w>
ậ t.</w>
đ ệm</w>
đ àng</w>
à i.</w>
zer bai
waji b</w>
wa wasan</w>
ve land</w>
vari a
v ar
usse ll</w>
un tuk
u ngkap</w>
u capkan</w>
tt g</w>
tr á</w>
to mat</w>
ti ons</w>
thi ếp</w>
ter cepat</w>
temp atnya</w>
tangg uh</w>
ta l
t ụng</w>
t ạc</w>
t man</w>
t form</w>
su aranya</w>
ske ma</w>
siste matis</w>
si um</w>
si li
seri al</w>
se juta</w>
se gi
say apnya</w>
s úp</w>
rin cian</w>
rekan- rekan</w>
ra in</w>
r ải</w>
r ìu</w>
pu trinya</w>
pu ing</w>
proyek -proyek</w>
profe si</w>
presen tasikan</w>
ph ơi</w>
perca yalah</w>
per ik
penu li
penghor matan</w>
pengha lang</w>
peneri maan</w>
pendan aan</w>
penaw aran</w>
pen duduknya</w>
pemi sahan</w>
pan jangan</w>
p si
p ra-
p ler</w>
orang tua</w>
o li
ny atanya</w>
nh ét</w>
ngke ta</w>
ng ơi</w>
ne ll</w>
n ếp</w>
n us</w>
mungk in
mi to
mi bia</w>
metabo lisme</w>
menye mbuhkan</w>
menya tu</w>
meny anyikan</w>
mengh in
meng ilhami</w>
men ta
membu at
memasang nya</w>
meman tau</w>
meli put</w>
melew atkan</w>
me -
m ới.</w>
lo i
lo ck</w>
le l</w>
l ăm</w>
l én</w>
kri stal</w>
ki ềm</w>
kho ang</w>
kh ốn</w>
ker nel</w>
ke- 2</w>
ke mbar</w>
ke m</w>
ke liling</w>
ka hi</w>
k anak</w>
k aku</w>
ja uhnya</w>
inv asi</w>
hi asan</w>
heli um</w>
har usnya</w>
h ả</w>
h ưng</w>
gu ri
gu r</w>
gi o</w>
gene tika</w>
g on
g akkan</w>
flek si
film- film</w>
en nya</w>
ek -
e sok</w>
e disi</w>
dise suaikan</w>
diper bolehkan</w>
dih indari</w>
didi agno
di turunkan</w>
di tarik</w>
di konfirmasi</w>
di cari</w>
da yakan</w>
d âu</w>
cá p</w>
cu ci</w>
cas tle</w>
c lip</w>
bu ruh</w>
bi ji-
be cca</w>
bahar ui</w>
b ội</w>
b ỏng</w>
b óc</w>
b ênh</w>
au di
anali s</w>
aly mpi
adi ng</w>
a ce</w>
Wel lington</w>
V la
U r
Th e
T ài</w>
Star bu
Sol ly</w>
Slo venia</w>
S am</w>
S E
Re becca</w>
R ussell</w>
Qu ảng</w>
Per u</w>
Par alympi
P at</w>
Ol mert</w>
Ni ke</w>
Na mibia</w>
N P</w>
Monten eg
Ma tahari</w>
MP 3</w>
M es
Lor di</w>
Kan tor</w>
Ka tolik</w>
K ro
IM F</w>
IC E</w>
I t</w>
Ho mo</w>
H ay
Gun ung</w>
Gan do</w>
G ru
D ra
D ay</w>
Cle veland</w>
Ch en</w>
Car ri
C .
Bud ha</w>
Ba gian</w>
B rus
Ar ktik</w>
A zerbai
A A</w>
9 ,</w>
7 3</w>
1 10</w>
Ở </w>
ệ .</w>
í nh.</w>
í .</w>
á t.</w>
yo u</w>
x ô</w>
vi li</w>
ver bal</w>
v áy</w>
us s
un dangan</w>
tu ô</w>
tr ư</w>
tr u</w>
ton ia</w>
ti me</w>
thu ô</w>
thi êu</w>
th èm</w>
th ers</w>
ter cipta</w>
ter ben
temp or
tar -
tan tangannya</w>
ta xi</w>
ta ta
t ôm</w>
t ler</w>
su mbangan</w>
ster dam</w>
sin dro
si tulah</w>
ser tifi
sek sua
se x</w>
se hubungan</w>
san di</w>
s ửng</w>
s tur</w>
s tol</w>
s chi
re d
ras h</w>
ra p</w>
r ốt</w>
r èn</w>
r kannya</w>
pub likasi</w>
pu tusan</w>
pu l
produk tivitas</w>
pro pinsi</w>
porno grafi</w>
pikir kanlah</w>
pi stol</w>
permo honan</w>
per gantian</w>
per bankan</w>
pengar uhnya</w>
peng ukuran</w>
pend orong</w>
pembeda han</w>
pedu lian</w>
pe cahan</w>
pay ung</w>
pasi f</w>
p ari
op tik</w>
o logis</w>
ng- burung</w>
ng ục</w>
ng ụ</w>
ng ẩn</w>
nalu ri</w>
n s</w>
mu atan</w>
mis teri
mini mal</w>
mily aran</w>
mi tos</w>
mesin- mesin</w>
menyimp annya</w>
meny iksa</w>
menghi bur</w>
mengen ya
mengan tarkan</w>
meng olah</w>
mener apkannya</w>
mene bak</w>
mend anai</w>
meme san</w>
membuk anya</w>
mem benarkan</w>
meli puti</w>
mele mp
mar t</w>
man kan</w>
mag ne
m ập</w>
lo p</w>
lin k</w>
li x</w>
le mbah</w>
la sinya</w>
l ở</w>
ku ar
ko me
khot bah</w>
keten angan</w>
keru mi
ker ingat</w>
kele mahan</w>
kelangsu ngan</w>
keci lnya</w>
ke sak
ke dalam</w>
kap ak</w>
ka os</w>
ka mbing</w>
k lip</w>
j olak</w>
il la</w>
i ca</w>
i barat</w>
i alah</w>
hor mati</w>
hidu ng</w>
h lah</w>
gu ay</w>
go k</w>
gan tikan</w>
g y</w>
for mat</w>
femin isme</w>
f lu
f eld</w>
eri zon</w>
en zim</w>
dra ma</w>
do minan</w>
din as</w>
dile takkan</w>
di tunda</w>
di lindungi</w>
di l</w>
derhan aan</w>
de mografi</w>
daer ah-
da h-
da an</w>
d ưa</w>
d uni
d t</w>
con sin</w>
ce takan</w>
ce han</w>
cang kang</w>
can du</w>
c ắn</w>
bu ô</w>
bor si</w>
bi us</w>
beru lang-ulang</w>
bersi kap</w>
bersa udara</w>
bere siko</w>
ber tarung</w>
ber taruh</w>
ber paling</w>
ber layar</w>
ber daya</w>
belan ja</w>
b ẩy</w>
b ươ</w>
b ưu</w>
ap inya</w>
aki tnya</w>
aj arkan</w>
a or
a ma
Yanke es</w>
Wes t
Wal sh</w>
V erizon</w>
U tah</w>
Tr uyền</w>
Tho mpson</w>
Te h
T uni
T K</w>
Sh er
SO PA</w>
S ở</w>
S T
S P
Ra ch
R as
R O</w>
Prin ce</w>
Phi l
Per tan
Per tama</w>
Pe mba
Pe m
Ot tawa</w>
O sama</w>
Ng hiên</w>
New castle</w>
N ày</w>
Me m
Mah moud</w>
M ere
M ani
Kar l</w>
K ông</w>
K no
K ni
K hu
K ap
Ju lia</w>
Jor dan</w>
Ja ma
Is la
Institu te</w>
He al
Ha le</w>
H ukum</w>
Fernan do</w>
Den nis</w>
Christo pher</w>
C lub</w>
C S</w>
B ren
B L</w>
Archi e</w>
Am sterdam</w>
Ala bama</w>
A yah</w>
A sosiasi</w>
A P</w>
A E
8 7</w>
196 2</w>
1 ,000</w>
Ừ </w>
ệ u.</w>
ú c.</w>
z ia</w>
x ộn</w>
varia bel</w>
v y</w>
un annya</w>
un -
u lah</w>
tu ngnya</w>
tr ea</w>
ting galkan</w>
ti val</w>
thu â</w>
th ầu</w>
terke san</w>
ter catat</w>
ter bar
te mpur</w>
tak annya</w>
t ớ</w>
su mpah</w>
si de</w>
si da</w>
si atif</w>
sete ngahnya</w>
seny uman</w>
semu la</w>
se ngketa</w>
saud aranya</w>
sar ankan</w>
s ki
riwa yat</w>
re li
re kannya</w>
ran e</w>
ra malan</w>
r ạp</w>
pu tr
pro ton</w>
por si</w>
po kok</w>
pla s
ph ôi</w>
permuk aannya</w>
perka taan</w>
per belanjaan</w>
penja hat</w>
pen is</w>
pembi dik</w>
pember i</w>
pemak aian</w>
pe ka</w>
pe do
pa wai</w>
pa man</w>
ou x</w>
o taknya</w>
nh áy</w>
ng ắt</w>
na ng-
na an</w>
n ói.</w>
mungkin kah</w>
mo s</w>
mi ng</w>
menyusu l</w>
menyeber angi</w>
mengiri mkannya</w>
menda sari</w>
men ji
men dominasi</w>
memin jam</w>
mba -
ma ta-mata</w>
lon i
lin s</w>
lin e
li tian</w>
le h</w>
lar asi</w>
lah gunaan</w>
la yang</w>
l ầy</w>
l ượ
ku p</w>
kon ven
kon dis
kondis inya</w>
kompe ti
ko mun
kh ùng</w>
kh e</w>
ketidak se
ker an
ken tang</w>
keda maian</w>
kebi singan</w>
ke o</w>
kar yanya</w>
kanak- kanak</w>
je ct</w>
ja tuhnya</w>
inten sitas</w>
ins tan</w>
in tro
i ra</w>
ho ạn</w>
hidu p
hi r
hi per
h àu</w>
h h</w>
gi ềng</w>
gi li
ger bang</w>
ge s</w>
ge ng</w>
gan tinya</w>
ga ngkan</w>
ga mpang</w>
foto nya</w>
for mal</w>
elek tron</w>
el la</w>
e tan</w>
duk si</w>
du p</w>
dru m</w>
diak ui</w>
di sukai</w>
di ju
di desain</w>
di dengar</w>
di de
di coba</w>
daerah- daerah</w>
d ụ
d s
chi êm</w>
ca y</w>
ca fe</w>
c ke</w>
buru ng-burung</w>
bun tu</w>
bu- abu</w>
bo man</w>
berse nang-
ber tenaga</w>
ber bakat</w>
ber a</w>
be a
bas ket</w>
bar nya</w>
ban taian</w>
ba se</w>
b ế</w>
b ón</w>
b áng</w>
b ble</w>
aw </w>
at inya</w>
angka -
ambu lan
ak tifitas</w>
a cu
a borsi</w>
Wor ld
W ide</w>
Vla di
V ũ</w>
T hai</w>
Satur nus</w>
S wa
S t</w>
S hu
Rud d</w>
Po pe</w>
Pe psi</w>
P ine</w>
Ni ger</w>
N at
N ak
N Y
Monteneg ro</w>
Mon ter
Mary land</w>
La bor
L at
K ara
Ju li
Jon as</w>
Jes si
J um</w>
J on</w>
J A</w>
Hi gh</w>
H ung
H 5
H 1
For um</w>
Eri trea</w>
E di
Del ta</w>
Colle ge</w>
Col li
Chu r
C âu</w>
C lara</w>
C han</w>
Ber n
B ờ</w>
B ỉ</w>
B .</w>
Australi an</w>
Air bus</w>
AD HD</w>
A man
8 1</w>
5 00.000</w>
2. 5</w>
198 0-an</w>
15 .000</w>
ỹ .</w>
ụ a</w>
ố c.</w>
đ ứt</w>
z on
ya ma</w>
x ơ</w>
x net</w>
wa -
vi ếng</w>
v ội</w>
v ặn</w>
v onis</w>
us ton</w>
un ta</w>
u mnya</w>
tubu hku</w>
tro po
trans aksi</w>
tr ói</w>
to pan</w>
ti knya</w>
th ắp</w>
th ơm</w>
th en</w>
teta pkan</w>
ter wujud</w>
ter nal</w>
ter inya</w>
ten da</w>
tan si</w>
ta i-
t ts
t to</w>
sy uku
spesi alis</w>
sindro m</w>
siklo pedia</w>
sif at-
sela gi</w>
se akan-
seakan- akan</w>
sa fat</w>
ru dal</w>
ren ia</w>
re less</w>
rang sangan</w>
r ỗi</w>
r ệt</w>
qu ạt</w>
qu i
pu sa
pre ss</w>
por i</w>
ph ích</w>
per to
per kak
per buatan</w>
penya lahgunaan</w>
penge boman</w>
penar ikan</w>
pen ola
penola kan</w>
pemben tukan</w>
pele cehan</w>
pe lan</w>
pe laksan
pay ah</w>
para sut</w>
pangka lan</w>
pa ti</w>
p lu
oni tor</w>
o po
nh ơ</w>
ngk uk</w>
ng ạo</w>
muni si</w>
mpa lan</w>
misteri us</w>
mi sil</w>
menyeber ang</w>
mengun duh</w>
menging inkannya</w>
mengha mbat</w>
mengan tar</w>
mengan dalkan</w>
menca ir</w>
men j
memer lukannya</w>
membo ngkar</w>
membe sarkan</w>
memba li
mem onitor</w>
mela mbat</w>
me menang
mas jid</w>
man d</w>
ma tang</w>
m ớ</w>
loi tasi</w>
li ê</w>
li tnya</w>
li teratur</w>
li lin</w>
lay aknya</w>
lan ja</w>
la tor</w>
l ít</w>
konven sional</w>
ko zy</w>
ko l
kete gangan</w>
keli ru</w>
keju araan</w>
kee sokan</w>
kedu taan</w>
kebo coran</w>
keber atan</w>
ke sana</w>
ke aga
keaga maan</w>
kar bon
kan dung</w>
k ệ</w>
k ền</w>
k rasi</w>
jur nal</w>
intui tif</w>
ing atlah</w>
in struksi</w>
hu r</w>
hu mara</w>
harus lah</w>
har fiah</w>
h ái</w>
h ong</w>
gun anya</w>
gra man</w>
go s</w>
gen o
gadis hu</w>
g ukan</w>
fre d</w>
fi kir</w>
eks ternal</w>
e ty</w>
dopa mine</w>
dopa min</w>
ditan yakan</w>
disa hkan</w>
dis tribu
dikiri mkan</w>
dijad ikan</w>
di s</w>
di are</w>
den t</w>
cu p
cli ck</w>
chu ộng</w>
chi ên</w>
ch ạp</w>
ch ướng</w>
ch ui</w>
ch s</w>
ch ang
buk aan</w>
bu sur</w>
bri lian</w>
bo cor</w>
bi ak</w>
beru paya</w>
bersi ul</w>
bersi keras</w>
berma cam-macam</w>
ber istirahat</w>
ber awal</w>
ber atnya</w>
bay aran</w>
bar isan</w>
b ọt</w>
b la
ambulan s</w>
al s</w>
ag er</w>
af kan</w>
adi busana</w>
a bu-abu</w>
Za mbia</w>
W anita</w>
Ven ice</w>
V ật</w>
Tuni sia</w>
Ting gi</w>
Ter ry</w>
Tas mania</w>
Tara humara</w>
T un
Stu xnet</w>
Starbu cks</w>
Shi r
Sh in
Se an</w>
Sar kozy</w>
S ức</w>
S p
S ara
S S</w>
Rich ar
R es
Qu ản</w>
Qu an</w>
Pu b
Pres ton</w>
Por tu
Pi tts
PE C</w>
Organi sasi</w>
O dys
O S</w>
Ni c
Nh ư</w>
Mo ussa
Mo gadishu</w>
Mi tch
M an</w>
Li e
Jo han
Ji mmy</w>
In dian</w>
Hun ter</w>
H1 N1</w>
H ur
H is
H B
Gra y</w>
Gil lard</w>
GN U</w>
Fi re
F i</w>
Es tonia</w>
E ast</w>
E S</w>
D un
D ell</w>
Chel sea</w>
Car ne
CER N</w>
CA D</w>
C ám</w>
Bi har</w>
Bar bara</w>
An ton
Ameri ca</w>
Al- Qaeda</w>
Abbo tt</w>
AC MA</w>
A v
A FP</w>
9 .
3 ,000</w>
198 8</w>
10 1</w>
1 70</w>
- ku
* </w>
ử .</w>
ứ c.</w>
ấ ng</w>
đ ắc</w>
đ ầu.</w>
đ ầm</w>
đ ính</w>
đ an</w>
í ch.</w>
ver tikal</w>
vak sinasi</w>
v eri
usu l</w>
up ah</w>
un e</w>
uku ngnya</w>
u ốn</w>
u ngkan</w>
u ap</w>
tri s</w>
trans paran</w>
tr ọn</w>
ti ga-
tho áng</w>
ter pesona</w>
ter p
temb ak
te mbak</w>
te gas</w>
te dral</w>
ta bungan</w>
t ọa</w>
sumber -
sub yek</w>
su l
stitu si</w>
stabi litas</w>
sertifi kat</w>
ser uan</w>
selu as</w>
sele mbar</w>
se olah</w>
sar apan</w>
samu dra</w>
s ỏi</w>
s ếp</w>
s áp</w>
s ton</w>
s he
resep tor</w>
re p
re gional</w>
ra ngi</w>
qu a.</w>
pro pa
pra sarana</w>
pla tform</w>
pi x
ph o
persa tuan</w>
perkak as</w>
per in
peng gerak</w>
peng gantian</w>
pen al
pem bantaian</w>
pedo man</w>
par ad
pa tannya</w>
pa cu</w>
otori ter</w>
oro ngnya</w>
ok s</w>
ok ong</w>
o ut</w>
nă m.</w>
ny any
nor ma</w>
no by
noby l</w>
ngku ng</w>
ngg ung
ng -</w>
n ếm</w>
mul ti-
mpi ngan</w>
mpi ng</w>
mobi litas</w>
mo tif</w>
mis me</w>
mereka lah</w>
meny oro
mengelu h</w>
mengar tikan</w>
menga lihkan</w>
meng adopsi</w>
menci um</w>
men duduki</w>
membe ku</w>
membali kkan</w>
memba wakan</w>
mem adai</w>
mem ada
me tri</w>
me luas</w>
mba- lumba</w>
mas ak</w>
maksi mal</w>
ma m</w>
m ini</w>
lu mba-lumba</w>
lu ar
ling er</w>
lin tasan</w>
le takkan</w>
landa s</w>
l ứa</w>
kri p
ko misi</w>
ki s</w>
ki mi
khi ê</w>
kh inh</w>
keting galan</w>
keter gantungan</w>
kerumi tan</w>
ker untuhan</w>
ker ap
keputu sa
keju juran</w>
ke- 19</w>
ke l</w>
kar agaman</w>
kan tung</w>
ka la</w>
ka binet</w>
k b
k ari</w>
is t</w>
in str
in ment</w>
il ly</w>
il le</w>
ik h</w>
i tas</w>
hy dro</w>
har a
han- lahan</w>
ha la
guri ta</w>
gugu r</w>
gi le</w>
geo grafis</w>
ga wat</w>
g ô</w>
funda mental</w>
fleksi bel</w>
f atal</w>
ele c
el -
eg araan</w>
disa in</w>
diper lakukan</w>
dike lola</w>
dibe li</w>
di ma
di awa
deng arannya</w>
dak waan</w>
dah sy
da ngka
co s</w>
ch ật</w>
ch ì</w>
ca u</w>
c akan</w>
blo gger</w>
blo g
berke sinambungan</w>
berda mpingan</w>
berbu lan-bulan</w>
ber pi
ber niat</w>
ber masalah</w>
ber lokasi</w>
ber gairah</w>
bea siswa</w>
be serta</w>
ba tas-
ba si</w>
b r</w>
any on</w>
ang ku
ang ko
al l</w>
aki l</w>
a sosiasi</w>
a munisi</w>
Wis consin</w>
Wil son</w>
Wiki media</w>
Vo ya
U ru
T ế</w>
T aman</w>
Su ara</w>
So ci
Si oux</w>
Samu el</w>
S tri
S M
S K</w>
Ri co</w>
Ra ya</w>
R ất</w>
R on</w>
R C</w>
Prin ce
Pener bangan</w>
Pen n</w>
NH L</w>
Mere ka</w>
Mc Donald</w>
Ma x</w>
Loui siana</w>
L eo</w>
Khu sus</w>
Jessi ca</w>
Je an
J angan</w>
In te
Ho uston</w>
Himala ya</w>
Hea th
H ạt</w>
Guar dian</w>
G ene
G S</w>
Fe der
F ro
E van</w>
Dan ny</w>
Da ud</w>
D or
Coperni cus</w>
Co penhagen</w>
Co mp
Co ast</w>
Cher nobyl</w>
C in
C ao</w>
Bu ch
Blo unt</w>
Beat les</w>
B y
B hutan</w>
B est</w>
Azerbai jan</w>
Alber ta</w>
Al- Quran</w>
Al l</w>
Afg han</w>
7 ,</w>
6 0.000</w>
6 0-an</w>
5 000</w>
5 0
40 4</w>
20 13</w>
ủ .</w>
ế n.</w>
đo a</w>
đ ọng</w>
đ è</w>
ú n</w>
ya ti</w>
wa ys</w>
w an-
vi tamin</w>
vi ce</w>
versi de</w>
uss ani</w>
und sterling</w>
u dang</w>
tu ris</w>
tr êu</w>
ther n</w>
teta plah</w>
ter tanam</w>
ter ingat</w>
ter ia</w>
tembak au</w>
te y</w>
te m</w>
te la
tch er</w>
tak a</w>
ta utan</w>
ta sinya</w>
sur e</w>
sun tikan</w>
su p
str oke</w>
str asikan</w>
sin te
sifat- sifat</w>
si ris</w>
si p
seksua litas</w>
se us</w>
se na
saudara- saudara</w>
sau dari</w>
san tai</w>
sambu ngan</w>
sa tuan</w>
sa stra</w>
s unyi</w>
ri -
reli gius</w>
ran jau</w>
pre siden
phi ện</w>
per jalan
per hiasan</w>
penye lengg
pengh uni</w>
peng ga
pener apan</w>
pember ian</w>
pemba tasan</w>
pema ngsa</w>
pedu likan</w>
pe candu</w>
pa tri
or angnya</w>
o pen</w>
ny aris</w>
n ãy</w>
mp h</w>
mo gok</w>
meru gikan</w>
mer ag
menying gung</w>
menye tir</w>
meny un
mengu tuk</w>
mengi dap</w>
menghar uskan</w>
mengh er
men s</w>
men -
mem ani
meli pat</w>
mele ngkapi</w>
me wah</w>
me luncur</w>
mbu han</w>
manfa atkan</w>
luk -
lin da</w>
len der</w>
le donia</w>
lapi s</w>
lan jakan</w>
lak inya</w>
kur un</w>
ku il</w>
ku deta</w>
konsul tasi</w>
konsul tan</w>
kh ốc</w>
keten tuan</w>
keru suhan</w>
kerap uhan</w>
keputusa saan</w>
kend ara</w>
kema han</w>
ke mitraan</w>
ke miri
ke hen
ke dai</w>
ka tak</w>
k ìm</w>
jur ang</w>
jer ni
in dera</w>
ik kan</w>
i te</w>
hi ếu</w>
hi s
her an</w>
ha langan</w>
h ở</w>
h on
gin jal</w>
gari s-
gangg ang</w>
ga mma</w>
ga be</w>
fil safat</w>
f ron
f lix</w>
du dukan</w>
do mestik</w>
disi arkan</w>
diser tai</w>
di ều</w>
di hormati</w>
di dapatkan</w>
di cetak</w>
di catat</w>
d le</w>
d .</w>
cup likan</w>
cu ri
ci r</w>
ch óc</w>
ch inh</w>
ce mer
c z
butu hkannya</w>
bur n</w>
bow ling</w>
bo ard</w>
bi tan</w>
bi sing</w>
berge ser</w>
ber perilaku</w>
ber kendara</w>
ber hati-hati</w>
ben tuk
ben ak</w>
be at
batas- batas</w>
bar ui</w>
bandi ngkan</w>
bagi annya</w>
ba ta
ba ngkai</w>
b son</w>
b lin</w>
b akan</w>
atmo s
ara wan</w>
ar in</w>
angka- angka</w>
ak ui</w>
a te</w>
a mati</w>
U E</w>
Tuy ệt</w>
Ti tan</w>
Ta mil</w>
T ạng</w>
T ình</w>
T âm</w>
T P
Spa ce
Soci ety</w>
Sin n</w>
Se mua</w>
S tan</w>
S or
Rober tson</w>
Ro ck</w>
Ri verside</w>
Po wer
Po l
Philip pines</w>
Per lindungan</w>
Per e
Pa us</w>
P ur
P alin</w>
P .</w>
O k</w>
Nh ất</w>
Net flix</w>
Na zi</w>
N T
Mitch ell</w>
Mc Hale</w>
Man n</w>
Ma uri
Ma jelis</w>
M ỹ.</w>
La ur
L ớn</w>
L uke</w>
L ine</w>
Ke ith</w>
Ja lan</w>
J ar
J adi</w>
J C</w>
Indu stri</w>
Haw king</w>
H5 N1</w>
H P</w>
Gre g</w>
Gonza les</w>
Gi ussani</w>
Ge h
Gali leo</w>
Ga bon</w>
F ire</w>
Coch rane</w>
Ce dar</w>
Carne gie</w>
C S
Bron x</w>
Bo w
Bo u
B áo</w>
B à</w>
B un
B ak
Ar kan
Al kitab</w>
Al fred</w>
A ngg
A gile</w>
A PEC</w>
A L
8 8</w>
2 ,000</w>
199 3</w>
19 30</w>
10 -
ị n</w>
ề n.</w>
ầ n.</w>
ả i.</w>
ươ c</w>
Đ ốc</w>
ó e</w>
á o.</w>
à n.</w>
zer o</w>
wor th</w>
w inan</w>
volu sioner</w>
vi rút</w>
venti lasi</w>
v ạn</w>
usaha -
uny ian</w>
un taian</w>
u gh</w>
tur na
turna men</w>
tuga s-
tr èo</w>
tor is</w>
toko l</w>
ti masi</w>
ti kkan</w>
th ủng</w>
teren dah</w>
ter sendiri</w>
ter larang</w>
ter ha
ter daftar</w>
ter bangun</w>
ter ap
te m
te lanjang</w>
te ater</w>
tco in</w>
ta lat</w>
t ụi</w>
t ta</w>
sura t-
su ýt</w>
si mbo
si hir</w>
si a-
shi p</w>
sh mal
ser u</w>
ser ba</w>
sen ya
seke liling
sek retaris</w>
sco w</w>
sa yalah</w>
sa in</w>
sa bar</w>
s ùng</w>
repu tasi</w>
ren ce</w>
re ferensi</w>
re d</w>
pro b
prin ter</w>
pri mi
por ation</w>
poli tan</w>
plan k
plank ton</w>
pla se
pida to
pi k
pesa ing</w>
perto longan</w>
permasa lahannya</w>
pera lihan</w>
per bin
penye dia</w>
pengar ang</w>
pen ang
pemro graman</w>
pemba lut</w>
pe liharaan</w>
pe gang</w>
parad oks</w>
pa tut</w>
p lay
ob ro
o a
nh ốt</w>
nh ạo</w>
nh ược</w>
ngka s</w>
ng ặt</w>
ng ươi</w>
ng inya</w>
ng ga
na y.</w>
na vi
na ma-
nama- nama</w>
n ến</w>
mus lim</w>
muni sasi</w>
muncu lnya</w>
merangku m</w>
menyi arkan</w>
menye lesa
menyelesa ikannya</w>
meny o
menjela ng</w>
mengher ankan</w>
mengh ukum</w>
mengen alkan</w>
menga mankan</w>
mener jemahkan</w>
menemb akkan</w>
mend orongnya</w>
men ai
memban tah</w>
mema inkannya</w>
mem publikasikan</w>
mem protes</w>
meluk is</w>
mele dakkan</w>
me hkan</w>
mar shmal
ma mografi</w>
m ìn</w>
m éo</w>
m -</w>
lus inan</w>
log inya</w>
li êng</w>
let ser</w>
le tt</w>
l ội</w>
l ý.</w>
ku mpulkan</w>
kon stan</w>
kon duk
komen da
ko ordin
ko la
klu sif</w>
kla ho
klaho ma</w>
kese derhanaan</w>
keane karagaman</w>
ke y
ke stra</w>
ke ju</w>
ke ji
kb one</w>
k ukan</w>
ik matan</w>
iden tik</w>
i on</w>
i annya</w>
he ad
h ân</w>
gu p</w>
gu mpalan</w>
gu bernur</w>
gr ade</w>
go kan</w>
gi ờ.</w>
gi u</w>
gaw att</w>
garis- garis</w>
g ini</w>
g eri
fon dasi</w>
fil mkan</w>
fi c</w>
f la
ene y</w>
ekstri mis</w>
eksp loitasi</w>
e u
ditan dai</w>
disa dari</w>
dile ngkapi</w>
dice gah</w>
di rekam</w>
di mana-mana</w>
di gerakkan</w>
di beri
de le
dangka l</w>
d ồi</w>
cor at-coret</w>
ck land</w>
ch ọi</w>
ceri ta-
ce patan</w>
ce k</w>
c ằn</w>
c ạo</w>
bu ồm</w>
bu lat</w>
bu buk</w>
bon us</w>
bo di</w>
biji- bi
bersenang- senang</w>
berde katan</w>
ber tukar</w>
ber inovasi</w>
ber diskusi</w>
ben turan</w>
ben sin</w>
be danya</w>
b ồn</w>
b úa</w>
b -
at le
astron omi</w>
asa lnya</w>
ap li
ama tir</w>
ala miah</w>
aki t-
ag resif</w>
abad -
Tr ưởng</w>
Th ể</w>
Te ch
T ối</w>
T ập</w>
T in</w>
T ak
So x</w>
Shan kbone</w>
S un</w>
S au</w>
Ru by</w>
Rocke tt</w>
Ro o
Ro bin</w>
R E
Pala ng</w>
P es
O klahoma</w>
No kia</w>
Nh ìn</w>
Na ture</w>
Mus har
Mu gabe</w>
Mu barak</w>
Monter ey</w>
Mo scow</w>
M ada
Ling kungan</w>
Li ve</w>
Lak e</w>
L ý</w>
L en</w>
Ka z
K ay</w>
Jen ni
In de
I ni
I m
I l</w>
Guin ea</w>
Gran t</w>
F ah
E v
E as
Dol lar</w>
Dar fur</w>
D ịch</w>
D es
D PR</w>
Cu ba</w>
Cor poration</w>
Chan nel</w>
Cal tech</w>
C anyon</w>
C D
Bud d
Boli via</w>
Bil bao</w>
B óng</w>
B at
B ah
Astr os</w>
Arkan sas</w>
An th
Alban ia</w>
A k
A OL</w>
9 0-an</w>
9 -
6 9</w>
40 1</w>
4 0,000</w>
198 2</w>
197 8</w>
10 .
10 ,</w>
ử u</w>
ộ i.</w>
ắ m.</w>
ươ ng.</w>
đ ắm</w>
đ ạm</w>
ă n.</w>
ù ng.</w>
ê t</w>
à ng.</w>
yar d</w>
y er</w>
x ter</w>
war nanya</w>
vide onya</w>
vi an</w>
v. v</w>
v ị.</w>
v ẩn</w>
v es
v ada</w>
ung u</w>
tz er</w>
tugas- tugas</w>
to ken</w>
tidak kah</w>
ti ve</w>
thu ỷ</w>
the mati
themati ca</w>
ter kendali</w>
ter kaya</w>
ter dak
terdak wa</w>
ter bagi</w>
tem pera
te puk</w>
tar uhkan</w>
t úng</w>
t ter
st adion</w>
spi ritual</w>
si o</w>
si ber</w>
si apakah</w>
seru ling</w>
sen ti
sele bri
sekeliling nya</w>
se men</w>
se mak</w>
se ber
satu- dua-
s ảnh</w>
s ukan</w>
s tar
rus tasi</w>
ro u
ra te</w>
ra f</w>
qu ỵ</w>
putr anya</w>
pur ba</w>
pu tar</w>
proto tip</w>
propa ganda</w>
plase bo</w>
ph e
perta mbangan</w>
perna hkah</w>
perka winan</w>
pere mpuannya</w>
perbin cangan</w>
peran cangan</w>
per kemahan</w>
pengh u
pengh inaan</w>
penga singan</w>
pencu rian</w>
pen dengaran</w>
pemo gokan</w>
pember an
pemberan tasan</w>
pembe li</w>
pemba lap</w>
pem bebasan</w>
pato gen</w>
pas ca
pan duan</w>
or anye</w>
ole man</w>
nyany ian</w>
nhu ộm</w>
nh úng</w>
nh é.</w>
nh am</w>
nghi ền</w>
ng ủi</w>
ng à
ng unan</w>
nasi hat</w>
n ắp</w>
mạ </w>
mu lanya</w>
ms feld</w>
mp ai
mon umen</w>
mis aris</w>
min er
mero so
merag ukan</w>
mengin jak</w>
menggun cang</w>
mengala minya</w>
mene mpuh</w>
menar getkan</w>
meme luk</w>
member antas</w>
memba ginya</w>
mem butuhkannya</w>
mele s
mbu ngkan</w>
ma mo
lượ m</w>
lon ia</w>
lo ang</w>
le gen
l ụa</w>
l ạy</w>
l ượn</w>
l l
kh ử</w>
kecu rangan</w>
kebang k
ke dengarannya</w>
ke adaannya</w>
kapa lan</w>
ka ta
k ina</w>
ja gung</w>
j </w>
ini siatif</w>
ide ologi</w>
i t-
i f</w>
hi ri</w>
hi langkan</w>
hel m</w>
ha ma</w>
ger akannya</w>
gabu ngkannya</w>
g ập</w>
g las</w>
ff in</w>
f urt</w>
f talat</w>
f rustasi</w>
en ya</w>
en ti</w>
e ka</w>
dik tator</w>
dicu ri</w>
diba talkan</w>
di tetapkan</w>
di tangani</w>
di habiskan</w>
di gantikan</w>
di ceritakan</w>
di bantu</w>
der ma
der as</w>
deka tnya</w>
de k
data base</w>
dahsy at</w>
d arkan</w>
cor n</w>
ci t</w>
ci o</w>
ch ết.</w>
ch ênh</w>
ch en</w>
cerita- cerita</w>
cer ai</w>
cemer lang</w>
ce s</w>
ce ll</w>
ce l</w>
c ớ</w>
c ành</w>
c aran</w>
bu aya</w>
bi k</w>
berbu ru</w>
ber kolaborasi</w>
ber ganti</w>
ber fikir</w>
ban e</w>
ban an</w>
bah -
ba ss</w>
b ới</w>
awa hiri</w>
astron ot</w>
ash vili</w>
as -
ap ala
apala gi</w>
anti bodi</w>
ana logi</w>
ambi sius</w>
ag ung</w>
a man
a lur</w>
a hi</w>
Z uri
Z awahiri</w>
Ya le</w>
Uru guay</w>
UNI CE
U p</w>
To àn</w>
Ten tara</w>
Teh ran</w>
Te les
TED x</w>
Su per
Sta siun</w>
Space X</w>
Scha per</w>
S c
S ala
Ru th</w>
Ro m
Ro dri
Re agan</w>
Rach el</w>
R -
Q uyền</w>
Pro fesor</w>
Pi c
Perda maian</w>
Pene litian</w>
Par ali
PI PA</w>
P y
Olympi cs</w>
Oli ver</w>
O b
Ni co
Ne vada</w>
Na th
N ữ</w>
N an
N O
N BC</w>
Mosko w</w>
Mer ce
Me d
Ma thematica</w>
M r.</w>
M W</w>
M BI</w>
Lu la</w>
Lie berman</w>
Li fe</w>
Lau ra</w>
L ãnh</w>
L ai</w>
L E
Ko mar</w>
Kh í</w>
Ken apa</w>
Ke ju
Ka mboja</w>
K ala
Jo se</w>
Jenni fer</w>
Ja mie</w>
Ha mp
HB O</w>
Go gh</w>
Frank furt</w>
Fran sis
For tun
Fal con</w>
F aw
ED T</w>
Du ta</w>
Dr y
Di ck</w>
Den ver</w>
Dal las</w>
Co sta</w>
Chi li</w>
Ch ương</w>
C o</w>
C SI
Bro ther</w>
Bro ad
Bi ển</w>
Bel gia</w>
Bar ry</w>
Bar e
Ba xter</w>
Ba tey</w>
Ba ik</w>
B rent</w>
As h
Angka sa</w>
And ro
An da
Al on
A F</w>
8 9</w>
6 50</w>
20 -
20 ,</w>
2, 3</w>
198 5</w>
1 1/
’ </w>
ợ .</w>
ở m</w>
ộ .</w>
ỉ m</w>
ậ n.</w>
ả .</w>
đi ếu</w>
â y.</w>
Â m</w>
ya inya</w>
xo a</w>
x ổ</w>
x ì</w>
wirausaha an</w>
wargan egaraan</w>
wa jar</w>
w w
và n</w>
v ớ</w>
v ỉa</w>
v òm</w>
u nggul</w>
tur annya</w>
tu ộc</w>
tt le
tr àng</w>
tr inh</w>
ti es</w>
terte kan</w>
terta inment</w>
teri makasih</w>
ter pikir</w>
ter kuat</w>
ter depan</w>
ter capai</w>
tempor er</w>
te f
tar d</w>
t ản</w>
t ạng</w>
sy aratan</w>
surat- surat</w>
sumber- sumber</w>
sla tif</w>
ske t
shi ma</w>
sen sasi</w>
sen apan</w>
seder han
sar ung</w>
sang at-
s ờ</w>
s ting</w>
s tar</w>
s por
s lo
s ch
s ara</w>
ru mus</w>
re produksi</w>
ran i</w>
ra han</w>
qu ầy</w>
pu skan</w>
promo si</w>
pro vo
prinsi p-
poto ngan-
pla ne
ph ế</w>
ph àn</w>
ph à</w>
perla han-lahan</w>
per syaratan</w>
pengen alan</w>
penge mba
peng ung
peng or
peng in
pene mbak</w>
pencu likan</w>
penang anan</w>
pena mp
pen in
pemas ok</w>
pasca sarjana</w>
par tner</w>
on ey</w>
o ko</w>
nhi ên.</w>
nh ộn</w>
nh ồi</w>
ngh ĩ
ne o</w>
na sion
mus tard</w>
mula ilah</w>
mp ik</w>
mou th</w>
mikro fon</w>
mer s</w>
mer kan</w>
menyu mbangkan</w>
menyer amkan</w>
menye lenggarakan</w>
meny okong</w>
meni kahi</w>
mengung gah</w>
mengu atkan</w>
mengh adap</w>
meng operasikan</w>
meng gabungkannya</w>
meng eksplorasi</w>
mence ng
menai ki</w>
memp rak
membe lanjakan</w>
membac akan</w>
memba lik</w>
meman en</w>
mema tuhi</w>
mem ad
matema ti
ma malia</w>
m ọt</w>
m ỉa</w>
lu asnya</w>
long sor</w>
li sensi</w>
li ngkan</w>
li dari
le her</w>
la ba-
laba- laba</w>
l ă</w>
kron is</w>
ko ki</w>
ki talah</w>
keti k</w>
keter bukaan</w>
keran jang</w>
kemba likan</w>
kema san</w>
keluar nya</w>
keji waan</w>
kebangk rutan</w>
ke wirausahaan</w>
ke len
kar tun
kapi ta
ka tor</w>
ka susnya</w>
ji l</w>
je vo</w>
ja mkan</w>
ja ba
j ok</w>
is h
in ti
i um</w>
i kat</w>
i bu
hu mor</w>
hero in</w>
har ta</w>
har d</w>
gu man</w>
gu -
gi ầy</w>
gi zi</w>
gi lah</w>
g letser</w>
fre y</w>
f fe
er o</w>
en -
ego is</w>
e ng
do l</w>
diu sulkan</w>
diu capkan</w>
diter jemahkan</w>
diper intahkan</w>
dina mai</w>
did anai</w>
dicu lik</w>
diak tifkan</w>
di tak
di o
di maksud</w>
di li
di hadi
defini sikan</w>
dang- Un
dang-Un dang</w>
da ta-
củ i</w>
ch ốn</w>
cak ra
c ọc</w>
c ôi</w>
c ó.</w>
c ine</w>
bon eka</w>
bio sfer</w>
bio la</w>
bi ết.</w>
berli bur</w>
berge tar</w>
berbe lanja</w>
ber pengalaman</w>
ber negosiasi</w>
ber munculan</w>
ber lomba</w>
bentuk -
bentuk- bentuk</w>
ba tuan</w>
ba ll</w>
b rakan</w>
b aku</w>
ay ne</w>
au la</w>
atmos fir</w>
ata ukah</w>
ar on</w>
ar ia</w>
ane tra</w>
akade mik</w>
ad ministrasi</w>
abad- abad</w>
a tia</w>
Zuri ch</w>
Wat son</w>
W ood</w>
W akil</w>
Un dang-Undang</w>
UNICE F</w>
Tr ạm</w>
Stor e</w>
Si pil</w>
S on
Ru msfeld</w>
R ag
Por t</w>
Po wer</w>
Pitts burgh</w>
Pi e
Ph ương</w>
Pere mpuan</w>
Pemba ngunan</w>
PC B</w>
P siko
Ot to
Or ang</w>
Odys seus</w>
O kay</w>
O c
Ni ag
Mushar raf</w>
Mis sis
Ma ine</w>
M áy</w>
M uni
M un
M ik
M ap
M ao</w>
M ag
M BA</w>
Lu ther</w>
Lor d</w>
Let nan</w>
Le hman</w>
Law rence</w>
L ay
L .
Keju araan</w>
Ke pler</w>
Kar en</w>
K ri
K alifornia</w>
Jak sa</w>
I ya</w>
I sa
I I
Hu gh
Hi jau</w>
Had ron</w>
Ha z
G o</w>
G mail</w>
Fortun e</w>
Fo x
Fa mily</w>
Dis trik</w>
Da erah</w>
D. C.</w>
D a</w>
D A
Con or</w>
Co ca-
Ch ữ</w>
Car ter</w>
Ca sey</w>
C ầu</w>
C hampi
C airo</w>
Bu lan</w>
Bro thers</w>
Bris tol</w>
Bris bane</w>
Bon o</w>
Bar ker</w>
B uk
Au ckland</w>
Air ways</w>
A y
A aron</w>
A -
8 -
198 9</w>
197 9</w>
0 7</w>
. S.</w>
ự .</w>
ể n.</w>
ưở ng.</w>
ũ a</w>
ú t.</w>
á n.</w>
z o</w>
z en</w>
xe m.</w>
x ốp</w>
x ót</w>
wuju dkan</w>
visua lisasi</w>
vi ru
v ori
us t</w>
uju ngnya</w>
u da</w>
tun anetra</w>
toko -
toko- toko</w>
tin jauan</w>
ti sol</w>
ti sasi</w>
ti puan</w>
ti mba
tho od</w>
th ối</w>
th ala
terce mar</w>
terap is</w>
ter bit</w>
ter banyak</w>
tempera tur</w>
t ụt</w>
t ẻ</w>
t òan</w>
sub- Sahara</w>
su ối</w>
ste m</w>
stabi lan</w>
spa m</w>
sor an</w>
so pan</w>
si- organisasi</w>
si tion</w>
semes tinya</w>
se masa</w>
se berat</w>
se arch</w>
sangat- sangat</w>
sa bun</w>
ru panya</w>
rit me</w>
re sesi</w>
ra him</w>
r ộ</w>
r ong</w>
pu -ku
pu-ku pu</w>
prinsip- prinsip</w>
popu lasinya</w>
pix el</w>
pertan yakan</w>
pern yataannya</w>
perla kuan</w>
perjalan annya</w>
per un
per lihatkan</w>
per kirakan</w>
per kara</w>
per kapalan</w>
per adilan</w>
penyelengg ara</w>
penyan dang</w>
pengha pu
peng ikut</w>
pen dengar</w>
pemro tes</w>
pemin daian</w>
pe tisi</w>
pe lintas</w>
pe layan</w>
pe lay
para lel</w>
pabri k-
pa car</w>
organisa si-organisasi</w>
or kestra</w>
ob o</w>
nă </w>
nh ậm</w>
nh ất.</w>
nh à.</w>
ng ự</w>
ng ửi</w>
ng kus</w>
ner aka</w>
mur -
mpu han</w>
mon ster</w>
momen tum</w>
moleku ler</w>
miner al</w>
mer ing
menye sal</w>
meny in
menuk ar</w>
menu mpuk</w>
menjawa bnya</w>
meni r
mengura ikan</w>
menghubu ngkannya</w>
mengge ser</w>
mengge nggam</w>
menge tik</w>
meng angkut</w>
meneta p</w>
menangg apinya</w>
memper bolehkan</w>
memenang i</w>
membun uhnya</w>
membu angnya</w>
memb ran</w>
memani pulasi</w>
meman carkan</w>
memak si
memak sakan</w>
mem proses</w>
mele pas
mekan ik</w>
me lon
mb i</w>
luk a-
lu sin</w>
lu lusan</w>
lo laan</w>
lo kan</w>
li st</w>
li sihan</w>
li ngan</w>
li gen
le i</w>
laki- lakinya</w>
la zim</w>
l ười</w>
l arian</w>
ku pu-kupu</w>
krea tifitas</w>
konduk tor</w>
kon versi</w>
kon s
kompo sisi</w>
komenda sikan</w>
ko ngres</w>
ko lom</w>
ko k
khu ếch</w>
kho á</w>
khi ết</w>
kesak sian</w>
kes unyian</w>
ker s</w>
kemungk inannya</w>
kema mpuannya</w>
kehen ingan</w>
keber untungan</w>
ke per
ke mun
ke mana</w>
kan al</w>
k ép</w>
ju du
ji bo
jibo uti</w>
ja z
ja ga</w>
j ektif</w>
is yarat</w>
inves tor</w>
inter o
inten sif</w>
ins pira
ik on</w>
i sasi</w>
hi ể
hi n</w>
ha t
ha l
h ăng</w>
h r</w>
h e</w>
h ad</w>
go longan</w>
gili ran</w>
gh en</w>
ge lin
g ran
en siklopedia</w>
el s</w>
ek tivitas</w>
e le</w>
do sa</w>
diu ji</w>
diter uskan</w>
disa lahkan</w>
diper iksa</w>
di manapun</w>
di kritik</w>
di ca
der land</w>
d ẳng</w>
d ấy</w>
d ươ</w>
d ào</w>
cho áng</w>
ch ổ</w>
by lon</w>
bu atlah</w>
bro w
bo la-
berte puk</w>
berki sar</w>
ber darah</w>
ber campur</w>
ber ba
ber akibat</w>
ber abad-abad</w>
b ệ</w>
b ôi</w>
b ra</w>
ata san</w>
at an-
arsi p</w>
antusi as</w>
ang- layang</w>
ane hnya</w>
an tropo
an o
ak ashvili</w>
Yo u</w>
Wal mart</w>
Wak tu</w>
Wa ter
W ell</w>
Ves tas</w>
V ụ</w>
U E
UE FA</w>
Trans portasi</w>
Tha tcher</w>
Ten nes
TV NZ</w>
T ướng</w>
T in
T R</w>
Sun ni</w>
Scien ce</w>
Sara jevo</w>
Sa at</w>
Sa akashvili</w>
Rom ney</w>
Ro b
R ồi</w>
R L</w>
Pri ze</w>
Pin k</w>
Per th</w>
Per es</w>
Pa is
P ari
Otto man</w>
On line</w>
Nor man</w>
Niag ara</w>
NA S
N SW</w>
Muni ch</w>
Moz art</w>
Mo bi
Man ning</w>
M ôi</w>
M ình</w>
M and
Lang ham</w>
L ag
L M</w>
Ku ba</w>
Ki va</w>
Kara chi</w>
K un
Ju lie</w>
Ja zz</w>
J ong</w>
Il mu</w>
Hil ls</w>
Hi ro
Heath row</w>
H S</w>
H C</w>
Gru zia</w>
Goo g
Gol d
Go liat</w>
Gi u
Geh ry</w>
Ful ham</w>
Fre d</w>
Fransis co</w>
F AR
FAR C</w>
Euro vision</w>
El vis</w>
E kono
D ru
D re
D jibouti</w>
D aw
Cru ise</w>
Cro wn</w>
Coca- Cola</w>
Ch ry
Car los</w>
C lay</w>
C L</w>
Budd ha</w>
Br ad</w>
Bel arus</w>
Be the</w>
Ba bylon</w>
B ăng</w>
Aus tin</w>
Apo llo</w>
Anth ony</w>
Alon so</w>
Alber to</w>
Ac cen
Ab du
AT M</w>
A 3
5 0,000</w>
4 0-an</w>
4 ,5</w>
3 ,</w>
197 0-an</w>
196 5</w>
15 0.000</w>
1/ 3</w>
1. 500</w>
1 2.000</w>
- -
ố i.</w>
ề .</w>
ẹ t</w>
đ ặn</w>
đ ắp</w>
đ ươc</w>
Đ ể</w>
á ng.</w>
á i.</w>
À </w>
z ar</w>
y on</w>
y aknya</w>
xu ô</w>
wa it</w>
và nh</w>
vi o</w>
ve ge
v ẫy</w>
v ướng</w>
v ùi</w>
u t
u pan</w>
tur y</w>
tung au</w>
tro to
troto ar</w>
tro li</w>
trans forma
tr ino</w>
tin asional</w>
tike l-
thala te</w>
teru ngkap</w>
ter pe
ter akhirnya</w>
ten tangnya</w>
ten a</w>
ta mpilkan</w>
t ởm</w>
t weet</w>
surve y</w>
sua ian</w>
su litnya</w>
strate gis</w>
sta tis</w>
so sok</w>
siste mnya</w>
sif atnya</w>
sia- sia</w>
ser tifikasi</w>
senya wa</w>
sen ian</w>
selebri ti</w>
sela ng</w>
seku tu</w>
se s
se lnya</w>
sa mar</w>
s ô-</w>
s k</w>
ri gakan</w>
ren can
re tt</w>
re publik</w>
re c
ra sio</w>
ra hkan</w>
r ỡ</w>
r uk</w>
r ah</w>
pro jek</w>
pro f
primi tif</w>
potongan- potongan</w>
po h
poh on-
pilih an-
piki rannya</w>
pi nggang</w>
ph ớt</w>
perti ka
pertika ian</w>
perse lisihan</w>
per asa
penyu sun</w>
penjela jah</w>
pengor banan</w>
penghapu san</w>
penggun anya</w>
penga jar</w>
penerje mah</w>
pen si
pen anda</w>
pemerin tah
pelaksan aan</w>
pe ternak</w>
pe jantan</w>
pas por</w>
pap aran</w>
pa san</w>
pa nggil</w>
pa ng
p lor
p le
p inya</w>
on to
on i</w>
nh e
ng òi</w>
na makan</w>
n ộ</w>
n ạ</w>
n on
n akan</w>
mu ôn</w>
mu lus</w>
mpu lannya</w>
mp le
mini mum</w>
mera malkan</w>
meny aring</w>
menik matinya</w>
mengu langi</w>
mengu jinya</w>
mengiku tinya</w>
menganali sa</w>
mengan tisipasi</w>
menga mbang</w>
menga b
meng klik</w>
menempe lkan</w>
mencu rigakan</w>
memo hon</w>
meme cah</w>
membi ay
membiay ai</w>
member dayakan</w>
memban tunya</w>
memban ding
membanding kannya</w>
membaha snya</w>
meman jat</w>
memaksi malkan</w>
mem fokuskan</w>
melew atinya</w>
mele ngkung</w>
mele kat</w>
me tana</w>
me l
mb uk</w>
mb or
marshmal low</w>
m ẹo</w>
m ặn</w>
m ác</w>
lon el</w>
lo k-
ling -
li ttle
le z</w>
le m
la manya</w>
la d</w>
l la</w>
komp ro
ki êu</w>
ki si</w>
ki k</w>
kho ác</w>
khi an
kh ăng</w>
kese ti
kese harian</w>
kesa l</w>
ken ikmatan</w>
ken alan</w>
kemun duran</w>
kemen terian</w>
kemba linya</w>
kelu han</w>
keka guman</w>
kehidu pannya</w>
kece patannya</w>
ke warganegaraan</w>
ke pastian</w>
kari rnya</w>
ka tup</w>
ka mer
ka le
j ol</w>
is tana</w>
is aran</w>
instr umen</w>
ing i</w>
in tim</w>
ik u</w>
i mpu
hi u</w>
hi p</w>
he tero
ha cker</w>
h â</w>
gi t</w>
gen -
ge muk</w>
ge mbala</w>
ge jolak</w>
gamb arkannya</w>
gadis -
gadis- gadis</w>
ga lon</w>
g ăng</w>
g ôn</w>
g lu
g eo</w>
en ce</w>
e u</w>
e ng</w>
e Bay</w>
dok tor</w>
ditan yai</w>
disi ksa</w>
diser ahkan</w>
disa mbut</w>
diper kosa</w>
dile ma</w>
dida ur</w>
dicu rigai</w>
diagno sa</w>
dia mati</w>
di ox
di identifikasi</w>
di bayangkan</w>
di atasi</w>
di angkut</w>
desa -
desa- desa</w>
deng anmu</w>
de batkan</w>
data- data</w>
d eri
d d</w>
d at</w>
ci ngan</w>
cho las</w>
ch óp</w>
ch k</w>
cen de
ce t</w>
cak ap</w>
ca s</w>
c ẩu</w>
c ă</w>
c ad
bu latan</w>
bon obo</w>
bola- bola</w>
bir d</w>
biji-bi jian</w>
berta brakan</w>
ber kela
ber kampanye</w>
ber jumlah</w>
ber anggapan</w>
bas tian</w>
ba sa</w>
b át</w>
ati ve</w>
as pal</w>
ari -
ar ke
an ak
aki r</w>
ai .</w>
ag ina</w>
ad or</w>
Z o
Y êu</w>
Voya ger</w>
Vo ice</w>
Var di</w>
V in
Ukra ina</w>
US GS</w>
UC LA</w>
Tran sition</w>
Th ần</w>
Tennes see</w>
Te mp
T erima</w>
She i
Serge y</w>
Samu dera</w>
Sal mond</w>
Sa chs</w>
S ân</w>
S and
Ron ald</w>
Ro se</w>
Ro bin
R NA</w>
Qu ần</w>
Pi cas
Peter sburg</w>
Pemi mpin</w>
Pe ngu
Pan as</w>
Pais ley</w>
Ni ko
Ni ght</w>
Ni cholas</w>
N ô</w>
Mich oa
Mas sa</w>
M ã</w>
M e</w>
M L</w>
Lin us</w>
Lin d
L y
Ko fi</w>
Ki bera</w>
Ka te</w>
K at
Jef frey</w>
J uan</w>
J ill</w>
J ay
Is sa
I II</w>
Ho s
Ho p
Hi tler</w>
Ha bi
H al</w>
Gil bert</w>
G rup</w>
For ce</w>
Ever ton</w>
En tertainment</w>
E m
Di gi
D ingin</w>
D e</w>
Com mon
Colli der</w>
Chi ld
Ch o</w>
Ca ledonia</w>
C er
C O</w>
Bul ldo
Br yan</w>
Blo o
Austr ia</w>
As sad</w>
An nan</w>
An i
Ali nghi</w>
Al li
A h</w>
9 1</w>
3 0-
2, 4</w>
197 4</w>
19 45</w>
11/ 9</w>
1. 5</w>
0 1</w>
ố n.</w>
đ ốn</w>
đ ến.</w>
đ ường.</w>
Đi ện</w>
é c</w>
za mbi
z oo
z ai
y mo
y atnya</w>
x ông</w>
wa la</w>
w hi
w ana</w>
v ác</w>
v á</w>
usu lan</w>
us ang</w>
u- minggu</w>
u jarnya</w>
u e</w>
tu tul</w>
tu pi</w>
tro politan</w>
ti ệt</w>
ti more</w>
tho ả</w>
th ường.</w>
testoster one</w>
terje mahan</w>
teri akan</w>
ter sentuh</w>
ter motivasi</w>
ter lahir</w>
ter -
ten dangan</w>
tekni si</w>
teg ak</w>
te pian</w>
ta in</w>
t ụy</w>
t ỉa</w>
t ưới</w>
t ser
t ini
su s-
su l</w>
su aka</w>
ster eo
sof a</w>
sket sa</w>
sip pi</w>
si lahkan</w>
sho p</w>
sep akat</w>
sen sus</w>
seki las</w>
seke ja
sekeja p</w>
sek sama</w>
segi tiga</w>
seber ang</w>
se snya</w>
se sa
se ng
se min
se cepatnya</w>
san ksi</w>
samp ingkan</w>
sa o.</w>
s can</w>
runtu hnya</w>
re a</w>
rap h</w>
r ực</w>
qu ấn</w>
qu á.</w>
pu puk</w>
pu ing-
proy eksi</w>
pri bumi</w>
pre da
pohon- pohon</w>
po v</w>
plas hy</w>
pin tas</w>
pilihan- pilihan</w>
ph ồng</w>
ph thalate</w>
pero kok</w>
per panjangan</w>
per ak</w>
penggu gat</w>
penger as</w>
penc angko
pencangko kan</w>
pena mbahan</w>
pemi mp
pembuk a</w>
pe warna</w>
pe t</w>
pe patah</w>
pe cinta</w>
pas ca</w>
para graf</w>
pan demi</w>
pan da
pabrik- pabrik</w>
pa gos</w>
p ro</w>
ov an</w>
ole hnya</w>
ok kan</w>
no minasi</w>
no ck</w>
nh ọn</w>
nh ại</w>
ngke l</w>
ngka m</w>
ngg ak</w>
ng ừ</w>
ng kok</w>
n ới</w>
n é</w>
n ton</w>
mul tinasional</w>
mu tu</w>
moleku l-
modi fikasi</w>
mingg u-minggu</w>
ming ham</w>
mere krut</w>
merang sang</w>
menyu arakan</w>
menye bar
menuntu n</w>
menjela jah</w>
menja bat</w>
meni mpa</w>
menghi rup</w>
mengagu mi</w>
meng orbit</w>
meng infeksi</w>
mene lusuri</w>
mende s
menc arinya</w>
men u</w>
men nya</w>
memper panjang</w>
memper barui</w>
membi arkannya</w>
memad ukan</w>
mem ory</w>
mem buruk</w>
mem bolehkan</w>
meles tarikan</w>
mele lahkan</w>
mela yang</w>
masa l</w>
mak annya</w>
magne tik</w>
ma tri
ma cher</w>
m à.</w>
m mer</w>
lo tte</w>
little Bi
littleBi ts</w>
line ar</w>
li sh</w>
li mu
les tari</w>
lan i</w>
lak uk
l ửng</w>
l ách</w>
l k</w>
kri p</w>
konstitu sional</w>
komen dasi</w>
kome di</w>
koman do</w>
ko kain</w>
ki awan</w>
kewa lahan</w>
keri ki
kelu mpuhan</w>
keda tangan</w>
keba likan</w>
ke ta
ke pan
ke man
ke ca
kartun is</w>
ka tedral</w>
ka fe</w>
k on</w>
judu lnya</w>
jerni h</w>
jari -
is s</w>
is ma</w>
ir o</w>
inter pre
inte gra
ing ati</w>
i ku
ho use</w>
ha mpa</w>
h áo</w>
gi â</w>
gen- gen</w>
gar asi</w>
g ớm</w>
g ắt</w>
g ót</w>
g y
g raph</w>
g or</w>
fung sinya</w>
fe ty</w>
ere sa</w>
el lo</w>
ek so
e vakuasi</w>
e tho
e mi</w>
don asi</w>
dita mbahkan</w>
diper timbangkan</w>
diper hatikan</w>
ding inan</w>
din di
dihar gai</w>
die vakuasi</w>
diawa li</w>
dian dalkan</w>
di susun</w>
di -
de v</w>
de mo
de men</w>
da yung</w>
cuku r</w>
cu ti</w>
ci tar
ci l
ci fic</w>
ci al</w>
ch ải</w>
cakra wala</w>
c ửu</w>
c ki
c ci</w>
bu tkan</w>
bio tik</w>
bi lonia</w>
berki lau</w>
ber wujud</w>
ber skala</w>
ber pusat</w>
ber eksperimen</w>
ber aksi</w>
ben tang</w>
bay inya</w>
bang -
ban a</w>
ba pak</w>
ba caan</w>
b ịt</w>
b ì</w>
aro ma</w>
ara se</w>
ara s</w>
ar ena</w>
an y</w>
an tena</w>
an or</w>
aj ukan</w>
a tik</w>
a sure</w>
a fi
Vladi mir</w>
Vi king</w>
Ve gas</w>
Tre asure</w>
Tr ini
Th eresa</w>
Tech no
Tan pa</w>
Tah ri
Steph ani
Sta to
So mer
Sis y
Shir ley</w>
She ikh</w>
Sen i</w>
Se bastian</w>
S áng</w>
Robin son</w>
Ro b</w>
Ro ad</w>
Re search</w>
R UU</w>
R A</w>
Q arase</w>
Pub lik</w>
Pro vinsi</w>
Prince ton</w>
Portu gal</w>
Po tter</w>
Pla to</w>
Pi rate</w>
Phi l</w>
Ph ong</w>
Pe dro</w>
Para siris</w>
Pa cific</w>
Oper asi</w>
O w
O mar</w>
O ke</w>
Ng ôi</w>
Nath aniel</w>
N FL</w>
Moussa o
Mo zambi
Mc Car
Ma gic</w>
M ục</w>
M ộc</w>
M ạng</w>
M in</w>
La lu</w>
L en
L as</w>
Ko man
Kh án</w>
Ke u
Ka th
Ka sih</w>
K y
K ho
K airo</w>
K EA</w>
Jef fer
Jaco bson</w>
Ja lur</w>
J ene
J an</w>
IS S</w>
ID F</w>
I KEA</w>
Hil ton</w>
Her ald</w>
Hea ther</w>
H mm</w>
Gonza lez</w>
Gar uda</w>
G ô-</w>
Fri e
Fran ce</w>
Flo yd</w>
Fli ght</w>
Ex plor
Ener gy</w>
Ele anor</w>
E ST</w>
E B</w>
E .
Dur ga</w>
Dou glas</w>
Den is
D ani
D M
Col lins</w>
Co lin</w>
Chur ch</w>
Char lotte</w>
Can ber
C ứu</w>
Bil ly</w>
Bare foot</w>
Bang al
Ba bilonia</w>
B oo
B ina</w>
B adai</w>
B M</w>
Au to
Ac t</w>
Abdu llah</w>
AW B</w>
A be</w>
A S
7 50</w>
4 000</w>
19 0</w>
13 .
1- 2</w>
1, 2</w>
1 500</w>
1 1.000</w>
1 1.
0 2</w>
- bu
ạ o.</w>
à o.</w>
z bo
yata anya</w>
ya hu</w>
y l</w>
wisa tawan</w>
w at
ven s</w>
ve lo
v ắt</w>
v as</w>
v an
un a</w>
uk au</w>
u sus</w>
u buntu</w>
u bin</w>
tuga snya</w>
tr en
tr ad
to ur</w>
to ta
to mbo
tin .</w>
tid ak-
ti cs</w>
th ẹn</w>
testoster on</w>
ter organisir</w>
ter kecil</w>
ter dalam</w>
ter bungkus</w>
tele gram</w>
tel pon</w>
tana hnya</w>
tak ju
takju b</w>
ta yangan</w>
ta skan</w>
ta annya</w>
t ạ</w>
t át</w>
t onton</w>
swe ek</w>
sus- kasus</w>
sum sum</w>
su pir</w>
su d</w>
sta t</w>
singka tan</w>
siko nya</w>
si mula
si lah</w>
sh ine</w>
ser oton
sepu tar</w>
sek si</w>
sang gup</w>
san dera</w>
sa t
sa mpul</w>
sa ji</w>
s ống.</w>
s ấu</w>
s s
ri lis</w>
rela tivitas</w>
reali stis</w>
re komendasi</w>
rang kuman</w>
radi o
ra mai</w>
qu ô</w>
psi ki
prob lem</w>
pon nya</w>
po undsterling</w>
po ly
po jok</w>
pin dahan</w>
pi k</w>
ph ere</w>
persa ha
persaha batan</w>
per annya</w>
per ang
peny akit-
penyakit- penyakit</w>
penjela jahan</w>
pend aratan</w>
pence maran</w>
pen dudukan</w>
pembo man</w>
pembo hong</w>
pember sih</w>
pe gangan</w>
p t</w>
o me</w>
o lu
o li</w>
nir laba</w>
nhiễ u</w>
nh ấc</w>
ngu ời</w>
ngg ut</w>
ng ọc</w>
ng ất</w>
navi gasi</w>
na if</w>
n ầy</w>
n akal</w>
mu lu
mu lia</w>
mu at</w>
ms trong</w>
mp ton</w>
mon t</w>
mon ia</w>
mo hon</w>
mo de</w>
mis tis</w>
miri ng</w>
mingg uan</w>
min us</w>
min e
mi sal</w>
mi c</w>
mer de
merde ka</w>
menyer et</w>
meny alin</w>
menon jol</w>
menja uhi</w>
mengu sir</w>
mengu rus</w>
mengu lang</w>
mengu ap</w>
menghin dar</w>
mengh ina</w>
mengelu arkannya</w>
menge lomp
mengan jurkan</w>
meng g
mene lan</w>
mende men</w>
mend ukungnya</w>
menca but</w>
memin um</w>
meme ca
meman du</w>
mela ju</w>
me lintas</w>
matri ks</w>
mar nock</w>
mani pulasi</w>
makh luk-
makhluk- makhluk</w>
ma mpuan</w>
ma las</w>
m ùng</w>
luka- luka</w>
luk i</w>
lon ing</w>
lo ya
lo ad</w>
lingku p</w>
li ki</w>
li bur</w>
le barnya</w>
lak unya</w>
lak kan</w>
l ắm.</w>
l ùn</w>
l ls</w>
l ler</w>
l ere
l aris</w>
l aran</w>
krip sikan</w>
kor ela
kons pirasi</w>
kon temporer</w>
kompeti tif</w>
kol era</w>
khu ya</w>
kh az
khaz ia</w>
kese pian</w>
kema uan</w>
keja tuhan</w>
keja man</w>
ke munculan</w>
ke kejaman</w>
ke depan</w>
ka sus-kasus</w>
k tif</w>
je ma
jak et</w>
ja s
ja hi
ine ering</w>
indu stri
in- main</w>
in ku
imp le
i rama</w>
i mu</w>
i lu
i ah</w>
ho o
hir arki</w>
hara fiah</w>
habi litasi</w>
ha yati</w>
ha mbatan</w>
h- contoh</w>
h ết.</w>
h é</w>
h inya</w>
gran at</w>
go daan</w>
gi eo</w>
gh ts</w>
gan dakan</w>
ga lnya</w>
ga la</w>
ga hnya</w>
g ục</w>
g ạo</w>
g resif</w>
fron tal</w>
f low</w>
etho ven</w>
elektro da</w>
ekono mis</w>
e us</w>
duk a</w>
dokumen tasi</w>
do ck</w>
disi tu</w>
dira gukan</w>
dipe cahkan</w>
diba gikan</w>
dia lihkan</w>
dia lah</w>
dia jari</w>
di lanjutkan</w>
di bilang</w>
demon str
de l
da hi</w>
d lm</w>
curi ga</w>
conto h-contoh</w>
con n</w>
co lm</w>
cin taan</w>
ci lkan</w>
cer dik</w>
c úi</w>
c ara
c ang-
bu llah</w>
bu lan-bulan</w>
boh lam</w>
bi ro
bi bir</w>
ber sumpah</w>
ber suara</w>
ber orientasi</w>
ber lipat</w>
ber konsentrasi</w>
ber cerai</w>
be n</w>
bad annya</w>
ba z
b uny
ay olah</w>
ar en</w>
anggo tanya</w>
an inya</w>
ambi si</w>
adi li</w>
ad uk</w>
a yaan</w>
a si-
a pe
Z u
Wal ter</w>
W ayne</w>
W W
V ận</w>
Un tuk</w>
U ka</w>
Tr ẻ</w>
To án</w>
Ti de</w>
Te l</w>
Su l
Stu dio</w>
Stato il</w>
Spri ngs</w>
Sno w
Sho w</w>
Ser vice</w>
Sen e
Sa fety</w>
Ro se
Ro me</w>
Ro gers</w>
R ory</w>
Que en</w>
Psiko logi</w>
Picas so</w>
Ph ụ</w>
Ph úc</w>
Pe nga
Ot oritas</w>
New sweek</w>
N ata
N BA</w>
Mi dd
Mi ami</w>
Mal colm</w>
Mada ga
M oro
Lyn n</w>
Lit tle</w>
Lar ge</w>
Labor atorium</w>
L i</w>
L S</w>
Kon ferensi</w>
Kin sey</w>
Kin dle</w>
Kil marnock</w>
Kemen trian</w>
K re
K ing
Ira g</w>
I n</w>
I -
Hop kins</w>
Ho u
He zbo
Hamp shire</w>
H ệ</w>
H ành</w>
H at
Go ering</w>
Gla ss</w>
Giu li
Gi r
Gar den</w>
Gala pagos</w>
G A</w>
Fox conn</w>
Fi tz
Fi si
Fe in</w>
Fai za</w>
F as
Ekono mi</w>
Ek seku
E F
D U
Coo per</w>
Conne ll</w>
Co u
Clo ud</w>
Cle mens</w>
Canber ra</w>
C au
Bur ton</w>
Brook s</w>
Be ethoven</w>
Be er
Bangal ore</w>
Bal timore</w>
B u</w>
Avi v</w>
Ar mstrong</w>
Angg ota</w>
An dy</w>
Al geria</w>
Ab khazia</w>
A ta
A L</w>
A ED</w>
6 000</w>
4 00.000</w>
3 0-an</w>
200 8,</w>
20 -an</w>
2. 500</w>
2 4
198 7</w>
196 8</w>
195 7</w>
19 40</w>
14 ,
00 00</w>
0 6</w>
. ...</w>
ợ c</w>
ở .</w>
ổ .</w>
ồ .</w>
ề nh</w>
ẹ p.</w>
ắ t.</w>
ắ ng.</w>
ư .</w>
đi ểu</w>
Đ ô</w>
ã .</w>
Á o</w>
ze mi</w>
z y
yar akat</w>
x ói</w>
wor king</w>
wo o</w>
w o</w>
w ani
visua li
vi ệt</w>
ver s</w>
v ăng</w>
v ách</w>
v ara</w>
us h
un an-
uku rnya</w>
uk a</w>
ud aranya</w>
tz mann</w>
tuy ệt.</w>
tur basi</w>
tu snya</w>
tr ớ</w>
tr ặc</w>
ton nya</w>
ther ine</w>
th ạo</w>
th an
terbar ukan</w>
ter simpan</w>
ter san
ter mo
ter kini</w>
ter dorong</w>
ter dahulu</w>
tengg ara</w>
ten is</w>
tek stur</w>
te ngahnya</w>
tak u
ta tif</w>
ta gon</w>
t ới.</w>
t ại.</w>
t sen</w>
su ram</w>
su perma
spon sor</w>
sko pi</w>
si mpati</w>
si matik</w>
si l
si kat</w>
ses cu</w>
seroton in</w>
senja taan</w>
selu lar</w>
seli sih</w>
se jalan</w>
se ja
se banding</w>
sar annya</w>
s ưởi</w>
s ói</w>
s oro
s hi</w>
rich ter</w>
ri us</w>
re z</w>
re konstruksi</w>
re feren
referen dum</w>
radi us</w>
r ươ</w>
r ang</w>
r anda</w>
qu ẩn</w>
puing- puing</w>
proyek sikan</w>
pr ô
pr ah</w>
pla k</w>
pidato nya</w>
ph ông</w>
peru bahan-
perka mpungan</w>
pere mpat</w>
pere kam</w>
per gilah</w>
peny un
pengh en
penghen tian</w>
penge lolaan</w>
peng aman</w>
pene mu
penc akar</w>
pen Offi
pemin dai</w>
peme taan</w>
pemba tas</w>
pela cak</w>
pasca- konflik</w>
pas tilah</w>
para sit</w>
p p
or nya</w>
or ga
oper asional</w>
op ang</w>
on ansi</w>
o pen
o it</w>
nu ốt</w>
ngà y.</w>
ngo ạn</w>
ng lah</w>
nen eknya</w>
ne d</w>
na sehat</w>
n ara
muk akan</w>
mu t</w>
mpe st</w>
mon i</w>
molekul- molekul</w>
mo si</w>
mili meter</w>
mil ton</w>
mi- cu
mes ti</w>
meren ungkan</w>
mere mehkan</w>
menuru tku</w>
mengha f
menga ca
meng hampi
mende mon
menda yung</w>
menda tangkan</w>
mend ad
mendad ak</w>
menco lok</w>
mence mari</w>
menang gu
men angka
memper taruhkan</w>
memer intah</w>
memban ji
membanji ri</w>
memas ok</w>
melemp arkan</w>
mekan ika</w>
me tal</w>
me men
me len
mbri o</w>
mber g</w>
mb le</w>
masyar ak
mas uk
mamo gram</w>
maksu d
ma sikan</w>
m ỉm</w>
m ye
m ada</w>
luk is
lu â</w>
lu -
lo tre</w>
li sit</w>
li rkan</w>
li pu
li b</w>
les tarian</w>
lere ng</w>
lak sana</w>
lak nya</w>
la i.</w>
l ấn</w>
l ling</w>
l .</w>
ku rus</w>
kre di
kon vensi</w>
kon tribu
kompro mi</w>
komi k</w>
kin a
kina wa</w>
kh âu</w>
keter sediaan</w>
kete patan</w>
kesi mpulannya</w>
kesa baran</w>
ken tal</w>
ken ali</w>
kemu di</w>
kele lahan</w>
kecan tikan</w>
keba jikan</w>
ke lin
ke ley</w>
ke he
ke enam</w>
kar go</w>
kar d</w>
kan ku</w>
kamp any
kalku lator</w>
kale ng</w>
ka but</w>
k ề</w>
k ẽ</w>
jari- jari</w>
jar aknya</w>
jaba tannya</w>
is olasi</w>
intero gasi</w>
inf rey</w>
inda hnya</w>
imp ro
il -
his toris</w>
hati- ha
han i</w>
han duk</w>
h ội.</w>
h ình.</w>
h m</w>
gugu p</w>
gla sier</w>
gi a.</w>
ga lkannya</w>
g án</w>
g us
fin alis</w>
fil mnya</w>
fak tor-
fa vori
f us</w>
ene gger</w>
en ne</w>
e tis</w>
e mbrio</w>
du ta</w>
dokumen ter</w>
do wn</w>
do mpet</w>
diu ngkapkan</w>
ditan datangani</w>
dise mbunyikan</w>
dipu tar</w>
diju luki</w>
didi s
di pandang</w>
di manfaatkan</w>
di je
di isi</w>
di es</w>
di dominasi</w>
di biarkan</w>
di balik</w>
di arahkan</w>
der abad</w>
dele gasi</w>
daf tarkan</w>
d ơi</w>
d ering</w>
củ </w>
cur ah</w>
cu mi-cu
cor kan</w>
citar asa</w>
ch nya</w>
ch enko</w>
cende kiawan</w>
ce y</w>
c úp</w>
c ào</w>
c ro</w>
brow ser</w>
bo o
blo kade</w>
bio teknologi</w>
berte mpur</w>
bertan ding</w>
bere dar</w>
berbin cang</w>
berba ur</w>
ber tekad</w>
ber saksi</w>
bay ang
batu -
bak au</w>
ba ya</w>
ari um</w>
ar m</w>
ar e
ar ai</w>
ap lah</w>
ana log</w>
an z</w>
ali sasikan</w>
akade mis</w>
ak sara</w>
ai -
ah annya</w>
ag o
ad er</w>
a tu</w>
Y i
X tra</w>
Woo dy</w>
W y
W infrey</w>
Vi vian</w>
U mar</w>
U l
U .</w>
Tu lu</w>
Tu l
Tri dent</w>
Tele com</w>
Te mpest</w>
Tahri r</w>
TED Women</w>
T ừ</w>
T ân</w>
Su z
Su ther
St adion</w>
Spe ars</w>
Sou th
Sin cla
Si rius</w>
Si apa</w>
Seri es</w>
Sela t</w>
Se karang</w>
Schwarz enegger</w>
Schu macher</w>
S plashy</w>
S ak
Ry an
Ru fus</w>
Roy ce</w>
Ro u
Richar ds</w>
Ri ca</w>
Re cor
R. S.</w>
R ad
Ph ục</w>
Per sia</w>
Penge tahuan</w>
P rad
P r
Os setia</w>
O prah</w>
O penOffi
O kinawa</w>
No w</w>
Nic ole</w>
N ước</w>
N ino</w>
N Z
Moussao ui</w>
Missis sippi</w>
Mil mine</w>
Mi d
Men do
Mem orial</w>
Med ve
Me linda</w>
May or</w>
Mari e</w>
Mar duk</w>
MS N</w>
M ai
M E
M C</w>
Laur ent</w>
L ạt</w>
Kris h
Ko misaris</w>
Keu angan</w>
Ke adilan</w>
Kaz ak
Ka zemi</w>
K ir
Jo se
Ji had</w>
Jeffer son</w>
J ung</w>
In u
In dian
IC RC</w>
I N
I H</w>
I .
Hy derabad</w>
Ho tel</w>
Hea ley</w>
Har per</w>
Go dwin</w>
Gi êng</w>
Gi a
Ga bri
G ur
G len
G .</w>
Fre ud</w>
Fran ken</w>
Faw kes</w>
F uku
F an
F O</w>
Ekseku tif</w>
E mily</w>
Dan au</w>
D over</w>
D I</w>
Ci ti
Ch eney</w>
C òn</w>
C ul
C loni
C ade</w>
C BS</w>
Bri tania</w>
Bir mingham</w>
Bi ro</w>
Bi oni
Ben oit</w>
Be az
B ố</w>
B rash</w>
B rand</w>
B lan
B ath</w>
B ST</w>
Ara bia</w>
Ar ena</w>
Andro id</w>
An s
An des</w>
Am nes
Al tos</w>
Al lan</w>
Accen ture</w>
Ab dul</w>
A lain</w>
A id</w>
A de
: 45</w>
9 .000</w>
3 65</w>
2 7
197 7</w>
197 6</w>
19 47</w>
18 58</w>
18 00</w>
1- 0</w>
1 35</w>
0- 0</w>
ỉ u</w>
ẻ m</w>
ắ c
ả o.</w>
ạ .</w>
ươ m</w>
đ ắng</w>
đ ậy</w>
á p.</w>
z er</w>
y on
x ê</w>
x ài</w>
wirausaha wan</w>
wi la
wan us</w>
wak tu-
wa hana</w>
w on</w>
w est</w>
vo ting</w>
v ựng</w>
v õ</w>
v ôi</w>
usa hanya</w>
ur ani</w>
untuk mu</w>
uku li</w>
uk e
uk -
u lat</w>
u ga</w>
tu ổi.</w>
tu â</w>
tu lus</w>
tu i</w>
tra eus</w>
tr ệ</w>
topi a</w>
ti um</w>
ti l
th ềm</w>
th uyê</w>
teta ngg
tere kam</w>
ter ukur</w>
ter ti
ter lindungi</w>
ter deteksi</w>
ter buang</w>
ter al</w>
teng kor
ten berg</w>
te luk</w>
te ga</w>
tan k</w>
tan bul</w>
tak tik</w>
tai- partai</w>
t ý</w>
sur -
superma sif</w>
str o
sti gma</w>
slo gan</w>
ski zo
situ s-
sis me</w>
sili asi</w>
seri gala</w>
sepe le</w>
semin ar</w>
se tan</w>
se sederhana</w>
se lesaikan</w>
se g
sa lin
s per
s akitnya</w>
respon s</w>
re takan</w>
re m</w>
ra o</w>
ra hasi
r ớt</w>
r ậm</w>
r api</w>
po se</w>
pi e</w>
pi dana</w>
ph anh</w>
perun dingan</w>
perubahan- perubahan</w>
peru mpa
peri al</w>
pera mp
per timbangkan</w>
per senjataan</w>
penyi aran</w>
pengu mpulan</w>
penghu bung</w>
pengh e
penghe matan</w>
peng hi
penen tu</w>
pene gakan</w>
pen unj
pen dahu
pen da
pen anggu
peme cahan</w>
pem akan</w>
pela ut</w>
pe lari</w>
pe g</w>
pas ta</w>
pan en</w>
pa troli</w>
p unyai</w>
ov en</w>
ou gh</w>
orga sme</w>
or e
opti mal</w>
omo dasi</w>
o ngko
no logi</w>
nik mati</w>
ni ê</w>
nh ăn</w>
nh ã</w>
ngo la</w>
nggung jawab</w>
ngg anan</w>
ng ơ</w>
ng ào</w>
ne tral</w>
nar ator</w>
na hkan</w>
n ồi</w>
n ạp</w>
n u</w>
n -
mu ỗi</w>
mu suhan</w>
mpur nakan</w>
mp unan</w>
moleku lnya</w>
mo o
mili knya</w>
meru juk</w>
meren dahkan</w>
mer in
menyaki ti</w>
meny ay
meny an
menuru tnya</w>
mengung si</w>
mengu ngkap</w>
mengo men
menggan tinya</w>
mengen alnya</w>
menge valuasi</w>
menga si
menga i
meng organisir</w>
meng gambarkannya</w>
meng ekstr
mene l
mene gakkan</w>
menda hu
men tor</w>
memu ji</w>
memper jelas</w>
membe lah</w>
meman askan</w>
mema nggi
melepas kannya</w>
mela mbangkan</w>
me trik</w>
matemati kawan</w>
mas turbasi</w>
manu fak
manufak tur</w>
mak mur</w>
ma- cuma</w>
ma ll</w>
ma li</w>
m ăng</w>
m ông</w>
m ánh</w>
m son</w>
lu p</w>
lu arnya</w>
lo op</w>
lo mbo</w>
li on</w>
len e</w>
lelu hur</w>
legi slatif</w>
le u</w>
le tusan</w>
le tak</w>
lara sikan</w>
lak -
l ựu</w>
l ốp</w>
l íu</w>
l ly</w>
l lan</w>
ku atan</w>
kot ak-
kon tra
kon tin
kon siliasi</w>
kon servasi</w>
kolabor ator</w>
ko so
kiri m</w>
kho e</w>
key board</w>
ketidak pedulian</w>
ketidak mampuan</w>
ker asan</w>
ker ang</w>
ker an</w>
kepu lauan</w>
kegi laan</w>
kebang gaan</w>
keane han</w>
ke tra
ke senian</w>
ke mah</w>
ke hendak</w>
karya -
kapa s</w>
kan tornya</w>
ka win</w>
ka us</w>
ka pur</w>
ka lender</w>
k loning</w>
jalu r-
ja jak</w>
iron isnya</w>
inku ba
inkuba tor</w>
impro visasi</w>
imi grasi</w>
il nya</w>
il muan</w>
i tu
i mbangkan</w>
hidup ku</w>
hetero seksual</w>
h ức</w>
h n</w>
gr ada
go yang</w>
gi ấm</w>
gi áo.</w>
gi áng</w>
geo grafi</w>
gar ia</w>
gan as</w>
gal lon</w>
g ầy</w>
g ins</w>
fi ti</w>
f ri
es nya</w>
epi so
epi demi
eks klusif</w>
e ngah</w>
du pan</w>
du lan</w>
ditu gaskan</w>
dini lai</w>
dija ga</w>
dii kat</w>
didiagno sis</w>
di ung
di sarankan</w>
di pertanyakan</w>
di menangkan</w>
di definisikan</w>
di blokir</w>
des kripsi</w>
dek larasi</w>
de z</w>
datang lah</w>
da gangkan</w>
d ard</w>
cu ma-cuma</w>
coco kkan</w>
co m
ci us</w>
ci uman</w>
chi ết</w>
chi êu</w>
ch ít</w>
ce mas</w>
cak ap-
cakap- cakap</w>
c lo
bo son</w>
bo bot</w>
bio lu
bin tik</w>
bi li
bi k
bi as</w>
berta nggungjawab</w>
berkela hi</w>
berju mpa</w>
berbe lok</w>
ber san
ber ry</w>
ber penghasilan</w>
ber kelompok</w>
ber cakap-cakap</w>
ber agama</w>
beat box</w>
bak arnya</w>
baga ikan</w>
ba w
ba liknya</w>
ba ck</w>
b ịp</w>
asa l-
as rama</w>
ara annya</w>
ar mada</w>
ar k</w>
ap min
angg ung</w>
angg un</w>
ang an-
and ro
an trian</w>
ak sin</w>
a mpuh</w>
a c</w>
a ba</w>
a a
Z i
Y el
Win ni
Wi layah</w>
W ali
Vil la
Vene sia</w>
V inci</w>
U RL</w>
Tro y</w>
Th ị</w>
Th aksin</w>
Tal ks</w>
T ay</w>
Suther land</w>
Sun shine</w>
Sun derland</w>
Ste vens</w>
So lidari
Sincla ir</w>
Siftab les</w>
Sh el
Sa f
S hen
S ang</w>
S NP</w>
Ryan air</w>
Rodri go</w>
Ra tu</w>
Qu ận</w>
Pro yek</w>
Pre go</w>
Pho to
Philip s</w>
Ph ượng</w>
Peter son</w>
Pen tagon</w>
Pen didikan</w>
Pemer in
Pe traeus</w>
Pe t
Pau lo</w>
Pau ling</w>
Pas ukan</w>
P lan
Os lo</w>
O ri
O 2</w>
Ni el
Mon ster</w>
Mil eni
Mich el</w>
Mich e
Mi li
Merce des</w>
Mad rid</w>
Ma tos</w>
M ST</w>
Li ệu</w>
L ập</w>
L à</w>
L ap
Kur dis
Ko lonel</w>
Ker ja</w>
Ke luar
K ỹ</w>
Jama ica</w>
J une</w>
J ane
Is tanbul</w>
Inu it</w>
Indian apolis</w>
In c</w>
I g</w>
Hu go</w>
Hi p
Hi dup</w>
Hezbo llah</w>
Heal th</w>
H adi
Go wanus</w>
Gener al</w>
G ha
G apmin
G B</w>
E con
E S
E .</w>
Di e
Demo cra
Da mas
D in
D G</w>
Cor nell</w>
Child ren</w>
Ch and
Can adian</w>
Ca m-</w>
C ậu</w>
C yn
C ap
Bulldo gs</w>
Bul garia</w>
Bol tzmann</w>
Bo ul
Ber keley</w>
Be a
Bah rain</w>
B ởi</w>
B ran
B li
Ar t</w>
Aman da</w>
Ah mad
Ada ms</w>
A z
A sta
A pa
A ngola</w>
A gen
A ga
9 11</w>
5 50</w>
20 14</w>
198 3</w>
195 0-an</w>
14 .
13 .000</w>
ẽ o</w>
ậ p.</w>
ư c</w>
đ ẹp.</w>
đ ấm</w>
đ ũa</w>
Đ i</w>
zai tun</w>
za a</w>
yo ga</w>
yak arta</w>
y ro
wi ki</w>
war sa</w>
war na
wad uk</w>
wa sit</w>
w u
w in
w att</w>
vu ốt</w>
vin enko</w>
vi ệ
vi er</w>
ven ue</w>
usaha- usaha</w>
ur ch</w>
un k</w>
tr ường.</w>
tr ô</w>
tr ak</w>
to pe
to p
tin dakannya</w>
tiga- empat</w>
th ực.</w>
th ừng</w>
th o</w>
tetangg anya</w>
teris olasi</w>
tera mpil</w>
ter pusat</w>
ter pa
ter muda</w>
ter kunci</w>
ter jual</w>
ter integrasi</w>
ter gu
ter de
ter aw
tela dan</w>
tek sti
te te
te oro
te kan</w>
te e</w>
te bi
tebi ng</w>
tch urch</w>
tak dir</w>
ta- berita</w>
ta ngkap</w>
t ứ</w>
t ặc</w>
t j
sumber daya</w>
sub si
struk turnya</w>
sto k</w>
st one</w>
sper ma</w>
situs- situs</w>
sis nya</w>
sing kirkan</w>
sin ago
si hat</w>
ser pi
sep si</w>
sen tral</w>
sema ta</w>
seli ngan</w>
sela yaknya</w>
seku ler</w>
sebe las</w>
se pi</w>
se lancar</w>
sa ver</w>
sa tukan</w>
s si
rit me-
ritme- tika</w>
ri tas</w>
regu lasi</w>
re sikonya</w>
re o</w>
re me
reme h</w>
ras er</w>
rak yatnya</w>
r ọi</w>
r ảnh</w>
r ành</w>
r s</w>
qu ật</w>
pu la
pu jian</w>
psiki ater</w>
produ ser</w>
presiden an</w>
preda tor</w>
prak tek
por i-
pori- pori</w>
ph ỉ</w>
ph ẫn</w>
ph y</w>
ph us</w>
perumpa maan</w>
per awan</w>
penyelidi k</w>
penye suaian</w>
penye mbuhan</w>
peny el
penuli san</w>
penu laran</w>
peni pu</w>
pengu mpul</w>
penghancu r</w>
penggun dulan</w>
penge lomp
penge bor
pengebor an</w>
peng gabungan</w>
pener bitan</w>
pene gak</w>
pencu ri</w>
penca lon
penamp akan</w>
penal ti</w>
pen dirian</w>
pen a</w>
pema l
pe sulap</w>
pe c
pas arkan</w>
pari wisata</w>
par tai-partai</w>
pan si</w>
pad i</w>
pa ngkat</w>
p ukan</w>
or n</w>
or angan</w>
o sis</w>
o kay</w>
ni êm</w>
nhu a</w>
nh ỏ.</w>
nh ân.</w>
nggu ngnya</w>
ngg akan</w>
neu tron</w>
na z</w>
n óc</w>
musi knya</w>
musi kal</w>
mula inya</w>
mu ti
mu dahnya</w>
mu dahan</w>
mpu tan</w>
mpro visasi</w>
mp ukan</w>
mp angan</w>
mobi le</w>
mo use</w>
mo thy</w>
mini um</w>
min al</w>
menyin ari</w>
menye imbangkan</w>
menurun i</w>
menuru tmu</w>
mengge le
menggan dakan</w>
mengen al
meng ukurnya</w>
meng uk
meng ger
mener angi</w>
menen angkan</w>
menempe lkannya</w>
mene bang</w>
mendemon strasikan</w>
menda ur</w>
menceng angkan</w>
menca mpu
menang nya</w>
men ding
men ay
memperca yainya</w>
memper ingati</w>
memeri k
memerik sanya</w>
memada mkan</w>
mem pesona</w>
mem besar</w>
mele tus</w>
mele leh</w>
medi um</w>
me ling
me da
mbu r</w>
mb </w>
mara thon</w>
man jur</w>
mal nutrisi</w>
mak anannya</w>
mak am</w>
ma lahan</w>
m ứt</w>
m l</w>
m bahnya</w>
loya litas</w>
lon kan</w>
lo mon</w>
lo kkan</w>
lipu tan</w>
lip s</w>
limu ti</w>
ligen si</w>
li pe</w>
li mpahan</w>
le ng
le i
lay ang-layang</w>
lang inya</w>
lamp unya</w>
la mbang</w>
l ẩn</w>
kur sus</w>
kul tural</w>
kuar tal</w>
ku atnya</w>
kosmo logi</w>
korela si</w>
koordin asi</w>
kontra sepsi</w>
kon tek
kon ektivitas</w>
komun is</w>
komp likasi</w>
komb in
kir k</w>
kin cir</w>
kimi awi</w>
khu ấy</w>
khu ất</w>
ketra mpilan</w>
kera maian</w>
ken yataanya</w>
kela laian</w>
ke- 3</w>
ke- 18</w>
ke tawa</w>
ke manapun</w>
ke bal</w>
ke b
kal sium</w>
ka get</w>
k ỵ</w>
k uku</w>
k ori
k larasikan</w>
jo lan</w>
jalur- jalur</w>
ja gat</w>
j or</w>
is on</w>
indi kator</w>
in forma
imp likasi</w>
ik an-
identi tasnya</w>
i o</w>
họ ng</w>
ho i</w>
he batnya</w>
harus kah</w>
hancu rkannya</w>
ha us</w>
ha tinya</w>
gun ya</w>
gu buk</w>
graf fiti</w>
gi ễu</w>
ge taran</w>
ga te</w>
ga ga</w>
g ật</w>
g yakarta</w>
g na
g man</w>
g him</w>
fes tival</w>
fa ce</w>
f si
f en
f ast</w>
er to</w>
episo de</w>
eks pansi</w>
ef ek
e my</w>
e d
do u</w>
dise ngaja</w>
disa jikan</w>
dis un
dika lahkan</w>
dihadi ri</w>
die sel</w>
diba jak</w>
di um</w>
di ru
di dalam</w>
di bahas</w>
di akibatkan</w>
demonstr an</w>
de but</w>
de -
dari mana</w>
da sa
d ll</w>
cy ber</w>
con i</w>
cke y</w>
ch ảo</w>
ch ích</w>
ce p
ce llo</w>
cak upan</w>
ca cing</w>
c òi</w>
c unya</w>
c kh
c angkan</w>
bur y</w>
buk tinya</w>
biolu mine
bio skop</w>
bi ếng</w>
bi c</w>
bersa manya</w>
beri ta-berita</w>
ber tingkah</w>
ber keringat</w>
ber banding</w>
ber asumsi</w>
ber api</w>
ben s</w>
be l-
bar yon</w>
ban kir</w>
ban dar</w>
bad ak</w>
b lah</w>
ay le</w>
au tis</w>
au lt</w>
ati ons</w>
astron om</w>
ap as</w>
aor ta</w>
amp lop</w>
akade misi</w>
ak tual</w>
a- ritme-tika</w>
a sia</w>
a mendemen</w>
Ze tas</w>
Yo gyakarta</w>
Xi nhua</w>
Winni peg</w>
Wi i</w>
WM D</w>
Vic tor</w>
Vi ết</w>
V I</w>
U .
Tur ner</w>
To go</w>
Ti ểu</w>
Ti ền</w>
Ti mothy</w>
Th ras
Te pi</w>
Ta ta</w>
TED Global</w>
T ử</w>
T BC</w>
T B</w>
Su per</w>
Ste el</w>
Stan ley</w>
Smi th
Sisy phus</w>
She e
Sh ri
Serge i</w>
Sene gal</w>
Se vi
Se cre
San to</w>
Sa y
S up
S pin
S ag
Rober ts</w>
Ro chester</w>
Ri j
Ri dge</w>
Ri ch</w>
Re volu
Re ed</w>
R andy</w>
Pu erto</w>
Power Point</w>
Pertan ian</w>
Per u
Pe ar
Pe ace</w>
Patri cia</w>
Pan ts</w>
Pad illa</w>
PD F</w>
P at
P RI
Oper a</w>
Oc ta
O h
O PP</w>
O L
No el</w>
N GO</w>
Mor ning</w>
Mo tor
Mili band</w>
Mendo za</w>
Meh di</w>
Medve dev</w>
Medi cal</w>
McCar tney</w>
Mc Ken
Mc Cle
McCle llan</w>
Mas low</w>
Mar tine</w>
Mand arin</w>
Mala la</w>
Ma th
Ma jor</w>
Ma ha</w>
Ma c</w>
M ùa</w>
M ill</w>
M TV</w>
Lov e</w>
Lit vinenko</w>
Leon ard</w>
Le mbaga</w>
Lay anan</w>
Lat inh</w>
Lag os</w>
L ầu</w>
L oo
Kon su
Kon stitusi</w>
Ko muni
Kh ông.</w>
Keluar ga</w>
Ke tua</w>
Kala u</w>
Ka zaa</w>
K ính</w>
John s</w>
Jer emy</w>
Jak e</w>
Jak arta</w>
Ja va</w>
J Y</w>
Is lan
I dol</w>
Hon olu
Hiro shima</w>
Her e</w>
Har ri
Har dy</w>
Ha milton</w>
Gri ffin</w>
G el
G 8</w>
Frank lin</w>
Fo ur</w>
F raser</w>
F is
F E
F .</w>
Explor er</w>
Ex press</w>
E LA</w>
Do mini
Dia z</w>
Dia mond</w>
Di ane</w>
Der ar
DM CA</w>
D ela
Cor us</w>
Co man
Chris tchurch</w>
Cha l
Ch ẳng</w>
Ch in
Ca pe
CSI RO</w>
C oleman</w>
C DC</w>
Bud rus</w>
Bri tney</w>
Bo go
Bi tcoin</w>
Bei rut</w>
Beer boh
Beaz ley</w>
Be tty</w>
Ba lo
B in</w>
B erita</w>
B alkan</w>
Ath ens</w>
Am trak</w>
Ali ansi</w>
A lam</w>
3 0,000</w>
2 500</w>
19 32</w>
13 3</w>
1, 7</w>
1, 4</w>
1 :
ụ c.</w>
ỏ m</w>
ệ m.</w>
ắ n.</w>
ậ u.</w>
ấ u.</w>
Đ ội</w>
Đ o
zo ph
zi e</w>
ya lakan</w>
y ce</w>
x ít</w>
x on</w>
wis ma</w>
wila ya
wi ng</w>
wi cket</w>
warna -
war nai</w>
waji bkan</w>
wa ll</w>
w ew
vide o-
v ấp</w>
v ũng</w>
unda an</w>
unan- bangunan</w>
un duh</w>
ul tas</w>
tur bin</w>
tun aw
tunaw isma</w>
trans plan
trans misi</w>
tr ỗi</w>
tr ước.</w>
tr út</w>
tor i</w>
toko h-
to mbak</w>
ting gali</w>
tin dak
th ặng</w>
th ấy.</w>
th ảy</w>
th êu</w>
th ia</w>
terte mbak</w>
terli pat</w>
terben am</w>
ter putus</w>
ter pasang</w>
ter jatuh</w>
ter hitung</w>
ter fokus</w>
ter da
ter bayangkan</w>
ter angkat</w>
tele komunikasi</w>
teksti l</w>
tekno loginya</w>
te pung</w>
te en</w>
taw y</w>
taw arkan</w>
taw aran</w>
tang an-
tan yahu</w>
t ính.</w>
syuku ri</w>
subsi di</w>
sub stan
su rel</w>
str a
spe n</w>
so da</w>
skizo f
ske p
si sa-
sisa- sisa</w>
sere al</w>
seper angkat</w>
sel f-
sehar ian</w>
seba ll</w>
se nam</w>
se ls</w>
se lai</w>
se kecil</w>
schi zoph
satu-dua- tiga-empat</w>
sa pi
sa buk</w>
s ợ.</w>
s teri
s phere</w>
s ler</w>
s araan</w>
ru pe
re si</w>
re nhe
renhe it</w>
re habilitasi</w>
re al</w>
rata- ra
ras wa
ra tu</w>
qu ấy</w>
pu i
proto tipe</w>
progra mnya</w>
predi k
por asi</w>
pla us</w>
pi sahan</w>
ph áp.</w>
peru nggu</w>
perik lanan</w>
peramp okan</w>
pera mpok</w>
per tiga</w>
per pindahan</w>
per for
penyel un
penya ir</w>
penuntu t</w>
pening galan</w>
pengu asaan</w>
penghancu ran</w>
pengawa s</w>
penga suh</w>
peng khian
peng hasil</w>
penc er</w>
pena sihat</w>
pen undaan</w>
pen sil</w>
pen inda
pen dar</w>
pembi ayaan</w>
pember sihan</w>
peman as</w>
par ade</w>
pan caran</w>
pada m</w>
pad u</w>
pa t-
ou t
or bi
o i</w>
o ff</w>
no m</w>
nh ô</w>
nh át</w>
ngke lkan</w>
ngg un</w>
ngg an</w>
ng ụy</w>
ng ỏ</w>
ng uy
neu trino</w>
ne sia</w>
naf kah</w>
na bi</w>
n ực</w>
n urani</w>
mye lin</w>
mulu tnya</w>
mu ốn.</w>
mu dah-
mudah- mudahan</w>
mpi lannya</w>
mon o
micro blog</w>
mes tinya</w>
menyusu t</w>
menyusu i</w>
menyoro ti</w>
menya mbungkan</w>
meny ak
meno laknya</w>
menji j
menjij ikkan</w>
menje ngkelkan</w>
menje mba
menja lin</w>
mengomen tari</w>
menghampi ri</w>
mengh adap
mengenya hkan</w>
mengemba ngkannya</w>
mengelomp okkan</w>
mengece k</w>
mengan tri</w>
menga suh</w>
meng hancurkannya</w>
meng ek
menca lonkan</w>
menc en
menak uti</w>
mena ta</w>
mena mpung</w>
memper ju
memo to
membuat ku</w>
membu juk</w>
membe likan</w>
mema jukan</w>
mem program</w>
mem blokir</w>
melo di</w>
me tris</w>
me tan</w>
me l</w>
me gawatt</w>
me gah</w>
mbo ngan</w>
man dat</w>
ma lang</w>
lo ãng</w>
lo w
lingku h</w>
lih nya</w>
li dah</w>
legi timasi</w>
le e</w>
le bat</w>
lang it-
lak annya</w>
la war</w>
la te</w>
la gunya</w>
l via</w>
ku tnya</w>
ku anti
kri tikus</w>
kontr as</w>
kontr aktor</w>
kolabor atif</w>
ko ma</w>
ko li</w>
ko in</w>
ki ti</w>
ki lat</w>
ki lang</w>
ki cauan</w>
ki a.</w>
kh ă</w>
kh ánh</w>
keriki l</w>
keren tanan</w>
kelu aran</w>
keka si
keber sihan</w>
keber adaannya</w>
ke tujuh</w>
ke lanjutan</w>
ke kece
ke bali
kebali kannya</w>
ke as
kapita lisme</w>
kalku lus</w>
ka tnya</w>
k shire</w>
ja -
j aknya</w>
iron i</w>
intro ver</w>
interpre tasi</w>
inspira tif</w>
ing ga</w>
ing g
ine jad</w>
in an-
in .</w>
ide alisme</w>
i- ba</w>
i munisasi</w>
hy s</w>
huku m-
ho t
ho bi</w>
he lai</w>
hat inan</w>
haki man</w>
ha o</w>
ha i-ba</w>
h ó
h stan</w>
gro up</w>
go si
gi ỏ</w>
ge ologi</w>
ga mes</w>
g ào</w>
fsi rkan</w>
fisi t</w>
fi gur</w>
fa miliar</w>
en sik</w>
elec tron</w>
e ven</w>
e m.</w>
e e
du ri</w>
du ra</w>
do w
do g</w>
ditan am</w>
dise mbuhkan</w>
diri -
din yalakan</w>
diber lakukan</w>
di operasikan</w>
di obati</w>
di mungkinkan</w>
di lar
di kembalikan</w>
di ganti</w>
di bakar</w>
di ali
de fisit</w>
dd ard</w>
dasa warsa</w>
da ll</w>
d ép</w>
d hi</w>
d get</w>
cki ng
chang e</w>
ch ói</w>
ch íp</w>
ch t</w>
ce ng</w>
ca car</w>
c ỗi</w>
c ưa</w>
c ăm</w>
c úng</w>
c ông.</w>
c ô
c tion</w>
c rac
buru -bu
buru-bu ru</w>
buny inya</w>
bu- ibu</w>
bu ahan</w>
bu ah-
buah- buahan</w>
bro koli</w>
bri dge</w>
bo s</w>
bis ni
bi ệt.</w>
bi o</w>
bi ngkai</w>
beru jung</w>
bersa ha
berma in-main</w>
berke kuatan</w>
berju alan</w>
berde tak</w>
berbe las</w>
ber teman</w>
ber ski</w>
ber pikiran</w>
ber minggu-minggu</w>
ber kemba
ber ga
ber dasar</w>
ber bisnis</w>
ber alasan</w>
ben i
bayang kanlah</w>
bay arkan</w>
bang unan-bangunan</w>
ban -
bah- lebah</w>
bag an</w>
ba lasan</w>
b ự</w>
b ịch</w>
b ầm</w>
au -
ata h</w>
ashi on</w>
anti biotik</w>
anali sa</w>
amp un</w>
alu minium</w>
al tru
akun tansi</w>
ak e</w>
ad minis
a tur</w>
X ê</w>
W on
W er
W att</w>
Villa ge</w>
V òng</w>
U t
To wn</w>
Ti ger</w>
Th ung</w>
Th eo</w>
Tele graph</w>
TED x
T G</w>
Sy lvia</w>
Str aw</w>
Sou thern</w>
Secre t</w>
Sa v
Sa ul</w>
Sa tu</w>
SM U</w>
S us
S pencer</w>
S ky</w>
S ai
Ru gby</w>
Red dit</w>
Rag u</w>
R hys</w>
Pro gram</w>
Po well</w>
Po st
Plan ned</w>
Photo shop</w>
Peny akit</w>
Pemerin tahan</w>
Pe gunungan</w>
Paralympi c</w>
Par t
Pa tel</w>
Pa le
PC C</w>
P ara</w>
P ada</w>
Or kut</w>
O ut</w>
Ne tanyahu</w>
N ông</w>
N hi
Musi c</w>
Mo unt</w>
Mc Guin
Mat thi
Mar vel</w>
Mar tin
Maha tma</w>
M inh</w>
Lib ya</w>
Li hat</w>
Le mbah</w>
La b</w>
Ku wait</w>
Ke selamatan</w>
Ke bakaran</w>
Kazak hstan</w>
K I
Jane iro</w>
J ur
J aw
Issa wi</w>
Ing rid</w>
I x
I PCC</w>
Hur d</w>
Honolu lu</w>
Hi gh
Hel mand</w>
H ussa
H asan</w>
Go d</w>
Ger akan</w>
Gapmin der</w>
G ris
G ading</w>
Fah renheit</w>
F le
Er hard</w>
Econ o
EE G</w>
Derar tu</w>
Da sar</w>
D ew
D ay
Cyn thia</w>
Cro atia</w>
Comp any</w>
Co w
Cloni e</w>
Cla u
Cho pin</w>
Caro line</w>
C P
C K</w>
Bur ma</w>
Bur kina</w>
Buch ar
Brus sels</w>
Bi ên</w>
Ber tha</w>
Bel grade</w>
Beerboh m</w>
Be gini</w>
Be au</w>
Bang kok</w>
Ban dura</w>
B eri
B R
Av atar</w>
Ahmad inejad</w>
Ad ministrasi</w>
A plaus</w>
A cu
99 ,
4, 6</w>
4 57</w>
25 0.000</w>
200 9,</w>
20 15</w>
2 6
196 9</w>
196 7</w>
196 6</w>
19 49</w>
13 ,
11 ,</w>
1. 600</w>
00 -an</w>
0 8</w>
0 5</w>
- individu</w>
- 1</w>
ẽ .</w>
ẩ n.</w>
Đ ạt</w>
Đ ường</w>
ê c</w>
Â n</w>
z ai</w>
ya tim</w>
y ektif</w>
x ảo</w>
x áo</w>
x o</w>
wi raswa
we g</w>
we en</w>
wa i
w ler</w>
việ c.</w>
visuali sasikan</w>
v ệt</w>
v s</w>
v ina</w>
v agina</w>
v ac
us d</w>
u nggun</w>
u bur</w>
u bur
ubur -
ubur- ubur</w>
tu lkan</w>
tser takan</w>
to sh</w>
to krasi</w>
tj tawy</w>
ti san</w>
ti ada</w>
th ốn</w>
th ật.</w>
th ro
terser ah</w>
terse sat</w>
terp aku</w>
terja ga</w>
teri si</w>
terh enti</w>
tere lakkan</w>
terda mpar</w>
tera mat</w>
ter ulang</w>
ter pecah</w>
ter go
ter didik</w>
ter bawa</w>
tengkor ak</w>
tek ankan</w>
te or
te lu
te au</w>
ta y.</w>
ta wanan</w>
ta tanan</w>
ta p</w>
t- planet</w>
t ưởng.</w>
t land</w>
su ô</w>
sto ck</w>
sta in</w>
spe k</w>
son ian</w>
skizof renia</w>
situ asinya</w>
si gn</w>
seper lima</w>
sena tor</w>
semes ter</w>
sema ta-mata</w>
selu sin</w>
seko lahnya</w>
sej arahnya</w>
sebe lahnya</w>
se pendapat</w>
se nal</w>
se gelas</w>
se d</w>
sang kar</w>
san- alasan</w>
samp ingan</w>
sa m</w>
s ự.</w>
s ứa</w>
s ò</w>
s top</w>
ru gby</w>
ro i</w>
rencan anya</w>
regu ler</w>
reflek si</w>
red dies</w>
re siasi</w>
re mo
ra ng-
ra mbu
ra c</w>
r ồng</w>
r âm</w>
r ar</w>
r ad</w>
pu nggungnya</w>
pri mata</w>
pri ha
priha tin</w>
po sting</w>
po int</w>
plane t-planet</w>
pilih annya</w>
ph úc.</w>
pes anan</w>
perte manan</w>
person il</w>
perkemba ngannya</w>
perio dik</w>
perik anan</w>
per lu
per gela
per akitan</w>
penyu lingan</w>
pengung sian</w>
pengu rus</w>
pena f
pen dingin</w>
pen caha
pemberi taan</w>
pemb om</w>
pemas ukan</w>
pemada man</w>
pele pasan</w>
pec undang</w>
pe menangnya</w>
pe lukan</w>
pa tra</w>
pa sal</w>
pa lu</w>
ol d</w>
obro l</w>
obo s</w>
oba tnya</w>
ob jektif</w>
ob ak</w>
o ver
o u</w>
nya manan</w>
nh ức</w>
nh ấm</w>
nh ă</w>
nh ôm</w>
ngu ội</w>
ngo k</w>
ng ửa</w>
ng uyền</w>
ne t
ne o
na tural</w>
n ã</w>
n ado</w>
mpur naan</w>
mpi -
momen -
min ster</w>
mi lah</w>
mi dasi</w>
mi cro</w>
mes innya</w>
mereka yasa</w>
mere komendasikan</w>
mere but</w>
menyu mbang</w>
menyesa tkan</w>
menye mpurnakan</w>
meny anyi</w>
menjemba tani</w>
menje mput</w>
menja ng
menja ganya</w>
menguru si</w>
mengi tari</w>
menghadi rkan</w>
menghadap inya</w>
mengha puskan</w>
menggu lingkan</w>
menggi git</w>
menger ahkan</w>
mengenal inya</w>
mengaca ukan</w>
mengab dikan</w>
meng obrol</w>
meng habi
mener obos</w>
mener angkan</w>
menen dang</w>
menel pon</w>
mende klarasikan</w>
menany ai</w>
menang aninya</w>
mena mai</w>
men ya</w>
men stabi
men opang</w>
men daftarkan</w>
memprak tek
memper kosa</w>
meme cat</w>
membuat mu</w>
member lakukan</w>
membe kukan</w>
memba gi
membagi kannya</w>
mema ngkas</w>
mem ro
mem liki</w>
mem filmkan</w>
melu angkan</w>
mele mah</w>
me wari
me janya</w>
mbuny ikannya</w>
mb ar
mas akan</w>
mara ma</w>
man tra</w>
man ager</w>
mala ikat</w>
mak nanya</w>
ma wi</w>
ma tkannya</w>
ma san</w>
ma -</w>
m ộc</w>
m ịn</w>
lus coni</w>
luk is</w>
lo ween</w>
lo skan</w>
lo kasinya</w>
lo kasikan</w>
li êu</w>
li le</w>
lei gh</w>
legen da</w>
le ngku
le d</w>
le bah-lebah</w>
langit- langit</w>
la u
l ố</w>
l ằn</w>
l stra</w>
l li</w>
kuad or</w>
ku buran</w>
kri teria</w>
kor es
kores pon
konta minasi</w>
kon struk
kompu ta
kombin asikan</w>
ko p</w>
ki saran</w>
ki jang</w>
kho át</w>
kh ống</w>
kes akitan</w>
kera bat</w>
ker asnya</w>
keputu sannya</w>
kepri hatinan</w>
kepi ting</w>
kenda la</w>
kelin ci</w>
kele mba
kele lawar</w>
kela snya</w>
keku atannya</w>
kege maran</w>
ke- 4</w>
ke tidak-
ke presidenan</w>
ke de
karya- karya</w>
kar pet</w>
kar di
kar angan</w>
kan vas</w>
kan mu</w>
ka wah</w>
ka ji</w>
k las</w>
je da</w>
j arah</w>
is ter</w>
iron is</w>
inter klas</w>
ini r</w>
ini marama</w>
ingg ris</w>
individu -individu</w>
imp or</w>
ikan- ikan</w>
ik -
i mpi
i la
i ..</w>
hã nh</w>
hukum- hukum</w>
hu d</w>
homo seksual</w>
hi p
he ad</w>
hasi akan</w>
h ẻm</w>
h èn</w>
h uyện</w>
h r
h akan</w>
gur unya</w>
gun cang</w>
gu lu
ger obak</w>
ger bong</w>
gamb arannya</w>
gaga sannya</w>
g ặm</w>
for ensik</w>
for ce</w>
fisi ologi</w>
f rasa</w>
f ford</w>
ex peri
et z</w>
en za</w>
en t
el o</w>
e sen
e po
e ma
e h</w>
e f</w>
e ed</w>
ds b</w>
do main</w>
dite liti</w>
disa tukan</w>
dipe gang</w>
dima tikan</w>
dilar ikan</w>
dija tuhkan</w>
dihar uskan</w>
dih uni</w>
di sin
di saat</w>
di program</w>
di pasarkan</w>
di lo
di kunjungi</w>
di jawab</w>
di janjikan</w>
di gali</w>
di dalamnya</w>
der etan</w>
den yut</w>
den si</w>
de tak</w>
de sertifikasi</w>
dan sa</w>
dala m-
da ng-undang</w>
[...]
